{"i": 188613, "mac": 630, "##ro": 34564, "##ag": 3379, "##gr": 1576, "##ega": 445, "##ted": 3816, "alb": 288, "##um": 64230, "##in": 195806, "maa": 42, "di": 19862, "##p": 84492, "##al": 36698, "##mi": 18709, "##to": 15633, "##yl": 102563, "##ph": 14506, "##os": 13584, "##at": 24631, "##id": 28267, "##c": 160428, "##ho": 8757, "##line": 18891, "##hex": 2448, "##adec": 1016, "sn": 423, "g": 39460, "##l": 326408, "##yc": 6799, "##er": 27806, "##op": 14559, "##sp": 4907, "##ch": 8922, "##ol": 83585, "##ine": 166235, "dip": 1351, "##alm": 895, "##itoyl": 142, "##y": 87948, "##ce": 10939, "##o": 216930, "##pa": 9392, "##lm": 2607, "##it": 10802, "##oyl": 9141, "##le": 36833, "##ci": 10229, "##thi": 3934, "##n": 394736, "trio": 254, "##x": 53819, "##a": 248309, "ph": 14506, "##ap": 7897, "##ent": 7011, "##ac": 16550, "##an": 55099, "am": 28781, "hy": 15471, "##dro": 7062, "##xy": 19664, "n": 394736, "tr": 14955, "##im": 11932, "##ethyl": 18217, "oxo": 1319, "ox": 18835, "oh": 2022, "##exa": 1832, "##decyl": 1270, "oxy": 17941, "inn": 369, "sa": 8187, "##t": 167866, "##e": 714722, "sub": 218, "stan": 825, "##oline": 8022, "d": 106291, "me": 21096, "##thy": 8146, "is": 20172, "##ob": 4041, "##ut": 5652, "##xa": 5405, "##nt": 19544, "##hine": 3767, "iso": 2918, "##butyl": 1468, "met": 10109, "##hyl": 21323, "##ant": 8559, "##h": 69716, "ibm": 7, "##b": 73941, "##th": 22565, "h": 69716, "pu": 1142, "##ri": 21715, "dio": 1476, "##ne": 300785, "dih": 1104, "##ydro": 5865, "##pr": 11251, "##opyl": 3943, "mib": 240, "##u": 54037, "ine": 166235, "##thyl": 19643, "sar": 578, "##cosin": 197, "##eu": 1940, "##cine": 5700, "ang": 1621, "##io": 11695, "##ten": 2329, "##sin": 9595, "ii": 2395, "ile": 3808, "##ycin": 15214, "l": 326408, "s": 154995, "##ar": 21307, "##co": 11485, "sine": 6835, "##ole": 18983, "##cin": 33948, "##te": 88669, "##ns": 10339, "##st": 19169, "##la": 19167, "din": 14709, "e": 714722, "##methy": 5325, "pge": 49, "pro": 7059, "die": 784, "oic": 9547, "ac": 16550, "##hydro": 5704, "z": 22847, "alph": 196, "a": 248309, "r": 152009, "##lp": 3608, "##sta": 3744, "##gla": 335, "##ndin": 1301, "##m": 162255, "be": 8067, "##ta": 22409, "and": 1812, "##rosta": 562, "one": 58510, "hyd": 5472, "##ti": 16405, "##erone": 4426, "##rt": 6355, "##ic": 75036, "##rone": 8434, "pre": 1574, "ene": 28924, "tri": 5573, "##de": 95597, "##or": 20594, "de": 95597, "##tic": 11344, "cmp": 97, "pho": 3268, "##no": 34436, "##va": 4973, "##rate": 7222, "pe": 8752, "##oate": 5676, "##nta": 2672, "##noic": 5311, "##ric": 6281, "apv": 24, "nor": 1588, "##valin": 115, "p": 84492, "##ino": 18916, "##on": 43798, "##en": 49953, "##v": 18026, "al": 36698, "ate": 65803, "ami": 10646, "##urine": 1057, "pa": 9392, "##odel": 46, "bro": 1503, "##mol": 2154, "##ys": 2643, "##gic": 1257, "##amide": 26581, "##mo": 7886, "lsd": 2, "bol": 657, "erg": 727, "car": 4977, "##box": 987, "ch": 8922, "##lor": 4433, "##ad": 6845, "##eno": 4804, "ade": 1892, "##nos": 1830, "chlo": 2398, "##yd": 6217, "##amine": 25791, "##enyl": 9991, "##et": 27698, "bi": 5314, "##re": 16978, "##phe": 5502, "##drine": 1590, "##zene": 2600, "##meth": 8035, "##anol": 6185, "##sna": 141, "eth": 12223, "##ane": 18395, "##ulf": 2508, "##onic": 7286, "##apto": 407, "mo": 7886, "##so": 7390, "##dium": 1711, "so": 7390, "##diu": 327, "##ca": 16570, "##onate": 8136, "##du": 1711, "##ct": 6505, "co": 11485, "##ain": 2210, "##ing": 7678, "med": 1502, "##icina": 488, "msa": 92, "##pt": 5500, "sul": 3330, "##fo": 4198, "##nate": 16105, "##ica": 3403, "##tion": 4017, "dro": 7062, "##idop": 225, "threo": 42, "do": 14334, "dl": 250, "##se": 21830, "##rin": 19069, "tyr": 675, "##osine": 4207, "va": 4973, "##sopr": 523, "##ess": 1730, "##ors": 738, "##roxy": 2847, "an": 55099, "##ion": 7924, "##az": 9366, "##ur": 8448, "##idine": 18133, "ri": 21715, "##fu": 2125, "ran": 7465, "##osyl": 3192, "py": 4697, "##ridin": 2874, "##bo": 4458, "dau": 107, "##glu": 1289, "##tol": 5485, "##lu": 7201, "pen": 3228, "##tane": 3466, "##ra": 24111, "m": 162255, "##ina": 11311, "##rop": 5515, "##anoic": 3176, "##benz": 3864, "##ba": 5772, "##nzo": 2735, "ant": 8559, "##can": 2719, "##itic": 311, "vi": 4776, "##rom": 3147, "##otr": 920, "##ich": 968, "##ia": 16510, "fa": 3295, "##cto": 1073, "##oc": 8232, "##hr": 1927, "##om": 9179, "##og": 3511, "##enic": 1685, "usp": 375, "b": 73941, "x": 53819, "ca": 16570, "##il": 23493, "##amino": 8715, "##ben": 5067, "##zo": 9392, "da": 8621, "##lf": 3183, "##dine": 24198, "pym": 17, "##adine": 1372, "##yr": 4576, "##idin": 9280, "##mp": 3330, "##rid": 3648, "ap": 7897, "cns": 13, "sti": 1848, "##ula": 1273, "##nts": 1774, "bu": 4082, "##ty": 5154, "##rol": 11533, "##tone": 5389, "but": 2561, "##ide": 76033, "la": 19167, "ga": 3817, "##mma": 397, "fu": 2125, "gbl": 24, "##f": 29843, "##uran": 2056, "te": 88669, "tra": 4963, "ep": 7425, "et": 27698, "##cyc": 2287, "f": 29843, "##he": 12445, "##nyl": 28292, "##yb": 941, "ghb": 8, "##rox": 4005, "##mine": 32556, "ind": 1526, "##osa": 2247, "eno": 4804, "om": 9179, "##eg": 2105, "tim": 1623, "##nod": 406, "ic": 75036, "##enta": 1837, "##enoic": 1399, "ent": 7011, "epa": 975, "##ae": 3004, "ico": 2194, "##pent": 2088, "cis": 277, "##lta": 366, "all": 1713, "ffa": 49, "free": 189, "##tty": 56, "ipa": 495, "##apent": 169, "##yn": 2808, "ety": 1074, "ha": 7330, "htp": 34, "oxi": 2184, "##trip": 461, "##tan": 6880, "##yp": 2510, "##phan": 1328, "try": 488, "##pto": 968, "##ptan": 830, "o": 216930, "yl": 102563, "##ionic": 1116, "mine": 32556, "mek": 34, "##samin": 211, "mex": 446, "tic": 11344, "##lop": 1229, "##pla": 886, "##tel": 996, "hcl": 61, "thie": 162, "c": 160428, "pyr": 2909, "##lo": 19404, "##phen": 6364, "##loro": 1722, "th": 22565, "##inium": 4730, "eps": 254, "he": 12445, "ci": 10229, "##que": 1553, "##si": 7816, "eac": 317, "che": 771, "##ical": 1345, "##nic": 14589, "##tin": 19370, "amide": 26581, "mer": 2240, "##cap": 1362, "thio": 3805, "##po": 4923, "##rine": 11880, "mp": 3330, "##za": 3433, "##dene": 3820, "##xo": 2145, "##uri": 1367, "##na": 27403, "##inum": 9979, "##urin": 1119, "cy": 5559, "cli": 854, "##phos": 1963, "##phate": 2263, "br": 3363, "amp": 912, "##oa": 2836, "##gen": 4252, "phate": 2263, "##qu": 3311, "##inol": 5561, "qui": 2158, "##olin": 5169, "##quino": 849, "##sol": 3771, "##lic": 10331, "##rro": 699, "##asp": 538, "##iro": 1399, "und": 484, "##ec": 8905, "##bio": 726, "abb": 41, "##ot": 8109, "ab": 22735, "##ort": 2874, "##if": 3500, "aci": 1708, "ag": 3379, "nos": 1830, "con": 2584, "ce": 10939, "##pti": 849, "##ve": 6268, "po": 4923, "pti": 849, "##ents": 498, "##orti": 343, "##cide": 1138, "dru": 61, "##tien": 47, "act": 2250, "as": 9070, "par": 1920, "##ation": 2103, "non": 2685, "##ster": 1609, "##oid": 2130, "ste": 2302, "##idal": 524, "abst": 10, "##em": 6152, "ace": 3990, "##buto": 245, "##lol": 4394, "##obu": 752, "phe": 5502, "##ny": 6570, "##ana": 3056, "##mide": 33957, "##ani": 2873, "##lide": 6764, "##yra": 1081, "##mido": 5269, "ino": 18916, "##hen": 7684, "##olol": 2670, "##clidi": 93, "aza": 1157, "##bic": 969, "##yclo": 3019, "oct": 1092, "ol": 83585, "est": 3569, "er": 27806, "qu": 3311, "##uc": 2808, "##lid": 2800, "##cl": 6306, "##dina": 908, "##dap": 355, "##sone": 2518, "su": 5866, "##onyl": 7607, "##bis": 1963, "##ilide": 2111, "az": 9366, "##tyl": 6947, "##ps": 2842, "##tam": 3554, "##ylene": 4235, "bis": 1963, "##ed": 16477, "##oxin": 2851, "##uma": 1711, "##noc": 779, "##ou": 1515, "##marol": 214, "arin": 2909, "nic": 14589, "##mal": 1630, "ni": 14353, "##henyl": 7763, "##tro": 3555, "##ov": 2232, "##ria": 3059, "##k": 12894, "chro": 335, "##cum": 2789, "ar": 21307, "##olo": 3566, "arol": 513, "##wa": 663, "##rf": 966, "##cu": 2384, "##alon": 498, "##ma": 13272, "##zine": 13338, "azine": 9971, "##hi": 7514, "##azin": 3357, "ma": 13272, "##lea": 836, "ke": 1683, "amin": 7804, "##mino": 10949, "##rac": 1772, "##etam": 1229, "##actam": 555, "acmp": 6, "amino": 8715, "##cet": 3588, "anil": 1341, "obs": 34, "olete": 30, "##gesic": 797, "##etyl": 2332, "##noate": 2271, "##oat": 783, "##mpo": 203, "ates": 1201, "##zol": 7046, "thia": 994, "##diaz": 439, "epsy": 10, "glau": 60, "##oma": 1742, "azol": 5423, "amid": 4137, "##eta": 3149, "thi": 3934, "##iaz": 1431, "##ona": 4199, "##ido": 8148, "##mid": 6819, "cyc": 2287, "##hexyl": 1472, "##ea": 8122, "##xyl": 3424, "##bam": 796, "clo": 4605, "##sulf": 2480, "ur": 8448, "##ones": 744, "##anone": 1707, "fo": 4198, "##rm": 6168, "##hyde": 2646, "##tine": 7355, "pan": 2887, "##ium": 24845, "##yloxy": 4391, "##rbo": 2052, "le": 36833, "##vo": 1948, "##nit": 2107, "##pyl": 4244, "t": 167866, "thyl": 19643, "##onium": 7312, "##xide": 1521, "ach": 820, "cho": 1313, "##li": 17410, "ase": 8972, "in": 195806, "##hib": 163, "itor": 229, "inh": 110, "ibit": 71, "wi": 449, "mec": 370, "##hani": 80, "##sm": 1428, "of": 3494, "ib": 14396, "acch": 122, "##lase": 954, "##capt": 264, "##uric": 1075, "##stein": 350, "eyes": 16, "##isoni": 97, "##ng": 12780, "trea": 86, "tment": 145, "res": 1896, "##pir": 1119, "##ator": 792, "use": 374, "##ul": 6926, "##ein": 3200, "nac": 1254, "##anine": 3955, "muc": 222, "##olyt": 198, "des": 3914, "##lan": 3937, "##ato": 4795, "##side": 6605, "##go": 2377, "##xin": 5075, "deo": 602, "glu": 1289, "##cose": 423, "gl": 3834, "##uco": 785, "ald": 556, "amine": 25791, "glcna": 5, "nu": 3082, "##icine": 892, "##rba": 1179, "##mu": 2187, "##ram": 3169, "mu": 2187, "##epti": 412, "##tami": 1220, "ai": 2706, "##cain": 904, "to": 15633, "##pic": 1381, "##ycl": 2343, "##tein": 840, "psi": 288, "##pep": 463, "fluo": 1474, "mi": 18709, "naf": 355, "pr": 11251, "##ara": 1846, "##ig": 2605, "##nost": 268, "##lar": 2212, "##ub": 1486, "##icin": 6213, "##lac": 2118, "##mycin": 12992, "na": 27403, "hex": 2448, "##ah": 1371, "ly": 5872, "##opy": 2132, "acm": 45, "##ites": 375, "ra": 24111, "##tus": 2242, "##tum": 2660, "wo": 311, "##sbane": 18, "roo": 141, "fria": 4, "cap": 1362, "##shood": 10, "ve": 6268, "cha": 620, "##llus": 381, "aco": 981, "##itan": 393, "##nto": 691, "meth": 8035, "##rif": 712, "##lav": 659, "eu": 1940, "##flav": 403, "euf": 11, "##lavin": 316, "xa": 5405, "##cr": 2602, "dia": 2159, "##fla": 641, "##vine": 644, "fs": 136, "stai": 18, "##xtu": 26, "dine": 24198, "vet": 423, "##afl": 414, "##avin": 451, "##ifl": 797, "fl": 4633, "##av": 2592, "zo": 9392, "actin": 853, "acr": 703, "##nine": 9095, "##ony": 1432, "##es": 23574, "sp": 4907, "##ect": 1962, "acin": 4035, "aalph": 8, "es": 23574, "##ctin": 1858, "scm": 12, "##vate": 399, "coal": 31, "##iv": 2687, "ads": 142, "##orb": 685, "dec": 2628, "##zing": 764, "coa": 153, "##vat": 351, "##us": 18221, "ado": 849, "veg": 71, "##etab": 125, "##rder": 34, "acy": 689, "##vir": 4444, "ano": 4406, "acv": 12, "ski": 128, "sys": 111, "##temic": 13, "gua": 905, "oph": 2672, "##thal": 776, "##mic": 5567, "ad": 6845, "##cle": 1065, "##otide": 1095, "adn": 17, "##eo": 2628, "##nosin": 326, "##nosi": 532, "##num": 14471, "rib": 805, "##osin": 2029, "##oge": 956, "##sic": 2000, "pha": 1945, "##den": 1954, "##ylic": 4535, "##sfa": 77, "atp": 90, "adt": 49, "##ylyl": 340, "im": 11932, "ido": 8148, "amppn": 3, "nh": 833, "id": 28267, "pnp": 44, "mon": 2106, "##ydr": 5157, "appn": 5, "##hp": 705, "##ip": 6739, "##xp": 225, "adi": 1448, "ben": 5067, "##etic": 5297, "##muno": 149, "##logic": 299, "adj": 34, "##vants": 34, "##uvant": 47, "iv": 2687, "##rs": 4616, "##mun": 379, "##j": 2104, "##uv": 492, "##ants": 993, "##ju": 327, "##vant": 194, "##mod": 1798, "##tor": 2507, "##nol": 19024, "ical": 1345, "imm": 275, "##un": 2492, "en": 49953, "##han": 2982, "##cem": 192, "##atin": 5142, "adr": 449, "##rte": 561, "hor": 909, "##mone": 794, "ho": 8757, "##ids": 1065, "##icoid": 83, "##ost": 3353, "##ero": 2587, "##rti": 947, "cal": 3125, "##ter": 4516, "sup": 337, "##pos": 332, "##itory": 118, "der": 1634, "##iva": 999, "##tive": 1438, "or": 20594, "##ssa": 401, "##ry": 5804, "the": 1705, "##od": 7302, "##ren": 2408, "aline": 1972, "##rgic": 374, "##rene": 1933, "##rg": 1724, "##ics": 3235, "##ists": 64, "rec": 443, "##eptor": 127, "##reno": 436, "##cept": 817, "re": 16978, "##gon": 866, "##ist": 3241, "blo": 146, "##ka": 1508, "##ders": 151, "##ers": 2151, "##dr": 7813, "##ime": 4565, "##tics": 1693, "##ader": 151, "neu": 451, "##imet": 1994, "##ore": 1486, "##ulant": 151, "cor": 1821, "##ropin": 960, "##phin": 1048, "##hin": 2986, "##pin": 4390, "acth": 20, "rep": 824, "##osi": 1920, "##tory": 541, "cct": 14, "aeq": 6, "amen": 105, "##yxin": 120, "##lfa": 1023, "##tes": 2767, "##hate": 2690, "eye": 118, "##nium": 14415, "aet": 147, "##rb": 5482, "##hio": 4064, "tico": 226, "un": 2492, "##spec": 176, "##ified": 208, "lax": 912, "##ative": 296, "ago": 368, "##virin": 208, "aj": 178, "##malin": 102, "ajm": 28, "##ahy": 683, "dol": 4806, "##oli": 4526, "ala": 2058, "##dazo": 1194, "pyl": 4244, "##zi": 4333, "##nz": 4924, "##amate": 3534, "##dazol": 1003, "##ute": 656, "##yla": 3762, "sal": 2221, "##buta": 715, "##enz": 4461, "ob": 4041, "##tric": 1044, "##amol": 856, "##hal": 1400, "alc": 626, "##fenac": 247, "alcl": 22, "##ofn": 21, "ess": 1730, "##gsure": 49, "##fen": 4692, "det": 277, "##err": 589, "##ohol": 186, "##ism": 316, "##boli": 88, "##fier": 127, "tha": 2706, "dri": 728, "grai": 19, "##hydr": 5100, "##ated": 2539, "den": 1954, "##atur": 114, "thy": 8146, "##lk": 665, "##oo": 1429, "alk": 299, "etl": 14, "spi": 754, "abs": 805, "##lute": 168, "##hol": 2765, "##ucts": 29, "cla": 675, "##cur": 658, "##erine": 2585, "##fe": 4866, "tox": 1487, "##ife": 950, "##opr": 2263, "##egn": 414, "##onum": 1341, "alf": 181, "##pi": 7538, "li": 17410, "##tanil": 306, "##tanyl": 706, "pi": 7538, "per": 3199, "tet": 2001, "##raz": 1843, "pip": 1088, "##erid": 775, "##ilo": 1296, "##eprol": 60, "##prol": 589, "alg": 260, "##esto": 327, "alp": 415, "##has": 202, "##otro": 271, "##loid": 261, "##ky": 369, "##latin": 852, "##ylat": 571, "##ylato": 226, "anto": 207, "idin": 9280, "##eid": 120, "idine": 18133, "##azo": 4952, "ure": 2981, "##oin": 1838, "gly": 1292, "##oxyl": 1357, "##gi": 2291, "arb": 4024, "##ital": 1672, "##itone": 437, "##lyl": 3076, "bar": 701, "##turic": 431, "##azolo": 931, "##imi": 2215, "##olum": 1785, "alo": 1300, "##pur": 612, "##rim": 2316, "pry": 108, "##imidi": 265, "hpp": 69, "##lamin": 2438, "##lam": 4159, "estr": 786, "##ge": 5351, "##str": 1745, "##ogen": 1632, "no": 34436, "alm": 895, "##itrin": 222, "tria": 548, "##oro": 3584, "##itri": 447, "##lami": 2473, "##syl": 4128, "##mes": 708, "##ylate": 3974, "##xi": 3820, "##prim": 600, "##psin": 592, "at": 24631, "aat": 41, "api": 616, "se": 21830, "##rpi": 187, "int": 1341, "##erf": 300, "##eron": 1315, "##feron": 399, "leu": 540, "##ocyte": 296, "lym": 247, "##blast": 208, "##mph": 548, "last": 1368, "##tu": 2906, "hu": 1030, "ifn": 62, "hui": 50, "dig": 324, "##itox": 166, "ases": 455, "##crea": 140, "end": 1186, "##oam": 650, "ec": 8905, "ef": 2629, "orn": 511, "##ith": 898, "dfmo": 3, "rs": 4616, "##dase": 1395, "enz": 4461, "##ym": 1940, "##biase": 16, "##tis": 1760, "##ida": 3364, "##cos": 1116, "##idase": 1138, "##sid": 1234, "##amyl": 861, "##ver": 1436, "##rase": 1386, "dup": 39, "##dino": 1304, "##pra": 1306, "##zolam": 570, "##zolo": 1054, "##nolol": 824, "alpr": 88, "apr": 1059, "##enol": 4239, "##prost": 944, "ealph": 2, "##alpha": 269, "##tile": 110, "dys": 132, "##fun": 250, "##ction": 469, "##rie": 556, "##thr": 1037, "##dil": 2145, "op": 14559, "##rost": 1771, "alth": 212, "##esin": 775, "##ound": 186, "cpd": 96, "##rial": 454, "##inio": 292, "el": 14677, "em": 6152, "##llic": 338, "##lli": 1630, "##moniu": 257, "asp": 538, "##ir": 9522, "##eld": 871, "##dra": 1244, "##cci": 419, "hi": 7514, "##xido": 139, "ug": 653, "ml": 301, "gel": 1851, "ama": 1372, "ane": 18395, "adine": 1372, "amb": 366, "##enon": 546, "ba": 5772, "##chlor": 2620, "##gmine": 424, "win": 204, "##ylbis": 404, "##min": 13100, "ambr": 49, "##oxol": 306, "##ite": 3963, "viii": 40, "##omo": 1432, "##roxo": 138, "##lum": 4120, "##brom": 1031, "##obe": 1272, "##nc": 2535, "##hexa": 1208, "##von": 441, "##cil": 2766, "##lin": 22039, "##lina": 1448, "##illin": 3338, "hx": 66, "##pta": 1059, "##inam": 458, "##loyl": 617, "##prop": 3172, "ame": 1572, "##ides": 2637, "amo": 1194, "##eb": 1656, "##icide": 414, "##bici": 272, "##ebi": 193, "##ici": 1827, "##icum": 1977, "mycin": 12992, "##carb": 3319, "mtc": 40, "mmc": 38, "##her": 1698, "mit": 649, "##amyc": 543, "bs": 1468, "##ik": 699, "st": 19169, "##kacin": 144, "ka": 1508, "##nam": 2318, "##oride": 1535, "##pram": 605, "##izi": 505, "diu": 327, "##retic": 461, "pot": 347, "##assi": 120, "spa": 624, "##orid": 414, "##midin": 1336, "##tho": 2814, "aack": 4, "aa": 1129, "sou": 102, "acid": 478, "##ds": 2348, "entia": 122, "##ble": 1170, "##rile": 2849, "##trile": 2577, "##tives": 258, "agt": 7, "azole": 10450, "aic": 168, "lev": 628, "##ulin": 2123, "##phyl": 556, "##fi": 2342, "##ylin": 632, "azo": 4952, "##yrine": 484, "##azone": 3846, "##zole": 13204, "##pyri": 1197, "##rex": 2326, "##oda": 513, "##zof": 203, "##pheny": 2526, "diio": 46, "benz": 3864, "##odar": 100, "##ron": 6997, "dib": 678, "##enzo": 2573, "##ie": 2973, "##ili": 1360, "##alene": 1176, "##iz": 2027, "amm": 566, "##late": 9883, "cl": 6306, "##iac": 643, "amch": 6, "##oni": 3142, "##lmi": 306, "##rbi": 576, "##tal": 4629, "##ylo": 1445, "it": 10802, "##quine": 968, "##quin": 2341, "##diac": 243, "apine": 751, "oxa": 2657, "##ze": 3413, "##pine": 5032, "apin": 282, "##epine": 1415, "ax": 5324, "ge": 5351, "add": 149, "##ition": 151, "##lla": 2175, "##tamin": 1072, "dr": 7813, "##opro": 1696, "rac": 1772, "grou": 20, "##exi": 468, "##cs": 3944, "amph": 293, "##eri": 3037, "##cyclo": 2866, "oc": 8232, "abp": 47, "##icil": 337, "uk": 321, "##roli": 661, "pic": 1381, "##yrone": 329, "##rino": 388, "amr": 48, "##inone": 5885, "##nona": 415, "##rinon": 77, "ima": 1691, "##mr": 259, "inone": 5885, "##rope": 375, "ams": 250, "acrin": 102, "cai": 710, "##idide": 368, "mam": 184, "##lfo": 1382, "##yg": 383, "##dalin": 102, "amy": 861, "##dal": 1300, "##oside": 5421, "##nd": 5952, "gen": 4252, "##tio": 1074, "neo": 474, "##gd": 232, "##alin": 2499, "##nty": 361, "##sum": 813, "##tase": 639, "##stase": 39, "##mai": 143, "sta": 3744, "ana": 3056, "##fran": 99, "ne": 300785, "##rvo": 146, "sy": 1937, "##ptic": 594, "##eptic": 346, "##ting": 1544, "##ler": 1247, "##gine": 770, "##ynes": 30, "pai": 145, "##lie": 181, "##ving": 141, "ki": 1276, "##lle": 889, "##ever": 202, "##ller": 246, "##ioi": 197, "infl": 92, "##mm": 1359, "##ex": 16095, "ancr": 60, "##kis": 237, "##don": 1442, "rho": 221, "##dos": 350, "##toma": 256, "##dod": 407, "##iam": 909, "andr": 435, "##ian": 1662, "##rogen": 498, "##rog": 751, "syn": 625, "##olic": 2306, "##bolic": 74, "##ogues": 88, "##gs": 492, "##dione": 2280, "##thes": 202, "##hetic": 244, "cau": 53, "lo": 19404, "dis": 1077, "##cia": 348, "##duct": 90, "##hesia": 67, "##hole": 308, "##lthio": 1679, "tho": 2814, "##ione": 3592, "##iol": 5179, "ara": 1846, "##ept": 2724, "io": 11695, "##iot": 379, "##onin": 1567, "##vert": 243, "##rd": 3493, "##lb": 1663, "##yt": 1959, "##hro": 909, "ani": 2873, "##zyl": 2802, "##cids": 35, "##kal": 287, "##ini": 3043, "##nzy": 813, "##rgan": 209, "anth": 1094, "##hel": 388, "##mint": 261, "##ih": 1561, "##hic": 635, "##ifu": 185, "##ges": 790, "tc": 864, "##ral": 3257, "dit": 571, "##hra": 366, "anthr": 362, "##none": 12071, "##ranol": 514, "##rano": 1021, "##ogue": 96, "##rh": 994, "##eum": 727, "atic": 695, "rhe": 186, "arr": 254, "##hyt": 205, "##hm": 503, "##rdi": 430, "##pres": 412, "##sant": 451, "##mics": 303, "##hmic": 75, "inf": 290, "##ecti": 319, "##ctive": 644, "us": 18221, "com": 732, "##sea": 196, "##cti": 1082, "##ves": 843, "##sept": 438, "##lamm": 221, "nsai": 21, "aian": 6, "ulc": 87, "##ulcer": 32, "aur": 625, "go": 2377, "##inod": 168, "##ld": 3082, "moc": 280, "##imyci": 167, "stru": 67, "##cture": 52, "##ther": 1053, "##apy": 309, "##nce": 1519, "##fung": 192, "##guous": 5, "##cer": 988, "##eop": 222, "##ber": 971, "##rc": 1893, "##mb": 1678, "##bin": 2317, "##inin": 1376, "##rolid": 317, "##cro": 776, "##bod": 101, "##ies": 876, "##ody": 296, "not": 510, "oth": 1551, "##wise": 25, "spe": 530, "##iden": 766, "##lasm": 121, "##sto": 934, "##erol": 4816, "##we": 576, "thr": 1037, "ation": 2103, "bloo": 16, "##ners": 81, "##oag": 48, "##mat": 1435, "##vu": 375, "##ls": 4624, "##sive": 415, "sei": 87, "##zu": 908, "##ive": 2541, "##ss": 5393, "##ycli": 323, "##idi": 4349, "##eal": 1181, "##rr": 1749, "##hea": 466, "gi": 2291, "##ote": 1288, "##dote": 93, "##acs": 57, "##eme": 951, "##emet": 397, "au": 1503, "##epi": 1134, "epi": 1134, "##lept": 138, "##ril": 3739, "##lat": 3022, "##smin": 335, "fi": 2342, "##ytic": 588, "##len": 4089, "##form": 784, "##ngi": 453, "##cides": 350, "##cidal": 177, "##gal": 854, "hyp": 418, "##nsi": 531, "##lins": 266, "glo": 235, "##bulin": 715, "##ru": 2596, "als": 1426, "##ial": 1852, "mal": 1630, "##aria": 1097, "##meta": 580, "##otic": 938, "mic": 5567, "##rot": 1587, "##ular": 877, "fun": 250, "tar": 1176, "trate": 1138, "ta": 22409, "##rta": 501, "##ota": 800, "##ssium": 169, "mus": 1128, "##inic": 2823, "##nan": 2235, "nem": 759, "##era": 3182, "##utic": 264, "##stic": 568, "tu": 2906, "##ific": 120, "phy": 837, "##genic": 591, "bot": 244, "##anic": 1049, "bo": 4458, "##dan": 1744, "##ts": 4312, "##oxid": 469, "ain": 2210, "arg": 489, "##ylb": 948, "##utyl": 1590, "asi": 693, "##iti": 1117, "for": 1079, "##site": 189, "##cid": 1560, "##kin": 1428, "##son": 1776, "##ins": 3771, "ans": 1671, "##kins": 69, "pla": 886, "##prot": 552, "##oz": 957, "##bri": 547, "##zon": 1273, "ot": 8109, "fe": 4866, "##zona": 216, "##ling": 483, "ato": 4795, "##sperm": 117, "iii": 114, "cof": 417, "##actor": 40, "dti": 28, "thro": 487, "##cyte": 405, "atg": 29, "ats": 174, "##toxin": 1479, "##tre": 1239, "##nal": 4237, "##ati": 2347, "##cul": 408, "##osis": 442, "tb": 425, "##tuss": 1392, "cou": 288, "##pp": 2294, "##ress": 579, "ex": 16095, "##rant": 977, "##ven": 881, "##ser": 1193, "##veno": 69, "##oms": 131, "##viral": 123, "anu": 386, "##ject": 492, "##ropa": 1028, "##zone": 5252, "##lon": 3279, "##propa": 830, "##rach": 225, "##rp": 2143, "##rph": 1079, "apo": 459, "##mor": 1076, "##fina": 168, "app": 417, "##tite": 183, "##exic": 36, "##ssin": 1363, "##ndine": 196, "##tini": 749, "ku": 329, "kal": 287, "##lik": 47, "##rein": 147, "ina": 11311, "##cre": 466, "see": 82, "bpt": 26, "bio": 726, "##otin": 877, "##oti": 1260, "##nin": 7965, "apt": 506, "apts": 3, "##ngs": 219, "tate": 4571, "aq": 645, "bb": 362, "##dar": 662, "##abine": 1009, "ctp": 53, "cyt": 519, "##bine": 1825, "phon": 562, "##inyl": 4887, "##utin": 609, "##uto": 494, "urs": 312, "are": 2557, "##colin": 225, "##chol": 1382, "##calin": 194, "##inine": 1368, "##amido": 4328, "##ua": 2290, "##nid": 1412, "##sop": 882, "avp": 84, "dda": 78, "cys": 347, "gln": 16, "asn": 30, "arl": 195, "arm": 899, "ars": 678, "anili": 317, "##sen": 2080, "##idene": 3148, "##acet": 2696, "##rsen": 1142, "##ediyl": 398, "##hexol": 46, "art": 1302, "##fic": 212, "tea": 400, "olo": 3566, "asc": 312, "##orbic": 228, "nut": 356, "##riti": 176, "vit": 1128, "##sure": 835, "##orbi": 138, "ascr": 10, "##bico": 28, "##mina": 1179, "##mins": 285, "##inase": 602, "dea": 307, "##spase": 91, "cr": 2602, "##isa": 611, "lc": 2533, "##rtyl": 112, "suc": 331, "##cina": 1081, "ome": 2936, "arta": 194, "##mum": 1269, "##ple": 732, "##ment": 847, "sw": 191, "##eet": 267, "##ener": 216, "mag": 444, "##nesi": 124, "##rins": 265, "asa": 673, "##los": 860, "##let": 1276, "##cylic": 641, "##irina": 90, "ast": 4036, "atine": 870, "##mope": 26, "##ring": 555, "ath": 735, "eq": 479, "##uin": 2616, "atr": 1004, "acu": 258, "##rium": 1463, "inol": 5561, "inium": 4730, "bes": 206, "##esyl": 228, "##ilate": 814, "##lato": 652, "##xant": 539, "ske": 65, "##letal": 54, "##opin": 1287, "##osc": 188, "##yam": 179, "tro": 3555, "uro": 1656, "##log": 534, "##odi": 1536, "##nof": 264, "##ose": 5166, "##fine": 290, "##fin": 1296, "##ntin": 1034, "aut": 112, "##onom": 99, "pri": 1354, "##aril": 294, "af": 2765, "##fect": 195, "av": 2592, "ay": 2085, "imd": 32, "##tid": 1396, "azc": 17, "##cit": 879, "##guan": 448, "##nazol": 666, "v": 18026, "pat": 552, "##hoc": 227, "##pero": 302, "##peron": 149, "flu": 2812, "##serin": 623, "aze": 937, "azs": 8, "azt": 60, "##up": 1518, "imi": 2215, "##prin": 671, "aztp": 5, "atps": 3, "##urac": 188, "##ura": 2169, "##loc": 720, "##linum": 1248, "##ilina": 365, "##reon": 88, "##ronam": 48, "##thre": 125, "##onam": 524, "##amoyl": 1961, "bac": 931, "##itra": 397, "##lofen": 205, "##loph": 137, "##yric": 769, "pcp": 66, "##hl": 2781, "cin": 33948, "##lof": 362, "##enum": 593, "##fne": 54, "##teri": 565, "##ines": 1791, "##erin": 3215, "##erm": 2912, "bam": 796, "ber": 971, "##hos": 2255, "men": 1340, "##omyc": 946, "##ethan": 1073, "##amil": 697, "bital": 1168, "bit": 622, "##urate": 909, "bax": 89, "##ary": 1031, "##tmon": 9, "bay": 105, "k": 12894, "bk": 64, "bcg": 11, "##illus": 152, "##ette": 322, "gue": 207, "##ettes": 82, "gu": 1600, "stra": 601, "att": 166, "##enu": 220, "ated": 2539, "bla": 224, "myc": 2007, "##illi": 640, "strai": 11, "##ous": 1607, "##asone": 823, "##ylp": 2318, "bee": 158, "##chw": 10, "##ood": 446, "creo": 23, "##sote": 47, "##adon": 170, "bem": 93, "##egri": 36, "##imide": 2443, "##yzine": 184, "nau": 42, "##cycl": 2258, "##azide": 2989, "bzt": 8, "##myl": 1320, "##ori": 1597, "##ory": 920, "bn": 251, "##oril": 122, "##spr": 232, "##peri": 809, "##idol": 1257, "ser": 1193, "##azi": 2532, "##idum": 1614, "##toni": 290, "clay": 3, "##ko": 795, "##mar": 1423, "brom": 1031, "##aro": 889, "gou": 33, "##nda": 763, "##nze": 653, "##exane": 944, "hlor": 2717, "##xene": 347, "bhc": 12, "##llin": 5186, "sca": 401, "hch": 66, "##eti": 2051, "##pyre": 101, "chr": 499, "##ysene": 160, "##caine": 2907, "##okain": 7, "hem": 674, "##orr": 161, "##zer": 1155, "sty": 223, "extr": 205, "w": 4304, "##oxide": 1254, "##benzo": 2403, "acn": 130, "##amina": 681, "##alol": 381, "##yli": 1613, "##lue": 249, "bep": 202, "##ridil": 47, "##lci": 386, "berin": 107, "um": 64230, "esc": 362, "aesc": 13, "##cta": 1358, "##ses": 875, "lac": 2118, "toc": 607, "##ophe": 1244, "##hist": 1171, "bt": 432, "##istin": 421, "bet": 654, "##stin": 1983, "##neur": 239, "tmg": 7, "##ycine": 1805, "abr": 224, "##omine": 767, "anh": 127, "##ll": 6596, "##beta": 549, "##etha": 1508, "##lone": 6166, "##amet": 780, "##aso": 649, "##gn": 921, "##elan": 263, "##xolol": 108, "bta": 53, "##xol": 1028, "##zolum": 388, "##thane": 3304, "##fib": 408, "##rat": 2134, "##fibr": 251, "hco": 57, "bic": 969, "##ucu": 107, "##lline": 2534, "##nide": 2886, "##noid": 619, "##adil": 315, "##onse": 74, "brm": 15, "ing": 7678, "##ators": 223, "mod": 1798, "##tors": 399, "reg": 477, "coe": 35, "##nzyme": 115, "##perid": 540, "##borne": 27, "##dyl": 2046, "##ceta": 850, "##dilo": 87, "##nne": 138, "dic": 2301, "##umar": 269, "cu": 2384, "##uth": 233, "##hion": 491, "##hloro": 1612, "##onol": 738, "##lfi": 231, "ble": 1170, "##omyci": 896, "pin": 4390, "##gy": 857, "##leo": 214, "##omy": 1031, "##cins": 588, "blm": 4, "##omic": 207, "bleo": 20, "##omi": 1122, "##adren": 134, "stit": 36, "sur": 344, "##roga": 80, "bon": 1075, "##gk": 80, "##rekic": 6, "fla": 641, "orth": 132, "##bor": 445, "bri": 547, "##lism": 56, "ty": 5154, "##nica": 460, "##ique": 821, "btx": 7, "##xoi": 46, "##ursor": 11, "##stri": 320, "##dum": 1958, "fro": 133, "##cular": 504, "bre": 374, "##ylium": 320, "tos": 868, "##vic": 319, "brl": 3, "##pam": 2830, "##zepam": 1554, "##ela": 1012, "##elin": 1470, "jui": 8, "##apple": 48, "##exin": 523, "##hexi": 83, "##val": 1263, "##ryl": 4173, "##urea": 2424, "##rip": 788, "##ptin": 1370, "##ok": 610, "##ryp": 264, "##ptine": 531, "##kr": 186, "##yptin": 48, "##tama": 274, "##crine": 445, "##sons": 72, "##tina": 1061, "##tinum": 2044, "brdu": 2, "bpn": 8, "##chia": 182, "dil": 2145, "##ating": 692, "lu": 7201, "##meter": 113, "bru": 169, "##ella": 1071, "btc": 16, "buf": 174, "##exam": 227, "amic": 3160, "##fex": 183, "##exami": 67, "##q": 5932, "##ffe": 151, "##ered": 218, "##ferin": 200, "##rmin": 1133, "##ormin": 215, "dbv": 2, "bul": 288, "boc": 165, "bum": 574, "##etan": 524, "##moyl": 2102, "bun": 99, "##afti": 36, "##apht": 508, "##fti": 89, "##nitro": 922, "##vac": 851, "##aine": 4150, "##loxy": 4985, "##aina": 164, "ah": 1371, "trie": 281, "##nop": 1246, "##ropyl": 3699, "bur": 278, "bus": 267, "##erel": 143, "lut": 842, "##izing": 630, "##asing": 27, "pig": 95, "bsr": 4, "##eline": 399, "mj": 36, "##spiro": 668, "##zin": 5564, "##piron": 139, "##piro": 891, "##ulfan": 342, "##ulph": 321, "##diol": 2591, "bsf": 19, "##sulfa": 854, "mye": 30, "##leuko": 47, "##butin": 169, "##malum": 13, "sec": 338, "##rosin": 293, "mor": 1076, "##xam": 821, "bha": 31, "boa": 34, "##oxyn": 178, "cre": 466, "bht": 15, "hyo": 78, "##scine": 257, "##omide": 1205, "sc": 2543, "bw": 31, "bwc": 2, "##dmi": 39, "cer": 988, "##ule": 549, "##tide": 4736, "cae": 154, "##rul": 158, "##lein": 914, "##ulet": 36, "##tida": 304, "##eine": 1840, "thei": 10, "ko": 795, "##rani": 229, "##fein": 29, "caf": 202, "##fed": 789, "##fd": 147, "hcc": 34, "ohcc": 5, "ohd": 10, "##idiol": 146, "##stat": 5174, "cit": 879, "citr": 249, "ton": 3166, "ct": 6505, "##riol": 979, "dhc": 26, "##ums": 74, "ele": 773, "##lzi": 52, "##nato": 1395, "##rbon": 754, "##ensa": 106, "carb": 3319, "##area": 33, "ccb": 11, "ed": 16477, "dium": 1711, "eda": 427, "##thami": 86, "edt": 43, "##etate": 2669, "chca": 6, "##nnao": 7, "dob": 226, "##esi": 903, "##arate": 817, "sac": 366, "##char": 171, "cgt": 7, "##cc": 1229, "##har": 660, "##cidin": 988, "##nas": 743, "##onato": 604, "wa": 663, "##gam": 561, "##then": 565, "##inate": 3437, "val": 1263, "cls": 4, "##tero": 919, "cam": 938, "##azepa": 227, "bor": 445, "##nano": 149, "##sce": 206, "gum": 181, "gra": 807, "##rna": 434, "dex": 1860, "##tot": 262, "##hecin": 421, "##toth": 70, "##ecin": 991, "izin": 713, "##ozin": 655, "can": 2719, "##izid": 112, "##nab": 311, "cbd": 26, "##binol": 497, "cbn": 7, "adien": 400, "##renon": 82, "##nth": 1427, "##ari": 2095, "exo": 368, "##aicin": 118, "cine": 5700, "nam": 2318, "cina": 1081, "##pril": 960, "opro": 1696, "cp": 742, "##top": 1112, "cpt": 65, "chol": 1382, "ret": 1047, "##enti": 425, "col": 3521, "cbz": 22, "##zep": 599, "##penem": 277, "##quone": 168, "azi": 2532, "##rome": 1095, "azone": 3846, "##och": 761, "adch": 3, "##olon": 844, "inon": 1024, "##ucky": 27, "red": 1325, "##rbe": 244, "cbp": 29, "##olone": 3441, "##ean": 1300, "oo": 1429, "##lean": 875, "##etin": 2369, "mou": 66, "inal": 1297, "##idopa": 57, "caine": 2907, "cane": 1345, "##teine": 1087, "##ena": 2567, "##rpho": 247, "##gme": 46, "##hydra": 588, "##ata": 2270, "cya": 551, "##azon": 804, "pgf": 12, "cel": 1320, "##lose": 1289, "##mel": 872, "##elo": 546, "##pid": 946, "pt": 5500, "##tamic": 665, "cpg": 14, "##mate": 5065, "##romal": 112, "sed": 718, "##etal": 441, "##iop": 543, "sol": 3771, "##ution": 176, "##gia": 343, "##trop": 841, "my": 3155, "##ocar": 646, "##dial": 411, "vas": 410, "cv": 139, "cill": 625, "cil": 2766, "##date": 2403, "##bama": 215, "##propy": 1179, "nit": 2107, "##ros": 2218, "##ourea": 914, "bcnu": 2, "fiv": 19, "##onge": 78, "ion": 7924, "impl": 54, "##ustin": 217, "##musti": 110, "anyl": 3306, "##oten": 252, "##rag": 408, "##een": 480, "##rage": 129, "##enin": 2214, "ir": 9522, "ish": 654, "##eolol": 27, "##rto": 240, "##anes": 371, "##ubi": 405, "##micin": 1565, "cmm": 20, "##cen": 1128, "##yo": 924, "##lysin": 541, "oil": 147, "cro": 776, "##osus": 321, "##pure": 265, "lae": 159, "##cus": 1361, "nan": 2235, "zan": 853, "zi": 4333, "##sis": 2676, "##unis": 55, "##yll": 733, "pur": 612, "##ens": 2371, "ru": 2596, "afr": 102, "##ican": 169, "##gens": 446, "gib": 184, "##sonii": 46, "##roc": 1674, "##arp": 310, "##rsi": 193, "##lans": 139, "##bil": 406, "##put": 45, "##idus": 113, "kra": 44, "##ppa": 223, "san": 2728, "##guin": 60, "##eus": 487, "ul": 6926, "uc": 2808, "##hula": 50, "sko": 17, "##you": 67, "cas": 424, "##bean": 80, "##jo": 232, "gant": 110, "##atus": 952, "ulat": 208, "##inus": 421, "##lagi": 45, "##ien": 1477, "##actu": 56, "##tatus": 155, "eur": 418, "##aeus": 53, "##ya": 2087, "##ere": 997, "##kur": 50, "ja": 498, "##poni": 70, "mes": 708, "obe": 1272, "##rman": 243, "##nii": 354, "##iosus": 30, "vul": 130, "##garis": 12, "##nnis": 49, "##nis": 936, "##ensis": 772, "chin": 589, "##avan": 331, "chu": 136, "cia": 348, "##nida": 326, "##mpa": 342, "##thin": 895, "sym": 178, "##path": 169, "##rgen": 219, "cat": 704, "##gat": 223, "##ives": 506, "##gati": 51, "ev": 2102, "##uants": 10, "##uant": 43, "cee": 42, "##pryn": 26, "clor": 384, "cfa": 15, "cef": 660, "##acl": 314, "##orum": 408, "cfe": 8, "##aclor": 49, "ccl": 36, "##oxil": 383, "##droxy": 2512, "##ilum": 482, "cep": 530, "##drox": 2571, "cdx": 7, "##ndole": 1002, "##man": 1886, "##dole": 1322, "cf": 276, "##aman": 250, "##ndol": 939, "man": 1886, "##izine": 1209, "ylth": 536, "##azoli": 597, "##zolin": 1054, "yla": 3762, "##cetyl": 2125, "cez": 5, "##oxime": 875, "##oxim": 380, "cmx": 6, "##ope": 1565, "##razo": 652, "##fto": 102, "##xime": 1099, "##xim": 749, "##tax": 270, "##hot": 281, "##axi": 363, "##xima": 236, "##tetan": 35, "ctm": 17, "##otia": 66, "##xit": 137, "##toxi": 338, "##odin": 755, "##odine": 804, "##taz": 643, "##tazi": 131, "##dim": 1796, "caz": 37, "##tiz": 281, "##zox": 251, "##imum": 279, "##xone": 526, "##xon": 485, "##atri": 448, "##urox": 97, "##imo": 784, "##ulase": 65, "##ysin": 737, "##luc": 791, "cen": 1128, "##hrom": 495, "orm": 1592, "##fene": 928, "cn": 530, "##ms": 1253, "cet": 3588, "##lexin": 121, "##alex": 122, "##ale": 1675, "##xina": 533, "##lycin": 315, "ceg": 17, "ium": 24845, "##lot": 549, "##loti": 112, "##halo": 253, "##phene": 1319, "##orin": 2314, "##alot": 64, "##amyci": 515, "##pirin": 254, "##rina": 898, "##rinum": 725, "##radi": 320, "ced": 326, "##radin": 111, "##boxy": 718, "gau": 19, "##cher": 99, "##riu": 260, "##ulen": 130, "##mium": 360, "##gol": 583, "##cyl": 3556, "##wash": 186, "##lcone": 555, "##kone": 23, "##lex": 3075, "##ons": 1224, "##lator": 262, "##nodi": 165, "cdca": 11, "chi": 872, "##iofon": 20, "##ora": 2415, "##nose": 889, "cbl": 27, "clb": 12, "chl": 2461, "kl": 364, "##oram": 247, "##oly": 1578, "cycl": 2258, "##icl": 669, "cline": 1869, "cdp": 50, "dii": 398, "##osph": 1319, "indol": 755, "cma": 52, "##ury": 402, "##iazol": 1163, "on": 43798, "##rme": 399, "##guani": 257, "ide": 76033, "##nil": 2829, "pcm": 35, "kh": 141, "##inga": 78, "##gamin": 53, "##scu": 180, "cpz": 3, "##xan": 2074, "then": 565, "##xen": 474, "##etr": 2540, "##dolin": 279, "##ali": 2393, "##xane": 1915, "##xaz": 504, "##fer": 1297, "cc": 1229, "ole": 18983, "ovi": 755, "##eca": 2533, "vt": 89, "##itami": 93, "##ymin": 86, "##zy": 1175, "cck": 2, "pz": 119, "j": 2104, "##rge": 333, "##rev": 504, "ible": 200, "rev": 504, "rea": 3232, "##ndro": 441, "##itin": 982, "##ndr": 698, "##oi": 2548, "##roi": 395, "##tn": 485, "##rio": 673, "##ulon": 137, "chy": 153, "##mop": 376, "##apain": 60, "##ymo": 175, "cim": 233, "##tidin": 441, "##nse": 1167, "##hona": 171, "##nar": 577, "##zinum": 507, "##rizin": 170, "##xacin": 1573, "##nolin": 1002, "ocin": 2035, "##lene": 6637, "cinum": 751, "q": 5932, "cpf": 12, "##rcu": 241, "##pon": 521, "##sor": 740, "##dinol": 386, "##plati": 200, "cac": 133, "ddp": 49, "pdd": 34, "pey": 11, "##mapl": 21, "##plat": 323, "##yna": 314, "##oxan": 926, "##oca": 1495, "##dioic": 631, "##rated": 362, "##eric": 700, "##ulina": 132, "clea": 356, "##sing": 437, "cle": 1065, "##stine": 2398, "##astin": 539, "##clop": 725, "##rod": 846, "##mas": 466, "##mizol": 149, "##izol": 485, "##nb": 633, "oside": 5421, "cdl": 10, "##sph": 1475, "##dron": 572, "##zim": 259, "##minum": 1051, "##apa": 735, "##brate": 668, "##buty": 911, "##yrate": 610, "##ibri": 108, "cfb": 7, "##mif": 189, "##ifeno": 118, "##naz": 797, "##epam": 1820, "##epin": 1201, "##nidin": 567, "klo": 65, "##fenil": 60, "##enil": 330, "##redi": 62, "bde": 16, "##aeure": 194, "##ssi": 562, "koh": 14, "##gyl": 198, "##gilin": 51, "##gil": 257, "##osti": 271, "##lbe": 757, "##git": 240, "##stil": 448, "##bial": 77, "##tia": 1000, "##iap": 175, "##trim": 869, "##zolyl": 522, "##zap": 206, "##zapin": 55, "##ndo": 1051, "may": 66, "##lde": 495, "sun": 187, "##quo": 67, "##ergen": 124, "pix": 117, "cru": 72, "##than": 1197, "its": 206, "##enzy": 794, "sno": 51, "##zoyl": 1297, "sche": 29, "##dule": 28, "##ostat": 1494, "coc": 431, "cidi": 240, "cod": 399, "oils": 8, "##uae": 16, "##phine": 1915, "##dei": 76, "nar": 577, "##coti": 247, "##esti": 216, "##pol": 1474, "cop": 644, "##isti": 293, "##ixin": 347, "##butan": 563, "##lim": 1247, "##agen": 561, "##odion": 25, "fle": 342, "qua": 702, "##ifier": 103, "##llo": 618, "##oidal": 175, "##lem": 328, "##onent": 37, "##til": 1926, "##ity": 1238, "ocp": 9, "bc": 559, "##ined": 282, "##vent": 399, "##dure": 63, "##onal": 1106, "##ntial": 119, "##coi": 81, "coi": 81, "##ppe": 191, "kup": 10, "cui": 8, "##pru": 103, "tre": 1239, "##halos": 41, "dim": 1796, "##olate": 2494, "##lox": 2018, "##meli": 119, "crf": 9, "crh": 8, "##rel": 2151, "##isone": 867, "sco": 546, "##fos": 773, "##umari": 118, "##nka": 86, "bea": 114, "##ume": 390, "##strol": 1012, "##furo": 444, "cum": 2789, "##ostr": 113, "##oe": 1497, "##tant": 1133, "##rit": 1055, "##rita": 147, "irr": 71, "itant": 421, "crd": 2, "##glyc": 1033, "##icate": 460, "##stone": 803, "##gest": 665, "##nke": 57, "##ell": 1582, "##aris": 562, "cur": 658, "cumin": 281, "yell": 17, "hep": 810, "##tad": 786, "##iene": 977, "##osome": 128, "##acil": 1456, "##del": 656, "##nde": 643, "alate": 776, "##nza": 670, "##xe": 1003, "abine": 1009, "acp": 61, "cyl": 3556, "acpc": 4, "##ola": 2324, "##osp": 1792, "cpm": 47, "ctx": 4, "##mida": 1210, "##hane": 3878, "##ofo": 364, "sf": 467, "##pl": 2138, "##sr": 192, "dcs": 6, "csa": 17, "##orine": 784, "##fied": 261, "cym": 55, "##arine": 767, "tsi": 42, "##marin": 1119, "mk": 134, "##zed": 1034, "##aphos": 132, "##afos": 85, "##taph": 102, "##derma": 333, "sh": 2922, "mea": 163, "##geno": 136, "##bina": 246, "##icol": 903, "dif": 461, "##osfa": 68, "##asin": 717, "##paz": 222, "##tati": 496, "##toxic": 51, "icd": 18, "##zen": 961, "##mt": 779, "##carba": 856, "##kar": 169, "##baz": 230, "actd": 4, "hydro": 5704, "##rco": 247, "syl": 4128, "thre": 125, "yno": 253, "##xazol": 726, "dan": 1744, "##trol": 2353, "sod": 280, "##pso": 181, "dds": 22, "##hone": 1161, "##oy": 1946, "##sulfo": 1266, "dum": 1958, "mae": 100, "##phone": 404, "drb": 4, "rub": 587, "dnm": 7, "##ldiox": 15, "##nosyl": 2136, "dnr": 3, "##bicin": 1685, "dee": 88, "dfm": 12, "##loson": 13, "dha": 111, "##ahydr": 675, "dhea": 4, "erone": 4426, "##mof": 114, "##lay": 107, "slo": 67, "ti": 16405, "##lsy": 24, "##vy": 264, "##clin": 925, "##daz": 911, "##mox": 723, "pra": 1306, "##ntu": 168, "dca": 96, "dg": 271, "dna": 73, "dnaa": 4, "deb": 95, "dep": 313, "##ned": 1202, "##iyl": 602, "diy": 141, "##rma": 1037, "##ck": 1779, "ds": 2348, "##rami": 955, "dmi": 39, "##ipr": 971, "##acety": 847, "lan": 3937, "##osid": 785, "##onide": 581, "##nidum": 133, "##tas": 728, "##exone": 192, "doc": 481, "##cort": 1524, "dxm": 2, "dm": 731, "##miso": 88, "dmx": 10, "inate": 3437, "ppa": 223, "##midum": 574, "fen": 4692, "lmd": 17, "low": 323, "wei": 74, "##rans": 353, "exp": 126, "##ander": 85, "hm": 503, "ps": 2842, "##rphan": 505, "##lino": 1050, "skf": 5, "##roxi": 364, "sma": 494, "jun": 78, "ska": 53, "##ysis": 146, "##yz": 202, "##ysa": 186, "##ysate": 67, "##yza": 70, "flui": 23, "fld": 4, "du": 1711, "##itol": 2111, "gal": 854, "##acti": 602, "##nhyd": 157, "dag": 72, "dul": 217, "##citol": 407, "##pox": 519, "don": 1442, "##yth": 306, "dk": 73, "##ek": 818, "##benzy": 755, "cain": 904, "pht": 935, "##uty": 952, "dbca": 3, "nip": 281, "##hano": 545, "dci": 15, "##eure": 222, "##iphen": 732, "##ocel": 161, "ten": 2329, "##iat": 326, "dcr": 9, "##fb": 203, "##ulfa": 865, "##fena": 334, "##hlo": 2451, "##rofen": 1093, "illin": 3338, "##balt": 151, "za": 3433, "##ita": 1764, "ddc": 52, "ddi": 66, "dre": 284, "##henol": 1590, "##dien": 525, "##arbo": 1948, "het": 363, "##razan": 202, "##ioca": 194, "dtc": 74, "amf": 112, "##epra": 120, "prano": 63, "strol": 1012, "##diyl": 492, "##ignan": 138, "##bene": 747, "##yne": 982, "##pheno": 804, "##fluor": 1423, "##uo": 1964, "##nisal": 74, "##alum": 460, "##esta": 547, "##yst": 663, "##ride": 4765, "##genin": 1021, "##xine": 1461, "##ssina": 38, "dra": 1244, "##zina": 612, "##hrin": 668, "phen": 6364, "##oco": 1043, "##rnine": 148, "dhe": 48, "##deca": 1496, "##oman": 535, "##oto": 817, "##fan": 865, "omo": 1432, "##romo": 774, "##fona": 432, "##furan": 1610, "##rgo": 368, "dht": 22, "##terol": 2108, "##oprop": 1234, "##eval": 67, "lab": 253, "##zem": 285, "theo": 155, "##clate": 140, "bal": 560, "lew": 13, "##isite": 31, "##nch": 317, "##lv": 723, "dmsa": 11, "dms": 45, "rel": 2151, "##mero": 86, "dene": 3820, "dmso": 3, "##xid": 628, "##lfu": 141, "##uron": 917, "##yri": 1609, "myr": 173, "lec": 372, "##ithin": 185, "pgfa": 3, "##metin": 141, "##dryl": 467, "##cot": 958, "##sil": 1362, "ehdp": 3, "##hth": 970, "##eria": 531, "##ussi": 177, "dpt": 50, "dtp": 64, "##rfin": 300, "##yrid": 875, "##itr": 2034, "##yu": 339, "dam": 531, "dy": 1452, "##pyrid": 825, "##iri": 766, "dp": 918, "##yro": 673, "mizol": 149, "##lyn": 264, "scg": 8, "##gli": 550, "cic": 616, "##tann": 128, "##tig": 328, "##mari": 335, "##ulfi": 190, "##phi": 893, "##ulp": 393, "hn": 488, "ttd": 7, "iod": 737, "##ei": 1884, "##lands": 17, "dtt": 14, "osm": 152, "##aide": 29, "##gan": 1191, "dom": 458, "##lity": 229, "##kine": 331, "dot": 422, "##hie": 276, "dos": 350, "##pina": 376, "dox": 893, "##apra": 123, "##epina": 67, "adm": 56, "##xyc": 854, "##yclin": 597, "##xil": 718, "##ila": 1225, "##ilm": 187, "##ridol": 407, "##uti": 647, "##icam": 316, "ig": 2605, "new": 79, "ov": 2232, "otc": 32, "##cript": 57, "orph": 984, "##nte": 1068, "dtpa": 24, "dur": 529, "##vadi": 30, "##enone": 3197, "ro": 34564, "xan": 2074, "##thine": 1365, "##pyli": 69, "##rof": 833, "##ilin": 1229, "##ao": 964, "##sane": 307, "##othi": 854, "##opa": 2131, "eco": 654, "##stig": 103, "ek": 818, "ein": 3200, "##hon": 899, "##sion": 789, "eel": 213, "##yte": 1183, "si": 7816, "ell": 1582, "##aric": 761, "cde": 27, "##omene": 131, "elg": 44, "lag": 258, "##ista": 498, "eag": 27, "emc": 67, "eme": 951, "ip": 6739, "arch": 238, "fra": 240, "##gula": 105, "##gul": 143, "rheu": 41, "sch": 257, "##utt": 81, "##gelb": 8, "ena": 2567, "##april": 326, "##ionyl": 724, "nal": 4237, "enc": 436, "epc": 55, "erb": 341, "##flur": 376, "##anum": 980, "nox": 1500, "##acine": 496, "##ode": 1395, "##rode": 192, "ero": 2587, "vio": 139, "eph": 833, "##cate": 861, "erol": 4816, "##enal": 622, "##nalin": 187, "##nep": 494, "##hrine": 1122, "##frin": 385, "##riz": 348, "mep": 436, "dx": 125, "pid": 946, "##ui": 2608, "##lenin": 152, "##uil": 278, "##fr": 1076, "erc": 734, "##ono": 1872, "##basin": 44, "##omet": 1178, "lys": 579, "fg": 119, "##bas": 278, "mar": 1423, "crine": 445, "##otox": 353, "ery": 597, "##ityl": 247, "##hrol": 145, "eri": 3037, "##trit": 138, "##nitr": 1314, "##yle": 1722, "##rityl": 153, "etn": 44, "ry": 5804, "rom": 3147, "##cetin": 566, "lau": 291, "##odo": 1087, "##ietin": 278, "##oet": 699, "epo": 440, "ecs": 8, "etin": 2369, "esa": 370, "esk": 25, "##uzan": 20, "aes": 91, "##culin": 150, "##ulo": 404, "ven": 881, "##opla": 183, "ae": 3004, "esp": 319, "oes": 182, "##tetr": 1753, "etr": 2540, "##rad": 1002, "oe": 1497, "gy": 857, "##nae": 218, "esd": 18, "oest": 132, "ue": 2680, "strio": 25, "##stro": 522, "##gate": 203, "##ugate": 113, "enic": 1685, "##ces": 498, "ogen": 1632, "##stron": 168, "##nes": 4155, "fol": 1064, "eta": 3149, "##zola": 256, "##cry": 401, "##rynic": 29, "##crin": 284, "##nico": 530, "tac": 977, "##ryn": 200, "##nicum": 378, "ea": 8122, "##utol": 235, "##octa": 682, "##butol": 108, "emb": 161, "yn": 2808, "##vinol": 94, "##lve": 269, "hom": 434, "##idium": 522, "bab": 88, "##pregn": 342, "yne": 982, "ee": 2102, "apa": 735, "##etp": 56, "etp": 56, "eti": 2051, "##gluc": 589, "eto": 1487, "##rane": 1145, "##oxyp": 1171, "##lyci": 247, "dyl": 2046, "##pab": 124, "##namin": 497, "mide": 33957, "##toin": 908, "##oina": 42, "etm": 57, "##dq": 68, "ems": 137, "gas": 265, "##regn": 377, "enol": 4239, "efrin": 219, "enyl": 9991, "aph": 1007, "oestr": 114, "tid": 1396, "##roni": 492, "##rnico": 26, "##mis": 727, "eg": 2105, "##adrol": 119, "nate": 16105, "eug": 29, "euph": 21, "##ylon": 229, "##pec": 409, "ix": 3896, "##ilic": 766, "ptc": 44, "##elet": 103, "viia": 15, "vii": 59, "ahf": 11, "ahg": 5, "eight": 37, "xiii": 6, "##lis": 2085, "fsf": 7, "teen": 31, "##card": 371, "fam": 572, "##esol": 411, "deca": 1496, "far": 237, "##nesyl": 100, "fat": 396, "emu": 123, "##lsi": 175, "##rav": 342, "pol": 1474, "puf": 10, "##sat": 479, "urate": 909, "##lod": 339, "##ipine": 1035, "##ipin": 466, "##essin": 491, "opr": 2263, "plv": 3, "##das": 304, "swee": 34, "flo": 898, "##ence": 443, "feno": 454, "fn": 183, "##oprof": 68, "##spir": 435, "##lima": 342, "cii": 30, "##rri": 292, "fer": 1297, "##tili": 182, "##erti": 339, "ifnb": 4, "fib": 408, "tics": 1693, "##spu": 30, "pso": 181, "##ralen": 334, "##oral": 693, "fil": 806, "##ris": 2441, "sea": 196, "fk": 74, "##xate": 867, "##oxat": 176, "##xato": 69, "##inide": 712, "##canid": 10, "##inid": 209, "##enine": 1048, "flua": 66, "##nxol": 20, "fc": 255, "##mico": 160, "##maz": 420, "##nido": 98, "##olide": 2960, "fap": 102, "fdu": 13, "##urid": 287, "##tadec": 409, "##xet": 195, "fx": 65, "##ixol": 245, "fena": 334, "##pyra": 773, "##zpam": 17, "##rob": 928, "oro": 3584, "##othy": 118, "##oxen": 151, "##oss": 191, "nif": 261, "##toli": 193, "##tolid": 48, "fta": 117, "##tamid": 543, "nfb": 8, "##ofl": 555, "fmn": 5, "##ill": 1439, "pga": 15, "##dinyl": 981, "pte": 320, "fli": 52, "##uct": 205, "##hista": 104, "##alde": 268, "##rmo": 314, "##eh": 854, "##rmi": 544, "##ise": 538, "##nsure": 270, "##ycins": 393, "fos": 773, "##sfo": 55, "##net": 1002, "fr": 1076, "freu": 4, "##lete": 133, "fca": 21, "fru": 133, "##ctose": 233, "frui": 26, "foo": 47, "fsh": 19, "ft": 911, "##idyl": 1355, "fum": 132, "##nga": 361, "##gin": 2636, "##idone": 1532, "##sem": 314, "##emid": 195, "fur": 1298, "##semi": 123, "frs": 7, "##idu": 345, "##mara": 193, "fus": 199, "##dico": 87, "##dique": 24, "##idic": 724, "gan": 1191, "gm": 336, "##lyc": 1206, "alone": 839, "anoic": 3176, "abu": 167, "##lant": 783, "##rem": 553, "triy": 20, "##iodi": 184, "tio": 1074, "msh": 23, "mel": 872, "##lovir": 504, "gcv": 5, "dhp": 72, "y": 87948, "ndg": 6, "gli": 550, "##ende": 81, "ins": 3771, "gip": 22, "##farn": 55, "##atins": 112, "##atina": 167, "##mf": 399, "##ibro": 230, "##zil": 491, "xy": 19664, "##nti": 1853, "cry": 401, "hyl": 21323, "ros": 2218, "ger": 670, "##kit": 137, "ges": 790, "##trin": 1621, "gla": 335, "##feni": 225, "##fenin": 140, "##ubin": 336, "##drin": 1269, "##cra": 224, "##butox": 111, "amido": 4328, "##burid": 7, "##zide": 4003, "##kla": 59, "##zid": 1133, "##liz": 451, "##zida": 161, "tol": 5485, "##xins": 188, "##izide": 235, "##zidum": 130, "gon": 866, "##emic": 755, "hg": 141, "##kagon": 4, "##agon": 259, "gcg": 4, "##mers": 153, "##ito": 1168, "##rose": 381, "##ert": 1131, "dioi": 75, "##uta": 1332, "##tat": 6728, "##einyl": 204, "gsh": 23, "##imid": 1390, "##eride": 476, "##noi": 736, "ls": 4624, "ng": 12780, "gtn": 2, "##ogic": 348, "##coll": 143, "##okoll": 6, "##yco": 668, "asg": 10, "##mmo": 325, "pit": 346, "##uitar": 14, "chai": 11, "gph": 6, "gag": 58, "##ycyl": 753, "ji": 329, "##tinic": 409, "##yrr": 507, "glyo": 46, "##itro": 1109, "gens": 446, "ass": 579, "rad": 1002, "##old": 486, "##bion": 96, "##rion": 170, "cg": 237, "ecg": 16, "gos": 236, "##sypol": 24, "cot": 958, "##seed": 154, "##rmy": 135, "##out": 246, "gr": 1576, "##nea": 443, "##osan": 798, "gri": 233, "##ofu": 571, "##lvin": 184, "##ful": 299, "gro": 224, "guai": 148, "##acol": 375, "##ifen": 907, "##abenz": 86, "##aben": 435, "##zum": 610, "wy": 92, "##tensi": 95, "wye": 12, "ayers": 10, "##cinyl": 223, "okt": 17, "##nsin": 831, "guo": 31, "##rni": 307, "gut": 43, "##imine": 1142, "##himi": 39, "##thym": 224, "hal": 1400, "##cino": 597, "##ych": 274, "##ede": 304, "##sl": 459, "##ofen": 1760, "##spor": 311, "##loa": 110, "##por": 825, "har": 660, "tel": 996, "thine": 1365, "yag": 11, "##liu": 321, "##ema": 858, "##emia": 245, "hyrin": 735, "##yrin": 1102, "##edon": 127, "hol": 2765, "hae": 208, "##heme": 52, "##ohe": 899, "por": 825, "phine": 1915, "hmi": 67, "##mos": 406, "sto": 934, "blee": 6, "u": 54037, "ufh": 3, "##serp": 96, "var": 392, "mol": 2154, "lmw": 5, "##titis": 140, "aus": 150, "##trali": 82, "hba": 40, "ali": 2393, "##bag": 73, "ati": 2347, "##rfa": 109, "##lia": 1902, "hbsa": 4, "##oci": 914, "hb": 314, "haa": 39, "hbs": 16, "##barb": 421, "cir": 141, "##antin": 402, "hes": 556, "hen": 7684, "alt": 814, "##oids": 550, "hsa": 16, "hxm": 5, "hmm": 28, "##estro": 276, "##dinum": 670, "erh": 71, "exy": 507, "##exe": 228, "enh": 118, "##oben": 1064, "his": 800, "##idina": 479, "##las": 1090, "hoe": 67, "##alu": 406, "##ronic": 973, "##rona": 525, "##nase": 1553, "rey": 48, "##abi": 715, "inv": 89, "hya": 132, "##thone": 607, "hyc": 90, "##laz": 554, "##azina": 389, "##ngin": 910, "##done": 2854, "##droc": 388, "##odon": 273, "##cone": 1032, "##odone": 403, "##isol": 821, "hc": 385, "ia": 16510, "hoo": 72, "##gene": 1697, "##xyde": 95, "##olyl": 1371, "hcq": 9, "##asta": 432, "##rch": 417, "##yur": 70, "##ks": 630, "##yny": 145, "hot": 281, "idr": 236, "tal": 4629, "ime": 4565, "##notic": 27, "##ogl": 557, "##yca": 491, "##emi": 893, "##yce": 425, "##mia": 577, "hrf": 9, "##tonic": 269, "ibo": 408, "##gaine": 50, "##gami": 81, "ibu": 340, "##profe": 225, "##roph": 766, "pmr": 2, "##upr": 376, "ich": 968, "##tham": 176, "##ht": 1747, "##ulfo": 1273, "icht": 36, "##hyol": 27, "ym": 1940, "ici": 1827, "icr": 385, "ida": 3364, "dmd": 65, "iudr": 3, "idu": 345, "##our": 496, "##urd": 102, "##phat": 356, "ifo": 519, "ipp": 166, "ipps": 15, "ifx": 2, "nax": 252, "iff": 62, "idum": 1614, "##amida": 450, "##endo": 197, "igd": 16, "igg": 36, "hel": 388, "mab": 16181, "##clon": 234, "ild": 134, "il": 23493, "##ocarb": 508, "##enem": 419, "##emide": 427, "##prami": 179, "ive": 2541, "##pamid": 108, "fd": 147, "blue": 127, "dye": 28, "##mbe": 201, "fdc": 14, "##got": 189, "igo": 419, "##ramin": 719, "sho": 119, "vac": 851, "##avir": 1030, "##koll": 16, "idp": 9, "inic": 2823, "itol": 2111, "##lohex": 757, "myo": 96, "icide": 414, "##modi": 131, "nph": 88, "##dorn": 21, "iz": 2027, "sus": 753, "sion": 789, "pzi": 11, "##lent": 474, "##ord": 414, "##tica": 657, "rhui": 3, "intr": 222, "moie": 3, "ifng": 3, "##cers": 40, "lfn": 4, "##bolin": 179, "##lti": 403, "eo": 2628, "csf": 21, "mup": 39, "##lest": 506, "##opo": 620, "insic": 60, "if": 3500, "jod": 15, "##phor": 586, "##opho": 395, "iop": 543, "jo": 232, "##pami": 233, "triio": 38, "ipe": 1317, "##uan": 744, "##pral": 86, "ipr": 971, "##onia": 486, "##azid": 777, "iaz": 1431, "##tran": 1044, "mao": 52, "##etar": 104, "##avone": 1126, "##vone": 1269, "dfp": 19, "phor": 586, "##euc": 283, "iazid": 269, "##nia": 1514, "inyl": 4887, "##bex": 251, "##plex": 1059, "iad": 216, "##bbi": 31, "##opt": 401, "##sorb": 368, "isdn": 2, "isd": 71, "idi": 4349, "##tras": 153, "##ecen": 213, "cra": 224, "##xs": 145, "##bral": 116, "##ectin": 719, "ave": 562, "inum": 9979, "jan": 62, "jb": 19, "##sam": 528, "tur": 475, "##imy": 222, "jm": 55, "##iper": 864, "who": 10, "ju": 327, "kai": 48, "##lidin": 1584, "bra": 654, "##kinin": 246, "kin": 1428, "kr": 186, "##eins": 77, "kao": 29, "sil": 1362, "##sse": 341, "##rton": 97, "whi": 49, "##ray": 702, "##culi": 89, "##canth": 111, "kem": 31, "##adrin": 135, "osn": 15, "##ervan": 15, "pee": 28, "ker": 404, "##osene": 113, "##nge": 559, "kta": 41, "ket": 453, "kc": 93, "sci": 218, "##sten": 286, "##tifen": 92, "asthm": 29, "##hyla": 1116, "##tif": 357, "khe": 33, "##mmin": 98, "koe": 14, "kry": 16, "kw": 62, "ky": 369, "##nur": 240, "##etol": 393, "lol": 4394, "##ulose": 635, "##ulosa": 67, "##ulos": 189, "woo": 73, "grea": 22, "wax": 64, "las": 1090, "##aloc": 95, "onyl": 7607, "##bronc": 89, "lvan": 53, "##osol": 548, "##van": 1160, "sek": 21, "##reto": 64, "##acon": 381, "##inan": 689, "##pros": 552, "ler": 1247, "##ovo": 205, "##rum": 2030, "##vor": 194, "lor": 4433, "##allo": 286, "ll": 6596, "##rfan": 66, "##sole": 519, "##etra": 1873, "lms": 18, "##misol": 74, "##trel": 371, "##rpr": 163, "##dopa": 436, "##dop": 652, "lv": 723, "##hanol": 2232, "##isin": 520, "icsh": 5, "##tit": 303, "ial": 1852, "lh": 643, "##relin": 723, "lfr": 17, "lul": 146, "##iber": 176, "frf": 6, "rf": 966, "rh": 994, "grf": 11, "grh": 2, "lhr": 6, "lrf": 3, "##rli": 162, "trp": 35, "gn": 921, "lid": 2800, "##ocain": 329, "lig": 294, "xyl": 3424, "##ural": 407, "lin": 22039, "lcm": 2, "##eic": 655, "leic": 286, "raw": 59, "gnc": 7, "##rci": 244, "##poi": 84, "##lane": 1121, "##poa": 70, "##thiol": 500, "##muls": 43, "lip": 849, "##opic": 678, "lis": 2085, "##uride": 347, "##urida": 22, "lca": 665, "##cts": 133, "line": 18891, "lina": 1448, "lop": 1229, "lom": 494, "##ramid": 388, "hmg": 16, "##pinum": 217, "luc": 791, "##omil": 277, "##eol": 389, "lim": 1247, "##eci": 381, "##press": 358, "maf": 118, "##enide": 189, "map": 263, "##henid": 58, "##icid": 278, "##heni": 268, "##mil": 1541, "mg": 585, "##ngo": 261, "##gne": 122, "##sio": 277, "hid": 194, "##roxid": 103, "##sii": 92, "##esia": 190, "mgo": 9, "mgs": 8, "##kers": 72, "##orbin": 40, "##je": 326, "##ptil": 72, "##athi": 213, "##ofos": 242, "##ison": 399, "##cinic": 384, "##lto": 246, "##oses": 114, "##nna": 715, "##xao": 20, "##nni": 178, "##nitol": 217, "##tl": 391, "##nno": 193, "##huana": 11, "##juana": 15, "top": 1112, "##sani": 237, "##tans": 260, "##dolo": 388, "mcn": 19, "##eil": 39, "##beo": 13, "mb": 1678, "mbd": 32, "##lizin": 224, "##lozin": 434, "mc": 699, "##nami": 1380, "##azep": 474, "##zapam": 10, "##goxin": 98, "##haler": 218, "##phala": 37, "mpa": 342, "mef": 126, "##anami": 348, "##nmico": 26, "mf": 399, "##quina": 275, "##rus": 1915, "meg": 265, "##aton": 191, "mlt": 10, "tof": 219, "##ranil": 106, "##phal": 168, "pam": 2830, "##alan": 866, "##fala": 18, "mant": 247, "mem": 109, "##adio": 202, "##usal": 112, "##cing": 122, "##mena": 63, "pet": 450, "##hidin": 102, "pth": 72, "##dyna": 50, "min": 13100, "mina": 1179, "##tona": 162, "##atum": 1317, "##amat": 459, "##zino": 796, "##bromi": 95, "os": 13584, "##pron": 269, "hgc": 4, "##hori": 146, "mucil": 75, "anol": 6185, "##formi": 112, "##tano": 580, "adol": 1359, "drine": 1590, "ice": 772, "spee": 9, "mt": 779, "ort": 2874, "mtq": 12, "emal": 83, "nep": 494, "mth": 76, "hmt": 19, "mce": 20, "maz": 420, "##zoli": 717, "tia": 1000, "##mazol": 136, "##etho": 1774, "mtx": 15, "##exat": 120, "##thox": 1524, "##hox": 1553, "##oxs": 29, "##alne": 32, "##oxal": 671, "mms": 41, "##lg": 1192, "amd": 96, "dcm": 18, "##def": 188, "mph": 548, "##pred": 453, "mmp": 63, "##pryl": 147, "##ilon": 308, "##hys": 269, "##ergi": 153, "##iami": 548, "##sami": 285, "##lazo": 411, "##role": 814, "##pone": 362, "##rap": 647, "##ltine": 35, "mia": 577, "##nser": 154, "##oll": 433, "##metre": 32, "##dix": 123, "mid": 6819, "##drina": 92, "##ston": 463, "mim": 145, "##aen": 406, "##ffin": 102, "##osit": 110, "##rals": 122, "##cene": 1023, "##oka": 96, "micin": 1565, "mio": 101, "pill": 74, "pl": 2138, "dbm": 14, "mga": 24, "mgg": 11, "##zonum": 150, "##olac": 506, "dbd": 22, "ddd": 41, "##tanum": 167, "##trone": 907, "##oqu": 669, "##xta": 53, "mn": 690, "##indo": 616, "##omin": 610, "mop": 376, "##idam": 121, "##antel": 275, "aft": 268, "##rfi": 95, "inc": 749, "##ludin": 61, "mox": 723, "##ctam": 680, "lam": 4159, "##oxac": 384, "mif": 189, "##rih": 174, "##zyme": 528, "##yme": 1385, "##zymes": 40, "##imol": 211, "minum": 1051, "mve": 9, "##ambu": 73, "mbu": 118, "myd": 110, "##ocalm": 24, "##calm": 330, "##atics": 176, "##fedr": 44, "##ropi": 921, "nad": 438, "dpn": 8, "coz": 44, "##ymase": 12, "##cilli": 469, "##cilin": 63, "##enop": 145, "noic": 5311, "nfx": 4, "##uryl": 361, "##bup": 170, "##ufina": 9, "aeth": 97, "##xic": 432, "nap": 1043, "##trex": 452, "npp": 45, "##drol": 521, "##ltan": 50, "##roxen": 104, "##xne": 21, "nat": 2793, "pim": 284, "##nec": 596, "##arac": 179, "##soxy": 93, "osa": 2247, "##lvo": 36, "nea": 443, "neg": 124, "str": 1745, "eun": 36, "gil": 257, "##tmal": 17, "##tm": 574, "zin": 5564, "##tatin": 2597, "ncs": 13, "ear": 1250, "ver": 1436, "stig": 103, "eus": 487, "net": 1002, "##rops": 223, "sin": 9595, "cidin": 988, "nia": 1514, "nico": 530, "##agra": 82, "##tins": 306, "bei": 49, "##lamid": 517, "##arba": 937, "##ard": 2239, "##ergo": 277, "##olan": 807, "##ofan": 69, "pp": 2294, "##lumic": 72, "##urt": 111, "##imox": 87, "nig": 158, "##zet": 222, "##hami": 183, "nim": 401, "##pino": 364, "##ipi": 609, "num": 14471, "##ust": 559, "nin": 7965, "ntil": 183, "nis": 936, "sr": 192, "##othe": 388, "##lium": 2312, "xi": 3820, "ntri": 151, "##ff": 733, "edrf": 2, "pul": 216, "##mona": 189, "##fura": 602, "##ards": 40, "##hene": 1993, "nide": 2886, "##ghing": 19, "##vin": 1528, "##xyn": 223, "niv": 131, "nom": 768, "##lazin": 339, "##renol": 554, "nd": 5952, "##ethy": 7431, "nod": 406, "nfl": 189, "##moe": 80, "ld": 3082, "opa": 2131, "##yline": 673, "ntp": 28, "##cotin": 215, "##capi": 55, "##rums": 24, "nov": 430, "##obio": 88, "##obi": 577, "##ocine": 758, "nbc": 27, "##digal": 18, "##tiol": 104, "nsc": 56, "##bai": 88, "ny": 6570, "##pheni": 214, "bup": 170, "##henin": 93, "##stati": 440, "nys": 63, "phtha": 568, "obi": 577, "##reo": 258, "##roti": 188, "##eon": 406, "ofl": 555, "nel": 865, "##ken": 219, "oel": 31, "vo": 1948, "syz": 4, "##ygium": 46, "aro": 889, "oli": 4526, "toy": 118, "##praz": 310, "omn": 72, "opc": 86, "opi": 1485, "som": 552, "##erum": 232, "##ud": 1062, "orp": 1074, "##ithi": 439, "ouab": 5, "oua": 27, "##baine": 105, "oub": 15, "olon": 844, "onum": 1341, "ut": 5652, "##oroti": 17, "##pren": 275, "olol": 2670, "odone": 403, "ode": 1395, "odon": 273, "##phed": 385, "##hed": 675, "##opes": 33, "oline": 8022, "olone": 3441, "hmd": 19, "orf": 204, "ona": 4199, "##satin": 250, "onium": 7312, "##heno": 996, "##purin": 253, "olum": 1785, "oa": 2836, "ocic": 73, "##tocin": 447, "pah": 50, "pas": 555, "pca": 124, "##tie": 161, "##led": 400, "##cloni": 64, "pcpa": 6, "##acri": 257, "##codin": 99, "##ssu": 79, "##reas": 142, "##gamic": 21, "##hema": 129, "pon": 521, "pay": 14, "pep": 463, "pap": 388, "##aver": 158, "##etum": 97, "##verin": 275, "mix": 288, "rdna": 3, "##typ": 105, "##hoid": 92, "##nulin": 44, "zy": 1175, "##gom": 68, "##uci": 368, "org": 177, "pef": 30, "pfl": 8, "peg": 279, "pem": 107, "pio": 531, "##olina": 211, "##mpi": 162, "vc": 103, "pg": 331, "pcg": 2, "##ueo": 5, "pv": 222, "##able": 589, "##hri": 377, "##rpe": 129, "smoo": 19, "##lwi": 4, "##ester": 663, "##osane": 256, "pent": 2088, "ssg": 10, "dcf": 11, "ptx": 18, "lep": 404, "##tazol": 174, "ptz": 6, "bou": 43, "##lt": 3204, "##lytic": 477, "hiv": 43, "##nazin": 157, "##goli": 108, "##epar": 147, "##iline": 1184, "##ilene": 175, "##ofr": 65, "##ofran": 24, "##oping": 8, "##orbed": 20, "je": 326, "##lly": 776, "bp": 686, "ws": 220, "pf": 269, "##izer": 871, "##lohe": 582, "##lzin": 41, "phne": 74, "##lzine": 92, "##lz": 134, "pea": 206, "formi": 112, "form": 784, "ione": 3592, "##iona": 356, "##ira": 1019, "##razin": 1247, "pob": 51, "##proc": 318, "##umo": 248, "##sedyl": 23, "##iary": 111, "lya": 80, "frin": 385, "cvs": 6, "dph": 32, "phl": 103, "##orh": 123, "##lorid": 240, "##lori": 393, "##nsf": 64, "##erase": 1003, "crea": 140, "pde": 24, "##cetic": 3385, "isto": 167, "fy": 404, "##dion": 458, "##tom": 589, "##banil": 43, "##banyl": 8, "ij": 67, "bbe": 25, "pina": 376, "##dolol": 214, "spp": 23, "##holm": 9, "##tru": 272, "angel": 48, "pal": 616, "##ustr": 63, "##midic": 370, "##nical": 80, "pbo": 26, "nci": 180, "##obr": 176, "pir": 1119, "##aceta": 770, "##enze": 600, "##nzp": 21, "##bedil": 15, "##bend": 151, "##xicam": 182, "##oxyca": 332, "pxm": 3, "pos": 332, "##zot": 295, "piz": 60, "##otif": 29, "##ipar": 128, "##nder": 313, "plg": 19, "##epla": 85, "rt": 6355, "tpa": 106, "ttp": 61, "##plas": 244, "tis": 1760, "##oki": 172, "##gre": 272, "plu": 164, "pne": 89, "phyl": 556, "##hyll": 442, "maya": 8, "##pple": 85, "##filox": 15, "ppt": 72, "##virus": 540, "##eli": 1216, "##lio": 277, "opv": 6, "##gran": 308, "##opir": 84, "ppg": 21, "##lock": 145, "rc": 1893, "##ribo": 232, "##inos": 460, "mw": 44, "##thol": 553, "peo": 45, "##ols": 854, "##aride": 354, "##bate": 477, "##eat": 413, "##rtic": 293, "kcl": 3, "##lny": 8, "hcr": 6, "##umin": 672, "##iodic": 35, "hmn": 19, "##vidon": 62, "##vid": 332, "##vido": 62, "pvp": 16, "##dona": 218, "##ivi": 473, "##vinyl": 351, "##ctol": 270, "##kt": 213, "##ololu": 26, "##alium": 100, "anium": 500, "##siol": 32, "##ntel": 358, "##zosin": 200, "##sinum": 338, "##roy": 192, "pm": 630, "prd": 7, "##dn": 465, "##niso": 172, "##tanol": 635, "pcn": 8, "##nazo": 562, "##une": 650, "##ocan": 122, "##uine": 1152, "##aquin": 316, "##achin": 51, "##idon": 485, "mys": 49, "proa": 67, "##difen": 113, "##esu": 604, "##ucol": 146, "##capto": 367, "##bucol": 74, "pcb": 20, "mih": 13, "pcz": 2, "##ibr": 542, "fnf": 2, "fin": 1296, "edi": 1686, "##sylat": 88, "##ios": 448, "##igi": 232, "##oza": 177, "##age": 1073, "##rpu": 74, "##teu": 46, "##tei": 321, "prg": 13, "##gynon": 32, "xil": 718, "bin": 2317, "##lact": 709, "mmo": 325, "mm": 1359, "prl": 8, "lth": 802, "prf": 5, "nol": 19024, "##ethox": 1479, "esis": 409, "##ofol": 212, "glue": 2, "brea": 46, "bread": 32, "ptu": 40, "##amn": 231, "pidin": 106, "pgi": 5, "pgx": 3, "##ove": 638, "##tec": 912, "##tect": 255, "##pie": 56, "##hia": 1307, "rsal": 124, "ann": 535, "##ybin": 81, "##loci": 80, "##ibin": 131, "tamin": 1072, "psy": 89, "isp": 330, "##ghula": 21, "stoo": 6, "##fac": 360, "alv": 141, "##olar": 222, "pyo": 17, "##lei": 268, "##moa": 129, "##idox": 220, "plp": 14, "cd": 544, "##tinol": 314, "##fini": 62, "##gall": 159, "que": 1553, "##rce": 727, "sop": 882, "dik": 44, "##verti": 54, "##ebr": 225, "##entyl": 923, "##max": 1322, "##pazi": 49, "##bie": 94, "##eni": 1834, "eff": 78, "sen": 2080, "##zers": 227, "raf": 417, "##oxani": 32, "rap": 647, "ref": 181, "rig": 290, "##eran": 615, "rod": 846, "yo": 924, "##him": 199, "##ban": 1697, "rpate": 45, "##erp": 334, "rpin": 305, "##cinol": 677, "##phth": 908, "##oiso": 201, "##poly": 817, "rtca": 7, "rbv": 2, "##avi": 758, "ric": 6281, "rif": 712, "sv": 171, "rfp": 7, "rim": 2316, "ria": 3059, "ada": 633, "##adin": 755, "ris": 2441, "rit": 1055, "rin": 19069, "rna": 434, "##falin": 115, "##cky": 51, "##ntain": 34, "spo": 428, "rol": 11533, "ron": 6997, "##idazo": 983, "rse": 476, "rsone": 106, "rox": 4005, "rx": 923, "##efa": 262, "rgan": 209, "rut": 195, "##horin": 199, "##osido": 51, "##tino": 409, "rha": 151, "rya": 95, "##nodol": 37, "##onine": 1514, "sam": 528, "##chari": 66, "ohb": 13, "##iasis": 104, "##lico": 265, "hts": 55, "soli": 131, "##arium": 216, "##igra": 85, "##sri": 14, "dse": 18, "bh": 221, "sce": 206, "##iran": 575, "siz": 36, "##ofil": 88, "##lero": 121, "sant": 451, "meb": 127, "##ally": 524, "##retin": 450, "sef": 39, "sel": 647, "##nite": 473, "sln": 4, "ccnu": 7, "mcc": 33, "##ophen": 1844, "ht": 1747, "tee": 63, "mayou": 4, "##tte": 536, "ori": 1597, "zhi": 76, "sex": 50, "##ow": 941, "sia": 850, "agn": 146, "nn": 1298, "##yma": 182, "##imar": 144, "##icon": 452, "##metic": 276, "sim": 388, "##ticon": 41, "##cali": 140, "ter": 4516, "##minal": 161, "soh": 53, "xe": 1003, "sis": 2676, "ster": 1609, "sk": 567, "rsk": 18, "##mmet": 18, "##lpox": 33, "sds": 8, "sls": 6, "hed": 675, "##spho": 900, "msg": 4, "##fate": 1064, "##odium": 623, "##sina": 391, "nai": 84, "##huate": 26, "vei": 20, "snp": 7, "##lary": 88, "##llia": 112, "std": 10, "sts": 127, "##ecan": 1210, "dpa": 78, "stat": 5174, "sri": 14, "sif": 102, "ss": 5393, "gif": 55, "sth": 112, "gh": 571, "##lolo": 38, "##fon": 1506, "sot": 380, "sov": 80, "soy": 41, "soya": 15, "##yrido": 439, "sm": 1428, "smo": 226, "##lyt": 375, "mat": 1435, "##ceti": 468, "##ctone": 2058, "##irone": 386, "##osh": 90, "spl": 72, "sq": 226, "squa": 71, "ns": 10339, "##ozol": 205, "aem": 137, "stea": 197, "ok": 610, "##tade": 333, "sure": 835, "##dc": 679, "##phati": 86, "tazin": 136, "##anid": 576, "##epto": 253, "sulf": 2480, "stn": 28, "ya": 2087, "ycins": 393, "stz": 3, "sz": 33, "stro": 522, "##tium": 374, "stry": 102, "##chn": 109, "##ocu": 231, "##fato": 85, "##rosa": 318, "##ralo": 76, "##xum": 149, "##ync": 60, "##hron": 192, "##bact": 295, "eric": 700, "##leno": 396, "smz": 2, "smx": 3, "##gents": 47, "sole": 519, "##tures": 41, "##dac": 470, "##indac": 76, "##inda": 285, "##idil": 573, "##iride": 188, "##irid": 192, "##thiam": 77, "##iame": 68, "##iamo": 37, "##muta": 41, "##prof": 313, "##bonyl": 3362, "##ease": 477, "##gent": 324, "##opine": 719, "##cri": 547, "mgh": 2, "sio": 277, "##lcu": 37, "##wde": 22, "tam": 3554, "##xif": 185, "tni": 12, "tau": 163, "tem": 628, "##ipo": 415, "tn": 485, "ept": 2724, "##liden": 554, "##gna": 508, "##sido": 121, "##posid": 42, "ptg": 13, "tep": 286, "bpp": 64, "##pira": 206, "tes": 2767, "tone": 5389, "tl": 391, "##stero": 482, "hti": 19, "##gical": 321, "ttr": 35, "##acane": 16, "##kain": 38, "tcn": 17, "##rist": 328, "pma": 89, "aoc": 39, "ckk": 2, "thc": 43, "thu": 172, "omp": 391, "ttf": 12, "##ophy": 358, "teo": 141, "##filin": 65, "tbd": 19, "tbz": 7, "##beri": 95, "##phosp": 1268, "tpp": 98, "##myla": 64, "##osal": 419, "tspa": 6, "tg": 214, "thg": 16, "hydr": 5100, "mpr": 157, "##penta": 1224, "tix": 184, "tixen": 29, "orb": 685, "treo": 41, "##nina": 255, "##base": 189, "##uline": 275, "ipmp": 5, "##roid": 490, "##cated": 90, "drie": 11, "tsh": 31, "##ropic": 430, "##ire": 696, "trh": 5, "tt": 1007, "lt": 3204, "##iodo": 470, "aab": 31, "##pride": 965, "##rida": 370, "##prid": 294, "##ryna": 42, "tie": 161, "##liqu": 137, "##nilic": 354, "##keto": 237, "til": 1926, "deae": 10, "##ptol": 190, "tin": 19370, "tdz": 2, "tbm": 7, "eca": 2533, "##zamid": 219, "##ylu": 257, "tine": 7355, "##luo": 1533, "##naft": 63, "tatum": 214, "##naph": 538, "tlc": 11, "##lysyl": 133, "tpc": 28, "##aphen": 292, "chlor": 2620, "amc": 104, "##xm": 124, "##nex": 1511, "##xami": 469, "ata": 2270, "##ract": 230, "anx": 65, "##olyti": 100, "##chot": 61, "tan": 6880, "##quil": 216, "upt": 38, "##ak": 1542, "reu": 94, "##ptake": 18, "##ozone": 134, "##zod": 152, "##room": 66, "##ycol": 678, "##blex": 25, "tino": 409, "tinon": 47, "ecl": 260, "##erene": 164, "trne": 6, "##eren": 158, "##olam": 947, "##iu": 2714, "tcaa": 4, "tca": 102, "tce": 9, "##derm": 1880, "##hec": 156, "##losa": 161, "dh": 441, "tfp": 25, "tft": 11, "ftd": 2, "aaa": 22, "tm": 574, "tmb": 28, "tmp": 111, "esl": 54, "##zali": 23, "##rime": 711, "##epr": 656, "##eate": 459, "##lai": 154, "##eyl": 143, "##alen": 1398, "tyl": 6947, "##ylpr": 450, "##tris": 511, "##cell": 374, "##wma": 8, "##ofa": 220, "tbc": 24, "tub": 125, "##rare": 40, "twee": 13, "##ricin": 974, "ub": 1486, "coq": 19, "ult": 479, "##ente": 360, "ext": 329, "##nded": 139, "unc": 131, "##oup": 57, "uni": 343, "dmp": 106, "ura": 2169, "ustin": 217, "kar": 169, "##bamid": 77, "##nst": 231, "##off": 173, "kys": 6, "##eliny": 4, "##rbam": 555, "##osu": 723, "urd": 102, "##graf": 85, "upa": 154, "two": 7, "##kina": 53, "##ltu": 57, "##holic": 720, "udc": 8, "usn": 25, "ust": 559, "uz": 493, "lav": 659, "##proic": 137, "div": 101, "##oex": 43, "vpa": 22, "van": 1160, "##nco": 378, "##oac": 601, "adh": 60, "vec": 1132, "vel": 400, "##osul": 341, "vr": 181, "##apami": 38, "##tril": 821, "via": 336, "##abin": 404, "##loxa": 476, "vin": 1528, "##bl": 1097, "vlb": 7, "##nca": 324, "eb": 1656, "enine": 1048, "vcr": 7, "lcr": 31, "##desi": 99, "dva": 43, "##desin": 50, "vds": 2, "##gyt": 25, "vir": 4444, "cob": 261, "##rnum": 36, "von": 441, "##brand": 64, "rco": 247, "rag": 408, "vwf": 9, "##ricof": 6, "war": 85, "##farin": 74, "we": 576, "wg": 25, "wp": 28, "##otene": 294, "xip": 109, "xine": 1461, "yt": 1959, "##terb": 71, "yb": 941, "yut": 9, "ze": 3413, "##lanol": 112, "zea": 46, "zdv": 2, "##vudin": 71, "##ldine": 201, "zim": 259, "##ldin": 98, "zn": 100, "##ncu": 44, "zdc": 3, "zno": 7, "scre": 23, "znd": 2, "##inat": 649, "zol": 7046, "##sep": 354, "aad": 44, "nhd": 8, "##kdo": 6, "##nja": 31, "ash": 396, "epp": 100, "ivn": 7, "mof": 114, "##ezol": 128, "dmpi": 6, "dpi": 15, "apd": 38, "ahp": 31, "##rbp": 7, "epe": 264, "epr": 656, "empp": 7, "##riso": 145, "apm": 35, "##mbp": 51, "gtp": 26, "cmaa": 2, "oyl": 9141, "adtc": 4, "lph": 1513, "dt": 567, "##gamma": 182, "edtp": 4, "##icos": 324, "hh": 144, "##ntane": 880, "mba": 203, "bhpe": 4, "dmba": 8, "tgu": 4, "##poxy": 943, "##rave": 95, "cto": 1073, "ctone": 2058, "drs": 3, "diol": 2591, "chry": 119, "dll": 5, "##ipro": 455, "df": 300, "##ripr": 71, "dmo": 29, "##hpo": 46, "##noyl": 2563, "dhpe": 2, "enp": 221, "idene": 3148, "max": 1322, "##aca": 957, "##regna": 324, "tbt": 31, "tgt": 18, "tgi": 2, "bct": 12, "dsp": 24, "tap": 521, "##np": 815, "azp": 26, "nhm": 5, "##anti": 1204, "jot": 2, "dmt": 34, "bdpo": 4, "##iza": 362, "aed": 56, "iaed": 6, "tay": 53, "psh": 8, "tcp": 23, "##anate": 1201, "nei": 142, "php": 68, "gpt": 12, "alpm": 2, "cnc": 20, "slc": 11, "##bpz": 5, "cpp": 87, "bvdu": 4, "ivd": 13, "mbh": 12, "##ppep": 26, "##trien": 386, "nyl": 28292, "nppe": 3, "bcc": 23, "tma": 109, "pba": 44, "pbb": 10, "pzda": 2, "np": 815, "iqs": 6, "qp": 65, "flm": 2, "##atran": 195, "##ecane": 1129, "cm": 472, "##trane": 109, "mdp": 61, "gdp": 13, "paf": 103, "agpc": 5, "mtba": 4, "eut": 227, "put": 45, "dde": 77, "cme": 50, "fad": 139, "ei": 1884, "##cosa": 661, "etf": 23, "etk": 10, "emh": 7, "edc": 21, "etc": 51, "amg": 27, "pc": 1082, "hd": 356, "gpc": 25, "och": 761, "hcfu": 2, "dhla": 2, "mni": 107, "mpto": 61, "mpx": 3, "pglu": 9, "mir": 305, "##ipir": 91, "noa": 557, "ednp": 2, "peri": 809, "omg": 13, "##gp": 277, "##cosyl": 248, "cluy": 2, "ede": 304, "##fosin": 38, "onic": 7286, "onate": 8136, "nbd": 17, "##obenz": 937, "ses": 875, "pdt": 23, "pmh": 18, "pda": 63, "tci": 16, "deh": 492, "mdo": 26, "npa": 72, "tp": 976, "##uca": 436, "cri": 547, "##imod": 1267, "cdi": 18, "##qo": 86, "hde": 24, "mpe": 197, "nao": 46, "oetd": 2, "##stane": 503, "ped": 388, "##ecy": 543, "##folic": 472, "dbfa": 4, "dd": 747, "ari": 2095, "dppa": 4, "hpe": 26, "od": 7302, "opd": 19, "hpl": 8, "lox": 2018, "mtd": 36, "mta": 82, "##estra": 379, "dhv": 2, "pgh": 6, "gem": 151, "##epro": 373, "dpg": 9, "##andin": 946, "ono": 1872, "kau": 20, "dmaa": 2, "dmn": 20, "##ores": 164, "##cein": 583, "ohp": 22, "dfa": 36, "##arn": 268, "##itab": 251, "##cita": 156, "dehyd": 492, "ddu": 28, "tnp": 16, "cmb": 29, "##ump": 103, "ff": 733, "ump": 103, "bce": 19, "cda": 30, "##trif": 369, "dmc": 36, "##tab": 1338, "fia": 93, "fmau": 2, "pds": 12, "mbe": 201, "##roman": 396, "dge": 153, "xt": 471, "bhb": 8, "hpm": 30, "cmn": 14, "css": 5, "ssn": 14, "dbb": 14, "dch": 36, "imp": 244, "nbq": 3, "nda": 763, "rio": 673, "##oksol": 6, "moe": 80, "dcb": 12, "tbu": 42, "##hq": 107, "dap": 355, "ddda": 8, "dat": 401, "dmb": 23, "bdb": 17, "adp": 72, "aeb": 10, "meo": 128, "##dime": 1580, "tsl": 2, "tsp": 27, "##hpa": 113, "ffi": 101, "mmpi": 2, "cdmi": 3, "peb": 33, "dlp": 6, "dmpo": 10, "cpo": 24, "dcv": 13, "##anoyl": 1559, "oae": 24, "##cms": 18, "ocmp": 11, "##idino": 1101, "tns": 7, "dtm": 30, "aos": 45, "coo": 103, "csl": 2, "nma": 56, "tmse": 2, "tna": 37, "athb": 2, "atbc": 4, "mpi": 162, "##iq": 875, "apb": 51, "abm": 14, "##fpp": 47, "aipp": 5, "aag": 22, "abz": 3, "nba": 72, "bch": 24, "tah": 155, "iq": 875, "azf": 8, "bhd": 8, "ohpp": 7, "brda": 2, "baa": 34, "mdi": 37, "cdda": 3, "mx": 112, "##dide": 939, "cppa": 16, "cpi": 28, "##octyl": 295, "rv": 668, "neua": 4, "emgb": 2, "omc": 22, "fdda": 2, "cts": 133, "gs": 492, "tcb": 5, "hda": 49, "hng": 8, "glc": 76, "exa": 1832, "hpd": 19, "hna": 29, "phi": 893, "ohe": 899, "hec": 156, "##qnph": 3, "ms": 1253, "hpb": 27, "##etacd": 4, "abe": 487, "hp": 705, "ope": 1565, "mmg": 19, "##etpa": 16, "mgta": 2, "mee": 32, "meoe": 11, "mdn": 18, "ehp": 17, "enoic": 1399, "eit": 52, "##ipti": 155, "mtca": 2, "ppm": 36, "ncp": 8, "ntc": 15, "nmd": 11, "nfp": 10, "ooi": 3, "##pb": 590, "otz": 4, "cx": 65, "prn": 15, "ppe": 191, "##nf": 754, "##mbf": 12, "ens": 2371, "##uli": 803, "env": 71, "bq": 100, "mtb": 33, "thb": 19, "##oxir": 107, "##anide": 1037, "##preg": 173, "##nane": 526, "ao": 964, "##luor": 1456, "##mast": 287, "ctn": 21, "mda": 70, "azdd": 6, "##dapr": 37, "azttp": 4, "mra": 104, "dhd": 32, "cepin": 44, "fddgu": 2, "miv": 89, "lovir": 504, "fdd": 23, "ohm": 28, "dab": 76, "bza": 32, "bdt": 24, "tcs": 12, "tir": 284, "##pty": 141, "decyl": 1270, "dts": 16, "dps": 15, "##gt": 236, "mei": 77, "##qx": 66, "##bmc": 17, "qi": 193, "##tong": 114, "##hens": 34, "##oxyb": 643, "ipth": 7, "dbn": 8, "mil": 1541, "##drona": 97, "##doni": 116, "tmd": 21, "##azpa": 8, "mca": 75, "##mpd": 65, "cea": 390, "##bpd": 44, "##pd": 755, "##irine": 347, "tfm": 30, "##ipda": 6, "tmo": 40, "pdoa": 8, "enin": 2214, "aadp": 5, "##ner": 1066, "mzp": 3, "bcp": 35, "ech": 511, "cdo": 31, "oat": 783, "dz": 123, "cuk": 6, "##hoxa": 61, "kts": 8, "ohn": 34, "##pdte": 4, "hdh": 14, "iob": 120, "##eng": 512, "##uane": 58, "mig": 181, "fit": 171, "##netin": 125, "msf": 7, "mtpa": 3, "fes": 68, "nbp": 23, "tdi": 10, "og": 3511, "pdc": 39, "hio": 4064, "edmd": 19, "aagb": 2, "icin": 6213, "daa": 41, "oht": 12, "osta": 1241, "fba": 22, "dnd": 13, "dnc": 11, "ttb": 35, "thpo": 4, "gab": 128, "##oxad": 112, "##enox": 604, "atmp": 8, "##ylt": 1099, "bad": 101, "nft": 7, "abd": 77, "edm": 27, "##mpt": 192, "hmb": 40, "nna": 715, "ian": 1662, "##bd": 422, "dns": 12, "##apitc": 4, "nnk": 6, "nnma": 2, "pac": 405, "noo": 94, "abh": 23, "##mpp": 203, "bine": 1825, "vig": 124, "##aba": 532, "gvg": 2, "##bat": 427, "aob": 26, "anp": 75, "apcd": 5, "bst": 58, "benzo": 2403, "bbm": 14, "bma": 38, "pbp": 39, "##mene": 245, "cmt": 26, "##bhyd": 9, "##ytin": 155, "ddf": 25, "eppp": 3, "fhhsi": 2, "pfh": 5, "##hsid": 11, "hhsi": 4, "hdu": 6, "##bf": 152, "##bel": 453, "##lif": 361, "##eryl": 618, "hne": 130, "oha": 75, "pis": 247, "##odol": 321, "##olane": 326, "hyde": 2646, "doi": 70, "pn": 390, "iptb": 4, "atro": 291, "mmt": 36, "##qap": 17, "mpq": 15, "##ipid": 419, "##lad": 382, "mpt": 192, "##mepi": 69, "fom": 74, "mug": 19, "muh": 5, "mut": 325, "mub": 10, "##bsy": 4, "cab": 197, "bua": 9, "pnb": 15, "nbm": 12, "nbt": 12, "nps": 16, "##adg": 33, "##pbc": 32, "##ysine": 432, "phh": 10, "oz": 957, "tsf": 4, "hpa": 113, "##zt": 147, "cds": 11, "hpy": 20, "##very": 74, "fsb": 14, "fsba": 3, "maoe": 2, "mh": 219, "##zpa": 16, "dfu": 9, "##inox": 263, "gmp": 17, "chp": 36, "ddt": 39, "##hf": 187, "lmt": 9, "chh": 16, "##folat": 66, "##ytr": 142, "decan": 632, "del": 656, "##equ": 299, "dmmi": 2, "iah": 33, "dbc": 35, "bvd": 6, "bv": 93, "ivfr": 2, "dma": 130, "bqd": 2, "mpf": 22, "itc": 143, "hma": 102, "dcy": 10, "dac": 470, "bbau": 3, "oxin": 2851, "cq": 83, "thf": 52, "dnsa": 3, "##nsy": 78, "erf": 300, "eic": 655, "fcd": 4, "fdcy": 3, "aaf": 11, "hhx": 2, "hmp": 69, "pseu": 175, "hmf": 13, "##rfu": 62, "iba": 482, "ibn": 20, "##apten": 20, "##uinol": 949, "fh": 81, "##pidil": 182, "opt": 401, "tdp": 46, "##rau": 85, "tad": 786, "dnpa": 2, "rg": 1724, "##xamic": 945, "##sapas": 4, "bact": 295, "eoe": 29, "hpo": 46, "imn": 14, "mna": 60, "mboa": 2, "miaa": 3, "emo": 648, "##xypi": 45, "##ypin": 42, "mtp": 51, "##byl": 76, "ascp": 2, "##big": 111, "tdr": 6, "##ecyl": 1389, "ohc": 16, "bdd": 14, "bop": 161, "bpta": 4, "hbp": 31, "ccm": 9, "##olium": 1172, "adc": 72, "fis": 116, "afs": 13, "sbd": 6, "mde": 55, "dhl": 3, "pdca": 4, "sdm": 12, "tcx": 8, "cthi": 11, "cpr": 11, "hmpa": 10, "hq": 107, "ohq": 4, "glca": 2, "alh": 28, "tpt": 32, "ceo": 49, "saq": 12, "pes": 399, "dhca": 4, "noc": 779, "dhce": 2, "dhpa": 7, "ehn": 4, "pme": 55, "##fovir": 153, "adf": 30, "##ovir": 1137, "xat": 348, "dhb": 17, "bcv": 4, "dgp": 14, "hbg": 8, "##yan": 732, "aap": 82, "ccp": 31, "##pbz": 12, "pgd": 8, "pgj": 3, "##apro": 430, "##stol": 322, "hcdo": 9, "sha": 172, "##yano": 285, "##deoxy": 574, "phin": 1048, "##carn": 112, "##iet": 672, "##lvi": 205, "abl": 197, "astin": 539, "##bos": 201, "acc": 312, "##fylli": 125, "##yllin": 780, "##acto": 569, "annan": 83, "cnu": 79, "##rsol": 247, "orc": 334, "aha": 72, "azin": 3357, "##ynin": 81, "##ynine": 59, "ldl": 17, "acl": 314, "##roma": 499, "azide": 2989, "nle": 49, "##atgl": 7, "rn": 1736, "##teca": 125, "##ctan": 347, "##vicin": 75, "apl": 276, "anin": 1411, "cip": 209, "##digin": 73, "##vegin": 5, "alle": 206, "pppa": 12, "bppa": 7, "##topr": 155, "##isi": 588, "aer": 166, "afb": 11, "ts": 4312, "xx": 413, "afd": 5, "afl": 414, "##razol": 825, "##icic": 83, "aric": 761, "aga": 435, "##enzyl": 2215, "agr": 206, "##imon": 165, "##iin": 318, "##phol": 369, "ahr": 3, "aca": 957, "aid": 600, "ais": 86, "yoh": 36, "##mbine": 90, "rau": 85, "##asan": 268, "##oen": 110, "ak": 1542, "akl": 36, "##epril": 85, "##zziin": 5, "asone": 823, "acine": 496, "aten": 124, "##reti": 316, "aldr": 34, "ale": 1675, "##uf": 555, "##uzo": 91, "##uso": 100, "##luron": 147, "##pini": 79, "pcs": 47, "##ropy": 1379, "##ypr": 519, "##iprin": 85, "##prine": 440, "dbpa": 6, "tta": 234, "apcp": 3, "appcp": 2, "hpc": 61, "ampc": 3, "fmdo": 2, "fmd": 10, "dguo": 12, "tgd": 6, "##xal": 982, "##ophan": 389, "aaaa": 2, "bdp": 31, "##ppoh": 6, "##ding": 308, "emtb": 3, "##nese": 153, "##taric": 221, "##glur": 30, "ampt": 56, "##alam": 270, "##rgin": 360, "tpi": 22, "thq": 16, "axa": 255, "axo": 160, "##ucyl": 390, "phos": 1963, "##ern": 391, "asil": 239, "##inii": 92, "pct": 34, "alpcs": 6, "##eptyl": 241, "##onel": 150, "##frine": 184, "##ellin": 279, "##ovin": 170, "amtp": 2, "amt": 90, "##vam": 157, "##iph": 1021, "##rilo": 336, "afc": 46, "##cyano": 257, "##ybd": 22, "afide": 144, "##oquin": 761, "##olf": 92, "##lidi": 670, "ampl": 26, "das": 304, "##hina": 153, "##grel": 415, "##gesi": 178, "aps": 839, "##agu": 119, "##ual": 464, "##kalin": 26, "##ecal": 171, "##bda": 133, "##lica": 258, "##licin": 393, "##ptide": 851, "smt": 6, "scma": 4, "##hran": 67, "ftc": 17, "aia": 95, "sap": 236, "aii": 19, "shp": 20, "aiii": 5, "##spar": 234, "##yinin": 6, "##yin": 187, "mpc": 93, "amil": 697, "##hylb": 366, "##nacin": 245, "amyci": 515, "jk": 17, "##glut": 408, "ggc": 2, "##lit": 727, "hium": 255, "agi": 254, "##oce": 354, "llin": 5186, "agin": 239, "##strin": 358, "lps": 28, "##mony": 96, "sb": 317, "naph": 538, "sbf": 8, "qs": 47, "antr": 173, "appc": 7, "apc": 71, "##rodi": 334, "##ocr": 236, "##etrin": 127, "##ysi": 293, "lti": 403, "##enoyl": 361, "arc": 428, "earth": 22, "##dite": 199, "##dith": 300, "##oxe": 356, "arf": 113, "##zeti": 61, "atc": 89, "argl": 25, "ark": 397, "##rbat": 77, "aris": 562, "ava": 645, "arp": 310, "ylp": 2318, "##ux": 795, "##igen": 463, "sau": 31, "aso": 649, "arsn": 5, "annu": 30, "##motil": 46, "##ether": 527, "##linic": 509, "##sinin": 341, "##haosu": 94, "hau": 25, "##aosu": 104, "##gha": 24, "hua": 139, "haosu": 94, "hao": 52, "##paron": 15, "##lura": 232, "oss": 191, "##ript": 241, "##ssol": 50, "asl": 46, "##erl": 189, "asph": 20, "##halt": 23, "##sili": 136, "##zili": 22, "mnq": 17, "##hmo": 36, "astr": 214, "asu": 216, "##ezole": 154, "##ez": 853, "anf": 63, "rat": 2134, "##xase": 26, "##gite": 56, "##gus": 300, "##lgan": 147, "##othin": 52, "##olu": 575, "##icu": 551, "##ye": 971, "##migra": 55, "hbb": 8, "avi": 758, "avo": 411, "awa": 68, "aw": 261, "axi": 363, "##llar": 171, "dmq": 5, "##ifr": 52, "ator": 792, "##etine": 714, "##ibine": 140, "azr": 6, "##tene": 1493, "##tadi": 228, "adin": 755, "##tadin": 161, "azl": 22, "ndi": 751, "anch": 68, "ethyl": 18217, "ora": 2415, "##pyram": 66, "##leuc": 207, "azu": 166, "##mole": 149, "ord": 414, "tai": 193, "##iphe": 658, "md": 613, "sep": 354, "bpi": 16, "bai": 88, "##cale": 116, "##imu": 347, "##xia": 343, "##xinic": 30, "bak": 50, "##uch": 208, "##panol": 717, "##grin": 173, "##mite": 169, "bao": 72, "##huo": 53, "baq": 14, "##uacil": 28, "##algin": 163, "##loin": 69, "bas": 278, "bat": 427, "##iqu": 393, "##riden": 78, "baye": 6, "##azat": 102, "##uten": 205, "bayo": 3, "##silon": 62, "##oxane": 768, "urt": 111, "ptin": 1370, "ppi": 60, "bdf": 7, "bec": 256, "##lob": 505, "bef": 75, "##unolo": 22, "bel": 453, "##orad": 59, "bna": 15, "##zac": 343, "##azac": 213, "bmba": 3, "nob": 509, "##dani": 63, "pft": 3, "btpa": 7, "##race": 577, "ehb": 4, "##nzi": 271, "##ecene": 183, "bap": 92, "##tef": 119, "btz": 4, "tdma": 3, "##gonin": 51, "bae": 31, "bz": 219, "nho": 11, "chn": 109, "dmk": 10, "zda": 5, "bpo": 15, "bth": 10, "bami": 163, "baman": 22, "##diben": 214, "##dual": 53, "##imex": 123, "ube": 359, "##nimex": 43, "arn": 268, "btg": 2, "cdt": 24, "fna": 22, "##chon": 86, "ntx": 17, "##yryl": 734, "##plic": 69, "##uj": 64, "##nova": 240, "lup": 238, "mai": 143, "bev": 66, "bfe": 5, "bia": 209, "bne": 15, "bil": 406, "##harc": 17, "bim": 105, "##opyr": 936, "##chan": 58, "pru": 103, "##flor": 349, "enk": 53, "cppo": 4, "tcpo": 2, "oaed": 3, "bso": 50, "bcn": 21, "bdi": 19, "bda": 133, "dppe": 14, "bpy": 11, "rhp": 15, "##erate": 379, "##nedi": 940, "bss": 12, "tda": 19, "bolol": 15, "##menol": 151, "##ecur": 70, "##rk": 733, "##rmine": 689, "##over": 233, "##smu": 52, "##gala": 202, "brin": 304, "##isc": 460, "##olt": 150, "##lua": 93, "bl": 1097, "lat": 3022, "##nko": 65, "enu": 220, "##nm": 368, "##ebo": 205, "scy": 52, "bm": 310, "##olast": 262, "##prozi": 28, "##proz": 53, "##deno": 393, "##ldi": 708, "bom": 103, "##fton": 14, "bos": 201, "cow": 14, "##meal": 24, "##necor": 10, "##jat": 23, "##elone": 195, "hbo": 16, "##reli": 323, "##well": 178, "aam": 94, "##doph": 174, "brai": 15, "bbp": 30, "nes": 4155, "bnp": 8, "##dinin": 28, "brd": 8, "##fel": 172, "##mbin": 265, "##ider": 125, "cus": 1361, "##todi": 48, "skh": 4, "ren": 2408, "##amox": 276, "##icla": 79, "##romi": 345, "##lite": 379, "##namid": 935, "##ebric": 15, "##asma": 162, "##hodin": 104, "##opol": 192, "appd": 6, "##ras": 993, "bryo": 29, "btm": 13, "bts": 14, "##oxic": 285, "##omone": 274, "buc": 173, "##umol": 73, "##snida": 5, "bud": 65, "##iode": 48, "##lome": 161, "blu": 87, "##edil": 178, "##omed": 228, "##ogeni": 121, "##rolin": 240, "##lata": 391, "##azos": 84, "##arv": 196, "##aqu": 446, "##loh": 610, "##exyl": 1639, "##lbi": 205, "ito": 1168, "etic": 5297, "bufen": 102, "##ralin": 309, "vp": 242, "dide": 939, "pna": 40, "buz": 41, "##epide": 164, "##odide": 296, "bwa": 5, "bx": 70, "by": 310, "##rast": 407, "##ght": 435, "rr": 1749, "ctin": 1858, "cad": 264, "fae": 14, "##calis": 46, "##xomer": 37, "##rgot": 112, "##carbo": 1903, "##phil": 318, "##desm": 211, "##agit": 32, "##ylen": 1070, "##vatic": 10, "culin": 150, "##lofi": 40, "##ihe": 130, "##phro": 61, "cyclo": 2866, "##nog": 325, "##rdin": 394, "##uvo": 77, "##astim": 445, "dc": 679, "dq": 68, "kap": 68, "##romed": 70, "oque": 75, "oci": 914, "##etiz": 30, "mbt": 18, "cs": 3944, "##rson": 122, "dco": 29, "##mot": 426, "##ese": 538, "oxe": 356, "oxt": 22, "cinol": 677, "##rda": 144, "##izole": 750, "##vora": 42, "##tila": 83, "csi": 10, "##umon": 92, "##ved": 257, "##ilol": 257, "##dilol": 191, "##zeni": 29, "cz": 71, "##nary": 189, "##hini": 97, "##hino": 257, "cb": 356, "cbs": 4, "cci": 419, "pse": 247, "##udo": 246, "scd": 6, "##elic": 176, "##olor": 251, "cdr": 11, "dcta": 2, "cec": 72, "##phora": 182, "##ropia": 4, "##anel": 251, "##pime": 85, "##pima": 60, "##pimu": 20, "##minox": 43, "##diz": 67, "##oran": 458, "##pod": 198, "##tib": 1438, "##utene": 318, "##uzon": 50, "##name": 93, "##hena": 575, "##acain": 173, "##halin": 212, "##stas": 56, "cos": 1116, "ebe": 176, "##ilto": 16, "##umen": 75, "##rvi": 177, "##siu": 69, "##axate": 25, "cft": 9, "cgp": 19, "cgs": 2, "##etoc": 88, "##rtr": 171, "##eusin": 68, "##lida": 157, "chf": 13, "chk": 7, "##docin": 39, "##eopa": 17, "##urol": 206, "dcp": 48, "hbc": 20, "cml": 8, "##sila": 145, "caa": 33, "alsp": 10, "gyl": 198, "##quini": 77, "##zoate": 1394, "chq": 3, "dcn": 6, "xef": 72, "##ocam": 66, "##thaz": 95, "##lota": 48, "ahx": 6, "asd": 20, "sat": 479, "##eito": 47, "crc": 9, "##ozym": 77, "pk": 156, "##rys": 317, "##rde": 231, "vu": 375, "##lga": 153, "##rle": 123, "fga": 6, "cib": 71, "##irox": 200, "clop": 725, "kb": 92, "##nline": 28, "##azap": 108, "##meti": 311, "euc": 283, "##aly": 284, "caj": 17, "##eput": 6, "##metha": 849, "##fagin": 55, "##romid": 155, "##xepin": 229, "##kan": 183, "##rofu": 117, "ctri": 47, "##tron": 1030, "ck": 1779, "zen": 961, "##kah": 8, "##yrano": 541, "##lani": 400, "##zam": 520, "##uril": 311, "##egil": 32, "##anac": 155, "##azam": 225, "onl": 34, "##bazam": 119, "cort": 1524, "##olen": 193, "##ilium": 99, "##octol": 42, "##esone": 67, "cms": 18, "##some": 310, "##irac": 128, "##redn": 135, "##ape": 561, "##xac": 532, "cni": 36, "##aurin": 180, "##erox": 194, "##ocb": 8, "##ozide": 246, "cao": 87, "##broma": 113, "##rfon": 46, "ceine": 121, "##argo": 57, "##otsil": 5, "##bip": 228, "##ipres": 54, "##toa": 82, "##eze": 355, "##ifer": 327, "##nju": 51, "cta": 1358, "##trac": 544, "##glyco": 291, "kor": 85, "##mass": 25, "##vax": 571, "##eptin": 570, "cpv": 3, "cup": 126, "##idato": 196, "##ues": 242, "##eras": 173, "taa": 104, "##gor": 88, "##ensin": 544, "##porin": 682, "##odil": 366, "##anc": 585, "##stu": 171, "##yox": 123, "omen": 403, "cph": 38, "cpte": 2, "cqa": 4, "cqp": 2, "haw": 19, "##thorn": 44, "##bani": 64, "##moph": 125, "##cres": 91, "##sidin": 115, "crs": 3, "##natol": 37, "crl": 3, "crm": 10, "##cting": 150, "##alim": 347, "##ypt": 277, "##stal": 258, "##bita": 250, "##rofa": 59, "bmm": 13, "cuo": 8, "##gru": 20, "imcc": 2, "isb": 70, "##ogrel": 156, "cide": 1138, "##ycide": 24, "lr": 348, "mdha": 2, "##inosa": 135, "cbe": 14, "##bern": 20, "aptl": 2, "cpc": 26, "nmt": 13, "wr": 67, "mgu": 5, "##loni": 214, "##rva": 133, "##alyl": 332, "nva": 74, "csh": 10, "##rimin": 67, "##rimi": 413, "cyn": 182, "##oeth": 574, "cyp": 116, "##qualo": 23, "bmh": 6, "##argin": 227, "rk": 733, "egg": 20, "##este": 346, "##dins": 236, "cmv": 14, "##ova": 739, "##rola": 234, "##equin": 104, "##tyla": 314, "##yly": 98, "##hli": 23, "dai": 84, "dzein": 27, "##zein": 43, "dalin": 102, "dal": 1300, "##trob": 151, "##msi": 48, "##shen": 140, "##kun": 44, "eed": 631, "dar": 662, "##mst": 69, "##xib": 617, "dcpa": 7, "thal": 776, "ddb": 16, "aff": 139, "##adex": 346, "##yto": 401, "##ely": 261, "##kam": 72, "##mev": 61, "##mevit": 16, "pdb": 24, "def": 188, "##orice": 30, "deg": 113, "##micid": 52, "pod": 198, "##ocarp": 104, "##nant": 473, "##ete": 694, "dei": 76, "##tifo": 69, "dcc": 16, "##olys": 197, "hld": 2, "dem": 488, "hdb": 14, "##brox": 42, "##ecar": 556, "vis": 471, "##umi": 420, "##oxep": 70, "##cch": 151, "##nme": 102, "##uda": 183, "##zimol": 33, "hei": 67, "##fuco": 38, "##citin": 106, "##aspi": 114, "dmm": 23, "##strel": 239, "##oxym": 608, "kow": 15, "dev": 65, "##apam": 93, "##clam": 100, "##teno": 288, "##itus": 109, "dhcdo": 5, "##tros": 340, "dez": 58, "##ocina": 83, "##zocin": 219, "dhm": 38, "oda": 513, "##ceto": 480, "bdm": 13, "##rena": 278, "rhei": 11, "appp": 5, "##ifor": 139, "##trid": 202, "##tride": 165, "dfo": 17, "##acta": 269, "odd": 30, "##omite": 34, "##tomi": 121, "pau": 38, "dbs": 19, "nds": 276, "db": 389, "##zane": 107, "##salan": 140, "##arbi": 343, "dbh": 10, "dchpe": 2, "pta": 1059, "##wso": 13, "dcba": 4, "##resyl": 42, "##mnin": 70, "##hept": 620, "##ogest": 276, "##itane": 69, "##mozin": 31, "##bg": 222, "dn": 465, "dfb": 6, "##orma": 184, "rdg": 7, "##lycyl": 689, "##ylgl": 487, "drel": 130, "hdi": 24, "bhp": 22, "##eoyl": 130, "##roa": 540, "##prit": 35, "##bone": 131, "dmf": 6, "##ioic": 1600, "msm": 21, "##cifo": 44, "##fone": 964, "##rdrin": 20, "##butil": 38, "##raly": 32, "##pyrol": 50, "##acar": 194, "##nidol": 268, "##valyl": 136, "##vf": 34, "dpe": 30, "##aval": 118, "##laci": 110, "##alic": 885, "##yran": 743, "##hione": 605, "omd": 27, "dir": 110, "##hodi": 67, "drt": 19, "oac": 601, "##qual": 130, "##lver": 100, "##xar": 117, "##aden": 413, "##ifon": 71, "##omb": 357, "##scan": 174, "dj": 47, "dka": 7, "dmg": 11, "##oxyt": 299, "dod": 407, "##tosi": 167, "ddm": 36, "##labe": 57, "rime": 711, "##moi": 104, "amn": 231, "she": 232, "##lfish": 15, "poi": 84, "##siac": 17, "##tisol": 235, "dop": 652, "dor": 438, "dow": 49, "tmdo": 4, "paa": 92, "##pico": 131, "##epri": 88, "##plus": 435, "##pamon": 4, "burn": 133, "dso": 46, "dtta": 2, "duc": 114, "##cero": 342, "duo": 148, "##ynon": 82, "##kang": 121, "##jia": 73, "##oper": 219, "phpma": 2, "dwa": 21, "dya": 11, "##ninum": 307, "dyc": 40, "##lonin": 36, "dyn": 283, "##orphi": 241, "ndo": 1051, "##rphin": 384, "clidi": 93, "eba": 209, "##stina": 207, "ela": 1012, "ebi": 193, "##rati": 230, "ebo": 205, "##racin": 357, "##inde": 147, "ebs": 47, "eleno": 142, "##ments": 128, "ect": 1962, "##pene": 421, "erp": 334, "##uls": 109, "##ify": 183, "efa": 262, "##roxan": 235, "##fera": 593, "efl": 158, "eip": 15, "ekm": 9, "##aron": 258, "##otts": 22, "els": 388, "##pyran": 686, "##ucin": 353, "eml": 40, "##utr": 354, "emd": 51, "emi": 893, "##azino": 635, "##ctic": 342, "eptin": 570, "##kiren": 132, "oet": 699, "eeth": 86, "##born": 100, "eni": 1834, "thz": 4, "ttg": 6, "##lme": 905, "mhp": 25, "dme": 55, "mpg": 16, "enm": 60, "enn": 129, "##iatin": 101, "enpr": 85, "##rocin": 276, "mbp": 51, "epx": 5, "rns": 33, "##gallo": 65, "egc": 14, "##phr": 248, "##medi": 326, "##zinol": 128, "##pran": 282, "eptc": 8, "equ": 299, "##agesi": 55, "##setin": 63, "##uol": 59, "ere": 997, "##ystin": 96, "##epta": 636, "##scul": 84, "##orna": 62, "sule": 109, "##roqu": 209, "##pion": 567, "##foxi": 68, "##oxine": 772, "##fox": 155, "ete": 694, "##rilat": 463, "##obarb": 194, "##sizin": 14, "##vn": 60, "lum": 4120, "old": 486, "##eas": 404, "##dimer": 79, "ethp": 8, "enal": 622, "eab": 37, "epmp": 3, "##utan": 704, "oate": 5676, "##cami": 120, "leate": 350, "##zepa": 246, "lof": 362, "laz": 554, "epdd": 4, "emt": 79, "egdm": 2, "egb": 11, "thiu": 58, "dzq": 4, "eeb": 21, "egbg": 3, "##irol": 147, "etam": 1229, "##roxa": 287, "##dolac": 77, "##acum": 195, "##fami": 169, "eul": 23, "eup": 91, "##burgh": 8, "##vers": 146, "euth": 21, "##yral": 47, "##ocene": 122, "exe": 228, "##xama": 50, "##rab": 511, "fac": 360, "##ungin": 635, "##gar": 418, "##lcar": 474, "fal": 245, "##ryt": 204, "fan": 865, "##sidar": 12, "##imef": 20, "##rerol": 35, "gg": 358, "##zar": 589, "cyd": 44, "fce": 4, "##ferr": 265, "feb": 53, "fel": 172, "##bamat": 177, "##aemia": 60, "fem": 272, "##zaf": 67, "##nbu": 77, "fne": 54, "fami": 169, "fenac": 247, "##cloz": 52, "##stre": 358, "##thrin": 384, "##ipen": 264, "phn": 172, "##meto": 215, "fibr": 251, "##opam": 330, "##orex": 607, "##ropo": 280, "hpr": 19, "##iaza": 146, "##iclo": 302, "##iuram": 266, "##uram": 442, "##yron": 145, "prac": 41, "praz": 310, "##cryl": 246, "##kryl": 5, "##kril": 17, "##bitol": 167, "##ssian": 26, "##tsin": 82, "##otha": 67, "ochr": 126, "rou": 180, "##rru": 52, "##oba": 819, "##xyt": 301, "##etite": 44, "##ccel": 28, "fio": 18, "##rinal": 88, "cfi": 8, "##ixim": 67, "##inir": 27, "cfd": 6, "##dinir": 13, "##ucine": 411, "rof": 833, "faa": 10, "##zal": 263, "##coum": 196, "##afen": 408, "##zif": 21, "deu": 44, "##arene": 63, "##olid": 1221, "##lumin": 94, "##cari": 179, "fto": 102, "yolk": 3, "##xydi": 162, "##eso": 512, "##lap": 334, "##irt": 130, "fm": 214, "##sso": 191, "pum": 140, "##itepa": 12, "purin": 253, "##rosi": 295, "feni": 225, "##sfe": 88, "foy": 5, "fp": 369, "fpl": 4, "frc": 2, "##glumi": 51, "##lak": 85, "##idan": 235, "##opl": 324, "##male": 155, "##maric": 112, "cog": 604, "##sper": 293, "##land": 385, "##zab": 65, "nfta": 2, "##gina": 163, "chno": 18, "fut": 25, "gt": 236, "gd": 232, "gin": 2636, "fag": 48, "fmt": 29, "gam": 561, "len": 4089, "tx": 265, "gle": 186, "##lef": 100, "##gosi": 57, "agf": 6, "##gosid": 20, "##dera": 75, "##roz": 197, "##scon": 66, "gbr": 9, "gef": 18, "##arnax": 4, "##styp": 32, "##perm": 183, "##fusin": 23, "mul": 482, "rge": 333, "##plast": 160, "##visol": 27, "##cadi": 80, "##horic": 536, "##niol": 69, "##opti": 155, "geo": 72, "##ovit": 136, "##oden": 154, "##ilant": 89, "##zym": 271, "furan": 1610, "rb": 5482, "git": 240, "##alox": 164, "giv": 49, "##ofe": 791, "##rron": 136, "glia": 32, "kda": 4, "npf": 4, "##kvi": 15, "##quid": 123, "##esil": 92, "##sox": 301, "##epid": 143, "##onat": 1020, "glp": 12, "ghl": 6, "gik": 8, "##rons": 69, "##odex": 299, "##agl": 327, "##uzole": 132, "gpa": 12, "gp": 277, "vz": 31, "her": 1698, "##ool": 277, "gbt": 2, "##speri": 40, "appt": 7, "acpt": 16, "goi": 19, "gol": 583, "##ytely": 64, "gop": 49, "##hac": 229, "##rdo": 109, "##uge": 121, "##rotin": 86, "vap": 141, "##set": 448, "##genyl": 58, "##etron": 417, "mdb": 26, "##ulex": 105, "gre": 272, "##vil": 234, "nmf": 7, "##eoli": 43, "##inac": 225, "ghr": 15, "##nak": 91, "sg": 207, "##ulene": 113, "##mesal": 25, "##adre": 128, "##elum": 166, "gus": 300, "##oclo": 106, "gamma": 182, "##hosp": 1297, "flou": 16, "ggu": 53, "##mip": 309, "##hora": 226, "gur": 39, "gx": 80, "hab": 75, "##eka": 106, "##erac": 136, "hac": 229, "him": 199, "##ogan": 91, "wan": 153, "jio": 5, "hib": 163, "prp": 13, "cps": 31, "##ilus": 206, "out": 246, "##brane": 51, "ompc": 10, "haf": 35, "##noce": 32, "##fni": 11, "##pag": 357, "hat": 461, "hay": 20, "haz": 168, "##imic": 169, "hcg": 9, "hr": 1927, "##oderm": 394, "sbl": 9, "##iom": 278, "##ebrin": 38, "##lbo": 79, "wai": 26, "##mana": 44, "##stim": 988, "##togen": 155, "hbi": 17, "##uno": 332, "##glob": 118, "##obin": 526, "##bty": 13, "adw": 8, "##odic": 189, "imbr": 17, "##etil": 277, "hmba": 4, "##anpt": 4, "##ocy": 791, "hha": 18, "##caina": 114, "hgg": 4, "##rve": 103, "##scin": 223, "##titer": 18, "##bacin": 72, "##olyn": 82, "hla": 40, "hlo": 2451, "hloe": 2, "hok": 43, "oma": 1742, "hcy": 4, "hht": 13, "##deni": 83, "hop": 258, "hs": 467, "isone": 867, "hsr": 2, "htr": 20, "##lace": 459, "mma": 397, "huk": 9, "hup": 17, "hv": 30, "hw": 77, "hwa": 56, "lf": 3183, "lun": 174, "##prate": 189, "gar": 418, "##cinia": 49, "hfm": 3, "##llose": 150, "##gron": 230, "##itine": 672, "##lcin": 126, "opq": 10, "##pno": 40, "ghi": 17, "##ogast": 23, "stw": 2, "bf": 152, "##prox": 235, "##zarit": 51, "tron": 1030, "##xano": 197, "iem": 72, "iil": 4, "##ozen": 58, "ill": 1439, "##ptero": 70, "ilm": 187, "mcti": 2, "imh": 14, "rui": 51, "##mcl": 29, "iph": 1021, "##rest": 359, "##obil": 65, "##pera": 443, "##rosan": 100, "imr": 18, "imu": 347, "##lpine": 74, "inide": 712, "ini": 3043, "dhi": 21, "##rubin": 267, "iu": 2714, "##undin": 74, "##tryl": 210, "itr": 2034, "##arone": 587, "inm": 50, "##erca": 303, "##ehyde": 2453, "inp": 85, "##roch": 235, "inst": 78, "##trix": 225, "ioc": 549, "##rmate": 167, "icl": 669, "ipine": 1035, "##oform": 211, "##oxam": 526, "iom": 278, "##egl": 207, "iot": 379, "iotr": 61, "ipo": 415, "ips": 173, "ira": 1019, "ire": 696, "irg": 57, "##tex": 991, "fea": 60, "irs": 119, "isa": 611, "##xoni": 36, "isc": 460, "isf": 18, "isl": 30, "##ndic": 73, "##klon": 19, "indo": 616, "##rbic": 271, "##oso": 726, "##ydi": 217, "##tigen": 111, "##ilan": 341, "ismm": 2, "ixin": 347, "ipm": 24, "ipd": 29, "irin": 768, "ism": 316, "##eolin": 94, "izo": 449, "##teol": 51, "##urami": 91, "##epac": 44, "icam": 316, "ist": 3241, "##oxone": 172, "igrel": 26, "bmt": 16, "icz": 14, "##fying": 164, "iva": 999, "##rgy": 214, "jie": 50, "##tacin": 514, "jin": 154, "##ong": 901, "##xu": 176, "##mond": 42, "jud": 4, "eud": 207, "esm": 251, "izine": 1209, "##usol": 94, "jut": 8, "##ching": 48, "kco": 5, "##erv": 219, "kaj": 3, "##yoli": 18, "##jali": 8, "##aku": 54, "##loge": 47, "##ctate": 162, "##vai": 40, "nta": 2672, "##epan": 152, "kbt": 2, "kcd": 3, "kei": 30, "kgf": 10, "fgf": 26, "##hocal": 6, "##buzon": 17, "##pirol": 53, "##rolac": 103, "kev": 11, "kf": 43, "kih": 3, "##nimi": 159, "##tter": 190, "ibp": 23, "kit": 137, "kki": 8, "kle": 236, "##iella": 108, "km": 88, "kme": 13, "kn": 121, "kol": 173, "kom": 37, "##pli": 207, "##ivit": 155, "kp": 97, "kre": 23, "kri": 39, "##romyc": 192, "ks": 630, "kt": 213, "##tki": 10, "##liv": 276, "##umei": 5, "kz": 7, "##zepi": 220, "##sulon": 17, "##cca": 177, "##chs": 56, "lcti": 5, "##inex": 409, "##tetra": 1690, "lnn": 4, "##terin": 888, "##vod": 61, "##otri": 463, "##ntine": 414, "##rga": 226, "ultr": 122, "lar": 2212, "##cton": 330, "##anox": 252, "##dula": 154, "##endu": 47, "gree": 52, "##garia": 26, "nq": 187, "##anni": 103, "lea": 836, "pbc": 32, "##kad": 38, "##anor": 187, "lem": 328, "leo": 214, "##toph": 185, "let": 1276, "cmk": 30, "##ysyl": 150, "##pepti": 187, "##evo": 460, "land": 385, "lex": 3075, "ley": 184, "lg": 1192, "aba": 532, "apcpt": 4, "pfp": 24, "##arel": 126, "##rline": 22, "nfr": 26, "##lmo": 248, "atl": 34, "##pnet": 5, "sl": 459, "##hrh": 32, "nhe": 28, "bzl": 22, "bbs": 16, "ptla": 3, "gnh": 5, "naa": 39, "npta": 2, "actc": 2, "atpp": 2, "##hpdg": 2, "##lhrh": 11, "ghp": 8, "ppp": 121, "ptp": 67, "lib": 669, "lif": 361, "lly": 776, "##olus": 101, "hea": 466, "##lime": 91, "##nene": 365, "##tifed": 25, "lio": 277, "lyo": 119, "##teria": 141, "lm": 2607, "hlya": 5, "lgin": 213, "##onite": 105, "liu": 321, "liv": 276, "lix": 775, "lk": 665, "prop": 3172, "lnd": 5, "cca": 177, "lob": 505, "##enza": 513, "##iolid": 34, "##bazo": 112, "lfl": 72, "lon": 3279, "##dami": 212, "lot": 549, "ocpp": 2, "wx": 7, "##ulone": 91, "##tenu": 41, "mbs": 44, "##pola": 91, "lyc": 1206, "##rcin": 388, "##rgol": 134, "##inop": 747, "lic": 10331, "##oar": 150, "##neuro": 148, "hsi": 24, "##becin": 8, "##xae": 35, "mds": 20, "mad": 287, "moa": 129, "##rato": 259, "pab": 124, "##anion": 50, "##idex": 237, "##atone": 265, "mme": 138, "##delic": 74, "mnc": 6, "mur": 201, "onn": 75, "nno": 193, "mbl": 40, "##zime": 105, "##alide": 304, "##umy": 49, "ucf": 2, "##smic": 27, "fw": 18, "##darw": 8, "rubin": 267, "##icor": 232, "##yta": 167, "##npr": 138, "##ochol": 213, "##triol": 752, "mci": 86, "mdl": 5, "mmr": 5, "dus": 373, "##aphan": 115, "##rzol": 19, "bmk": 12, "##arzo": 21, "##icar": 594, "##ysone": 60, "##ryso": 55, "##ull": 167, "anrl": 2, "##enid": 148, "##xamid": 272, "iog": 151, "ioz": 35, "##hil": 480, "##acene": 493, "midi": 680, "##merin": 165, "##opene": 229, "##open": 888, "##ycan": 222, "##udi": 256, "##rpine": 348, "##kel": 140, "smpi": 2, "miz": 131, "##yzil": 10, "mis": 727, "##upon": 15, "##rmon": 145, "##squ": 156, "hip": 179, "##ndion": 78, "##nyla": 714, "mti": 42, "##xeno": 46, "##sene": 456, "##xenum": 17, "##opri": 279, "aapv": 8, "##uen": 163, "mtbe": 2, "mmh": 9, "mnb": 10, "poe": 47, "mdm": 24, "msy": 14, "mgb": 14, "mnt": 26, "##ynol": 182, "mpso": 3, "msma": 10, "##iazin": 434, "##oprim": 268, "##pham": 187, "##valo": 88, "mfa": 32, "##lial": 81, "mob": 147, "gtf": 4, "##tono": 48, "##ipran": 115, "##leve": 88, "##prina": 47, "mino": 10949, "##bilis": 90, "##fide": 757, "##oqui": 578, "##urium": 210, "gep": 55, "##imino": 1395, "##esive": 50, "##mect": 69, "mlv": 7, "mmu": 231, "##tten": 158, "midum": 574, "##lobe": 110, "##afin": 231, "##afi": 307, "meta": 580, "mom": 235, "##ordi": 121, "##rous": 384, "edr": 361, "##noin": 277, "##olein": 102, "##eoy": 61, "mpla": 38, "mpl": 170, "##lated": 819, "##rolol": 328, "##quiz": 27, "##clof": 191, "##amq": 17, "##uat": 403, "##rfo": 90, "mate": 5065, "##luma": 185, "##oxyd": 285, "wir": 10, "mot": 426, "##estre": 101, "##onid": 306, "mpv": 10, "mr": 259, "mrl": 3, "mrz": 2, "##fmsh": 5, "dphe": 11, "ndp": 33, "mst": 69, "mps": 91, "##leri": 95, "ress": 579, "##elle": 339, "##rian": 326, "mum": 1269, "shi": 377, "##ajit": 10, "##ogene": 785, "##aste": 599, "##rre": 124, "##iazi": 371, "##tidi": 337, "mas": 466, "##ieno": 479, "##icet": 121, "##eclin": 23, "anhm": 2, "nbs": 26, "##ermin": 720, "beh": 38, "##spm": 70, "ptk": 2, "dmh": 9, "ggm": 9, "phd": 36, "admdn": 2, "rtide": 267, "##uru": 122, "coy": 28, "perid": 540, "edk": 2, "hbe": 12, "##dipi": 263, "npt": 20, "dpda": 2, "nnd": 13, "atd": 45, "dmai": 5, "asy": 112, "dpc": 62, "gk": 80, "clt": 10, "nmc": 6, "piaa": 4, "tmpo": 10, "##chc": 43, "dnp": 36, "aeiq": 3, "fpn": 4, "bip": 228, "mmda": 2, "bbf": 3, "smc": 12, "rii": 162, "cbm": 9, "mmm": 11, "gmb": 8, "avn": 8, "gha": 24, "bzh": 5, "##csp": 11, "nab": 311, "##pqi": 6, "amcc": 2, "snm": 6, "apn": 30, "nbg": 8, "gma": 164, "bzb": 5, "##ylc": 1280, "ncd": 6, "nc": 2535, "too": 103, "##tf": 246, "nhc": 16, "aas": 17, "cbg": 9, "mmb": 26, "miq": 34, "mpeo": 3, "bnu": 4, "pbda": 2, "ntd": 2, "bob": 84, "nmhea": 2, "odpc": 4, "oea": 65, "npg": 20, "nppa": 4, "sdb": 5, "sip": 137, "sdf": 2, "##lona": 370, "##lonum": 180, "##mtone": 5, "##etone": 685, "##umet": 141, "##penz": 24, "##talo": 132, "##tazon": 194, "##tazo": 287, "##ifin": 48, "##tifi": 55, "##mefe": 41, "##mefen": 33, "##rolo": 589, "##radol": 252, "ndmi": 2, "npd": 12, "##inge": 153, "##puro": 37, "##purp": 53, "##drex": 251, "nb": 633, "nco": 378, "neb": 298, "##aceti": 343, "##acit": 123, "##volol": 68, "##biv": 72, "##ivo": 206, "##lolum": 192, "##tori": 107, "ned": 1202, "##crom": 158, "nee": 105, "aea": 209, "tree": 107, "nef": 136, "##hum": 409, "##egol": 102, "##egal": 71, "##pheg": 11, "##enac": 479, "nkt": 6, "tsk": 9, "##dym": 33, "nthe": 248, "nsa": 288, "stre": 358, "##lith": 164, "##roton": 119, "ner": 1066, "##folin": 376, "##oste": 453, "##bimin": 26, "erv": 219, "ney": 82, "##thymu": 17, "nbe": 52, "##dena": 113, "##cke": 123, "##fezon": 12, "##kko": 41, "nil": 2829, "##arso": 96, "##zani": 75, "nga": 361, "ngin": 910, "nbo": 28, "nok": 37, "hno": 38, "nk": 668, "nky": 17, "ovl": 5, "pel": 291, "##oxyno": 58, "bni": 23, "##esic": 1070, "##harma": 149, "##mane": 339, "##harm": 551, "##olax": 126, "##kst": 40, "##romol": 50, "pyi": 5, "npc": 24, "npk": 5, "##ivir": 446, "##fosic": 15, "nsd": 20, "nt": 19544, "##xole": 244, "eec": 19, "nz": 4924, "##ilaz": 36, "ota": 800, "oaa": 17, "ombt": 3, "##pinol": 62, "##hepin": 65, "oti": 1260, "oid": 2130, "ola": 2324, "##gels": 137, "ores": 164, "##resin": 88, "##urop": 77, "olm": 98, "ols": 854, "olt": 150, "##ipraz": 82, "opz": 6, "olv": 151, "nmm": 3, "onch": 72, "reb": 171, "##pide": 444, "rba": 1179, "##ipide": 76, "##amip": 77, "oco": 1043, "##rtin": 503, "ors": 738, "##zami": 241, "our": 496, "##lian": 170, "##ged": 97, "oku": 56, "##elix": 232, "gnrha": 6, "##falo": 43, "set": 448, "##ipt": 444, "roc": 1674, "gc": 157, "onin": 1567, "odc": 12, "ory": 920, "##xym": 612, "ost": 3353, "osth": 7, "ou": 1515, "##ansin": 90, "oud": 47, "oin": 1838, "ostat": 1494, "ovo": 205, "##muco": 86, "##sist": 66, "##isole": 417, "osine": 4207, "##rozin": 61, "olam": 947, "ocbz": 6, "##ladin": 48, "orone": 204, "fbz": 7, "ofd": 2, "ofrin": 34, "omide": 1205, "##dipin": 243, "oks": 17, "vbi": 7, "##vinca": 53, "oxph": 9, "ose": 5166, "##hiin": 88, "ovt": 10, "ozo": 213, "dmr": 4, "ptb": 34, "onc": 289, "pie": 56, "pine": 5032, "##hym": 287, "##aran": 222, "##hypo": 164, "##rcet": 43, "pad": 172, "##imate": 375, "paeo": 18, "##henc": 40, "##iazo": 696, "##atol": 411, "##ydol": 55, "##etina": 151, "##sian": 94, "##zian": 15, "tide": 4736, "##goric": 15, "ture": 338, "##rsa": 234, "##rso": 235, "few": 31, "pcf": 9, "pcnu": 6, "pd": 755, "pec": 409, "##iloc": 51, "##edo": 329, "##berol": 39, "##cardi": 152, "##fenat": 31, "##nema": 166, "pfb": 8, "pmm": 15, "soa": 144, "yak": 34, "##etor": 74, "##olia": 986, "##tatyl": 24, "##yls": 961, "yy": 42, "pyy": 4, "moyl": 2102, "##flat": 34, "ftp": 11, "##soxa": 142, "##rla": 116, "##teril": 61, "##ticin": 238, "##kon": 167, "phan": 1328, "pei": 34, "phni": 10, "##lsu": 634, "eir": 22, "pdn": 12, "pae": 69, "pbn": 15, "##lui": 50, "##pqrf": 5, "ffr": 9, "fpr": 18, "##mecl": 71, "##rabo": 33, "psc": 20, "##otyl": 86, "##tfase": 5, "##carm": 83, "##oplex": 261, "##uzone": 95, "##cote": 63, "pbm": 22, "##uber": 123, "##ornyl": 38, "##tosin": 142, "##umast": 27, "pif": 68, "##arni": 108, "##tixol": 100, "pil": 353, "##xanox": 82, "##dane": 248, "##veri": 222, "##curi": 157, "##otrin": 100, "thp": 80, "##bute": 216, "prost": 944, "##colic": 182, "##lindo": 109, "##zadil": 15, "profe": 225, "yle": 1722, "##thoxy": 2848, "##zepin": 384, "##cent": 412, "##lease": 174, "ppf": 10, "##tip": 377, "ple": 732, "##thor": 110, "##fain": 10, "##weed": 262, "##linex": 32, "iclc": 10, "##ized": 835, "##lyi": 23, "phea": 34, "pbl": 13, "pcd": 16, "##datin": 35, "tsg": 2, "##cei": 102, "##atrol": 212, "##dexa": 127, "oly": 1578, "##lye": 72, "##oric": 883, "##aspa": 178, "kyo": 41, "hak": 22, "pgp": 24, "pmb": 44, "##ctyl": 416, "press": 358, "##quad": 116, "ponin": 207, "##yrene": 399, "ptfe": 2, "##vale": 233, "pev": 13, "foa": 101, "##wle": 11, "khc": 2, "kbr": 3, "kca": 15, "lye": 72, "tz": 327, "##kali": 94, "##petre": 11, "##peter": 12, "##umal": 43, "##urit": 80, "ksc": 2, "##eru": 292, "ptor": 207, "##lido": 295, "##noli": 623, "prc": 14, "teb": 81, "##utate": 137, "tba": 50, "##odyne": 101, "##ett": 250, "##ense": 506, "##imane": 29, "ebd": 4, "heb": 44, "##tolin": 170, "##abide": 26, "##arco": 121, "##omal": 371, "myl": 1320, "pgb": 8, "opyl": 3943, "##rok": 72, "fbe": 7, "##ympa": 47, "##case": 210, "pki": 21, "myx": 84, "##oviru": 44, "##iae": 585, "ymr": 22, "pps": 52, "##bino": 244, "##mnes": 16, "psk": 4, "icy": 553, "pao": 43, "egf": 76, "##ycho": 143, "ptt": 27, "pua": 12, "puc": 16, "pom": 112, "pdaa": 5, "##oga": 289, "px": 93, "pyc": 14, "pzd": 4, "prz": 3, "ppd": 72, "ppc": 85, "pml": 5, "hpt": 20, "mgsi": 2, "##uvate": 105, "##ctiv": 263, "##vini": 22, "swi": 46, "qa": 151, "qh": 6, "kva": 5, "##devit": 18, "##zvit": 5, "qas": 11, "##zodi": 92, "##ocid": 223, "qx": 66, "##apri": 315, "##aprid": 68, "##bdo": 21, "##lopr": 389, "##cini": 197, "ral": 3257, "ram": 3169, "slm": 5, "rds": 81, "##dta": 81, "rei": 167, "rem": 553, "scri": 36, "##imun": 40, "rote": 398, "##zurin": 34, "##zur": 108, "rtx": 11, "##rpen": 111, "rcin": 388, "rgh": 14, "##ilam": 157, "rhc": 3, "rone": 8434, "rhi": 181, "##oru": 324, "##munyl": 5, "##somal": 159, "rid": 3648, "##ximin": 56, "##xidin": 90, "##minu": 132, "ril": 3739, "##afone": 110, "##mann": 186, "rip": 788, "##apon": 174, "lmn": 6, "riv": 276, "rm": 6168, "rmi": 544, "##ukast": 219, "##veron": 27, "rine": 11880, "roe": 296, "tms": 27, "##pamil": 283, "rop": 5515, "##fort": 266, "row": 193, "roya": 25, "rp": 2143, "rph": 1079, "##relix": 153, "##lanyl": 938, "##orola": 13, "rsu": 76, "##cens": 218, "##bid": 692, "radi": 320, "rus": 1915, "bcd": 12, "rxa": 3, "##odip": 178, "ryo": 106, "efk": 2, "npy": 26, "sna": 141, "snc": 10, "saa": 24, "sab": 113, "##elu": 168, "saf": 155, "##apryn": 12, "yd": 6217, "sag": 107, "sah": 50, "sai": 116, "tj": 13, "gui": 136, "##actol": 112, "##aki": 178, "salat": 27, "sali": 407, "##alato": 56, "sala": 165, "sas": 58, "##apyri": 55, "##oxon": 157, "##ithio": 469, "side": 6605, "##osic": 101, "sd": 277, "hsie": 2, "##gv": 79, "##inar": 133, "##oflex": 126, "spz": 3, "##kosyl": 4, "nl": 368, "##rko": 19, "##leuci": 63, "##vagin": 14, "##vlo": 19, "##jerv": 7, "scha": 27, "##rlac": 26, "##ened": 472, "drin": 1269, "wu": 71, "##zisu": 6, "##llit": 51, "sdk": 3, "##prose": 23, "sdg": 2, "serin": 623, "##chyl": 19, "##oleyl": 49, "##ious": 245, "##ige": 421, "msc": 23, "sem": 314, "##metr": 225, "##cio": 128, "##pia": 187, "##odont": 36, "##onex": 304, "##exol": 166, "csta": 3, "stfa": 5, "##tral": 402, "sfa": 77, "sfb": 14, "sgb": 3, "sbg": 3, "sgd": 15, "##yaku": 18, "toh": 84, "##konin": 73, "##arne": 57, "shu": 88, "sib": 1076, "sid": 1234, "##nocar": 143, "##dno": 37, "##olean": 250, "##tryn": 48, "##rdol": 36, "eh": 854, "cuc": 45, "kuk": 8, "##ianin": 121, "##pret": 52, "##tabs": 559, "##myces": 156, "smp": 16, "squi": 61, "sme": 224, "##ctite": 22, "##hite": 203, "##orate": 552, "##bdic": 35, "hmoo": 2, "##bora": 97, "##basic": 72, "##asic": 194, "spai": 6, "scro": 20, "nas": 743, "yeast": 10, "##psone": 108, "##code": 140, "##lco": 309, "##gyn": 207, "##ovac": 144, "##rov": 308, "##trat": 385, "##fenum": 137, "sprin": 63, "hgr": 6, "##inil": 362, "spc": 25, "imb": 116, "jel": 95, "##trine": 681, "##ualin": 141, "sph": 1475, "soe": 52, "spg": 8, "stine": 2398, "shm": 25, "splee": 5, "sfp": 3, "##utoxy": 246, "##dbe": 34, "src": 4, "ssha": 4, "##yama": 23, "ssm": 14, "##ford": 55, "##erio": 149, "##ndolo": 240, "een": 480, "##imyc": 177, "##abid": 128, "##nopr": 344, "choe": 15, "gbs": 2, "ssi": 562, "ycin": 15214, "stu": 171, "##lopi": 90, "##ntan": 1154, "##tilin": 212, "igant": 26, "##ucc": 308, "sla": 64, "##doxi": 157, "##iamin": 488, "##lfe": 160, "bhs": 5, "pss": 16, "##oglu": 217, "sqd": 7, "exi": 468, "##sulin": 125, "##isat": 89, "uv": 492, "stone": 803, "sum": 813, "##xino": 51, "##anon": 353, "sx": 32, "##phyt": 146, "##ivin": 143, "tsm": 36, "##gtna": 4, "##azem": 172, "tab": 1338, "toxin": 1479, "##jmium": 15, "##les": 1693, "##leus": 42, "tat": 6728, "tae": 236, "tose": 515, "mki": 13, "trim": 869, "##osil": 216, "nx": 245, "tinol": 314, "iia": 72, "##xero": 22, "fri": 213, "##yfe": 36, "taz": 643, "ttine": 13, "tv": 81, "tcv": 9, "##hiu": 76, "tec": 912, "edd": 35, "ipi": 609, "hdp": 32, "tcm": 11, "bmae": 2, "phas": 82, "plo": 93, "##hore": 113, "tdg": 5, "dmpe": 6, "tds": 10, "##ozan": 114, "##losin": 190, "ted": 3816, "##rrol": 487, "##flut": 123, "tei": 321, "agl": 327, "##ycone": 28, "tene": 1493, "##arot": 126, "##khin": 8, "##did": 404, "tmz": 2, "##lse": 191, "##oxica": 60, "##ikol": 34, "tion": 4017, "##acyl": 283, "##butr": 67, "##onii": 118, "##rra": 265, "##itre": 122, "tbp": 47, "tato": 330, "terol": 2108, "##otetr": 164, "tmpy": 8, "pyp": 76, "orl": 102, "##istat": 517, "thl": 50, "##astat": 805, "##pper": 206, "dsta": 8, "tmr": 14, "han": 2982, "##song": 26, "ttm": 9, "tf": 246, "tfc": 5, "##lous": 66, "thea": 39, "ttt": 10, "##esim": 33, "##naci": 115, "##fano": 57, "##hemp": 34, "tk": 82, "##fas": 200, "##denol": 53, "tina": 1061, "##furin": 129, "tib": 1438, "##ezo": 149, "ott": 100, "##uadom": 21, "tit": 303, "tif": 357, "tyf": 10, "##monam": 81, "##solo": 99, "##lote": 85, "##opu": 157, "sne": 43, "tidin": 441, "tip": 377, "typ": 105, "##edan": 84, "##propi": 486, "tbh": 11, "##ocort": 384, "tiz": 281, "##isop": 621, "##zopam": 5, "tok": 70, "##molol": 96, "tami": 1220, "##cicl": 246, "##zad": 102, "##resta": 75, "##myci": 1773, "##mici": 330, "tsid": 5, "tom": 589, "##ndan": 500, "##iram": 366, "tpm": 19, "teron": 410, "tor": 2507, "##smid": 200, "toyo": 9, "##idrex": 25, "##lfan": 390, "##lpha": 469, "##aderm": 419, "##asine": 155, "##mpho": 177, "##rimol": 21, "tzt": 5, "tbs": 13, "##butyr": 288, "tatin": 2597, "tsa": 34, "tcc": 14, "##lopyr": 77, "##acnin": 5, "##ruc": 197, "##rucin": 48, "##sate": 507, "clau": 26, "brau": 6, "##morph": 547, "tfa": 33, "##usa": 292, "tane": 3466, "box": 987, "##yltri": 181, "kpt": 2, "tmca": 2, "cinic": 384, "tmt": 18, "##pium": 416, "fod": 30, "##eque": 49, "##vens": 32, "aest": 25, "##ivum": 58, "trna": 7, "tff": 3, "xvii": 2, "##xer": 129, "##ruto": 25, "##rutin": 145, "##eva": 394, "##lysi": 195, "true": 33, "##etac": 173, "eho": 19, "tse": 39, "##rigel": 43, "tski": 6, "tso": 22, "oint": 123, "##moni": 404, "tui": 17, "tul": 200, "##ptop": 133, "clta": 2, "jia": 73, "wun": 3, "##yujin": 22, "yuj": 6, "##uang": 146, "yu": 339, "##xap": 204, "##lcmk": 5, "tzu": 12, "ua": 2290, "meh": 21, "##zel": 153, "trii": 58, "##nden": 114, "ud": 1062, "uh": 59, "##rain": 188, "##rux": 62, "##oser": 113, "osan": 798, "ung": 419, "uent": 101, "unk": 40, "up": 1518, "urf": 153, "uti": 647, "##esan": 85, "##fall": 44, "ucoid": 23, "ulin": 2123, "##renic": 152, "dv": 123, "##llap": 27, "##fane": 57, "##inax": 38, "oka": 96, "vzi": 4, "zig": 36, "##clen": 146, "##oray": 24, "##kov": 37, "vip": 84, "cpl": 20, "##rca": 437, "vda": 24, "aavp": 13, "##mety": 34, "##ravp": 8, "vm": 61, "##civa": 8, "dvd": 5, "sav": 103, "rw": 99, "vv": 64, "avt": 13, "ved": 257, "##renan": 29, "ebn": 6, "lcn": 15, "##inob": 269, "##iase": 110, "athc": 2, "##cura": 137, "##nome": 374, "vf": 34, "##bli": 127, "##ocil": 204, "##cona": 296, "##pidi": 127, "##grol": 26, "##orel": 205, "nvb": 3, "##thene": 484, "viq": 32, "##uidil": 16, "##ipl": 179, "vk": 54, "vot": 77, "##racon": 77, "vuf": 4, "vx": 33, "##rbu": 119, "wb": 60, "wc": 29, "web": 9, "##estan": 187, "wes": 42, "##cody": 29, "wf": 46, "wda": 2, "whea": 11, "##field": 69, "##ields": 23, "wci": 2, "pus": 350, "##fapy": 28, "ward": 28, "fpg": 5, "##laf": 143, "##axine": 218, "##axin": 400, "##xinum": 207, "vnf": 2, "xam": 821, "##oter": 176, "xax": 12, "xc": 160, "xib": 617, "##ornol": 12, "xim": 749, "xo": 2145, "yam": 179, "##bola": 89, "yau": 5, "yc": 6799, "yg": 383, "yik": 3, "huo": 53, "yiq": 12, "ynk": 6, "young": 28, "yp": 2510, "ys": 2643, "yuan": 31, "##uac": 67, "yhl": 6, "##kene": 31, "zac": 343, "bzk": 2, "zid": 1133, "znc": 5, "zpt": 2, "dryi": 3, "spha": 431, "zip": 78, "zir": 126, "##coni": 119, "##conia": 11, "zk": 10, "##ftal": 34, "zof": 203, "##nopri": 38, "##rtine": 241, "##pidem": 52, "zp": 101, "zom": 127, "##epir": 62, "zon": 1273, "zop": 225, "##iclon": 45, "zot": 295, "zs": 55, "cbdca": 6, "##zoc": 217, "dad": 89, "ilo": 1296, "##holyl": 45, "nmda": 3, "##zoan": 20, "##zoal": 36, "fms": 13, "bfp": 13, "##edp": 51, "tmi": 29, "##bps": 17, "mch": 33, "ddg": 17, "dbz": 4, "thd": 37, "fau": 19, "tcd": 18, "bhppe": 2, "##xir": 204, "oi": 2548, "atb": 15, "bmpa": 4, "pdm": 27, "admb": 2, "pgt": 8, "clr": 14, "chnhp": 4, "abmm": 2, "opn": 16, "sae": 73, "dck": 13, "tdc": 13, "tdh": 10, "hoc": 227, "zil": 491, "##euton": 103, "zl": 121, "##rixin": 119, "alln": 4, "##lpa": 145, "lln": 22, "##illol": 78, "img": 33, "alu": 406, "amdp": 4, "hdm": 27, "##nkv": 1, "ptba": 3, "##ogli": 92, "bmp": 54, "bg": 222, "##pak": 345, "btca": 4, "bpa": 59, "glm": 5, "dce": 11, "##fsqd": 4, "rma": 1037, "cmg": 5, "cud": 26, "##iofur": 23, "tgn": 5, "##koto": 15, "ddo": 44, "##oq": 767, "##egr": 256, "##bdca": 11, "##fluz": 18, "##spph": 8, "##bella": 96, "##ccal": 134, "ehd": 19, "##otes": 84, "fei": 57, "##lixit": 8, "##osom": 119, "mct": 20, "##wanin": 24, "##hoh": 64, "gah": 6, "grx": 5, "hai": 93, "hog": 83, "ulo": 404, "##tasol": 181, "athr": 21, "hdc": 25, "ilide": 2111, "ilid": 326, "ikp": 6, "ilin": 1229, "bd": 422, "##dibut": 58, "vys": 2, "jg": 13, "##hoto": 79, "sig": 149, "##ond": 437, "##aebo": 27, "sj": 23, "##dbt": 21, "##nen": 349, "ppaa": 6, "##game": 17, "los": 860, "##iga": 329, "##rica": 468, "##gide": 201, "##sanin": 54, "##inia": 237, "vcp": 3, "##yndol": 7, "nmi": 27, "nio": 728, "dcd": 26, "cfp": 8, "##tosan": 160, "dsd": 4, "ncq": 2, "##gluti": 57, "nul": 168, "bgua": 2, "hpv": 27, "lb": 1663, "mtpi": 3, "opmp": 2, "nhb": 6, "pks": 3, "rgd": 43, "##atide": 561, "ptme": 11, "##hibit": 53, "pii": 16, "qia": 9, "rbs": 33, "##pirox": 123, "##arit": 181, "roy": 192, "##alis": 661, "rpr": 163, "##ntop": 37, "eaa": 22, "##amod": 38, "clphe": 6, "npca": 5, "aapf": 3, "##lur": 849, "lei": 268, "##mani": 120, "##encl": 59, "hmeo": 7, "terin": 888, "tzi": 18, "pnu": 14, "uf": 555, "##ferro": 134, "way": 265, "xoa": 43, "yttr": 4, "ycl": 2343, "zar": 589, "zm": 72, "##ilat": 705, "tmq": 9, "htl": 7, "##exate": 375, "##exato": 34, "##utane": 833, "##omon": 167, "##gena": 171, "cox": 179, "aids": 41, "soni": 227, "##fma": 24, "psti": 5, "##soc": 286, "##iated": 81, "##ramet": 198, "ampr": 61, "##yx": 374, "##yrus": 19, "##rek": 60, "cba": 25, "##iers": 52, "##zepid": 25, "##tates": 58, "##ifene": 579, "fti": 89, "##vaz": 64, "##vazid": 15, "foi": 17, "gard": 447, "##baral": 20, "##lobin": 227, "##eeg": 7, "kex": 4, "##iping": 10, "##dne": 46, "urb": 79, "oxim": 380, "##ocet": 184, "##radec": 251, "##lbu": 315, "##risul": 39, "##nitin": 136, "zu": 908, "eyl": 143, "##zinyl": 578, "ply": 108, "ptii": 2, "ibh": 4, "pgg": 12, "cpx": 17, "##oxybe": 423, "ipdr": 2, "hmc": 19, "##zb": 42, "##fosfa": 67, "cdh": 9, "dnj": 4, "ppn": 30, "##xiran": 78, "ooh": 156, "ibzm": 3, "##urano": 252, "inan": 689, "ddh": 19, "pgl": 14, "cdg": 8, "cnda": 2, "dtu": 9, "##ynyl": 397, "asol": 565, "elast": 89, "yls": 961, "##rry": 614, "cpho": 2, "td": 380, "acb": 20, "##zano": 83, "cld": 12, "kdo": 6, "zw": 9, "mdma": 4, "##vim": 139, "cvi": 6, "##mline": 5, "##elina": 108, "ltd": 14, "oq": 767, "abc": 65, "dceo": 3, "##cyan": 497, "##pib": 277, "icp": 16, "##came": 83, "mbc": 25, "enum": 593, "lyl": 3076, "aphp": 2, "apmp": 2, "##ysan": 54, "##isan": 348, "##zanol": 49, "estat": 701, "cbpa": 5, "pche": 2, "etd": 18, "##smb": 8, "bpaa": 9, "##binac": 14, "hct": 14, "mua": 9, "mpd": 65, "bmd": 12, "hfb": 2, "dhf": 13, "jc": 31, "tazi": 131, "bty": 13, "udp": 18, "epu": 24, "nir": 260, "##vanol": 60, "##heny": 2618, "##ancer": 65, "fhd": 4, "fpo": 18, "##tme": 79, "dct": 22, "pya": 4, "hbr": 13, "hpu": 5, "btn": 4, "ammc": 6, "ammp": 2, "bns": 7, "cnq": 4, "meq": 59, "nv": 344, "##ephe": 168, "oxyl": 1357, "dbf": 5, "##ylam": 1911, "gga": 29, "mhd": 10, "efc": 23, "hfu": 4, "tbx": 3, "abi": 715, "aspr": 27, "kus": 39, "##eacin": 27, "adb": 19, "adl": 30, "afin": 231, "afi": 307, "aead": 3, "aek": 12, "afa": 186, "trile": 2577, "aja": 65, "akc": 3, "akr": 27, "ahb": 12, "##utbp": 4, "aln": 77, "##bond": 94, "haq": 32, "aapt": 5, "##sulp": 365, "##lexa": 84, "anox": 252, "atm": 52, "##sula": 99, "##vix": 135, "##icul": 118, "anc": 585, "##ezin": 82, "##vist": 183, "angr": 13, "avid": 43, "rtin": 503, "##pact": 54, "apf": 28, "aeci": 15, "apmt": 7, "qdp": 8, "aqa": 4, "##uab": 22, "arfl": 17, "aaphg": 2, "rgdy": 5, "##glycy": 171, "##enate": 1467, "##actan": 99, "alon": 498, "ail": 318, "avr": 18, "aine": 4150, "##corti": 239, "cpa": 69, "oxazo": 362, "azd": 12, "##exole": 107, "##keep": 17, "##styl": 85, "ban": 1697, "##netil": 16, "bcm": 23, "bmc": 17, "ntn": 22, "##leton": 41, "bbr": 7, "##ynor": 40, "beg": 65, "##osali": 78, "argn": 3, "lll": 19, "##pant": 290, "cna": 24, "fmm": 4, "bdh": 19, "bhm": 13, "##rison": 59, "##ordin": 91, "bif": 131, "biia": 2, "##miro": 54, "##was": 90, "##vum": 129, "##uss": 1726, "##inna": 257, "dst": 25, "btb": 10, "tbto": 3, "##arami": 81, "##rgon": 91, "tas": 728, "##sium": 440, "##itrat": 135, "##muth": 34, "##subc": 16, "biv": 72, "##alent": 295, "vrs": 5, "dpp": 83, "bof": 103, "boi": 31, "scyii": 4, "##cyii": 7, "plb": 2, "##nje": 45, "##rne": 213, "##rny": 22, "##pspla": 6, "brb": 7, "##erd": 175, "##lus": 2069, "##daxin": 16, "##decon": 89, "bry": 68, "##otoxi": 119, "##tolol": 326, "##udin": 386, "##copan": 76, "doh": 49, "##hiob": 66, "##hioa": 150, "byk": 4, "##onox": 102, "ets": 524, "##bind": 71, "##rates": 259, "##alci": 289, "##ulate": 125, "##lgo": 57, "##ixa": 146, "##pept": 228, "nleu": 12, "cent": 412, "##illa": 477, "zly": 13, "did": 404, "##odec": 549, "##ethi": 516, "ccr": 6, "ccy": 3, "##eram": 138, "##amer": 349, "span": 319, "##olite": 154, "##uximi": 31, "##uxi": 204, "mida": 1210, "##ximid": 123, "##elas": 79, "##roto": 261, "dry": 219, "gbx": 3, "##ident": 121, "cga": 5, "bll": 5, "itgn": 2, "crna": 11, "##mexon": 46, "##opent": 822, "ddl": 12, "##obit": 22, "cj": 14, "cko": 14, "##boril": 4, "##idre": 20, "##dinio": 138, "pce": 7, "cly": 13, "cmf": 13, "fda": 22, "cnk": 4, "##mbo": 212, "##dura": 294, "##sodyl": 8, "##dalis": 28, "##neci": 38, "##ibant": 73, "pfi": 15, "##gutt": 20, "##zacin": 7, "##zaci": 16, "##zat": 220, "##omer": 330, "cmti": 2, "##surf": 85, "cye": 5, "cpe": 20, "##mbena": 10, "ctb": 13, "clair": 83, "cppe": 3, "tag": 375, "dak": 64, "##lce": 160, "dav": 79, "##ainex": 28, "daz": 911, "##megr": 20, "##ndox": 89, "##star": 293, "dta": 81, "##kton": 9, "dek": 54, "##elmin": 47, "##lutin": 148, "derm": 1880, "vpe": 2, "##mmae": 27, "danin": 42, "##khi": 8, "coj": 6, "dhh": 10, "otin": 877, "##oum": 202, "##allic": 57, "##urane": 292, "bjo": 4, "##erk": 60, "##inu": 1412, "##ntum": 202, "##hiop": 292, "dpl": 13, "dkp": 7, "dnq": 2, "##fet": 171, "##banex": 6, "bsa": 59, "hpma": 11, "gfl": 7, "dpo": 36, "dpx": 6, "drio": 15, "dsl": 2, "dua": 61, "##ont": 805, "##trans": 228, "ebr": 225, "ecm": 19, "ecst": 2, "##udine": 340, "edu": 147, "eudr": 5, "eft": 96, "ehh": 3, "ekk": 12, "elc": 90, "anine": 3955, "elk": 15, "hme": 54, "nmhe": 3, "elo": 546, "elr": 30, "##ulg": 42, "enx": 15, "enf": 142, "enami": 300, "eng": 512, "##piper": 745, "##vira": 115, "eot": 129, "##furyl": 244, "esf": 38, "enti": 425, "chc": 43, "ethr": 63, "chso": 2, "##lidan": 27, "eum": 727, "##arcon": 14, "##pirax": 7, "##gnost": 17, "##ipam": 134, "##monox": 21, "##mesi": 60, "fcr": 10, "fec": 142, "##odene": 48, "##caro": 127, "##beran": 70, "feo": 36, "##prom": 300, "##lecit": 41, "##ctad": 175, "flee": 9, "##moxef": 28, "##suli": 79, "##demi": 26, "cfc": 6, "##viru": 123, "fon": 1506, "##lipol": 27, "##zyla": 101, "fst": 5, "fpp": 47, "fre": 252, "fud": 23, "##zivan": 4, "##ispo": 36, "##methi": 249, "abt": 38, "##tram": 421, "##ixo": 98, "gea": 58, "##iger": 64, "gei": 16, "##stl": 19, "pb": 590, "##falk": 58, "gap": 51, "gf": 306, "grb": 5, "gir": 31, "##tard": 174, "##diase": 5, "eptm": 2, "psga": 2, "##venol": 21, "goe": 7, "gim": 69, "##iacol": 111, "##nidi": 403, "##tren": 187, "hag": 117, "##nced": 77, "##onet": 75, "##atac": 64, "yhp": 5, "hsv": 4, "##iron": 390, "imbzl": 2, "hl": 2781, "##eny": 3090, "hnp": 24, "hos": 2255, "##quick": 91, "huf": 12, "##rtan": 586, "iaa": 43, "ibe": 699, "ibi": 275, "##dila": 85, "ibd": 14, "idb": 8, "##beno": 101, "##xeti": 112, "igr": 161, "##osele": 31, "ik": 699, "##cytal": 10, "##ulsin": 11, "##lumi": 197, "ink": 256, "igfbp": 7, "igf": 19, "clm": 11, "nks": 27, "##xium": 51, "ifl": 797, "irone": 386, "irf": 20, "##tecan": 434, "iro": 1399, "ise": 538, "##etre": 94, "##zolac": 95, "famid": 151, "ita": 1764, "itf": 14, "##andi": 283, "jav": 14, "##ofer": 131, "yec": 11, "##tofer": 18, "jh": 11, "jon": 12, "##pargi": 6, "jp": 24, "##suri": 41, "kir": 45, "##wii": 34, "kat": 52, "##nton": 130, "##xala": 54, "keb": 11, "##iding": 17, "##antan": 110, "##comb": 152, "kg": 73, "gat": 223, "kha": 34, "qat": 7, "##jim": 16, "kil": 72, "##tno": 21, "##llate": 231, "##pens": 77, "##iste": 194, "##fix": 213, "katsu": 4, "nih": 22, "mcv": 8, "ndd": 6, "entr": 183, "##pped": 70, "##rise": 113, "lap": 334, "##udrin": 17, "##vadex": 20, "##sdo": 22, "##eths": 25, "##icur": 51, "##obine": 56, "##histi": 90, "##ocell": 65, "nf": 754, "ih": 1561, "##xad": 365, "attc": 4, "lia": 1902, "##ibrol": 49, "##brit": 38, "##vita": 375, "##rico": 186, "##troc": 125, "lit": 727, "ln": 742, "loc": 720, "##acort": 357, "##orten": 124, "##estri": 103, "##para": 445, "lene": 6637, "##pax": 176, "##bonat": 139, "lrc": 4, "lrh": 16, "ltf": 4, "lw": 49, "##taine": 286, "##rthol": 8, "##loxan": 98, "##loxon": 23, "##spora": 147, "##gni": 51, "##nosa": 199, "##isu": 385, "##teni": 87, "##oal": 214, "dien": 525, "##adal": 59, "##coph": 96, "##xzi": 3, "mbr": 167, "##xpo": 18, "##dulin": 170, "##indi": 203, "##gari": 52, "##garol": 44, "tut": 39, "##ops": 443, "##hsh": 10, "bsh": 7, "##rfe": 165, "##rgi": 391, "eis": 85, "aapb": 6, "mhf": 5, "##calci": 241, "ity": 1238, "##tiro": 75, "##dran": 69, "##entan": 825, "##ched": 120, "dou": 49, "##ded": 268, "##zor": 136, "mla": 44, "mlm": 2, "mmta": 6, "##ecate": 53, "##cren": 26, "##uret": 123, "mos": 406, "##kitur": 4, "era": 3182, "nhf": 3, "mpm": 22, "mtt": 30, "##asal": 317, "##amu": 230, "##fatox": 4, "mz": 67, "bdn": 9, "aib": 22, "dbp": 41, "dmae": 12, "ihp": 5, "ppga": 2, "##opril": 283, "##vacin": 33, "fbg": 5, "agm": 45, "##urti": 35, "allm": 2, "##zido": 179, "##ketal": 70, "gce": 4, "ippt": 4, "nak": 91, "nium": 14415, "##trib": 147, "mno": 86, "##odor": 78, "bsp": 35, "nav": 163, "##elb": 69, "irt": 130, "##oon": 121, "##comp": 238, "##hemo": 173, "##isco": 94, "##facto": 24, "##obol": 48, "nev": 63, "nvp": 9, "##bery": 19, "##pyron": 89, "nik": 40, "##esul": 544, "##lipid": 350, "nla": 40, "nchol": 26, "shpa": 3, "##erto": 50, "##flam": 158, "laa": 28, "nine": 9095, "##purum": 8, "##mines": 483, "##uzid": 18, "##escin": 114, "##ceb": 57, "##rite": 358, "nr": 296, "##rl": 711, "nua": 37, "oca": 1495, "##xyno": 61, "gb": 151, "oki": 172, "##ceno": 112, "oky": 30, "olc": 140, "oms": 131, "onk": 53, "ont": 805, "opht": 136, "opm": 16, "ggn": 2, "##hono": 183, "osb": 18, "osc": 188, "osp": 1792, "##relia": 17, "oto": 817, "otr": 920, "outf": 3, "ovy": 51, "##rmen": 49, "omida": 79, "omy": 1031, "rbl": 9, "prb": 7, "##taron": 16, "prin": 671, "##nabol": 37, "pcr": 3, "##imin": 723, "##eimin": 48, "zh": 185, "pfpa": 2, "psin": 592, "pto": 968, "##ormal": 50, "pril": 960, "pgla": 2, "eupl": 3, "phr": 248, "phxa": 2, "##odal": 163, "##enad": 96, "pik": 56, "##amilo": 45, "##ixil": 100, "pkh": 4, "pli": 207, "##rix": 845, "##pate": 508, "##dodec": 364, "##ynax": 6, "##meri": 220, "noate": 2271, "##ndar": 62, "khp": 6, "poy": 18, "##dese": 60, "##inor": 168, "##liva": 117, "##ymi": 162, "##onas": 164, "spli": 10, "##esid": 63, "pkc": 7, "plex": 1059, "pthi": 2, "##qdo": 12, "pact": 54, "##senn": 23, "pva": 27, "##xifen": 362, "ios": 448, "qm": 24, "quia": 2, "qd": 73, "ronic": 973, "ray": 702, "##mbi": 299, "rdil": 67, "##ospor": 183, "##achol": 141, "reh": 45, "##manni": 47, "##rmu": 79, "##eck": 69, "yang": 65, "nji": 27, "yoei": 2, "you": 67, "reo": 258, "##irot": 24, "trau": 24, "##bcy": 4, "xiv": 40, "##cazol": 19, "##xolo": 115, "##droni": 76, "##qe": 30, "##bron": 250, "rl": 711, "brn": 2, "ilx": 7, "rcain": 41, "##yde": 3090, "rpc": 15, "rq": 71, "rti": 947, "rtv": 3, "##mati": 185, "##ypo": 246, "##bok": 14, "##vary": 27, "##ndus": 64, "dspa": 18, "rdspa": 2, "##opar": 272, "##alid": 190, "##stall": 64, "##ndra": 219, "scle": 69, "pco": 68, "##rmid": 46, "##kot": 71, "##nosid": 249, "##uel": 140, "sgp": 3, "shb": 7, "shl": 8, "##hika": 12, "saiko": 13, "sic": 2000, "skd": 2, "fj": 5, "##onor": 135, "slee": 40, "sli": 71, "snai": 4, "snd": 7, "ois": 298, "##right": 52, "law": 27, "##sona": 200, "mfp": 15, "exch": 23, "##ange": 164, "sof": 255, "##alco": 138, "sor": 740, "##entol": 150, "urg": 109, "imine": 1142, "squ": 156, "sra": 22, "##tenol": 262, "##itate": 220, "##ptano": 71, "sua": 35, "##cron": 129, "sclex": 6, "##pop": 188, "##rasti": 100, "##ilube": 30, "##vect": 27, "swe": 57, "##cthen": 10, "##lgos": 20, "##anthi": 163, "##pause": 33, "##gamix": 4, "##avite": 228, "##avit": 207, "##hase": 110, "##flar": 13, "##kti": 22, "##monal": 89, "##upram": 29, "odo": 1087, "##made": 50, "##axel": 285, "##tere": 147, "##uqu": 38, "mrp": 9, "scn": 27, "##naze": 88, "##ralan": 35, "##brix": 39, "##emac": 30, "tgl": 10, "tde": 11, "##tonin": 452, "whe": 26, "tfai": 2, "tfi": 14, "##afe": 548, "##atuss": 322, "##locin": 89, "ths": 102, "##dipo": 37, "##izium": 15, "##ance": 761, "mnu": 26, "traz": 226, "##otec": 269, "##ilast": 365, "dyr": 13, "##umac": 44, "##sabun": 5, "##alat": 191, "tadi": 228, "##gastr": 112, "ntmu": 3, "tw": 81, "##rolyl": 284, "trk": 10, "otp": 26, "tsu": 89, "zok": 9, "ttma": 2, "##uthi": 30, "##kut": 21, "tya": 12, "tyb": 19, "nhco": 7, "##chch": 19, "etph": 3, "##coch": 65, "ucb": 11, "ucn": 4, "##stor": 132, "uno": 332, "##spas": 167, "##john": 14, "upst": 2, "##affin": 83, "##ctant": 259, "##oles": 424, "##zoic": 1232, "uth": 233, "ux": 795, "vag": 106, "##othyl": 42, "##dacin": 113, "##minol": 336, "##nqu": 81, "##igl": 259, "##oban": 300, "vea": 48, "##dent": 419, "vee": 56, "##corn": 110, "ves": 843, "vic": 319, "vik": 21, "##gars": 13, "##otio": 78, "##otra": 91, "vmi": 3, "vsc": 7, "vub": 3, "wl": 51, "wal": 105, "##come": 46, "wer": 404, "wh": 129, "xer": 129, "xq": 10, "xin": 5075, "xk": 14, "xr": 114, "xyd": 290, "##ipho": 200, "yin": 187, "##huang": 94, "yog": 15, "yosh": 5, "ytr": 142, "yzh": 2, "zao": 25, "##matin": 133, "##asco": 133, "zit": 75, "##ostop": 19, "zd": 68, "zyl": 2802, "##jecti": 17, "zyx": 2, "zix": 15, "##oryn": 30, "bbk": 2, "##eted": 88, "##trax": 69, "##scol": 72, "##mune": 476, "##immun": 197, "air": 670, "proai": 4, "aml": 51, "oxaz": 471, "##regen": 41, "##kyl": 118, "##xalo": 35, "nop": 1246, "##ptus": 69, "gnp": 5, "rwa": 15, "##undia": 4, "euk": 118, "##mania": 23, "##lypt": 42, "##kum": 50, "twi": 36, "##thern": 27, "##udr": 87, "esb": 29, "rot": 1587, "##deine": 224, "##flux": 57, "##imune": 80, "nfv": 2, "##crate": 35, "##erod": 139, "utp": 39, "amns": 14, "##mts": 31, "##phu": 54, "##yph": 660, "##omane": 112, "##lsa": 218, "##plato": 14, "htm": 14, "psp": 27, "phga": 2, "##oprom": 42, "bpg": 8, "nbh": 6, "##ifa": 241, "##rstat": 109, "##eam": 677, "glt": 6, "##vite": 769, "##iban": 471, "##ytics": 283, "vd": 112, "##zos": 136, "rog": 751, "pyg": 17, "txa": 7, "dcha": 3, "##ycla": 99, "##ensu": 54, "bms": 25, "stv": 7, "##leur": 69, "##hii": 125, "##foli": 419, "##leuri": 15, "tdba": 2, "atf": 12, "##mase": 189, "##otid": 224, "pnm": 5, "tfpi": 5, "##lazad": 19, "pcv": 2, "age": 1073, "agd": 8, "poea": 5, "bbba": 2, "imq": 9, "etcp": 4, "##vari": 135, "hbh": 12, "##mesna": 28, "##lukas": 39, "nlp": 8, "luf": 75, "oah": 4, "##psn": 11, "##phase": 74, "##osy": 695, "##lini": 250, "##rozol": 72, "bid": 692, "##mela": 199, "##rsan": 94, "##uona": 10, "##lne": 108, "aleno": 72, "latin": 852, "rsr": 4, "##kalim": 143, "##piri": 224, "kni": 17, "aom": 15, "tuc": 64, "##koli": 16, "lp": 3608, "tfpa": 3, "##piti": 32, "kihi": 6, "kam": 72, "##iki": 68, "##hito": 72, "kkt": 3, "ken": 219, "lee": 166, "iic": 25, "bfi": 8, "pbf": 13, "ppq": 11, "hhc": 10, "##atid": 215, "eds": 78, "bca": 73, "cmc": 25, "xsc": 5, "cmh": 5, "afp": 29, "##tola": 127, "##adium": 176, "bmo": 10, "##hus": 806, "##datus": 21, "mfpa": 4, "##ylur": 187, "gine": 770, "nvi": 87, "##ecrin": 18, "obmp": 2, "##akin": 226, "##okin": 141, "lri": 58, "aah": 12, "##davir": 50, "##iru": 251, "##ylg": 633, "cei": 102, "##ctos": 138, "npi": 70, "nha": 118, "##ermi": 308, "##uam": 95, "zic": 184, "altr": 110, "bah": 30, "tsao": 8, "##hiol": 610, "##skia": 29, "##mne": 45, "##vest": 78, "mdg": 5, "penem": 277, "brc": 7, "##hconh": 12, "nnc": 13, "##upine": 23, "##sopi": 44, "pak": 345, "##oato": 383, "##seng": 85, "##gers": 68, "hgh": 11, "fcc": 8, "##unde": 179, "##cty": 209, "pfa": 19, "frie": 20, "##amma": 279, "vax": 571, "hbv": 4, "slca": 2, "ndca": 4, "mvii": 4, "rcv": 9, "##cosid": 110, "##alaci": 15, "saz": 33, "vba": 4, "##tdt": 18, "##nki": 54, "kje": 4, "ign": 131, "##umab": 7786, "##pith": 25, "##fid": 206, "##cosan": 200, "yun": 51, "##ofix": 57, "##flowe": 47, "##rthin": 15, "uct": 205, "##yrrol": 460, "##ibra": 181, "##apyr": 124, "phb": 34, "otb": 5, "##amun": 36, "hk": 47, "##adate": 133, "##haee": 5, "uri": 1367, "ctt": 12, "dcda": 2, "frg": 5, "appb": 4, "spm": 70, "pfo": 6, "ntb": 22, "amps": 23, "##pinic": 26, "##agus": 119, "##nicu": 97, "##thic": 206, "##alla": 132, "##ptrin": 50, "kyn": 41, "svi": 51, "irl": 55, "ihc": 9, "swo": 13, "##rml": 19, "nag": 132, "htd": 14, "##mcpx": 5, "##resol": 256, "fab": 117, "##dctp": 18, "dinum": 670, "##ylca": 486, "iup": 3, "##tena": 140, "impr": 33, "##egum": 57, "arv": 196, "irc": 118, "##zima": 29, "##tari": 128, "ard": 2239, "##parin": 363, "bsma": 3, "##rubi": 293, "rbz": 4, "flt": 10, "cgh": 2, "deq": 16, "uva": 201, "moya": 3, "myh": 9, "yao": 40, "##dyne": 402, "zei": 22, "tga": 25, "sir": 185, "##dalud": 8, "hdt": 5, "##nsine": 414, "##llyl": 441, "poh": 32, "##llol": 189, "##mstat": 187, "bpb": 12, "dpy": 4, "##bpc": 34, "iatr": 49, "##rden": 53, "##cico": 26, "rdc": 6, "gmc": 11, "##rwood": 27, "##rofe": 323, "fiau": 3, "unr": 8, "vgp": 5, "msp": 25, "bnb": 6, "##head": 116, "##itt": 95, "##ifol": 326, "##misi": 57, "dba": 44, "yek": 1, "##uling": 27, "thii": 43, "zal": 263, "##dari": 54, "dfv": 8, "labe": 57, "xiia": 4, "dni": 125, "##uaz": 65, "##odan": 272, "##egi": 176, "tpaa": 3, "mcha": 9, "fmda": 4, "##care": 1590, "moh": 30, "fcv": 2, "##plon": 165, "##akal": 31, "##acom": 37, "sui": 21, "etum": 97, "##gqa": 8, "##uroni": 122, "pcl": 31, "mmf": 8, "##xalt": 13, "dcl": 26, "gad": 110, "lj": 35, "aog": 8, "three": 4, "snx": 2, "##yi": 539, "rst": 216, "atv": 4, "arth": 149, "##rotec": 115, "apct": 2, "spna": 4, "##ofact": 23, "dno": 37, "##rexed": 109, "mviia": 2, "lnf": 2, "##brid": 55, "fdt": 2, "aud": 58, "nyv": 4, "lui": 50, "apst": 6, "##whf": 4, "wou": 12, "##nter": 356, "##ylmet": 705, "##dans": 87, "##racil": 1016, "##itec": 79, "octa": 682, "pbma": 3, "##khip": 5, "##chip": 21, "gto": 34, "gte": 13, "##vene": 134, "ihpp": 2, "##lusem": 13, "##perol": 66, "mcp": 40, "##motsu": 14, "##igan": 152, "##cdra": 7, "trop": 841, "##tecn": 18, "##rione": 193, "##ohex": 993, "##ksin": 29, "dpr": 28, "oen": 110, "othe": 388, "mhm": 14, "fcl": 4, "##batin": 37, "yme": 1385, "hte": 48, "fmo": 16, "octan": 170, "noe": 298, "##apov": 11, "iqn": 2, "##bgl": 8, "tig": 328, "sle": 101, "mok": 27, "mv": 151, "ggs": 8, "ggg": 34, "mip": 309, "##napa": 73, "fpe": 21, "##leuca": 44, "##folia": 818, "##leaf": 148, "##erba": 98, "stim": 988, "phg": 20, "rhu": 47, "##ocyt": 152, "rtf": 4, "cki": 39, "yj": 24, "loe": 81, "##xazo": 383, "prm": 8, "tgf": 14, "kde": 7, "##sart": 82, "aac": 89, "yigsr": 2, "ceri": 149, "pbi": 17, "ptf": 5, "xb": 82, "gtg": 7, "##tggt": 3, "##tgg": 23, "hse": 10, "hah": 29, "hth": 970, "atx": 13, "##cov": 220, "##aptan": 227, "##genat": 49, "eoa": 53, "dcg": 4, "dbi": 20, "aiah": 3, "##numo": 16, "enpp": 9, "mpte": 9, "mpta": 25, "##palm": 197, "erin": 3215, "##eukin": 261, "##huil": 8, "nnb": 7, "##capa": 56, "nmb": 11, "uce": 235, "##ambin": 19, "##ostim": 241, "rhg": 8, "nkai": 13, "qac": 4, "##hitin": 58, "##oyal": 47, "jr": 12, "##biqo": 3, "jai": 9, "##zate": 459, "##ytial": 15, "ovir": 1137, "##bent": 109, "peran": 24, "##wol": 26, "siv": 127, "##ergic": 325, "anic": 1049, "##niti": 225, "##ancin": 110, "##ntia": 302, "##pioid": 19, "##skin": 249, "ment": 847, "pns": 14, "##nso": 170, "##urmp": 5, "oos": 68, "##ponol": 19, "##seg": 60, "##ixic": 40, "cxp": 2, "uca": 436, "##gulin": 100, "bzoh": 4, "##aqua": 205, "##zati": 54, "##ndium": 30, "adpr": 7, "##gles": 38, "##hle": 69, "nm": 368, "tpna": 5, "kli": 42, "klio": 4, "##jest": 10, "pkf": 2, "##ospan": 98, "##rini": 193, "nmaa": 2, "omf": 54, "cem": 192, "##rke": 32, "mune": 476, "##ansu": 69, "aec": 47, "pbt": 32, "lie": 181, "chie": 7, "hlc": 2, "hlj": 2, "tant": 1133, "##mazin": 222, "##stop": 100, "##hta": 85, "msd": 5, "abg": 23, "##gio": 141, "##onoid": 111, "##kinra": 25, "##damin": 114, "oxz": 13, "npe": 68, "##aque": 224, "cbmi": 4, "##dazin": 256, "dfh": 8, "ppy": 77, "gpi": 6, "##oren": 239, "##foate": 15, "##mezol": 27, "sni": 32, "##atu": 736, "##mocin": 18, "##tulin": 110, "ylb": 948, "uglc": 5, "dpca": 4, "##ptyl": 325, "##elen": 286, "##ofop": 11, "##zafo": 23, "igm": 119, "spr": 232, "spio": 2, "bli": 127, "ibant": 73, "##entin": 329, "lnc": 3, "##capo": 46, "##capon": 26, "##xel": 408, "##etax": 39, "ltz": 24, "czo": 15, "edo": 329, "##omab": 781, "cnp": 14, "##ofib": 94, "##fibn": 13, "##uren": 124, "dfk": 10, "skb": 5, "natal": 319, "hhi": 5, "##plen": 74, "##lda": 146, "##akt": 57, "dub": 24, "##mdu": 16, "##nspm": 25, "dfg": 11, "##mica": 157, "##xiti": 43, "bbb": 10, "troe": 20, "bpc": 34, "##cont": 243, "##hyr": 323, "emv": 14, "##rient": 86, "ham": 613, "##oglut": 77, "##rezan": 10, "fll": 4, "##omax": 260, "rik": 84, "##artan": 421, "bti": 36, "hpro": 8, "odhpc": 2, "gq": 36, "##balph": 4, "gta": 23, "hci": 14, "tev": 50, "##tear": 240, "##hph": 35, "lsn": 3, "hcp": 40, "##rbond": 10, "alck": 3, "cfda": 5, "fb": 203, "##uxo": 32, "aopp": 8, "##hnc": 8, "##atca": 7, "nri": 52, "ppo": 109, "bzco": 8, "fphe": 3, "##cala": 103, "epd": 32, "aim": 54, "iim": 49, "rpi": 187, "dfx": 5, "##eros": 143, "nfa": 91, "lpo": 65, "zg": 27, "iep": 61, "kk": 111, "##vani": 106, "##shiel": 84, "ict": 199, "##nafi": 91, "tex": 991, "bnti": 3, "vrc": 2, "oxd": 12, "##tata": 204, "##fly": 64, "cryi": 13, "afo": 240, "##yti": 301, "epht": 26, "##tail": 81, "plc": 7, "##arum": 260, "kkp": 2, "##emyc": 45, "##cemic": 192, "zaa": 49, "##alah": 11, "dnf": 27, "phlo": 42, "##ophil": 199, "gav": 48, "ncda": 4, "psa": 109, "ceph": 238, "msu": 26, "piron": 139, "tgg": 23, "##rrh": 201, "mdh": 15, "vh": 33, "tdt": 18, "nex": 1511, "##opami": 119, "adg": 33, "##icosa": 282, "anq": 64, "##nari": 151, "znt": 3, "##bzpyp": 4, "eub": 11, "etal": 441, "apcmn": 2, "csp": 11, "apg": 22, "##gth": 103, "hho": 11, "hmo": 36, "##shoe": 7, "##ugin": 63, "ggb": 5, "phgly": 4, "hnt": 4, "byc": 5, "mqa": 6, "##tob": 243, "##ajor": 14, "##long": 188, "mglu": 4, "##ritin": 191, "hyn": 107, "##apene": 44, "anph": 7, "##zimi": 113, "chx": 7, "##ozyme": 118, "bbg": 7, "rrh": 201, "les": 1693, "##pefl": 10, "##hlan": 12, "dsn": 7, "teh": 9, "nme": 102, "##nabas": 14, "xm": 124, "mco": 49, "##inot": 170, "kae": 22, "snf": 6, "cka": 29, "##tasin": 112, "zia": 196, "rum": 2030, "azm": 13, "thioa": 150, "##hoxy": 3008, "##laza": 80, "##lazan": 20, "bnc": 11, "bpe": 18, "hdpa": 7, "ait": 64, "egr": 256, "jen": 51, "yung": 15, "js": 23, "##yyt": 15, "##rell": 76, "##cean": 35, "##henat": 61, "##thyle": 912, "##asm": 274, "acd": 40, "lek": 13, "etdh": 3, "##cooh": 119, "##yste": 203, "##qca": 54, "biq": 27, "##hibi": 55, "##lago": 61, "phba": 3, "##igqx": 8, "##aru": 187, "nae": 218, "##mato": 573, "ahmp": 2, "ryi": 48, "##sense": 107, "myb": 8, "inx": 34, "##fenur": 35, "gv": 79, "fme": 42, "indr": 36, "bmb": 29, "dpma": 3, "dpm": 28, "##mabg": 9, "##iqc": 9, "iin": 318, "acg": 15, "##gose": 19, "cdc": 24, "ylr": 84, "umi": 420, "##anpr": 13, "##ncin": 189, "##rlu": 30, "rsi": 193, "kla": 59, "##citet": 12, "##conh": 48, "conh": 48, "ppb": 43, "dtba": 2, "btfa": 4, "abpr": 2, "##fadp": 5, "bpd": 44, "huai": 9, "bme": 17, "ntr": 684, "tcta": 3, "kad": 38, "##nark": 6, "##ilph": 9, "##nized": 155, "##tpb": 38, "pwo": 6, "adhp": 7, "chmi": 4, "mle": 14, "mld": 5, "dpdi": 4, "##alus": 95, "hob": 73, "baue": 6, "cmu": 5, "##genol": 417, "mq": 85, "##karb": 24, "dmeo": 2, "mqp": 3, "##uq": 50, "##uadr": 60, "##nsis": 884, "##bosid": 17, "##dla": 18, "htf": 12, "##alif": 48, "##eplas": 29, "##gyna": 27, "aiy": 4, "hsca": 3, "tvia": 4, "##azer": 25, "hpca": 4, "pmc": 25, "imide": 2443, "ardi": 207, "clu": 72, "##lna": 119, "##varin": 88, "xai": 15, "ksu": 2, "nhs": 8, "shin": 92, "##goni": 84, "##tang": 198, "##ifi": 299, "awf": 3, "gti": 12, "cdq": 3, "mmba": 7, "bgc": 6, "ofp": 7, "isq": 18, "rdt": 8, "ndy": 68, "##xiao": 37, "##brad": 42, "midyl": 234, "dsg": 7, "key": 85, "klh": 2, "nfe": 133, "nff": 3, "aop": 37, "yf": 240, "##inolo": 111, "rsf": 14, "##ileu": 31, "ocr": 236, "ppr": 67, "##ppma": 4, "mns": 22, "bbc": 15, "dgn": 3, "##vali": 147, "gts": 2, "##iosol": 29, "apmc": 5, "##pgni": 5, "pni": 13, "iam": 909, "##loxi": 170, "##holin": 584, "##xyb": 653, "acil": 1456, "##ctor": 334, "##ucrin": 11, "caq": 2, "##krase": 5, "##noy": 430, "btf": 6, "##mbzbr": 8, "mbz": 15, "drm": 7, "opy": 2132, "osyl": 3192, "fuc": 70, "##tinin": 173, "ape": 561, "tpma": 3, "umf": 8, "##ifoli": 227, "paea": 16, "llm": 11, "pmp": 95, "##apar": 204, "pq": 134, "qin": 69, "rj": 47, "atsm": 11, "wnm": 5, "mss": 3, "sfv": 22, "dsb": 12, "##rigo": 47, "##wolf": 19, "rcd": 5, "##rvu": 14, "##rough": 28, "##eux": 29, "##omu": 142, "pza": 15, "dw": 72, "##tope": 203, "sphi": 166, "##typic": 13, "##imab": 4121, "##ocidi": 40, "ifa": 241, "immt": 4, "mdx": 4, "hll": 2, "##sodiu": 63, "aod": 17, "##brene": 8, "ntro": 167, "ndrin": 286, "ryt": 204, "##mono": 653, "ary": 1031, "##thmol": 14, "##atrin": 128, "##ghul": 10, "##rtel": 18, "odi": 1536, "elin": 1470, "##lacin": 91, "sdio": 3, "##thide": 57, "tase": 639, "atics": 176, "upp": 112, "gyn": 207, "##abloc": 10, "pvc": 7, "fpf": 12, "tax": 270, "##odio": 114, "##ntal": 420, "bed": 102, "apmn": 2, "##ason": 279, "brx": 12, "tvp": 8, "##rean": 37, "hrp": 14, "##ovii": 5, "bnn": 2, "tmea": 4, "teu": 46, "##crium": 20, "seg": 60, "##liti": 81, "##lvp": 14, "##fruit": 79, "atum": 1317, "imt": 35, "tva": 6, "##clos": 140, "bie": 94, "oylo": 183, "oap": 191, "bcea": 3, "##uloro": 5, "##otel": 83, "shd": 6, "htca": 2, "##rtro": 33, "ompt": 37, "##valp": 43, "##heh": 16, "eli": 1216, "##prod": 153, "##davp": 30, "cid": 1560, "cdv": 4, "##lurd": 8, "vor": 194, "##ozole": 353, "##utide": 371, "##apre": 144, "##zinc": 252, "ahz": 3, "ndf": 8, "mts": 31, "##cavir": 88, "##mexi": 49, "efe": 222, "##gatr": 39, "sqv": 8, "##ormyl": 113, "eads": 48, "xz": 25, "##momab": 360, "rta": 501, "oba": 819, "##quel": 81, "##enur": 64, "##phena": 458, "tbo": 24, "cty": 209, "##kast": 258, "##fant": 238, "nkh": 7, "dtx": 3, "##endan": 128, "ife": 950, "##ogala": 36, "dina": 908, "rpf": 3, "osu": 723, "drg": 7, "rd": 3493, "##ropr": 261, "##bide": 290, "axe": 126, "aol": 102, "##lepti": 46, "##ergan": 106, "iib": 33, "beb": 31, "##ixima": 42, "##otne": 12, "##kim": 84, "eoea": 2, "eeaot": 2, "##aotc": 7, "bzn": 21, "fcy": 1, "##rpent": 35, "ibb": 33, "##odipy": 13, "bpx": 3, "iggb": 2, "ccg": 14, "##ktd": 3, "##tode": 64, "##fha": 10, "nqx": 9, "rmp": 15, "otd": 5, "ckc": 9, "vbl": 2, "##tpln": 4, "##datp": 13, "ddha": 4, "idd": 32, "ibz": 8, "spy": 26, "hpbe": 3, "htb": 6, "etbp": 3, "phde": 5, "zll": 4, "##uor": 1499, "##rota": 181, "##gyi": 35, "wfa": 6, "mcg": 32, "zie": 14, "ie": 2973, "##uthia": 25, "thai": 15, "sob": 252, "##rinus": 87, "phaa": 14, "##bios": 69, "##moid": 11, "##fcb": 10, "piv": 213, "bii": 27, "xp": 225, "##arib": 244, "lyd": 64, "etg": 8, "dhq": 6, "kko": 41, "kak": 11, "konto": 4, "xiao": 37, "cheo": 9, "##ryuto": 7, "##quam": 46, "pdg": 34, "ldti": 4, "dbt": 21, "wag": 12, "##rice": 139, "rdex": 53, "##royl": 429, "mey": 7, "##noxy": 1615, "hilin": 200, "hir": 107, "##sut": 52, "##wink": 8, "##gini": 122, "##hnh": 32, "##feryl": 110, "##brio": 52, "amk": 7, "cgn": 2, "fv": 101, "exc": 81, "##caria": 145, "##lobal": 19, "##navir": 261, "##irsen": 278, "kiz": 39, "##berg": 81, "##bergi": 13, "spray": 433, "zcr": 2, "teine": 1087, "tein": 840, "meoa": 5, "##gctgp": 7, "msi": 48, "gpd": 4, "onb": 20, "mmea": 4, "aoe": 12, "lur": 849, "vil": 234, "##mafix": 19, "date": 2403, "##urot": 79, "ostr": 113, "eqo": 3, "sfc": 5, "cgd": 6, "jip": 2, "adms": 6, "anl": 62, "pdo": 39, "##ocur": 83, "eech": 21, "fhe": 6, "mcm": 17, "##sanol": 168, "##ysso": 15, "msb": 12, "oaac": 5, "fet": 171, "##oraz": 90, "fii": 39, "utt": 81, "##ronin": 101, "mcs": 25, "aju": 21, "##garin": 21, "prs": 13, "dtr": 10, "##dallk": 6, "##ngu": 168, "occ": 168, "cmd": 10, "dbe": 34, "cbr": 4, "hbn": 8, "dbo": 18, "otfp": 2, "opf": 15, "otf": 3, "fmp": 35, "##acryl": 212, "##emp": 278, "##sud": 117, "thn": 13, "hhd": 2, "lmb": 3, "hou": 67, "pno": 40, "obu": 752, "htn": 9, "##troba": 43, "##uter": 116, "##lphaa": 10, "azph": 4, "dog": 108, "bpu": 6, "wd": 51, "rss": 7, "ivc": 2, "yers": 37, "ypm": 5, "##rasib": 40, "##jn": 26, "##egeri": 9, "mrvi": 2, "vbe": 2, "##amel": 134, "onp": 45, "anb": 56, "gpr": 6, "ifen": 907, "##mfe": 92, "cgb": 6, "vab": 57, "riz": 348, "##ptn": 56, "##hap": 167, "jtp": 2, "zai": 26, "zhang": 11, "zz": 143, "##plase": 150, "dnb": 13, "hppe": 5, "##utrol": 78, "##iten": 137, "mtm": 20, "##upi": 137, "wmc": 2, "obp": 27, "##luk": 57, "##ybial": 5, "naz": 797, "##xd": 65, "##dorf": 11, "gch": 14, "##kane": 36, "##zoi": 152, "##ioate": 1213, "fox": 155, "icm": 11, "dqp": 3, "lub": 176, "##rith": 94, "kie": 35, "##vito": 16, "##eyo": 48, "usf": 6, "csna": 2, "spb": 26, "ely": 261, "edg": 26, "sao": 20, "abq": 6, "alx": 14, "adq": 6, "##rdine": 355, "aqn": 2, "ackb": 10, "akb": 6, "amate": 3534, "mgp": 14, "tlm": 3, "kon": 167, "##ingi": 72, "##malol": 17, "nmp": 41, "##wm": 18, "pmf": 20, "##zenin": 6, "mbm": 27, "piya": 6, "uli": 803, "cdb": 33, "ircl": 4, "qn": 34, "pbto": 3, "##rly": 72, "eod": 79, "bbd": 11, "lgd": 4, "vb": 59, "kv": 39, "glg": 5, "akd": 4, "##ocide": 161, "##namo": 111, "##oges": 226, "##ogia": 32, "##tti": 100, "##dall": 33, "anone": 1707, "##paine": 33, "ents": 498, "##lycol": 583, "##lyco": 359, "##loral": 186, "mato": 573, "##coli": 223, "##henal": 23, "##utal": 110, "##butal": 75, "##diam": 485, "##gold": 171, "##rabi": 183, "hri": 377, "##ssic": 94, "tak": 138, "##abru": 30, "xen": 474, "##xvi": 20, "##ulce": 26, "##urus": 192, "east": 60, "hie": 276, "nto": 691, "vol": 280, "##atil": 86, "##pou": 45, "moo": 83, "##yon": 105, "##emine": 219, "##emin": 303, "##rber": 70, "##berry": 395, "##till": 76, "##mary": 97, "spru": 4, "cari": 179, "fir": 142, "##size": 54, "##yclic": 120, "##rring": 46, "##ncts": 10, "throa": 13, "##leni": 133, "alis": 661, "##cant": 203, "##illar": 88, "##flora": 305, "##isal": 205, "each": 51, "##rior": 74, "pow": 56, "##dered": 12, "##tali": 195, "##dae": 116, "##nake": 37, "##talin": 198, "isg": 20, "iol": 5179, "##opre": 171, "akw": 4, "amv": 13, "pfs": 7, "rdf": 5, "##uad": 162, "##nuv": 47, "##ules": 167, "ayr": 13, "##netar": 13, "##hlen": 7, "##ixir": 54, "coaid": 15, "caps": 578, "coca": 62, "wcs": 2, "##yrium": 14, "##lips": 37, "##foam": 323, "##ospa": 56, "dhs": 15, "dose": 317, "##edrin": 339, "##ronel": 79, "##eals": 61, "enta": 1837, "##ldr": 77, "##rale": 111, "eld": 871, "ercap": 213, "ert": 1131, "emp": 278, "##clene": 23, "inj": 78, "##ector": 154, "endr": 133, "fml": 4, "##film": 102, "##rocap": 39, "##ginal": 74, "##dren": 270, "stri": 320, "koa": 8, "##tik": 107, "##vsi": 8, "moi": 104, "##svax": 29, "##lusal": 28, "hca": 67, "##riae": 145, "##egel": 99, "pms": 21, "##ream": 403, "##stran": 85, "##mso": 45, "rob": 928, "##ussin": 581, "phri": 122, "spri": 58, "##kles": 33, "##day": 251, "##gge": 19, "##omat": 204, "##sica": 101, "##matar": 10, "##less": 296, "pox": 519, "aerr": 2, "fee": 51, "##seb": 221, "##pray": 492, "##calc": 297, "##ily": 240, "##lva": 212, "pou": 45, "##opha": 234, "obl": 114, "##ferm": 60, "##minth": 27, "fty": 18, "beau": 39, "##coup": 9, "##lmin": 128, "big": 111, "##ivax": 76, "##ckle": 62, "spu": 30, "bloa": 6, "groo": 10, "shie": 87, "##mink": 14, "ibl": 64, "##hield": 473, "ibr": 542, "brs": 6, "##ivac": 152, "##away": 127, "bree": 37, "sow": 9, "##eder": 76, "##rbron": 16, "##ake": 389, "##wca": 3, "off": 173, "bvm": 5, "##lyte": 496, "mpk": 13, "##vov": 89, "##irus": 640, "##tle": 338, "vl": 106, "##ssing": 87, "lak": 85, "ewt": 4, "##lope": 392, "scru": 18, "##farm": 35, "##umune": 19, "##strx": 9, "##udose": 27, "##perv": 27, "##mbles": 4, "##guard": 516, "cryo": 20, "##iben": 365, "ctc": 16, "cyg": 2, "rcp": 4, "dew": 46, "##ormer": 34, "##clox": 106, "##cco": 121, "##cool": 103, "##ameth": 521, "diaa": 7, "##otex": 93, "lci": 386, "rab": 511, "dyb": 4, "##elon": 203, "ectr": 108, "##ctro": 103, "hav": 47, "##logen": 81, "##serum": 62, "##rall": 126, "##bort": 34, "eae": 81, "eqs": 3, "##uib": 18, "fly": 64, "##ilis": 257, "##uis": 145, "##uit": 205, "##uiv": 19, "##rows": 31, "prv": 4, "fav": 41, "##oring": 38, "##load": 31, "##iotic": 294, "##bits": 26, "cvr": 3, "##plix": 20, "flai": 2, "flea": 6, "jec": 127, "##tiva": 225, "dora": 139, "##ptos": 49, "##tussi": 153, "##laxin": 78, "##ables": 100, "hit": 173, "##ravax": 4, "hus": 806, "hvt": 2, "##ovet": 92, "##coat": 85, "##utech": 5, "pmv": 2, "shee": 13, "kee": 38, "##burs": 23, "klee": 22, "kop": 25, "##ertox": 19, "##acer": 72, "##term": 103, "##ilk": 139, "##ttes": 99, "lba": 187, "ldc": 40, "##avoid": 11, "##omune": 59, "lyse": 56, "##dyp": 27, "##alyte": 111, "mck": 9, "##illip": 10, "pwd": 4, "boo": 52, "##rgua": 24, "##fume": 21, "ezy": 22, "tys": 76, "##oved": 32, "fog": 31, "naq": 26, "##uas": 42, "##xce": 28, "##merc": 343, "##baci": 102, "##bioti": 88, "scou": 26, "##cast": 88, "##vaci": 53, "##vade": 29, "##valu": 30, "##vami": 52, "##vapr": 26, "##mark": 159, "##drops": 141, "##tech": 266, "##urpro": 9, "##trep": 245, "##orme": 213, "phf": 4, "phai": 5, "##igua": 116, "##vib": 87, "##fuge": 30, "pop": 188, "pleu": 34, "pneu": 50, "##lites": 55, "##ibac": 121, "hhp": 11, "##atric": 114, "##iocin": 228, "##ystem": 32, "##obo": 162, "##ttac": 14, "pup": 12, "eas": 404, "##vici": 35, "gru": 20, "roa": 540, "##dwo": 10, "ressi": 109, "rek": 60, "rvac": 19, "rhea": 125, "cte": 250, "##mpu": 52, "tge": 17, "##gby": 12, "eze": 355, "##bury": 11, "##uard": 610, "##rlyte": 27, "##rmune": 8, "crt": 9, "##afon": 79, "##atix": 9, "##lux": 191, "seb": 221, "##rypa": 25, "##jets": 11, "mlg": 6, "##strum": 125, "##letho": 26, "spra": 100, "spre": 14, "stay": 17, "##bred": 11, "stee": 13, "sses": 55, "##gid": 100, "##lka": 77, "##leen": 91, "##fend": 77, "swa": 37, "tek": 220, "##ynv": 10, "##nogen": 297, "thra": 325, "##ozine": 286, "##hawk": 6, "##rrow": 82, "##pers": 181, "foe": 26, "##leva": 87, "udd": 34, "csn": 6, "##oez": 4, "ew": 576, "##ichol": 63, "##lube": 123, "##rsul": 38, "##isul": 236, "vib": 87, "##romu": 61, "##quat": 112, "vpl": 3, "qy": 9, "shea": 10, "vtd": 5, "##angu": 104, "wea": 26, "wj": 11, "##rhoea": 19, "##rypox": 10, "##ttaci": 7, "##uid": 204, "##itis": 709, "ecth": 4, "##ocida": 17, "##onpox": 5, "quai": 8, "cola": 212, "iae": 585, "chau": 10, "##voei": 8, "##genes": 74, "##rlic": 14, "##xella": 15, "##lava": 160, "##viae": 5, "##onae": 16, "##onem": 35, "##lii": 146, "ruc": 197, "##keri": 18, "vur": 18, "##spira": 108, "##amon": 150, "whey": 3, "##vyi": 8, "##ellii": 11, "mrf": 7, "hbca": 5, "anbc": 4, "##orat": 257, "##lepi": 51, "##mza": 19, "sms": 63, "embp": 2, "##xafin": 15, "##cans": 112, "##cial": 95, "##edia": 340, "##ias": 319, "fai": 39, "ics": 3235, "##seo": 62, "siti": 101, "##ogy": 294, "kay": 33, "aphth": 531, "##nges": 104, "##hicle": 10, "##rams": 45, "##lcit": 123, "joi": 18, "##ldopa": 85, "teg": 192, "##ening": 149, "soo": 107, "##hing": 345, "##rease": 86, "loo": 99, "gee": 36, "broa": 6, "##worm": 86, "##worms": 16, "##stis": 161, "##eumo": 56, "##tons": 43, "##ions": 642, "##quen": 43, "##eter": 282, "##xua": 5, "##ency": 175, "##mias": 47, "##edta": 38, "##edet": 38, "etina": 151, "##lient": 35, "##itive": 131, "ecz": 11, "##uses": 27, "##ging": 164, "##lou": 82, "hni": 61, "##hang": 55, "acs": 57, "##isel": 44, "##igram": 15, "##ilit": 49, "##clic": 162, "##dies": 96, "##uman": 84, "bag": 73, "ssri": 2, "##mask": 22, "chic": 109, "##colo": 177, "##ology": 187, "##uring": 58, "##rect": 131, "##gani": 72, "##enzym": 61, "iamp": 18, "fou": 20, "##stals": 39, "nbr": 22, "##sba": 55, "any": 627, "##ups": 61, "##ormon": 89, "hue": 16, "##gras": 122, "##sity": 93, "seu": 199, "ddba": 3, "mkt": 3, "olin": 5169, "tdm": 28, "jol": 22, "##ethin": 91, "##osen": 127, "##ghter": 13, "##anit": 228, "##ipc": 30, "rgp": 4, "mls": 4, "##zoxa": 130, "bco": 31, "kun": 44, "tbe": 13, "##rudin": 166, "nen": 349, "ers": 2151, "fqca": 4, "##afant": 145, "cloa": 31, "artr": 79, "ovu": 48, "##plant": 119, "##mse": 30, "##pein": 39, "##ied": 376, "ces": 498, "##ead": 395, "##setr": 77, "iab": 149, "##sie": 45, "rpd": 3, "##dgf": 18, "##nker": 40, "##osinc": 7, "##linin": 42, "shn": 10, "##qta": 6, "aagt": 2, "akn": 21, "##vamer": 28, "llf": 15, "##hepsi": 8, "tum": 2660, "aai": 7, "hsl": 3, "##fiban": 241, "xl": 106, "nbca": 2, "odq": 6, "##uga": 156, "cnd": 7, "mdr": 13, "ibdp": 3, "cvd": 3, "hsp": 34, "aip": 32, "##mula": 118, "ryu": 30, "##kotsu": 5, "srb": 6, "##olog": 197, "##pek": 42, "##ipek": 10, "cun": 30, "rgv": 5, "##vna": 10, "ssr": 15, "lrb": 7, "##erse": 178, "thm": 97, "##nusin": 32, "##usin": 332, "dioa": 42, "phene": 1319, "hsia": 14, "hsc": 29, "hpq": 6, "daf": 89, "bga": 16, "furin": 129, "##nib": 5975, "##dpaar": 18, "##aar": 83, "ddia": 2, "epb": 43, "kte": 5, "##rpy": 32, "pia": 187, "poa": 70, "hdo": 21, "acpm": 8, "phs": 45, "mft": 11, "##usen": 16, "##ey": 696, "##vq": 10, "##tvk": 23, "dfd": 9, "azv": 5, "iac": 643, "mpp": 203, "fma": 24, "aict": 3, "cnb": 12, "##pthn": 3, "bzo": 9, "bzc": 12, "pnc": 6, "ihf": 2, "ikh": 7, "rar": 109, "atin": 5142, "##atia": 62, "##ulic": 106, "##luri": 123, "vcl": 7, "##uori": 117, "ggl": 19, "##bumin": 147, "##hybum": 8, "##yba": 54, "scl": 96, "##erot": 78, "##vos": 129, "##hibin": 24, "##umb": 188, "cbi": 13, "##molit": 10, "hek": 21, "vad": 99, "fmk": 7, "zva": 3, "##ldadf": 12, "bzd": 7, "emdt": 2, "ocs": 20, "kd": 60, "gia": 343, "fdg": 6, "iy": 239, "ggt": 10, "abn": 30, "klk": 12, "##lllll": 1, "uft": 6, "pmpa": 19, "##uton": 220, "##bbit": 19, "##pnin": 8, "bdo": 21, "##witha": 18, "tmc": 29, "##mndo": 4, "cie": 56, "mali": 105, "dmppo": 2, "##meric": 146, "##sodi": 123, "ndb": 10, "##dotr": 95, "vs": 94, "##imido": 538, "edp": 51, "##cinna": 217, "tiv": 751, "eil": 39, "ilb": 145, "##ntha": 240, "dlr": 4, "alde": 268, "fas": 200, "eimp": 5, "luz": 66, "##ensi": 387, "acf": 14, "fglu": 8, "prpi": 3, "stb": 10, "rak": 98, "##icidi": 63, "##yso": 168, "ptm": 35, "##hala": 247, "late": 9883, "nso": 170, "##mmi": 163, "##ferol": 558, "accp": 7, "hoa": 64, "choa": 8, "yh": 204, "ras": 993, "eci": 381, "##upri": 56, "ffp": 7, "dth": 13, "##evir": 440, "tpu": 2, "gpg": 13, "tth": 12, "##opp": 117, "##ush": 404, "##odia": 184, "nie": 71, "##orfin": 249, "zha": 12, "##kuic": 5, "##wanon": 7, "plin": 34, "##rasin": 54, "##ahi": 108, "audr": 3, "tks": 2, "##catin": 105, "hnq": 5, "tph": 29, "pdx": 5, "##yman": 49, "fue": 5, "jet": 36, "shii": 11, "##take": 72, "hia": 1307, "uda": 183, "hhe": 9, "##tlaa": 4, "ndh": 10, "##laua": 4, "fpt": 12, "cti": 1082, "rsv": 12, "ortin": 181, "##cyst": 279, "yva": 50, "edf": 9, "ucl": 213, "rld": 30, "##lpe": 259, "mii": 15, "dfl": 6, "##vase": 131, "##tct": 17, "##raci": 312, "kpi": 5, "##olp": 112, "tero": 919, "ids": 1065, "##rula": 60, "tza": 19, "##nadi": 105, "snme": 2, "pyt": 13, "ihb": 6, "##gshcp": 5, "##exed": 158, "bib": 45, "bnt": 19, "hpi": 29, "ngua": 22, "abpd": 4, "dfc": 14, "bmip": 6, "awr": 6, "##fgg": 15, "rgt": 3, "acph": 4, "cmpe": 2, "psee": 2, "fps": 16, "##eep": 148, "dtn": 6, "nfm": 2, "hnf": 11, "tbv": 6, "smi": 195, "##lovi": 104, "##lytin": 65, "brt": 5, "bfm": 6, "brv": 3, "dae": 116, "cdf": 16, "ggf": 3, "hcoo": 6, "kaa": 8, "mah": 35, "##ntho": 241, "tpd": 28, "abk": 5, "##aon": 44, "eop": 222, "dud": 7, "dcq": 2, "nmpe": 2, "msn": 2, "##glcg": 5, "##jap": 27, "##olene": 246, "mpn": 28, "##toly": 104, "##adiol": 719, "##oine": 116, "acnh": 8, "##hool": 11, "hdd": 11, "adv": 52, "##paste": 341, "##vast": 100, "upf": 5, "oemb": 4, "acdm": 2, "mrs": 5, "alr": 45, "hf": 187, "##idit": 40, "kpr": 6, "##antad": 39, "ndc": 23, "##pment": 23, "tpo": 64, "rht": 5, "rpra": 16, "##ffy": 21, "abbs": 3, "gw": 61, "##type": 111, "##chem": 180, "stk": 3, "cino": 597, "mfg": 16, "vcz": 3, "vpsa": 2, "##uced": 48, "embr": 60, "deli": 82, "##xacum": 15, "etch": 42, "##ulata": 167, "ecb": 16, "##nosal": 65, "##nanth": 150, "##sured": 15, "##ribut": 40, "##rind": 112, "##ulum": 56, "berry": 395, "vma": 5, "ean": 1300, "##lber": 38, "##erri": 150, "##ille": 136, "ounc": 5, "##crip": 69, "##aprin": 173, "##pric": 71, "##idob": 90, "##myxin": 68, "##ofyne": 19, "##etri": 314, "tts": 90, "##onit": 337, "##ioxa": 181, "##ndiol": 198, "##lati": 387, "##tani": 243, "##ift": 86, "sad": 104, "plla": 2, "cgk": 3, "##sicl": 23, "rgil": 37, "egd": 14, "##mge": 18, "##shya": 5, "##igin": 174, "slu": 8, "plau": 7, "dgh": 3, "htc": 10, "##flone": 13, "rbti": 4, "##mill": 73, "ogl": 557, "kan": 183, "##troll": 18, "jap": 27, "##anese": 90, "##rcid": 34, "admp": 3, "mmd": 14, "tss": 14, "dao": 17, "ysc": 33, "ynl": 13, "##ocyan": 255, "aden": 413, "kwa": 17, "cxd": 3, "obhp": 3, "ayu": 18, "##pezil": 57, "##zilo": 51, "oso": 726, "##xetil": 57, "eso": 512, "elf": 63, "aih": 10, "emm": 54, "hof": 39, "ebc": 25, "mhh": 5, "fim": 109, "sba": 55, "##dong": 68, "##euron": 29, "onis": 180, "##yton": 151, "##soten": 4, "mnp": 16, "zos": 136, "cvt": 4, "##fuse": 40, "ldt": 21, "cyb": 19, "ovs": 10, "rtk": 8, "clp": 38, "eoc": 106, "somab": 58, "ptca": 6, "obo": 162, "obol": 48, "iaam": 3, "jt": 23, "rsh": 40, "iwf": 2, "##ofi": 256, "##idate": 1734, "tdd": 10, "sit": 407, "##ilu": 242, "##afil": 409, "efm": 32, "dho": 12, "uab": 22, "##yk": 171, "hug": 23, "hum": 409, "nki": 54, "mpo": 203, "pcai": 2, "cdmo": 5, "anti": 1204, "##body": 148, "bfpa": 3, "tmpa": 10, "ipt": 444, "ipn": 10, "##ardin": 165, "mcf": 4, "ezo": 149, "##gabin": 26, "ezg": 4, "rtg": 7, "dtb": 19, "gcma": 2, "bzphe": 2, "##noson": 223, "fq": 49, "##kgy": 5, "son": 1776, "##urad": 123, "lx": 211, "##noxi": 148, "##geni": 302, "hpk": 5, "erk": 60, "##ylh": 551, "##perox": 130, "bpv": 2, "furo": 444, "##ypine": 12, "mfb": 6, "tsaoe": 2, "##allyl": 298, "iacf": 2, "cch": 151, "##lano": 197, "ftx": 3, "sft": 5, "buh": 4, "##dibr": 106, "yli": 1613, "bcs": 9, "aep": 24, "##soin": 58, "ecd": 30, "##norm": 306, "erth": 19, "rwl": 3, "acdb": 2, "##ymic": 34, "aav": 12, "##urole": 12, "##abo": 306, "##maro": 100, "##ulan": 155, "##uly": 29, "lenol": 223, "lenic": 126, "##hida": 17, "fpc": 15, "##inoc": 293, "##nanin": 16, "##fulv": 43, "##mito": 213, "iri": 766, "vog": 45, "##ntiq": 10, "##labin": 22, "pj": 18, "cpn": 9, "##bcl": 30, "aucl": 7, "##razi": 866, "##patch": 203, "##pita": 115, "uns": 45, "##gluco": 419, "apss": 5, "##hila": 163, "doa": 142, "##oyo": 55, "soyo": 6, "shoy": 2, "xiaoy": 2, "vdp": 7, "hz": 40, "##uvic": 39, "mdc": 30, "rsc": 20, "##astic": 218, "##acia": 100, "##acea": 182, "tiq": 110, "##xidol": 13, "fviia": 3, "rfvii": 4, "gcp": 4, "##adina": 134, "gaf": 15, "cst": 12, "##tomin": 89, "ftu": 2, "scu": 180, "ahpn": 2, "etnh": 3, "jkl": 2, "dhga": 3, "sdi": 57, "qai": 5, "##pano": 335, "cng": 6, "pmpe": 10, "cmi": 25, "bzg": 3, "bcx": 3, "##mera": 132, "phx": 5, "kab": 30, "xv": 38, "ird": 85, "##llu": 262, "##iflu": 529, "hsd": 6, "kyk": 2, "aean": 4, "gsc": 7, "amtm": 2, "nka": 86, "nkb": 4, "mui": 4, "pbs": 10, "dpri": 7, "##dbu": 15, "phme": 17, "##burst": 39, "psd": 10, "erm": 2912, "nmo": 18, "ucp": 11, "##zuron": 114, "admk": 3, "acmk": 9, "##irino": 87, "##best": 65, "usa": 292, "evd": 7, "##phila": 136, "nib": 5975, "##aser": 131, "##srod": 4, "ccd": 15, "pvi": 5, "##lkr": 6, "##rrcf": 8, "##fish": 196, "cbt": 9, "thpa": 36, "##uvir": 252, "spv": 2, "haj": 6, "fmpa": 3, "dole": 1322, "gva": 18, "##vbo": 2, "mak": 72, "##atox": 120, "dtz": 4, "dhpio": 3, "mdhpi": 2, "npb": 12, "srr": 2, "##ceu": 46, "ltc": 6, "bnao": 2, "vmh": 3, "##adam": 108, "##efo": 218, "##rmis": 255, "ddr": 7, "##veni": 42, "yja": 3, "##hates": 79, "##pten": 124, "##ptene": 233, "dhba": 3, "hqn": 2, "hqd": 3, "rsn": 14, "##scf": 21, "mgf": 5, "scf": 21, "eib": 12, "ossp": 6, "clc": 22, "##oxib": 447, "dsu": 10, "##rifa": 104, "hms": 8, "olg": 51, "scr": 105, "##tcpp": 6, "bola": 89, "edb": 22, "hcda": 3, "hcb": 13, "tpe": 31, "##uria": 88, "dhg": 4, "tnf": 36, "tnt": 7, "nuia": 2, "mdpo": 2, "olic": 2306, "pst": 40, "achm": 6, "pdf": 4, "bsn": 10, "mspi": 2, "pbr": 8, "khl": 4, "ntsu": 6, "osw": 19, "bnf": 12, "shio": 13, "##jiri": 24, "##rtate": 141, "ipbc": 2, "fph": 20, "bzp": 20, "efpp": 5, "etsm": 2, "dto": 13, "pph": 53, "hbd": 8, "soc": 286, "##cible": 10, "oxh": 2, "lvs": 10, "sbh": 3, "##hns": 22, "##tonii": 24, "nlc": 4, "##voxil": 57, "##ivox": 18, "opw": 6, "dmoa": 2, "##nife": 72, "aoaps": 3, "pmma": 2, "nra": 69, "cone": 1032, "spaa": 2, "##hexin": 54, "enmt": 3, "##imus": 484, "##olimu": 45, "xu": 176, "##lyti": 120, "##stica": 55, "##rbate": 236, "pdr": 12, "##scop": 109, "jou": 6, "npn": 5, "lct": 18, "muf": 10, "nsp": 67, "nah": 52, "##tiaz": 83, "##lze": 13, "card": 371, "mcr": 2, "pria": 27, "##ortyl": 20, "##eton": 346, "acton": 260, "##heum": 43, "acri": 257, "##nact": 75, "##buse": 36, "arw": 20, "##ixco": 9, "##loca": 115, "##rdyl": 41, "avl": 28, "##losp": 78, "##gifen": 8, "##onase": 142, "##orte": 244, "##odis": 89, "##disk": 30, "sthm": 30, "##kate": 40, "##tne": 42, "bloc": 127, "##asmin": 186, "brie": 8, "##aject": 92, "##lofex": 29, "##cado": 45, "##bren": 26, "##jex": 13, "##ynar": 30, "##rject": 15, "ctol": 270, "##evit": 147, "##ofalk": 48, "##noph": 394, "##zire": 9, "##nest": 295, "##stid": 83, "##ivent": 50, "##stap": 84, "##ynova": 20, "##stab": 114, "##eral": 427, "##olit": 126, "##evan": 64, "##aclo": 124, "##ropan": 976, "##apax": 53, "eufl": 7, "exine": 183, "##halac": 10, "##hast": 24, "##rzo": 62, "ecr": 98, "##corte": 46, "##ilor": 52, "##isine": 262, "elt": 305, "##roxin": 193, "embl": 19, "emfl": 3, "erw": 33, "ethm": 7, "##lucon": 99, "##mvi": 17, "##lgic": 71, "fef": 5, "##atrix": 77, "##nbi": 48, "##grad": 52, "##dural": 45, "##ogr": 181, "##amal": 90, "##aday": 14, "##tcher": 36, "##xona": 48, "##xoti": 16, "##rtu": 119, "##enam": 496, "##vra": 27, "##ldo": 220, "##kline": 7, "rex": 2326, "##rgine": 149, "bph": 8, "##eve": 481, "##vace": 47, "##vail": 52, "##akion": 12, "kwe": 21, "##ocol": 244, "##flex": 783, "##rcor": 11, "led": 400, "##ersp": 19, "##niu": 1267, "##xpe": 41, "##raine": 75, "##said": 75, "##esor": 89, "##eril": 249, "##cets": 17, "##gyne": 42, "##xana": 55, "##aplat": 49, "##renal": 120, "##oton": 226, "##osyn": 211, "##urne": 21, "tabs": 559, "nyc": 40, "##opren": 28, "odr": 158, "udr": 87, "eins": 77, "##eten": 51, "ovr": 26, "##rinex": 57, "plat": 323, "##telin": 35, "pci": 34, "##ilne": 8, "##enema": 48, "##ulsid": 25, "##nix": 357, "##nsive": 130, "##cut": 186, "##ltrol": 23, "##modan": 17, "##nace": 117, "sev": 79, "##redol": 6, "spar": 234, "##noct": 62, "sils": 21, "##arex": 135, "##ocor": 271, "##rzide": 34, "##milen": 23, "tot": 262, "##aret": 73, "##copa": 96, "##ylol": 178, "tru": 272, "##lair": 176, "##lerg": 129, "##rmone": 107, "viz": 30, "##lma": 268, "##aren": 162, "##taren": 22, "##dorm": 121, "zad": 102, "##ovane": 19, "##xome": 51, "##tamo": 135, "##erve": 42, "cept": 817, "actr": 46, "##tova": 32, "ears": 164, "##neze": 32, "##tist": 39, "mxl": 6, "amon": 150, "##seven": 36, "##tch": 603, "##tens": 210, "##uag": 18, "##mata": 93, "##otar": 63, "##lena": 125, "##lado": 61, "##goro": 6, "##rexin": 107, "aly": 284, "##loxin": 125, "##anoid": 113, "##lte": 308, "##rella": 80, "asm": 274, "##rka": 39, "##otard": 43, "##ulair": 17, "##sions": 79, "##yamin": 81, "ions": 642, "##drug": 37, "##ning": 488, "nzyme": 115, "##gella": 23, "##kling": 41, "##port": 190, "crop": 71, "##ainin": 32, "##emol": 123, "syp": 25, "##hilis": 14, "##solv": 75, "voa": 12, "##canga": 8, "##vera": 229, "emk": 2, "##rcept": 288, "##erat": 230, "rov": 308, "##iral": 229, "##actil": 67, "ubr": 126, "##ptal": 86, "##ryth": 165, "##oxyli": 231, "fco": 35, "##ichin": 30, "elm": 146, "##camid": 59, "##binin": 32, "##bini": 44, "##donal": 23, "##eston": 125, "##alein": 635, "##ligo": 96, "tik": 107, "##laton": 45, "##ocal": 188, "##opect": 30, "klm": 2, "hrs": 5, "##brax": 21, "idon": 485, "##atini": 166, "##lind": 258, "incl": 24, "##udal": 50, "##apate": 36, "##epoxy": 161, "##ulide": 91, "##xaf": 93, "##yci": 2149, "##state": 325, "oep": 94, "##lexyl": 4, "##toxy": 798, "##germ": 131, "phle": 23, "##pase": 321, "##rrin": 203, "##moxin": 65, "##bamo": 250, "##midon": 66, "pyrin": 196, "ops": 443, "##una": 230, "##darin": 63, "##mosa": 103, "##pudi": 9, "anta": 373, "butan": 563, "ony": 1432, "hso": 19, "##pari": 219, "nrc": 4, "alch": 13, "ffb": 4, "##ento": 320, "denal": 28, "##bopl": 19, "##egan": 91, "##edine": 399, "##lorin": 509, "##ople": 85, "##donic": 123, "##opan": 1287, "##dimal": 23, "opp": 117, "osit": 110, "ipc": 30, "day": 251, "##rpal": 25, "##xenyl": 30, "##owin": 18, "##cion": 78, "tii": 200, "##forte": 109, "oxm": 5, "cay": 23, "tte": 536, "gni": 51, "##dicin": 68, "##culus": 151, "jj": 26, "##epino": 166, "fsp": 4, "##uside": 114, "##alite": 63, "##matic": 184, "##lure": 230, "bhg": 2, "##grip": 32, "##medr": 67, "##futri": 6, "##norma": 36, "usv": 7, "##sumi": 15, "ful": 299, "##lipt": 136, "braye": 2, "##dhbf": 4, "pgu": 5, "##sore": 66, "ccn": 12, "gio": 141, "##xiz": 42, "##diso": 83, "ubi": 405, "fz": 30, "##agard": 104, "ccu": 88, "##idid": 61, "##olip": 128, "smin": 335, "tpg": 9, "##kosol": 16, "##alli": 225, "olb": 47, "##rotol": 34, "fmc": 5, "sbs": 5, "akt": 57, "mya": 28, "##cyne": 34, "##aux": 46, "kx": 21, "##lixir": 43, "##vidin": 36, "arct": 19, "arkt": 2, "ask": 61, "##nkol": 7, "mrt": 4, "##afer": 110, "diq": 29, "##tod": 172, "##imer": 419, "##eatin": 77, "##efu": 83, "##venil": 5, "rans": 353, "##func": 17, "dmea": 9, "mie": 69, "##umyc": 29, "##rpa": 284, "shoo": 14, "##pulm": 41, "##rgent": 80, "##lphan": 59, "anate": 1201, "scs": 10, "##hola": 151, "pun": 53, "##arna": 57, "##samid": 55, "dmca": 4, "ww": 14, "##itur": 61, "rtb": 20, "##rgal": 35, "aoh": 14, "bba": 43, "##inta": 64, "cdn": 7, "etyl": 2332, "oxg": 5, "##fenic": 60, "##igon": 78, "##ured": 112, "tzq": 2, "##umis": 27, "lfi": 231, "mnia": 24, "bmv": 3, "##mqi": 4, "##sde": 54, "##iside": 118, "tsc": 71, "##exina": 33, "fix": 213, "acbz": 4, "##sffl": 5, "##odate": 87, "##sein": 90, "iid": 12, "oao": 10, "##gdae": 5, "##arbon": 720, "fdi": 12, "odpp": 2, "nsm": 31, "##cmbs": 12, "ngga": 11, "##oleu": 79, "nfd": 7, "nmn": 7, "gdo": 12, "##vhpc": 5, "daq": 32, "bmn": 6, "oab": 38, "tq": 51, "nfi": 44, "##hrome": 398, "##zca": 11, "##esal": 99, "aptp": 3, "##nicol": 365, "nbn": 3, "proo": 8, "##orba": 97, "dbda": 2, "cbc": 14, "##hdbbp": 4, "pch": 12, "##zyn": 31, "##sabal": 15, "##nus": 1180, "##evi": 466, "##vorin": 131, "##fasep": 4, "tnc": 9, "##amep": 26, "bpco": 5, "dcmo": 2, "bfd": 8, "sple": 21, "kaya": 16, "##hope": 25, "##akhop": 8, "khop": 11, "##meip": 4, "##gwe": 11, "ecp": 18, "pcc": 15, "wol": 26, "##aleas": 11, "##poha": 7, "dah": 33, "chcca": 2, "pag": 357, "obm": 4, "##pbg": 11, "ptma": 17, "##dana": 81, "bkl": 2, "hiaa": 6, "igt": 5, "mcpe": 2, "ckh": 14, "oplex": 261, "aatp": 5, "ojic": 20, "##corin": 60, "##orium": 222, "##drazi": 254, "dpf": 7, "##utyr": 290, "bpme": 3, "##mpeap": 6, "rcl": 57, "none": 12071, "edh": 7, "fgl": 7, "##ssima": 127, "cqq": 2, "cmo": 18, "##syla": 145, "##mmine": 151, "##tfaib": 4, "##uene": 309, "nnde": 2, "qap": 17, "aeoa": 4, "ulm": 78, "dss": 5, "arto": 47, "##ofur": 505, "hrt": 18, "##olpon": 5, "##coin": 21, "##eln": 83, "##ggpcm": 4, "##ineks": 4, "rck": 85, "mtg": 3, "adcp": 4, "bby": 12, "bgt": 9, "tgpa": 2, "##nilid": 212, "sdmo": 1, "##tdbs": 5, "nnt": 6, "tspi": 2, "ieb": 6, "hqc": 13, "##anr": 54, "##ocla": 83, "mtco": 6, "##hoch": 52, "eeh": 6, "blai": 4, "toa": 82, "##ters": 220, "tyal": 16, "ppao": 7, "lla": 2175, "hmh": 13, "##qq": 27, "tps": 14, "ndba": 3, "amh": 15, "##tafo": 39, "##arix": 108, "fnm": 6, "##algan": 108, "##vatol": 19, "##vatal": 8, "glyc": 1033, "mpdpo": 3, "mpne": 3, "aaid": 4, "tht": 11, "tdpi": 2, "dnh": 4, "##fth": 19, "mlo": 42, "##fenon": 54, "##ergon": 31, "kua": 5, "xio": 43, "vga": 8, "aehm": 3, "ckb": 15, "bng": 4, "hdy": 9, "mht": 7, "apq": 4, "eocm": 3, "nde": 643, "ukj": 2, "##accod": 10, "dpqa": 2, "mha": 23, "pyri": 1197, "##binum": 187, "##sken": 26, "iip": 5, "irp": 38, "bov": 63, "##yrex": 25, "dtf": 18, "bgi": 5, "bhq": 21, "##ims": 47, "blg": 8, "dmpa": 3, "##feq": 14, "cdm": 42, "hmppi": 2, "arine": 767, "dbq": 3, "##alami": 157, "##coba": 136, "##arein": 35, "ehtmb": 2, "nnn": 8, "pfe": 26, "ebh": 11, "ebb": 16, "##venin": 34, "##doin": 71, "##enty": 273, "chd": 16, "puk": 6, "##eling": 17, "ffdu": 2, "lurea": 1093, "dsh": 14, "kna": 3, "dtq": 5, "ecmp": 6, "wis": 45, "dsa": 27, "acdp": 3, "amfmt": 2, "hdpe": 2, "##cbcu": 7, "##xisal": 17, "gpfa": 3, "apph": 2, "orh": 123, "##dexan": 32, "tne": 42, "pqm": 2, "cub": 47, "nnaea": 2, "wit": 69, "amtb": 3, "##lgaa": 3, "##pori": 186, "edds": 2, "dmppa": 3, "##uph": 104, "pnd": 2, "##lgl": 516, "artp": 3, "##xya": 447, "obz": 19, "##cgbo": 5, "##katol": 10, "##mtn": 18, "ncc": 11, "dbce": 3, "dmda": 2, "##ediol": 877, "ddn": 8, "ipy": 173, "ndga": 4, "dnt": 10, "##vain": 44, "tano": 580, "tfpo": 2, "ahc": 10, "chg": 10, "##nien": 14, "##ofyl": 56, "dpea": 3, "##tian": 151, "##bull": 24, "foc": 44, "cav": 109, "##osed": 76, "olyl": 1371, "bds": 7, "afm": 5, "chma": 10, "incr": 34, "inkr": 4, "nnm": 6, "ibc": 19, "##bell": 142, "had": 166, "pxh": 2, "##bitra": 10, "ndin": 1301, "cua": 23, "tmsma": 3, "thioi": 81, "##pgm": 6, "aqb": 4, "##asahp": 6, "##usti": 197, "fpd": 7, "ohbp": 2, "##cere": 109, "##odyl": 167, "##lgit": 34, "##prus": 20, "dhdo": 2, "aspc": 3, "##alor": 65, "bpl": 4, "ptr": 47, "ivb": 11, "rtpo": 3, "irx": 23, "##ugiol": 5, "##aflan": 5, "##cytes": 104, "ndpe": 2, "cne": 119, "snv": 2, "plt": 9, "##trog": 127, "acet": 2696, "hmao": 5, "antp": 3, "mto": 63, "oie": 46, "##riph": 141, "acnph": 2, "##lono": 91, "aabb": 2, "##roca": 318, "##bog": 63, "brp": 20, "ddta": 4, "##oan": 245, "sdv": 2, "##usta": 129, "pfd": 5, "alas": 77, "tbk": 3, "aran": 222, "acta": 269, "nnp": 6, "agp": 13, "##eami": 153, "slj": 3, "oni": 3142, "gtb": 5, "chb": 14, "oop": 51, "odp": 20, "gpp": 25, "dzt": 2, "##fpogp": 4, "cfm": 11, "mcpa": 8, "lcha": 15, "cyo": 8, "gcl": 11, "##fapri": 5, "dpb": 29, "##sema": 30, "dga": 13, "ude": 201, "uaa": 10, "##apne": 16, "ecpp": 3, "aept": 2, "mpmi": 2, "apht": 508, "##mri": 43, "##sinol": 424, "##losi": 127, "##loco": 77, "beu": 10, "##nsu": 218, "##lacto": 441, "##olidi": 450, "bmma": 3, "##llgad": 4, "##santi": 39, "iey": 6, "hfp": 5, "##ambi": 71, "##onsur": 18, "##bfa": 16, "gpe": 12, "##epap": 12, "bcma": 6, "##oleic": 160, "##uld": 49, "mhpo": 3, "iat": 326, "epg": 14, "mtr": 45, "stl": 19, "##datum": 91, "dhn": 21, "ipg": 5, "csm": 5, "zeo": 28, "##sour": 67, "cdu": 4, "##unu": 18, "phyll": 392, "sky": 44, "hoea": 22, "indi": 203, "edmp": 2, "dpco": 2, "mpoe": 5, "##yloyl": 155, "##cce": 34, "vha": 4, "fpb": 15, "thpy": 2, "porin": 682, "cpb": 15, "##hnm": 6, "upo": 23, "oom": 119, "fok": 5, "##almin": 46, "ipb": 15, "chco": 6, "##ztp": 9, "ngp": 15, "fic": 212, "##oul": 76, "##mode": 76, "##cora": 96, "##scor": 111, "##prosa": 33, "##herin": 87, "##uus": 86, "nca": 324, "##abca": 11, "boh": 38, "nym": 21, "got": 189, "##zile": 19, "mxt": 3, "##rogan": 19, "tpn": 7, "hym": 287, "fva": 2, "bbi": 31, "nsga": 4, "cdbo": 3, "wld": 2, "##enan": 289, "cno": 48, "aqt": 5, "##bium": 179, "ecmf": 3, "hdk": 2, "kame": 17, "adhc": 4, "ahs": 17, "zpa": 16, "##alag": 39, "kru": 3, "##diyn": 30, "acbp": 2, "dppi": 3, "egs": 23, "##dapp": 12, "mdd": 21, "fdh": 4, "##etcn": 4, "phc": 36, "##uris": 92, "qur": 4, "##njin": 26, "##usar": 29, "##galn": 7, "bav": 46, "aabc": 4, "##enici": 170, "##bicy": 96, "gdt": 7, "aspp": 2, "##enoc": 144, "ndm": 17, "aetc": 2, "##pontp": 4, "##meno": 194, "##tlapa": 6, "##utox": 117, "afg": 5, "tno": 21, "ebf": 2, "##clava": 24, "hmr": 2, "idol": 1257, "cddi": 2, "hcm": 13, "##midol": 137, "opan": 1287, "aao": 9, "adsp": 4, "mdmo": 2, "aiv": 19, "cphi": 2, "anm": 46, "aie": 14, "lcs": 4, "chiu": 8, "fup": 10, "##socin": 33, "asine": 155, "aee": 26, "efu": 83, "kum": 50, "khi": 8, "eadl": 3, "ons": 1224, "##eovt": 5, "cff": 4, "uls": 109, "##cotox": 21, "aiz": 15, "rhs": 7, "artc": 5, "ahh": 5, "jl": 12, "flk": 4, "nhp": 21, "pfme": 3, "pyh": 2, "ndt": 30, "##ivon": 58, "acnp": 3, "sbme": 2, "hceo": 5, "cnt": 18, "csc": 6, "agg": 50, "nce": 1519, "tgnno": 2, "##hung": 25, "ccpa": 3, "##atmpo": 4, "##linc": 65, "hun": 83, "hpie": 5, "benzy": 755, "byp": 7, "##mptd": 7, "##cavi": 55, "##ricet": 40, "nrp": 5, "dft": 10, "mbg": 17, "##aceto": 440, "lli": 1630, "##izon": 125, "##honic": 1071, "ahcc": 2, "nmei": 27, "aaap": 6, "tfe": 9, "##obrom": 84, "zf": 30, "##icras": 30, "hnc": 8, "hfc": 4, "dmpea": 3, "##iwan": 11, "##nerol": 26, "ebz": 8, "lpi": 349, "##ppal": 8, "fnp": 13, "pmi": 23, "umu": 103, "##heng": 145, "hj": 17, "xac": 532, "dpd": 28, "##asore": 17, "oaad": 2, "##almi": 175, "##bbt": 13, "##ybut": 179, "dqd": 7, "eund": 9, "ihd": 12, "##tici": 167, "phca": 9, "##omor": 172, "gbg": 14, "##boxam": 195, "mnma": 2, "tdb": 11, "##ltaa": 7, "##vvaa": 3, "hzt": 2, "chs": 56, "rcm": 4, "##rby": 23, "mbda": 13, "ceh": 9, "oad": 145, "wba": 4, "##brurd": 4, "fddi": 3, "##tame": 236, "tto": 106, "tye": 10, "##loram": 71, "ded": 268, "kas": 84, "dcho": 6, "tbr": 13, "pdao": 2, "mnd": 10, "aptr": 8, "cag": 64, "##ncttf": 4, "atq": 2, "chta": 26, "axy": 34, "agh": 10, "mcb": 15, "egl": 207, "##safer": 11, "##iferi": 28, "##nqe": 5, "##nell": 91, "spd": 26, "##nonal": 6, "##enoi": 185, "lva": 212, "##mont": 109, "ica": 3403, "kul": 21, "kanin": 8, "##usc": 152, "##iton": 217, "qb": 46, "twe": 19, "jaw": 7, "rfa": 109, "niao": 2, "lvp": 14, "##emy": 88, "sqa": 7, "ying": 249, "tgq": 2, "brme": 3, "##rnu": 62, "##siin": 19, "##elax": 108, "daei": 4, "##thds": 11, "uvo": 77, "asb": 21, "addt": 3, "##hadi": 41, "##flot": 10, "glta": 2, "##ptv": 13, "eam": 677, "cmpu": 2, "etha": 1508, "##oxate": 308, "dmaea": 2, "##cril": 65, "psaa": 2, "adz": 5, "##uki": 68, "oxir": 107, "##otani": 20, "diae": 18, "rpp": 4, "ags": 21, "aort": 2, "optr": 3, "##idron": 51, "##ersol": 101, "dtg": 6, "rogen": 498, "##decin": 287, "##cyto": 183, "##bdu": 7, "bgm": 2, "hto": 42, "##tyrpc": 4, "fbpo": 5, "ctta": 3, "bfh": 2, "imbb": 3, "xmo": 4, "##chst": 14, "bfc": 7, "mgc": 10, "##bmipp": 4, "ubs": 73, "zoh": 35, "aae": 10, "msq": 4, "bod": 101, "imf": 18, "iline": 1184, "asf": 9, "obc": 14, "##mtpb": 10, "tfl": 8, "ez": 853, "eet": 267, "bmep": 6, "##fafu": 8, "gor": 88, "##eishi": 17, "##otol": 145, "pgs": 9, "sgs": 3, "##afutp": 6, "vat": 351, "ddfa": 3, "azgl": 4, "ebm": 7, "dgd": 2, "oddd": 2, "apcin": 15, "sda": 16, "tua": 53, "##boin": 9, "cpca": 6, "xd": 65, "dly": 45, "##phit": 34, "##vesi": 39, "ocdp": 7, "ntm": 30, "mbpe": 3, "heg": 24, "chue": 6, "fip": 23, "##diox": 400, "mmi": 163, "pdl": 10, "tef": 119, "aot": 17, "##rcol": 59, "bcci": 2, "mne": 45, "##strat": 56, "aal": 42, "pmt": 28, "ncm": 8, "mnii": 5, "vq": 10, "daea": 5, "aoa": 10, "stbu": 2, "mpba": 2, "tmae": 2, "##nadin": 54, "##rdu": 34, "amcp": 4, "bmi": 22, "heo": 194, "btt": 8, "afh": 4, "ebpc": 2, "fbd": 2, "aztmp": 2, "sdc": 15, "tpro": 9, "##uvi": 164, "hle": 69, "##xylo": 129, "##diph": 560, "oepp": 9, "##inato": 452, "##sogal": 7, "azh": 2, "mmpa": 5, "##eraz": 343, "obf": 6, "##hinin": 50, "pcme": 5, "lir": 181, "raa": 122, "nnf": 2, "##tcl": 21, "aan": 55, "hleo": 5, "ppto": 6, "##vak": 13, "##qag": 6, "cfh": 7, "asch": 13, "##mbba": 5, "##ibose": 126, "rci": 244, "##ilone": 402, "grp": 11, "rpo": 46, "##glga": 8, "##cmmi": 5, "##huyu": 18, "cbo": 7, "bva": 11, "dime": 1580, "entf": 3, "##foni": 203, "hpg": 24, "##sogan": 5, "ntbo": 2, "##ipase": 143, "ssa": 401, "dpmo": 2, "eha": 41, "amft": 2, "mtpe": 3, "##lrrl": 5, "lvv": 4, "##kima": 51, "mdt": 29, "##ztm": 6, "##lage": 128, "##icone": 265, "bpha": 5, "bhi": 6, "##thus": 533, "wma": 8, "meri": 220, "amyc": 543, "chua": 18, "tgp": 16, "##lpp": 15, "##gano": 66, "##taria": 82, "##lmy": 29, "ye": 971, "nsn": 8, "##tdpt": 9, "##thri": 221, "clv": 2, "adrt": 2, "neh": 63, "gmd": 8, "omt": 34, "pmd": 13, "kah": 8, "##usu": 52, "##aven": 199, "##roda": 90, "##hyso": 20, "odbc": 4, "baf": 51, "tdf": 6, "##peht": 4, "##iope": 55, "tfu": 12, "##dtl": 4, "##odiol": 265, "##metho": 1292, "##omv": 12, "psb": 10, "rue": 61, "rene": 1933, "##acen": 395, "vnc": 2, "mhi": 21, "beye": 4, "##lgi": 122, "##fase": 89, "##femin": 37, "##ctu": 139, "##apan": 58, "##umm": 63, "##ondin": 47, "mhe": 26, "##ettin": 17, "acsf": 3, "##chel": 94, "##vpo": 5, "##upan": 54, "##xabut": 6, "##sylic": 27, "soz": 19, "hii": 125, "kyb": 7, "##ernin": 32, "pbu": 11, "ivv": 3, "##nhch": 14, "abhx": 2, "tdo": 34, "##ckic": 7, "##ckiic": 7, "knk": 3, "verde": 21, "mdf": 13, "iiia": 18, "##imato": 155, "##mppnp": 6, "##eppep": 9, "dij": 2, "##fddc": 8, "##uite": 33, "yit": 7, "##mepr": 140, "##egin": 105, "##vsta": 12, "##avv": 8, "fsa": 2, "##pohqc": 4, "##yre": 224, "##lkm": 5, "phoa": 16, "ltn": 10, "##lyri": 19, "##ythi": 70, "nof": 264, "##depi": 13, "aich": 3, "addf": 2, "mpb": 49, "cbf": 2, "##mmmb": 4, "tpbca": 2, "jci": 2, "bdz": 9, "emdd": 2, "##bula": 31, "##mpdp": 17, "##fpm": 14, "moae": 4, "ssf": 3, "eeo": 5, "ensin": 544, "##hpbcc": 4, "nmca": 3, "tch": 603, "neou": 17, "##hrop": 48, "##cator": 65, "##mcd": 38, "tmn": 7, "ipht": 23, "##xyf": 138, "##iren": 242, "iqx": 17, "##enter": 144, "vcea": 2, "##rae": 231, "##llal": 73, "##adial": 69, "##mapt": 8, "##akis": 152, "##dgpg": 5, "abch": 5, "##gac": 74, "hsh": 10, "scp": 16, "ttu": 14, "gbo": 11, "rai": 157, "pmn": 17, "inch": 62, "jbt": 2, "##erii": 23, "##pimp": 13, "chpe": 3, "dqo": 12, "afk": 2, "olys": 197, "##qtb": 4, "mgi": 8, "##icle": 248, "zole": 13204, "edrol": 50, "wid": 7, "##eap": 71, "##opmt": 5, "##grast": 162, "##toria": 117, "lmc": 6, "xno": 5, "##mlp": 10, "##ogal": 84, "##list": 111, "trpy": 3, "azb": 5, "##durd": 28, "jim": 16, "spf": 3, "bfg": 3, "dpz": 2, "##egata": 16, "upl": 60, "##oxyc": 852, "##terc": 63, "##amium": 118, "tsd": 5, "rfc": 8, "##ello": 116, "hphe": 4, "##helin": 137, "##omos": 82, "##clan": 65, "jdr": 2, "##wcr": 4, "oyst": 9, "aeid": 3, "##xylin": 86, "##eaht": 9, "foh": 14, "##aptol": 22, "ppeo": 3, "aez": 2, "tacin": 514, "##safen": 4, "##dpdg": 7, "##hnped": 5, "zr": 40, "etnb": 3, "etnbs": 2, "fgi": 4, "##ntac": 129, "qt": 34, "##chola": 127, "##qc": 124, "##argol": 22, "epta": 636, "dione": 2280, "qo": 86, "bci": 27, "ipf": 10, "zt": 147, "##ramo": 115, "xii": 26, "ntt": 27, "##oreli": 90, "clh": 6, "##paes": 11, "##auryl": 56, "qnc": 2, "btae": 2, "iee": 11, "sut": 52, "##uccin": 241, "##netsu": 5, "bps": 17, "mmpe": 3, "imcl": 4, "##vj": 16, "##chcl": 12, "baea": 16, "eos": 178, "inl": 64, "clme": 2, "dhmi": 2, "eamp": 9, "##yltr": 250, "cfl": 2, "##upsin": 5, "ddguo": 5, "ddea": 4, "qca": 54, "cce": 34, "itb": 13, "lro": 28, "fpa": 38, "##udan": 45, "acdt": 4, "meu": 8, "ggga": 3, "##eenan": 39, "appl": 46, "ddma": 2, "##prep": 226, "bfa": 16, "##lakt": 7, "##clnh": 6, "chine": 127, "##test": 419, "psf": 13, "yas": 43, "##meara": 4, "ftri": 11, "cge": 7, "##ycnco": 4, "btp": 47, "fpho": 5, "peh": 17, "grc": 4, "##zumab": 4175, "##zolid": 397, "##nzyl": 2370, "txvi": 2, "##pane": 1792, "ialph": 5, "avir": 1030, "esu": 604, "##prone": 122, "odg": 12, "ore": 1486, "##gov": 28, "omab": 781, "ova": 739, "##iola": 154, "##atal": 468, "ctf": 9, "piii": 2, "##ullin": 109, "stye": 6, "##mchp": 6, "ngd": 23, "rks": 109, "##dut": 48, "tggg": 7, "tctg": 12, "tggga": 2, "pyn": 41, "##lcet": 94, "fiban": 241, "lef": 100, "##rada": 81, "##gurin": 15, "##nothi": 145, "ema": 858, "apy": 309, "tdn": 4, "##ninol": 66, "eat": 413, "hns": 22, "lok": 47, "##hein": 46, "cdk": 8, "nck": 12, "##mitox": 17, "glcu": 4, "tmm": 13, "geb": 19, "cdki": 3, "##ulus": 356, "kip": 12, "imab": 4121, "aht": 20, "abo": 306, "kali": 94, "hpmo": 2, "piq": 30, "##lomol": 63, "vpu": 2, "##mpha": 39, "vpg": 2, "hyb": 44, "fdo": 6, "eob": 66, "hdl": 4, "koj": 9, "hhb": 5, "dmu": 4, "mtse": 3, "##eidin": 17, "dndpa": 3, "##ttin": 68, "psm": 14, "rpn": 8, "qw": 12, "##nval": 20, "mbou": 2, "nya": 47, "hin": 2986, "##bdnf": 7, "hps": 12, "##eomy": 48, "npla": 8, "gpl": 14, "##leut": 37, "eatd": 2, "##cint": 55, "##bopc": 4, "skg": 4, "rgr": 29, "##gdspa": 4, "ccf": 6, "acpp": 4, "zho": 10, "bnz": 10, "##gai": 43, "##ngy": 55, "uq": 50, "ylv": 134, "nsl": 19, "##tivir": 39, "##yoto": 43, "lda": 146, "##ccc": 22, "##ypv": 11, "##rfpv": 10, "mhie": 2, "##qnt": 4, "hyi": 4, "pok": 24, "cmeo": 3, "eio": 22, "ocg": 4, "akv": 5, "alen": 1398, "eef": 18, "##eaz": 89, "seo": 62, "chee": 23, "##imeo": 14, "bznh": 24, "aef": 8, "##pcnh": 10, "nqo": 16, "##cabe": 33, "pbz": 12, "##fgly": 7, "##utini": 74, "pmsa": 2, "aqs": 6, "##gfmg": 2, "##gft": 3, "##gmr": 21, "apsg": 4, "##ffgmr": 5, "##odul": 58, "shh": 6, "cbha": 3, "wab": 43, "##ror": 141, "phco": 15, "dpme": 2, "tpme": 5, "##omeph": 7, "hap": 167, "##alos": 92, "##ultam": 23, "kob": 28, "##usine": 72, "rvl": 2, "rfea": 5, "nte": 1068, "##zulen": 39, "bzs": 7, "fed": 789, "##mte": 44, "wk": 15, "ood": 446, "##guide": 5, "##batol": 44, "snt": 6, "poc": 170, "mcd": 38, "dfi": 45, "vni": 2, "hpai": 2, "dov": 65, "doe": 97, "##mile": 92, "amit": 95, "nec": 596, "##rosis": 60, "##irenz": 36, "dne": 46, "dtdo": 7, "ixo": 98, "bcb": 13, "cbb": 6, "drf": 8, "##yal": 213, "##umyci": 29, "##aught": 12, "lgp": 6, "bbpu": 4, "ebu": 231, "aphs": 2, "dacs": 7, "##lard": 24, "mrx": 8, "goli": 108, "ipmb": 3, "##ppmb": 10, "ula": 1273, "enr": 81, "ypl": 23, "arj": 13, "drp": 6, "eov": 32, "##ovist": 55, "##onone": 90, "pure": 265, "enb": 123, "mfm": 4, "pree": 5, "##bioc": 58, "pvn": 4, "pll": 9, "##cohol": 132, "##nnan": 104, "ammn": 2, "##epsis": 11, "iiie": 4, "tdx": 2, "hil": 480, "rfb": 4, "rhk": 2, "##lyate": 6, "bone": 131, "##ugene": 55, "lad": 382, "##yse": 126, "rtpa": 2, "##ivan": 169, "##rlo": 59, "##raft": 96, "##velon": 12, "##iata": 103, "##throm": 185, "##romax": 62, "##ober": 33, "##rill": 81, "##otil": 142, "##ontin": 160, "##atrop": 131, "##pimo": 61, "##erma": 556, "agal": 69, "##sari": 53, "rah": 442, "##bran": 107, "##vetch": 11, "shou": 11, "zhu": 49, "yus": 8, "##tisia": 13, "jer": 30, "##sey": 27, "##noth": 186, "##ngium": 15, "##ticum": 384, "##oot": 326, "##reum": 100, "##quus": 33, "##oides": 803, "##nces": 99, "##urnum": 24, "blk": 3, "##erax": 36, "##cocin": 43, "##love": 86, "##aryl": 462, "enl": 92, "gmy": 14, "##actyl": 75, "##lphen": 634, "##hazin": 57, "##warf": 16, "##olut": 96, "##otrop": 217, "rona": 525, "tme": 79, "kina": 53, "awe": 14, "##itru": 49, "##angi": 141, "myst": 31, "##gnol": 42, "cig": 63, "elsp": 2, "easpr": 2, "##lpy": 415, "doz": 58, "cue": 30, "##tala": 147, "##geron": 36, "##ytox": 13, "##doxan": 29, "##glyce": 269, "ette": 322, "tsta": 9, "ocyc": 294, "##utos": 28, "##raco": 132, "##toco": 197, "##fair": 101, "oft": 232, "##nidu": 38, "##ykal": 12, "##kolan": 6, "##fren": 31, "##domi": 83, "##ypto": 107, "ofun": 43, "wya": 8, "##antol": 51, "##fucin": 18, "dines": 330, "ines": 1791, "##zdin": 5, "##ltr": 552, "##hypno": 18, "rovir": 50, "##eptol": 70, "##aprim": 65, "##etro": 337, "##aneo": 27, "##manal": 13, "##teral": 95, "##lexx": 22, "##boro": 125, "##esten": 38, "cleo": 47, "##ogel": 306, "acort": 357, "##apu": 80, "##utex": 42, "dome": 116, "##felin": 25, "##ucon": 175, "##ctane": 251, "##pnol": 16, "##roved": 20, "yom": 20, "ophen": 1844, "tere": 147, "txt": 5, "##resal": 21, "##cris": 95, "##bromo": 536, "##piran": 55, "unkn": 2, "##wn": 177, "ipv": 10, "poo": 171, "yoc": 81, "##lode": 95, "##opio": 422, "##atos": 86, "##cata": 172, "##hera": 318, "##kia": 115, "##vish": 7, "eptor": 127, "##reniu": 8, "acer": 72, "vup": 7, "##leps": 15, "##azen": 148, "err": 589, "ocu": 231, "##luta": 376, "##etas": 176, "##avar": 57, "##otabs": 85, "##nthyl": 55, "rms": 64, "##ktin": 9, "##biot": 141, "##osec": 40, "zym": 271, "##aflu": 276, "##gidin": 20, "##nfar": 10, "baya": 4, "##ofon": 60, "##vri": 41, "##romat": 76, "aar": 83, "drol": 521, "##mtin": 19, "##fzo": 4, "##amed": 261, "##mez": 155, "##ylox": 920, "##rexyl": 47, "bik": 17, "##arpen": 16, "##theno": 132, "##hair": 52, "##ntyl": 1078, "kur": 50, "##antil": 74, "##foran": 40, "yum": 50, "##bant": 303, "##daron": 40, "##rwi": 24, "##egen": 140, "##idrin": 63, "##xivan": 12, "##cylin": 66, "piti": 32, "kec": 2, "##matil": 30, "##tosa": 132, "aux": 46, "##ilep": 45, "##diab": 84, "ophth": 121, "##itrol": 226, "mfo": 45, "##oxit": 64, "##kro": 27, "obr": 176, "##riac": 118, "##imeth": 1751, "##enex": 213, "##lodex": 44, "##umate": 113, "##zli": 11, "##psol": 28, "##pare": 81, "##adyne": 82, "jac": 53, "yod": 23, "##otan": 311, "lamin": 2438, "tsin": 82, "##hrac": 83, "##ditan": 44, "##lodi": 87, "pyq": 3, "##uiton": 4, "##amidi": 254, "icn": 17, "##omate": 195, "##cinc": 49, "##hogam": 30, "##poise": 10, "##urone": 128, "##loth": 79, "exn": 17, "##ltra": 236, "##alude": 9, "tao": 60, "##ucos": 202, "##moist": 70, "##xsa": 23, "unn": 49, "##cyla": 219, "gray": 6, "##ukin": 311, "dxt": 3, "enbr": 7, "##elam": 91, "svl": 3, "tob": 243, "avc": 6, "##letes": 27, "itch": 118, "##onac": 88, "##zoin": 61, "##terf": 61, "allb": 9, "##ache": 141, "##iness": 49, "##frim": 12, "##lief": 312, "allf": 7, "amu": 230, "##mist": 350, "aru": 187, "##tapp": 115, "##erna": 123, "rax": 500, "##exs": 37, "##urx": 35, "anz": 172, "asbr": 2, "##reme": 226, "atn": 36, "aphen": 292, "##gesti": 51, "##dard": 34, "zeb": 24, "##guent": 30, "##mject": 10, "zee": 56, "##lal": 450, "gay": 12, "##gment": 42, "##matr": 101, "drau": 3, "boyo": 2, "##atan": 265, "##fenex": 32, "##coma": 95, "##nny": 60, "##ydra": 605, "##hips": 13, "ctd": 11, "oys": 35, "##ages": 126, "chew": 134, "##deco": 141, "##yphen": 496, "##lergy": 56, "##zasin": 8, "##mega": 144, "##brex": 66, "##visc": 223, "##vites": 72, "##ulac": 56, "##tavi": 42, "##klenz": 82, "##donna": 70, "##gger": 25, "##nade": 134, "##xed": 226, "choo": 5, "##rade": 297, "##lhi": 44, "##lre": 70, "##atch": 289, "##time": 319, "ceto": 480, "##gesta": 69, "##rqu": 45, "##rzi": 81, "cov": 220, "##lsion": 75, "crue": 6, "##rafin": 127, "dve": 11, "##nsol": 74, "dml": 5, "dok": 25, "dsm": 10, "plai": 8, "##lyh": 32, "druff": 44, "daya": 7, "##lets": 212, "##icaps": 87, "##gex": 70, "##kote": 55, "##wee": 133, "##aler": 474, "tus": 2242, "##etu": 189, "##yvite": 30, "##ping": 143, "##lphos": 324, "##ctoc": 85, "##soft": 170, "dioe": 2, "dryl": 467, "##roso": 328, "##tense": 43, "dix": 123, "##lanta": 75, "##ksa": 20, "##vonex": 26, "##oject": 171, "##ophed": 103, "dacin": 113, "##thate": 187, "##voi": 12, "dym": 33, "##circ": 68, "eline": 399, "##eant": 53, "emg": 179, "empr": 17, "encr": 2, "enpl": 2, "##lize": 149, "##amis": 91, "esg": 25, "##teric": 103, "##yrox": 113, "##flavo": 214, "exg": 11, "exs": 37, "##ngth": 73, "strea": 29, "##atab": 183, "##oria": 237, "flue": 29, "##abon": 64, "##rcus": 28, "loz": 195, "wv": 11, "##lyde": 64, "##ovase": 32, "##inb": 175, "##fiber": 93, "##nly": 42, "##atoni": 34, "##niz": 108, "##osoft": 17, "goo": 42, "##doch": 28, "##dof": 99, "gesic": 797, "##asorb": 89, "guia": 30, "##cough": 92, "##febr": 16, "##lder": 123, "##erts": 23, "cvc": 3, "##clar": 120, "##ocle": 53, "hyg": 41, "##ienic": 11, "##soph": 110, "##tears": 100, "hyt": 205, "##aker": 60, "ite": 3963, "##taco": 116, "##ersin": 46, "iodr": 7, "iof": 129, "ioh": 42, "ioph": 221, "##onm": 34, "##oj": 146, "##rado": 102, "pek": 42, "##nwo": 20, "kid": 52, "##vess": 29, "##ephr": 170, "kro": 27, "##ofed": 158, "lgg": 8, "##roif": 10, "leg": 128, "##vle": 8, "##vli": 7, "##prome": 92, "##sinex": 20, "##xxe": 3, "##nhi": 59, "lube": 123, "liq": 164, "##ituss": 102, "##mmy": 39, "##cream": 296, "##wsi": 5, "##ifair": 15, "##ulse": 38, "lyp": 158, "##holy": 50, "msta": 42, "##delay": 18, "##ebin": 78, "##gsa": 28, "##supex": 15, "##iane": 78, "##rnal": 95, "##rnit": 103, "##flox": 295, "##icot": 313, "##lqu": 149, "##hyton": 111, "##color": 95, "lpf": 5, "##pids": 187, "##gqu": 3, "##ratin": 122, "##iges": 55, "##stur": 56, "##life": 205, "##edec": 29, "##ness": 363, "##bret": 65, "myg": 22, "##racet": 171, "##phet": 175, "##pheta": 100, "myt": 34, "##vital": 83, "nrs": 7, "ntz": 15, "##zair": 11, "##dela": 112, "##lge": 118, "##taza": 96, "six": 31, "##bath": 71, "nix": 357, "##aplus": 84, "##ilyte": 53, "obn": 5, "oby": 29, "##clear": 550, "##ufl": 54, "eaz": 89, "##paque": 142, "ordr": 16, "orfr": 5, "##glyn": 39, "outgr": 2, "ovc": 7, "##watch": 14, "ontin": 160, "##yfr": 21, "##yir": 8, "oysc": 2, "oy": 1946, "##pert": 110, "##cqu": 12, "lay": 107, "##nlo": 26, "##kase": 36, "##hape": 32, "dsc": 14, "pred": 453, "##dte": 22, "##rcy": 47, "choi": 16, "##ochi": 72, "##ogard": 86, "##rno": 85, "##rzine": 143, "ptic": 594, "##ufon": 31, "##citra": 129, "##cela": 37, "##osone": 101, "##icort": 169, "##nisol": 132, "phase": 74, "##azyme": 121, "##aplex": 231, "##cipen": 12, "##nbid": 21, "##ycle": 78, "proe": 16, "##shia": 10, "##ilas": 94, "hfa": 40, "##oval": 238, "##iate": 332, "rvpa": 3, "##temp": 89, "resh": 275, "##anex": 147, "##ahist": 298, "rsol": 247, "##atate": 80, "##ndec": 201, "##noca": 221, "ramin": 719, "##trom": 231, "##dame": 31, "##xidi": 78, "##ield": 634, "slt": 10, "ssd": 11, "sss": 9, "##vart": 17, "scla": 5, "sorb": 368, "##utone": 78, "##elsun": 14, "##sku": 12, "##pards": 8, "##mro": 20, "##lect": 184, "##ils": 194, "ett": 250, "##utuss": 34, "##ctr": 209, "##obid": 168, "##oist": 92, "##back": 72, "##apred": 82, "##ulas": 35, "tured": 66, "stua": 8, "##lama": 67, "athl": 9, "##cze": 13, "##amone": 136, "##ophyl": 353, "##alac": 327, "tou": 63, "##hexan": 442, "tann": 128, "##ifed": 119, "##inet": 194, "tyc": 29, "uad": 162, "ulr": 20, "url": 31, "##abrom": 83, "##rele": 77, "##quish": 13, "##acaps": 70, "##ize": 692, "##oxapa": 14, "##texin": 47, "vy": 264, "weh": 10, "##hge": 9, "##hroid": 89, "##grain": 23, "earw": 4, "xs": 145, "xtra": 162, "yier": 4, "yi": 539, "##eroni": 45, "##mbic": 40, "##brac": 55, "##himbi": 17, "##imbin": 41, "yov": 8, "znp": 5, "erdo": 29, "##fazon": 17, "zep": 599, "##hiran": 8, "znli": 3, "odt": 31, "astat": 805, "oatm": 3, "##fica": 48, "##amot": 79, "##amia": 46, "##pend": 73, "##clens": 58, "##fzi": 3, "erbb": 7, "##ilar": 95, "##aspar": 128, "##quan": 77, "##rten": 184, "##anal": 413, "##azoi": 17, "##ikor": 8, "##zoph": 58, "##cytan": 5, "##leuk": 112, "ugu": 26, "bls": 3, "##omar": 177, "ansp": 21, "eqv": 7, "##ramox": 33, "##ostan": 298, "##ozil": 97, "##istan": 69, "uml": 3, "##coram": 15, "pax": 176, "##nervi": 12, "##pasil": 14, "##edyl": 61, "##clero": 48, "##kler": 14, "##rgit": 8, "##atak": 24, "##raso": 55, "##paxi": 16, "kif": 3, "##ovate": 92, "##even": 116, "##vlex": 12, "due": 29, "emf": 30, "##ords": 7, "##hix": 54, "##lomi": 121, "##node": 66, "qva": 8, "fiz": 23, "##biol": 65, "stie": 12, "##scrub": 53, "##ederm": 61, "##nola": 274, "axs": 22, "##umat": 88, "prio": 26, "aggr": 24, "##unorm": 10, "norm": 306, "##ousse": 22, "##solon": 101, "cfo": 9, "rhy": 94, "##ilen": 206, "bir": 80, "##pogen": 43, "aque": 224, "veh": 7, "##ntix": 30, "##tifor": 21, "nrd": 2, "##zyt": 24, "aire": 188, "##thyr": 195, "##ains": 147, "##lain": 88, "ctr": 209, "##brine": 79, "##robi": 184, "bwb": 2, "##iril": 40, "##iston": 70, "##ogo": 113, "##aceph": 32, "##mimet": 34, "##mado": 68, "##ergin": 63, "##fci": 10, "keo": 11, "yx": 374, "ipid": 419, "##roban": 189, "##abro": 86, "##hesin": 102, "##ogyn": 58, "iox": 668, "##mbra": 57, "##mbrin": 27, "rgin": 360, "##desit": 9, "##ocl": 286, "##vlon": 25, "##werm": 8, "aqu": 446, "##ancyl": 28, "##fcort": 9, "##tolon": 112, "##albu": 92, "##scint": 35, "##zures": 8, "osv": 8, "fif": 5, "lgs": 2, "oas": 71, "rsd": 6, "##lazi": 225, "##alaz": 182, "cdra": 7, "zc": 58, "pex": 183, "##adot": 71, "##icod": 52, "##ltide": 130, "##ffia": 11, "ccoo": 9, "ceb": 57, "pih": 6, "##prodo": 18, "uo": 1964, "cth": 46, "##clet": 28, "##pddo": 4, "amptm": 2, "nxx": 2, "##eone": 139, "opb": 23, "##haglc": 5, "clbi": 3, "ssp": 29, "##elene": 36, "hon": 899, "fub": 10, "##zme": 9, "aspg": 4, "##iecc": 4, "dcu": 2, "##esce": 95, "vep": 20, "##acide": 186, "##aroyl": 130, "##urnac": 7, "##cinal": 169, "ndu": 148, "bxzo": 4, "##xzo": 15, "lfa": 1023, "thau": 5, "dte": 22, "rhb": 6, "hbt": 8, "nti": 1853, "nts": 1774, "##xaban": 150, "##htfo": 5, "##opsa": 16, "##biof": 44, "bxt": 3, "cxx": 8, "ckf": 10, "##ntis": 168, "##xoc": 97, "##ycar": 315, "##erul": 72, "sgn": 9, "bsm": 6, "gms": 2, "oipb": 3, "##nylp": 522, "##dosi": 43, "mphi": 27, "mgm": 8, "##biz": 34, "cco": 121, "##ifp": 9, "##pipe": 784, "ncf": 9, "##bati": 46, "##hfo": 19, "##chiq": 5, "etoph": 57, "ovp": 5, "phta": 36, "ltri": 218, "##opdp": 5, "muk": 11, "yaf": 3, "##ayps": 4, "yns": 18, "alpha": 269, "##alto": 107, "abv": 2, "iqd": 3, "phmeo": 3, "##otu": 275, "##dode": 324, "##ccmk": 4, "ncn": 7, "lce": 160, "hql": 2, "##fug": 54, "tti": 100, "##glate": 57, "mpae": 2, "mpy": 38, "yri": 1609, "##oepe": 6, "dey": 17, "ohph": 3, "ndl": 22, "hpda": 3, "vdo": 9, "cnh": 58, "nhi": 59, "##adeno": 191, "##hnin": 32, "ncl": 120, "cdd": 34, "bmsi": 3, "##xyp": 1181, "mbco": 3, "eoh": 21, "hxd": 6, "ngb": 21, "wap": 6, "gtr": 3, "luk": 57, "##ianol": 109, "##coxib": 349, "##rrid": 19, "##cost": 88, "ckd": 2, "hoh": 64, "dtco": 4, "scb": 13, "##uu": 47, "gbb": 4, "akf": 2, "##achi": 101, "vdm": 2, "##gosin": 51, "##ephnh": 4, "##ogin": 180, "dqa": 11, "##nphe": 16, "##isate": 94, "civ": 35, "##bdin": 25, "##kaur": 42, "oxl": 10, "omu": 142, "##rali": 230, "pcto": 4, "##znmp": 6, "fep": 83, "ptn": 56, "ogi": 175, "gom": 68, "##otsu": 27, "okg": 3, "coet": 7, "##mazi": 173, "toe": 89, "shao": 10, "nbu": 77, "ofm": 3, "frp": 7, "ulp": 393, "ubl": 52, "ntf": 15, "##usi": 255, "##ktrrk": 5, "##rotne": 10, "ttn": 9, "bex": 251, "##fch": 11, "ogt": 3, "##rafi": 54, "##moip": 8, "##ephoh": 6, "aimp": 4, "msea": 9, "##pippp": 9, "htq": 4, "rnf": 5, "rbx": 4, "yok": 9, "##moke": 16, "##lipo": 176, "iqc": 9, "##reot": 51, "elon": 203, "tmpi": 2, "omr": 7, "##bena": 126, "##yamid": 30, "pib": 277, "##cule": 48, "fdpma": 2, "ffd": 3, "##pmamp": 7, "ctu": 139, "kkv": 3, "##vfw": 1, "##vkfk": 15, "##vfkvk": 2, "alls": 32, "spn": 11, "##panel": 158, "gae": 52, "gurin": 15, "rrf": 3, "gmt": 4, "##ipoa": 11, "##odep": 26, "ccooh": 30, "tpq": 8, "##itu": 309, "mmx": 2, "zel": 153, "insh": 15, "niu": 1267, "tpb": 38, "kik": 7, "kanol": 9, "psia": 27, "ddie": 11, "hbf": 11, "##hpf": 14, "pnq": 6, "hecin": 421, "##acpma": 10, "##cpma": 14, "ahm": 10, "##carin": 152, "ote": 1288, "mbi": 299, "##haito": 4, "##nxi": 38, "##echin": 223, "ofib": 94, "diao": 2, "oug": 69, "##gnu": 14, "dieic": 4, "##euv": 11, "##nates": 234, "##mwe": 5, "##lates": 209, "##rted": 49, "quo": 67, "##gated": 76, "##sati": 104, "##dhu": 11, "cul": 408, "##uoric": 34, "##esse": 145, "##amom": 43, "orr": 161, "##bear": 20, "##remi": 104, "wet": 16, "##nct": 93, "##eable": 18, "caye": 4, "##boxil": 27, "##ype": 409, "##horn": 86, "##silic": 113, "drai": 10, "##erta": 101, "##azad": 68, "abdp": 2, "oak": 23, "ivy": 27, "bean": 80, "##gbe": 11, "##wort": 194, "##rants": 87, "kel": 140, "##yrt": 37, "##ymol": 127, "##thur": 22, "saw": 5, "##etto": 24, "##etide": 286, "##osel": 70, "##geu": 9, "##rtz": 46, "alz": 36, "##colum": 53, "osac": 47, "##ugat": 29, "##obuta": 236, "broo": 11, "##chers": 18, "##ecta": 212, "yarr": 5, "##llea": 47, "##enrod": 20, "##oris": 96, "##pherd": 10, "thla": 4, "##benza": 337, "##weet": 67, "##aeu": 33, "##erry": 499, "##ower": 318, "##hemi": 153, "##tafl": 101, "##lsal": 95, "##orho": 31, "##xing": 60, "##iedii": 5, "##rcur": 97, "##occus": 248, "etate": 2669, "##moss": 19, "##rack": 39, "cfr": 5, "##sfoot": 15, "yerb": 5, "mud": 19, "##sewa": 15, "##zoniu": 47, "rate": 7222, "sax": 33, "##ulmo": 45, "##ogra": 129, "##ranu": 85, "##chis": 86, "##lyf": 20, "##lysis": 124, "##ocycl": 293, "succ": 266, "btl": 6, "syr": 72, "##uba": 137, "##gie": 44, "rtl": 27, "vg": 75, "cah": 79, "oats": 19, "##rnat": 56, "duv": 15, "##brev": 57, "##prida": 65, "##obuli": 62, "glio": 42, "hcd": 11, "nly": 42, "hef": 6, "itu": 309, "tiu": 66, "##xetan": 147, "ksa": 20, "avlb": 4, "##yros": 157, "xxx": 16, "ond": 437, "hey": 15, "##aldi": 85, "##fanil": 78, "mka": 4, "trif": 369, "##rlem": 13, "##ralem": 11, "##viten": 11, "##ikron": 7, "dolo": 388, "dolor": 73, "goa": 22, "wee": 133, "##swort": 15, "##ocri": 75, "##mmun": 211, "cemi": 69, "##anus": 319, "tnk": 7, "yucc": 6, "##dzu": 7, "beri": 95, "##brig": 34, "ired": 39, "##erian": 93, "uss": 1726, "##bush": 94, "##fonia": 15, "##cks": 144, "##amson": 23, "##get": 149, "##ree": 551, "##pery": 37, "##cloc": 71, "##disi": 100, "##dise": 44, "##lnu": 20, "##inse": 180, "fie": 100, "##edge": 49, "##iaci": 52, "##gba": 25, "bug": 33, "##uner": 10, "rud": 70, "##aceae": 18, "##melon": 59, "fxn": 4, "##kweed": 49, "erry": 499, "##mivir": 86, "##arra": 59, "##vial": 58, "escl": 12, "zx": 10, "##torol": 17, "##lush": 57, "star": 293, "##alcit": 91, "##dbid": 6, "mrv": 5, "##solve": 69, "##targ": 70, "##sicle": 45, "##doxin": 128, "skee": 2, "##chews": 51, "##hali": 209, "##ureus": 44, "##alant": 189, "##obal": 159, "##edex": 43, "sku": 12, "##lcap": 92, "oddc": 2, "##luril": 66, "##imax": 168, "##capr": 224, "##ncan": 18, "##xiu": 16, "##vato": 39, "##ogon": 110, "##lhar": 11, "##cryn": 18, "##ugan": 29, "##ocap": 145, "##iaxon": 19, "##ymal": 95, "##abol": 139, "exl": 32, "##stam": 157, "##stib": 39, "##moxi": 173, "##odril": 12, "##neau": 10, "##ypol": 79, "hyv": 5, "wil": 59, "##tolo": 212, "athi": 213, "tbi": 15, "##phoc": 76, "##arsan": 46, "get": 149, "##roxel": 5, "emtr": 19, "zoa": 169, "##arnil": 38, "##esth": 40, "lmf": 13, "##nolo": 361, "##ortil": 19, "egfr": 15, "bcr": 3, "##idar": 192, "imc": 29, "##ocho": 167, "##rtus": 107, "lini": 250, "##posa": 36, "##beam": 16, "imus": 484, "##brush": 90, "##aure": 83, "##uaro": 4, "##talli": 59, "##gwo": 20, "quee": 10, "##entra": 111, "dle": 123, "##nyo": 8, "frmu": 3, "##tonia": 74, "##bold": 30, "##gii": 107, "##sima": 181, "##royal": 37, "##sotis": 15, "##vati": 93, "##esii": 28, "eve": 481, "##temon": 62, "##lera": 138, "##rized": 160, "##leia": 18, "ixi": 240, "##face": 86, "##iaea": 17, "##inth": 78, "wood": 265, "##ypha": 31, "##tonum": 74, "yel": 68, "##chat": 21, "alin": 2499, "##iops": 25, "##icus": 524, "##phis": 113, "bell": 142, "##issi": 51, "##grass": 181, "alst": 22, "##osia": 52, "##shorn": 5, "umb": 188, "##psis": 188, "##ginia": 24, "cree": 18, "##dalus": 15, "##opsis": 129, "quay": 3, "##olat": 398, "##paria": 26, "peyo": 9, "##llat": 92, "##olens": 33, "##ynum": 16, "##berti": 35, "##kena": 27, "##ncia": 29, "##chne": 35, "##home": 56, "##isy": 86, "aman": 250, "osel": 70, "##danum": 47, "peu": 39, "##hris": 38, "rmd": 4, "ltr": 552, "##ercu": 158, "##nfu": 66, "##ebush": 18, "kis": 237, "##roach": 18, "##mby": 6, "##essi": 149, "##lege": 15, "eyel": 8, "gig": 20, "##ante": 328, "##uinum": 73, "##sbad": 13, "##lbr": 49, "##ehl": 14, "cinat": 119, "##anea": 68, "##toce": 19, "##arro": 57, "##goso": 10, "##nthus": 411, "chei": 12, "##lower": 189, "tle": 338, "varia": 25, "##king": 194, "##vian": 35, "lari": 261, "##elis": 147, "##raria": 37, "##atis": 95, "bow": 36, "##roas": 20, "##adia": 204, "##laria": 266, "##vulus": 25, "##ifera": 399, "##ffii": 25, "##rhiza": 149, "##yceps": 35, "##wth": 52, "##orne": 66, "##zilia": 7, "##snak": 19, "##quito": 15, "doo": 27, "##amnus": 70, "##glove": 13, "##ypho": 74, "##isia": 81, "mez": 155, "##ereum": 16, "##acre": 48, "##teryx": 12, "##aei": 25, "##rting": 57, "##mber": 102, "trai": 50, "##lobi": 68, "##ustre": 17, "##setum": 15, "hye": 13, "##seta": 43, "##poppy": 15, "ese": 538, "##lens": 184, "euon": 4, "##ymus": 58, "##yris": 110, "##carpa": 135, "##ndri": 97, "ey": 696, "##dtia": 20, "##netic": 219, "loa": 110, "taric": 221, "##wat": 56, "##etida": 66, "ants": 993, "##xinus": 12, "elsi": 21, "##rtner": 14, "##iana": 509, "ciata": 8, "##burg": 33, "geu": 9, "gna": 508, "##dwe": 13, "##utum": 66, "##rango": 34, "##itum": 137, "guaia": 62, "##clad": 73, "log": 534, "##canic": 23, "##ebor": 25, "##foot": 50, "##nias": 34, "spho": 900, "hoi": 72, "##inea": 156, "##pitan": 73, "##ytuf": 7, "##tuf": 19, "##tidus": 15, "ius": 566, "vom": 130, "##enium": 545, "##cara": 133, "##anda": 150, "##sand": 86, "jas": 37, "##troph": 204, "##tern": 150, "##usus": 9, "jus": 31, "##ticia": 12, "##toda": 38, "shru": 4, "shr": 23, "##oyil": 1, "coyo": 3, "##otum": 48, "##osote": 18, "##lki": 31, "##miu": 67, "has": 202, "##selti": 12, "##nli": 83, "##tyn": 144, "##iatic": 78, "##gno": 55, "##mpos": 22, "##gora": 38, "##rake": 30, "hound": 6, "##stoma": 123, "ack": 360, "##andra": 128, "##gium": 82, "engl": 22, "##vus": 103, "##glas": 30, "bue": 11, "##ridge": 39, "##odora": 53, "ucu": 107, "##otus": 150, "##onwo": 7, "##iens": 141, "##hage": 137, "##bing": 65, "##fodil": 4, "##enth": 154, "nux": 93, "##hata": 24, "##vaca": 53, "##wart": 28, "lou": 82, "##unt": 79, "##rana": 156, "##inae": 68, "##lito": 75, "##lops": 30, "##forme": 95, "##khorn": 5, "##eban": 32, "##uese": 16, "##idia": 102, "syc": 58, "##amore": 33, "##bago": 16, "##tera": 200, "kno": 21, "##tgr": 12, "##itat": 84, "##orus": 386, "cans": 112, "##boran": 49, "##deer": 38, "##meria": 66, "##handa": 10,
[...]
