{"a": 119195, "##b": 10660, "##e": 117710, "##tal": 4934, "##i": 61486, "##po": 3143, "##prote": 197, "##ine": 10205, "##mia": 15604, "##p": 26016, "##op": 4493, "##rote": 225, "##in": 18143, "aemia": 4343, "ba": 1542, "##sse": 307, "##n": 76606, "ko": 366, "##r": 62205, "##z": 2448, "##weig": 28, "di": 3440, "##sea": 146, "##se": 15503, "syn": 238, "##drome": 76, "ac": 4451, "ant": 1884, "##ho": 3120, "##cy": 1767, "##tosis": 4762, "##toses": 794, "abl": 127, "b": 10660, "##et": 3667, "##ali": 842, "##popro": 121, "##tein": 703, "de": 7203, "##fic": 284, "##ien": 208, "dis": 607, "##eases": 29, "mic": 4408, "##ros": 1048, "##omal": 526, "tri": 1007, "##gly": 279, "##cer": 605, "##ide": 3743, "tra": 1303, "##s": 172207, "##fer": 494, "pro": 1001, "##te": 12198, "ho": 3120, "##mo": 2400, "##zy": 125, "##gous": 107, "fam": 43, "##ilial": 54, "hy": 10666, "##ro": 8182, "##so": 1617, "##rder": 52, "amb": 109, "##igu": 48, "##ous": 6114, "mtp": 4, "##fi": 957, "##c": 65566, "dia": 1013, "##gno": 57, "##sis": 32116, "ab": 1018, "##nor": 264, "##mal": 1984, "##ity": 2842, "of": 634, "se": 15503, "##cre": 208, "##tion": 11958, "ga": 1402, "##t": 50789, "nos": 691, "abn": 22, "##or": 6122, "##m": 39072, "fi": 957, "##ndi": 291, "##ng": 13590, "##norma": 27, "##l": 75378, "hab": 72, "##itual": 11, "abo": 107, "##rtion": 153, "##ort": 534, "##er": 16781, "chro": 181, "##ic": 36704, "sp": 2047, "##ont": 477, "##ane": 724, "un": 1356, "##spe": 219, "##ci": 2189, "##fied": 302, "rec": 298, "##urr": 66, "##ent": 3984, "mis": 511, "##car": 865, "##ria": 5897, "##ge": 2621, "##ges": 408, "earl": 15, "##y": 42331, "pre": 436, "##gnan": 22, "lo": 4497, "or": 6122, "mi": 4317, "##d": 38862, "foe": 17, "##ta": 5134, "dea": 375, "##h": 25022, "bef": 2, "##ore": 560, "wee": 22, "##k": 5891, "wi": 312, "ret": 676, "##enti": 252, "##on": 25104, "d": 38862, "##tu": 1044, "ma": 9241, "si": 6009, "##le": 9762, "hi": 2768, "##sto": 724, "##ry": 5561, "ve": 6705, "##terin": 266, "##ary": 2356, "vet": 22, "absc": 19, "##ss": 3589, "abs": 77, "##cess": 102, "##es": 24709, "in": 18143, "##fl": 632, "##am": 2981, "##mato": 668, "mo": 2400, "##rph": 245, "##olo": 445, "##gic": 1688, "mor": 390, "##pho": 988, "##logy": 373, "anth": 170, "amo": 180, "##eba": 186, "ker": 685, "##ati": 2127, "##tis": 14650, "ke": 1360, "##rat": 890, "##iti": 2086, "##des": 3612, "aca": 194, "##nth": 343, "ame": 247, "##osis": 20559, "nig": 94, "##rican": 48, "##ato": 1249, "an": 9893, "dar": 75, "##kened": 22, "and": 743, "thi": 683, "##ken": 187, "##ed": 10573, "ski": 219, "ni": 3955, "##g": 25682, "##ican": 121, "##id": 7282, "la": 6422, "##cti": 689, "##cta": 357, "##cid": 407, "##ct": 2872, "##ica": 2687, "##dosis": 1220, "re": 6102, "##na": 3888, "tu": 1044, "##bu": 863, "##ar": 14288, "rta": 101, "##cu": 1821, "##mu": 857, "##lat": 682, "##ion": 15633, "bo": 1111, "##dy": 1524, "due": 3, "to": 5364, "ki": 893, "##dne": 62, "##em": 3857, "res": 1106, "##pi": 1948, "rat": 890, "##ory": 1387, "##oses": 3551, "##pe": 3554, "##ca": 5809, "##nic": 3808, "aci": 589, "##ne": 18819, "##cter": 376, "##fe": 961, "##ction": 1225, "inf": 313, "##ecti": 196, "mae": 36, "cau": 46, "by": 105, "##ec": 1780, "##lad": 101, "##iosis": 2038, "##rm": 2488, "##my": 2554, "##cosis": 1695, "acl": 34, "##dium": 565, "cas": 247, "##tell": 78, "##ani": 613, "acn": 20, "vul": 112, "##garis": 12, "co": 3979, "##mmo": 66, "##loi": 137, "##ds": 1926, "f": 7912, "##ol": 6188, "##lic": 2850, "##uli": 505, "che": 702, "##loid": 322, "##alis": 1293, "kel": 185, "##oidal": 489, "##is": 58740, "der": 1197, "##mat": 1179, "##itis": 12685, "pa": 3172, "pi": 1948, "##llar": 910, "cap": 231, "##illi": 134, "##ti": 9164, "nu": 829, "##cha": 417, "sy": 950, "s": 172207, "li": 5433, "##ill": 760, "##us": 17533, "##sti": 865, "##ch": 4892, "##lear": 357, "ne": 18819, "##rve": 59, "aud": 159, "##itory": 116, "aco": 179, "##ustic": 131, "##ord": 225, "##ers": 2439, "eight": 47, "the": 744, "cra": 241, "##al": 38181, "##bular": 587, "viii": 10, "##th": 5424, "n": 76606, "##st": 6192, "##ib": 953, "##ulo": 847, "##tur": 298, "##nce": 1679, "acq": 14, "##uired": 18, "##ag": 1381, "##ula": 1179, "fa": 911, "##cto": 338, "clo": 288, "##tting": 187, "coa": 109, "##gu": 499, "im": 1379, "##no": 3936, "##ency": 383, "##dro": 708, "##mes": 306, "aids": 29, "imm": 215, "##nol": 599, "##ogic": 603, "hu": 316, "vi": 1281, "##ru": 1263, "aut": 172, "##oim": 46, "##mune": 141, "hiv": 12, "##o": 53291, "##uno": 127, "sta": 587, "##titis": 1524, "##tides": 2178, "##ra": 6975, "acr": 425, "al": 38181, "##ome": 976, "##galy": 558, "##gal": 362, "##ia": 45251, "##rior": 179, "pit": 204, "##uita": 22, "ad": 1917, "##en": 9091, "##rie": 252, "gro": 103, "##w": 2731, "##rmo": 211, "##per": 2146, "##cr": 1724, "sth": 289, "ina": 1278, "##pp": 584, "##rop": 1205, "gh": 459, "so": 1617, "##trop": 502, "##oma": 3512, "##tr": 3904, "gi": 1783, "gan": 256, "##tism": 568, "lau": 83, "##ois": 149, "acth": 2, "ect": 827, "hyp": 1801, "##rt": 2362, "##ism": 4525, "non": 593, "##ui": 374, "##tary": 360, "##mou": 75, "cu": 1821, "##shi": 236, "##ot": 2697, "##rti": 430, "##roph": 430, "##tin": 2031, "##ob": 1073, "##il": 3194, "##losis": 2004, "act": 971, "##ino": 1104, "##ll": 2964, "##ce": 4158, "##myc": 273, "##ete": 408, "##omy": 1665, "##cos": 533, "##cotic": 255, "x": 5455, "##dom": 200, "##inal": 1669, "ray": 60, "fu": 434, "##ngu": 134, "int": 708, "##stin": 244, "g": 25682, "##as": 12741, "##oi": 1223, "##nt": 7975, "ce": 4158, "##vic": 510, "##acial": 801, "lu": 1243, "##mpy": 31, "jaw": 14, "##rvi": 87, "##cia": 876, "cer": 605, "##vico": 36, "##fac": 289, "oth": 359, "spe": 219, "##cif": 94, "##ied": 471, "nec": 180, "##ut": 1356, "ade": 426, "##viral": 322, "fo": 749, "##lli": 637, "##cular": 2713, "##njun": 47, "cti": 689, "##vitis": 352, "alc": 242, "##holic": 113, "he": 3345, "##pati": 91, "su": 1355, "##cute": 39, "##rosis": 2915, "at": 7461, "cri": 183, "##tical": 178, "all": 689, "##rgic": 275, "ang": 673, "##lucci": 5, "br": 1362, "##chi": 748, "##oli": 933, "ca": 5809, "##llary": 640, "pn": 319, "##eum": 554, "##onia": 629, "##ngi": 470, "##etic": 1349, "##roti": 174, "##zing": 387, "en": 9091, "##ceph": 514, "##cro": 767, "##ing": 10584, "enc": 516, "ep": 2159, "##nc": 1782, "##rea": 522, "ap": 1584, "pan": 290, "##eat": 283, "ion": 15633, "per": 2146, "##io": 4536, "##do": 2062, "##nti": 648, "ag": 1381, "##gr": 796, "##essi": 109, "pha": 1303, "fai": 38, "pat": 1019, "##gical": 467, "le": 9762, "##sio": 339, "thy": 5375, "##roid": 632, "ton": 991, "tis": 14650, "vas": 238, "ins": 765, "##u": 18431, "##ffi": 44, "##stine": 205, "me": 4010, "##sen": 696, "##teric": 501, "isch": 88, "##emia": 12773, "isc": 214, "##haem": 224, "ia": 45251, "##est": 857, "inal": 1669, "##emic": 2628, "ic": 36704, "ami": 753, "##we": 367, "va": 1463, "##uf": 143, "ill": 760, "##sc": 1910, "##ular": 4827, "but": 121, "cva": 7, "ams": 141, "sto": 724, "am": 2981, "##agni": 22, "att": 174, "##ks": 532, "add": 86, "##sons": 90, "adr": 124, "pri": 160, "##ical": 1738, "##ff": 592, "ie": 1727, "##ncies": 175, "##nal": 5157, "bro": 520, "##rte": 258, "##renal": 685, "sup": 178, "##oc": 3284, "##sm": 6146, "##eno": 699, "##idi": 526, "##ids": 529, "phy": 1990, "##cal": 3048, "##virus": 1243, "con": 666, "##dit": 223, "##ions": 2248, "cla": 179, "##ssi": 300, "els": 171, "e": 117710, "##where": 10, "##vir": 459, "##idae": 1308, "adv": 22, "na": 3888, "pu": 555, "##lme": 30, "poo": 20, "rea": 522, "##cting": 111, "##ip": 1389, "dol": 216, "##orosa": 13, "##rcu": 144, "##ms": 1757, "##oros": 52, "##ur": 3069, "##rbu": 28, "adi": 349, "##pos": 632, "algia": 1096, "ti": 9164, "##ssu": 53, "rh": 680, "##atism": 172, "##osa": 933, "##lgia": 1261, "c": 65566, "adn": 29, "##xal": 70, "##exi": 106, "ut": 1356, "gla": 95, "##ered": 227, "##rc": 857, "##tic": 11312, "ov": 804, "##du": 709, "##sol": 164, "cor": 433, "##tions": 1671, "##oid": 3059, "##era": 1173, "##vity": 395, "##gen": 1332, "##ital": 1353, "##pl": 1342, "##asia": 2806, "cah": 14, "##nge": 388, "##ult": 238, "mal": 1984, "##tre": 322, "ment": 1194, "aff": 55, "##erent": 65, "loo": 71, "gas": 235, "##tro": 1083, "##jej": 24, "##unal": 71, "ob": 1073, "##stru": 90, "##rge": 244, "po": 3143, "##tric": 974, "##inog": 112, "##ri": 6620, "##nog": 184, "##emias": 1432, "##og": 1454, "fib": 293, "##rino": 128, "afr": 16, "##rse": 247, "##ness": 1369, "sic": 525, "##kn": 112, "##esses": 178, "hor": 551, "##ses": 6370, "##ick": 398, "eq": 105, "##uin": 183, "pla": 611, "swi": 28, "fe": 961, "wa": 468, "hog": 79, "asf": 2, "as": 12741, "##glo": 359, "##bul": 379, "##ul": 3363, "##mias": 1853, "##lob": 355, "r": 62205, "ost": 1314, "##eo": 1090, "age": 651, "op": 4493, "oses": 3551, "##ocy": 541, "##nia": 3477, "##top": 442, "##enia": 1441, "schu": 17, "##tz": 381, "##ric": 3379, "##ural": 762, "wo": 197, "##rke": 76, "##rs": 4037, "dem": 265, "##entia": 95, "##ex": 1040, "adc": 13, "ass": 289, "##iated": 173, "cog": 82, "##niti": 233, "et": 3667, "##ulti": 106, "man": 1290, "##ation": 7833, "arc": 249, "ly": 6749, "##mp": 1202, "##ha": 3243, "##pathy": 4127, "ainh": 5, "da": 1855, "##yl": 2966, "##oly": 537, "spo": 370, "##tane": 152, "##ylo": 361, "##lys": 227, "air": 137, "##sick": 41, "airw": 5, "##str": 957, "##uc": 1024, "##ys": 2019, "emb": 148, "##arr": 167, "##asse": 68, "pul": 210, "##mon": 559, "##uct": 255, "aki": 136, "##netic": 215, "mu": 857, "m": 39072, "ms": 1757, "agr": 44, "##ypn": 21, "##odal": 42, "##lans": 69, "spee": 3, "##uage": 18, "neu": 707, "##rol": 974, "voi": 22, "pe": 3554, "##rio": 454, "##trim": 43, "kaf": 3, "##fir": 31, "pox": 374, "ama": 178, "alb": 77, "##nism": 925, "##bin": 489, "##ismus": 182, "##oh": 419, "wit": 49, "##hd": 242, "wal": 98, "##rium": 718, "tre": 322, "##ns": 7803, "dts": 26, "##nta": 495, "be": 1227, "##hav": 38, "##ioral": 42, "use": 320, "##oural": 27, "ind": 259, "##xic": 350, "##eu": 1718, "##tian": 164, "alk": 91, "alosi": 22, "##loses": 338, "##ka": 489, "##pto": 286, "##nuria": 1725, "##uria": 3584, "##ate": 5892, "dio": 373, "##xy": 439, "##ase": 9746, "ox": 1398, "##pt": 990, "##urias": 296, "oxy": 299, "##gena": 65, "l": 75378, "aku": 9, "##v": 5847, "gra": 411, "##uloma": 193, "rhi": 106, "##rgen": 58, "##gene": 232, "##ecia": 29, "ar": 14288, "hai": 41, "##ning": 925, "cal": 3048, "##viti": 54, "ci": 2189, "##ums": 197, "aa": 215, "##bed": 193, "##ifo": 153, "obs": 92, "olete": 4, "##cin": 1085, "muc": 127, "##inos": 230, "##inosa": 91, "dru": 31, "end": 441, "fol": 130, "##low": 190, "##brile": 36, "part": 96, "##um": 8029, "##rtu": 38, "te": 12198, "eff": 64, "##luv": 11, "##ium": 2484, "##phil": 256, "##itic": 836, "sec": 96, "##ond": 647, "##phili": 109, "##uma": 163, "tic": 11312, "tion": 11958, "alph": 39, "tha": 360, "##las": 1100, "##semia": 434, "th": 5424, "##ala": 686, "hem": 668, "##oglo": 164, "h": 25022, "alt": 162, "##tude": 50, "##athy": 4587, "mou": 75, "##ntain": 37, "##itute": 23, "alp": 157, "ec": 1780, "##ts": 2736, "##nesse": 24, "##baric": 11, "alv": 108, "##eolar": 120, "##od": 2118, "##orp": 232, "##ption": 380, "atr": 218, "##ies": 3882, "extr": 135, "##insic": 25, "##olit": 149, "p": 26016, "##oni": 783, "pneu": 162, "##tial": 372, "##nchi": 106, "ea": 4369, "bag": 20, "##pipe": 30, "alz": 11, "##heime": 7, "##heim": 66, "##tive": 3157, "ty": 4128, "dat": 94, "atd": 13, "sc": 1910, "##ler": 1126, "##lyo": 36, "##pia": 698, "##opias": 84, "##pic": 784, "eye": 76, "##nder": 260, "eyes": 9, "smo": 126, "bli": 78, "##nd": 2843, "##bia": 223, "##bias": 43, "##ebi": 75, "ases": 1216, "##eb": 780, "##iasis": 3454, "ebi": 75, "##dae": 1459, "##oeb": 40, "##tan": 531, "##eous": 1316, "af": 316, "##fect": 153, "##lism": 817, "inb": 20, "err": 215, "##port": 108, "##opath": 734, "##hies": 1981, "##bolic": 186, "##oacid": 86, "athy": 4587, "acid": 199, "amn": 33, "##otic": 2138, "##nio": 189, "##nitis": 1329, "not": 138, "app": 149, "##lica": 159, "##ble": 1342, "unsp": 18, "##om": 3974, "stre": 119, "##eter": 216, "ri": 6620, "def": 123, "##ormi": 63, "##tatio": 182, "##erine": 293, "ation": 7833, "intr": 161, "##ido": 416, "opp": 52, "##enh": 36, "##eim": 89, "##eims": 14, "amy": 171, "##oton": 77, "##genit": 104, "ps": 1486, "##ral": 4553, "##ysis": 1134, "##tonia": 247, "flo": 52, "##otoni": 46, "zie": 15, "##yo": 716, "##hic": 1947, "ge": 2621, "##hri": 204, "gs": 879, "lou": 153, "bu": 863, "##lba": 36, "als": 351, "##yt": 1023, "cha": 417, "spi": 280, "##troph": 319, "##lsy": 9, "cree": 8, "##ping": 391, "pai": 52, "##ens": 1280, "iti": 2086, "##gesia": 80, "if": 730, "##ence": 938, "##ere": 704, "##nces": 219, "asy": 90, "##mboli": 43, "ch": 4892, "ana": 390, "##xis": 372, "##lac": 441, "sho": 97, "gen": 1332, "##eral": 905, "##ized": 341, "stem": 94, "##eae": 490, "##mosis": 728, "##plas": 439, "##mos": 466, "gal": 362, "##ls": 1412, "##plasm": 159, "##go": 1138, "##cyt": 503, "##oph": 1235, "##ias": 5526, "hoo": 44, "##worm": 178, "##los": 682, "##tom": 591, "anc": 362, "##stoma": 290, "aem": 683, "low": 190, "##mbe": 64, "red": 757, "bloo": 18, "ha": 3243, "##emo": 437, "##gl": 1216, "ess": 2135, "enti": 252, "dup": 32, "acd": 33, "illn": 7, "##lasti": 131, "##rro": 89, "apl": 84, "ery": 464, "##thro": 556, "##ema": 1299, "coo": 43, "er": 16781, "med": 377, "##ite": 641, "##rr": 883, "##jo": 139, "dy": 1524, "cda": 15, "##sh": 1151, "##lytic": 385, "hae": 277, "##mol": 232, "##ytic": 1333, "inc": 188, "##sed": 691, "##lysis": 852, "aih": 4, "##body": 36, "##ted": 3059, "##mun": 213, "##immun": 163, "her": 988, "##edi": 233, "##it": 5017, "no": 3936, "ns": 7803, "##ph": 4666, "##ero": 1075, "##cytic": 762, "hns": 23, "id": 7282, "io": 4536, "##path": 816, "##rom": 868, "nor": 264, "##bl": 786, "##astic": 880, "##opa": 975, "##thic": 748, "las": 1100, "my": 2554, "##elo": 307, "##el": 3687, "##lt": 760, "neo": 220, "natal": 102, "nat": 487, "##orum": 249, "##wbo": 5, "##rn": 1007, "##ious": 396, "imp": 135, "ired": 73, "##sor": 275, "##bal": 208, "##amin": 711, "##onian": 86, "bie": 44, "##ign": 111, "insic": 25, "##fra": 156, "##ctory": 46, "ra": 6975, "ss": 3589, "hb": 101, "scd": 12, "##lemia": 351, "##rri": 142, "##ck": 1525, "##bi": 1278, "for": 379, "dr": 1305, "hbs": 3, "##ling": 770, "##oa": 1024, "sple": 65, "ta": 5134, "t": 50789, "gl": 1216, "##uta": 253, "##one": 3077, "ane": 724, "##urysm": 86, "##ury": 107, "##sms": 705, "art": 831, "##erial": 304, "##cted": 294, "##sia": 5597, "asia": 2806, "##asis": 4552, "##asias": 310, "ph": 4666, "##eri": 1558, "##tasia": 522, "##oris": 82, "##nz": 167, "##metal": 30, "##nary": 415, "spa": 201, "##osp": 610, "##meta": 178, "uns": 60, "##table": 161, "##erm": 847, "iate": 216, "cre": 208, "##scen": 60, "pr": 1934, "##ei": 1104, "##endi": 60, "wor": 91, "##ened": 128, "##ocar": 176, "##dial": 535, "##ein": 1011, "##far": 78, "strea": 10, "##que": 199, "##ndu": 94, "kn": 112, "cho": 1088, "we": 367, "##erved": 19, "##bry": 44, "ato": 1249, "##usum": 15, "uni": 187, "##vers": 166, "##ale": 437, "##son": 1070, "##osi": 2491, "##dase": 1450, "car": 865, "##enal": 984, "##syl": 228, "##mide": 1059, "##xo": 246, "##sid": 213, "##oside": 179, "lip": 414, "swee": 10, "##ley": 243, "kli": 36, "##onsky": 4, "##opic": 526, "##au": 938, "##ris": 1271, "##tar": 365, "##idic": 55, "rui": 33, "##mpe": 98, "##biase": 26, "##ffu": 31, "##bri": 228, "##lti": 136, "##ple": 517, "##mas": 1208, "##angi": 310, "##dros": 86, "##hydr": 433, "ani": 613, "swe": 32, "##ating": 930, "dys": 778, "##fun": 117, "sud": 37, "##omo": 291, "##tor": 1288, "##resis": 317, "##met": 630, "##ky": 449, "##losi": 242, "##thies": 1543, "ann": 928, "groo": 9, "pru": 37, "##ritis": 1725, "##ogen": 798, "##gio": 241, "##itus": 174, "itch": 56, "##exia": 176, "ano": 477, "##rexia": 36, "##rect": 140, "##exic": 45, "dec": 97, "##tite": 72, "##nte": 669, "##xt": 219, "dep": 82, "##enden": 20, "##gory": 10, "sit": 383, "##uati": 22, "##ulat": 204, "ory": 1387, "acs": 48, "##hr": 1389, "asthm": 11, "##oco": 459, "##ios": 582, "bla": 184, "mel": 372, "##dema": 455, "##lan": 697, "cw": 24, "##kers": 137, "##edema": 375, "anthr": 23, "ax": 691, "##brand": 37, "bac": 267, "##illus": 113, "##raci": 49, "##stu": 117, "ur": 3069, "vo": 343, "outp": 2, "arr": 167, "sion": 1529, "aort": 39, "aaa": 6, "taa": 10, "arch": 72, "ste": 1180, "ru": 1263, "##ure": 970, "##ures": 278, "##pra": 195, "##val": 427, "##vular": 106, "##nosis": 1932, "##rav": 109, "##alvar": 42, "sva": 2, "##stric": 248, "v": 5847, "##ava": 124, "##lv": 292, "##atic": 1496, "##lve": 106, "##comp": 168, "##tat": 544, "##omp": 218, "##ncy": 588, "ai": 803, "##apse": 51, "sed": 691, "nar": 329, "##row": 149, "stri": 183, "##ture": 445, "##itid": 234, "qua": 130, "##tern": 153, "doe": 19, "##hle": 151, "##lle": 359, "cv": 49, "##pen": 399, "##dic": 503, "##lif": 133, "##ndix": 10, "ara": 723, "##chn": 53, "ach": 669, "##noid": 302, "##rane": 131, "ions": 2248, "men": 809, "infl": 76, "##mm": 613, "arb": 245, "##orr": 313, "hagic": 299, "arth": 276, "##rne": 206, "##eal": 3826, "ger": 741, "##onto": 157, "##xon": 63, "##ryo": 120, "##toxon": 33, "##ae": 4447, "##idis": 139, "##lus": 1315, "was": 34, "##ena": 443, "are": 534, "##rdi": 450, "##hyth": 46, "##rhyth": 45, "##yth": 291, "hea": 858, "irr": 63, "##egu": 52, "##lar": 7177, "bea": 54, "rhy": 71, "##tbeat": 12, "occ": 281, "##lusi": 43, "##ctive": 683, "##ter": 3016, "##litis": 2330, "obl": 115, "##rans": 386, "##thr": 764, "joi": 9, "gou": 41, "##icul": 478, "##pti": 282, "pyo": 86, "##genic": 1118, "pur": 129, "##ulent": 135, "##rth": 535, "py": 713, "##hro": 867, "arthr": 223, "##its": 252, "##oria": 311, "##tics": 280, "athic": 642, "psa": 28, "##tica": 887, "rhe": 174, "##atoid": 84, "rha": 133, "##ura": 511, "##teria": 148, "##ypo": 760, "##spl": 241, "gue": 179, "gu": 499, "##orma": 71, "ro": 8182, "##plex": 95, "##geni": 281, "##tas": 518, "myo": 339, "##phag": 192, "##talis": 225, "amc": 13, "ct": 2872, "ott": 157, "o": 53291, "she": 116, "ank": 85, "##ylos": 74, "##uro": 536, "##log": 270, "w": 2731, "cots": 14, "phe": 314, "##omen": 120, "##nct": 267, "##erva": 33, "ent": 3984, "##bes": 161, "##hosis": 455, "asb": 25, "##estos": 22, "asc": 330, "aria": 328, "ari": 739, "asis": 4552, "rou": 168, "##worms": 45, "lum": 420, "##ico": 419, "##ides": 2975, "org": 138, "dro": 708, "abd": 96, "##omin": 75, "##oneal": 322, "ex": 1040, "##ud": 864, "##reas": 59, "ing": 10584, "##tent": 208, "flui": 4, "##over": 182, "##rbic": 18, "##fici": 67, "sco": 186, "##ept": 311, "##llo": 473, "##llus": 167, "##ulm": 71, "##onary": 274, "abp": 9, "asp": 151, "##ncho": 112, "alr": 8, "##gc": 68, "##rgl": 40, "##min": 1342, "##ated": 1498, "##hyxia": 21, "bi": 1278, "##born": 58, "new": 20, "##borns": 8, "##gy": 1084, "##ir": 1379, "##rgi": 147, "ast": 979, "##hen": 440, "##opia": 581, "##stra": 163, "##com": 398, "##sua": 20, "##ue": 705, "strai": 21, "stra": 163, "##ining": 101, "##ined": 231, "##nch": 340, "##ial": 4810, "asth": 61, "##matic": 564, "##hm": 357, "atic": 1496, "##cise": 19, "exe": 35, "##rci": 59, "ei": 1104, "ert": 624, "##ional": 1072, "##gm": 304, "atism": 172, "ate": 5892, "loui": 4, "bar": 498, "ocu": 271, "##neous": 776, "ata": 1243, "atc": 47, "grou": 20, "##bel": 125, "inh": 49, "##erit": 167, "ath": 1161, "cular": 2713, "des": 3612, "har": 441, "##deni": 66, "##eto": 309, "ments": 261, "##vol": 60, "##unt": 119, "wri": 24, "##hing": 509, "ham": 159, "##monds": 32, "toe": 60, "fee": 41, "##ram": 476, "##idal": 755, "##lb": 265, "au": 938, "qui": 179, "##veri": 25, "upp": 73, "##mbers": 14, "##iu": 439, "blo": 72, "av": 560, "avb": 5, "ek": 196, "ele": 1546, "##ctr": 90, "bet": 109, "##ween": 7, "##ovent": 24, "##duct": 135, "chi": 748, "##ren": 663, "##hood": 40, "##ay": 524, "##nity": 83, "##ities": 457, "##ition": 494, "##osoma": 103, "del": 192, "##etion": 199, "ayer": 34, "##za": 316, "az": 422, "##oo": 645, "##ermia": 595, "##erma": 1034, "##ermat": 201, "##zoa": 89, "bes": 161, "##iases": 895, "##ioses": 356, "##lasma": 144, "##site": 51, "##ative": 1413, "##und": 345, "##ally": 954, "thr": 764, "##ening": 352, "##etes": 110, "##rrent": 52, "npd": 4, "bd": 226, "##rolf": 12, "db": 161, "##grnd": 5, "poi": 128, "##soni": 75, "##teri": 425, "##neum": 366, "pos": 632, "##itive": 287, "##sosis": 78, "bal": 208, "shea": 8, "##tid": 634, "##ii": 920, "##lant": 249, "##enter": 232, "##rrhea": 566, "##lka": 28, "em": 3857, "##hia": 1630, "epi": 372, "nep": 176, "##hrit": 137, "ben": 106, "##bian": 47, "cent": 406, "##riu": 128, "##rre": 166, "##tt": 853, "eso": 208, "##gus": 311, "oe": 853, "##etts": 48, "##gitis": 892, "es": 24709, "##opha": 263, "##ith": 585, "elia": 550, "cle": 640, "met": 630, "##lasia": 1936, "##sias": 754, "cy": 1767, "##tho": 408, "##lin": 1996, "du": 709, "##lins": 88, "##tone": 352, "##lla": 1026, "roc": 587, "##hali": 172, "gua": 87, "##itara": 4, "##form": 776, "##ceae": 397, "##ters": 342, "##kal": 76, "j": 925, "##mer": 460, "##onism": 406, "nosis": 1932, "pseu": 396, "##os": 7739, "##sa": 2496, "##hemia": 173, "bas": 125, "##ilar": 112, "##sop": 207, "##hil": 352, "##with": 28, "##nn": 1336, "##halos": 44, "##ssia": 128, "emg": 2, "wbs": 2, "is": 58740, "bw": 14, "##hce": 5, "beh": 41, "ada": 140, "##tia": 971, "old": 182, "sil": 140, "roa": 155, "##je": 148, "njo": 4, "##ven": 303, "thia": 529, "##mine": 1574, "ka": 489, "k": 5891, "##rna": 156, "##rd": 1543, "sou": 29, "gia": 2448, "##elet": 125, "bss": 14, "##yc": 944, "##rot": 739, "ib": 953, "##iella": 69, "##noi": 101, "##tio": 1878, "##noit": 5, "##yte": 457, "mia": 15604, "mias": 1853, "##les": 1464, "##tasis": 507, "##patic": 178, "##lia": 1856, "##flu": 199, "##kin": 421, "##esia": 1354, "bin": 489, "##ocul": 201, "##ian": 1559, "##nci": 90, "##iers": 141, "##geo": 25, "bre": 131, "##eders": 8, "bree": 7, "bfl": 7, "##water": 69, "##rial": 778, "##uric": 504, "##uri": 806, "##rias": 543, "##lcu": 25, "##ulus": 229, "##olith": 256, "##stro": 398, "##ophi": 297, "##ophy": 1430, "##ver": 681, "##qu": 430, "eve": 195, "##rsion": 188, "##ori": 509, "##zed": 399, "ext": 183, "##ou": 1477, "outl": 4, "bno": 23, "##wise": 61, "##rvo": 28, "inj": 14, "##tomy": 1024, "##coses": 368, "bl": 786, "##ces": 681, "gil": 81, "##chris": 18, "##chr": 227, "##ists": 25, "##rma": 1223, "lym": 260, "vis": 136, "##ceral": 79, "ble": 1342, "eyel": 11, "pal": 304, "##bra": 416, "##rum": 588, "ii": 920, "sa": 2496, "##jun": 104, "##pharo": 48, "##ju": 161, "##tos": 970, "droo": 9, "pto": 286, "##pasm": 318, "twi": 24, "tw": 62, "see": 20, "##wth": 61, "sma": 340, "##nant": 213, "##eding": 104, "##thes": 189, "##opat": 682, "##sca": 227, "##lity": 1093, "##ties": 583, "thies": 1543, "##tel": 277, "##ets": 161, "##acek": 10, "ema": 1299, "bs": 467, "##hema": 233, "bls": 4, "blu": 31, "##eton": 60, "blue": 7, "##eres": 82, "##lop": 400, "mbd": 7, "##rde": 101, "bor": 187, "##det": 67, "##ella": 602, "##ell": 836, "nea": 475, "east": 38, "el": 3687, "enz": 77, "##eli": 541, "##reli": 36, "##cc": 767, "##uto": 135, "##nne": 179, "##phu": 20, "ric": 3379, "##ket": 208, "mar": 282, "##sei": 37, "##lles": 63, "fie": 78, "##vre": 48, "fiv": 5, "bra": 416, "ple": 517, "##xu": 55, "##chia": 537, "##lis": 2095, "brai": 17, "##bral": 724, "##rac": 638, "##ran": 1014, "ial": 4810, "cns": 22, "##phal": 507, "##ific": 150, "occl": 34, "brea": 43, "mma": 185, "mas": 1208, "bri": 228, "zi": 412, "##ze": 417, "##kii": 39, "##derma": 822, "##ans": 1407, "##hus": 330, "##spasm": 280, "##asm": 602, "##ole": 1205, "##gem": 85, "whee": 13, "##hitis": 401, "##iol": 415, "##lit": 792, "##ting": 2088, "bpd": 4, "##nata": 136, "ven": 303, "##til": 190, "##ator": 445, "##lta": 63, "und": 345, "ulant": 112, "bru": 79, "gib": 13, "bbb": 14, "bun": 39, "##yam": 24, "##wera": 14, "##ny": 710, "##iri": 216, "##avir": 92, "go": 1138, "##rni": 142, "bms": 9, "oro": 319, "##dynia": 516, "##hesia": 836, "st": 6192, "##rsa": 120, "##ovi": 231, "##noses": 368, "##tto": 78, "oc": 3284, "cin": 1085, "##xe": 177, "##lci": 114, "##lsm": 33, "can": 536, "##dias": 196, "mon": 559, "##ilia": 587, "thru": 6, "##lial": 346, "##dal": 1096, "nai": 53, "cmc": 9, "##cou": 96, "mem": 56, "##brane": 44, "sprue": 4, "##gin": 310, "yeast": 2, "##cans": 191, "##nab": 39, "##tode": 114, "##ili": 573, "pp": 584, "##nsis": 306, "fra": 156, "##uncle": 39, "fur": 75, "cino": 70, "tam": 226, "##pona": 20, "##pon": 327, "##ades": 51, "coc": 289, "dcm": 13, "ccm": 10, "##tched": 26, "##phic": 979, "hcm": 9, "enl": 25, "##arged": 15, "##bva": 7, "rcm": 6, "ascvd": 3, "cvd": 13, "thro": 556, "##mb": 818, "##mbo": 242, "##ings": 283, "##tene": 35, "##rpa": 34, "##rpe": 96, "com": 398, "entr": 167, "cts": 128, "##ig": 1204, "cat": 385, "scra": 22, "ino": 1104, "##cul": 1077, "##cula": 560, "##scr": 107, "##atch": 76, "csd": 5, "##elae": 22, "##plexy": 23, "##berg": 387, "##less": 182, "##ptic": 453, "##ract": 193, "mdr": 11, "##tile": 216, "##usal": 140, "reg": 124, "cae": 113, "coe": 80, "glu": 275, "ero": 1075, "whea": 6, "##rhea": 642, "##rhoea": 451, "gse": 4, "##sive": 921, "cs": 966, "cd": 464, "##ysen": 21, "tro": 1083, "cel": 216, "trau": 37, "##toma": 907, "##din": 576, "##clon": 67, "##erg": 695, "##msa": 11, "##nica": 229, "ons": 3045, "##nus": 630, "##ive": 4752, "##iva": 357, "ica": 2687, "##olism": 229, "##rct": 113, "##rupt": 66, "##yg": 111, "##ient": 224, "##ora": 622, "tia": 971, "stro": 398, "##idos": 158, "##anti": 234, "cp": 140, "schi": 113, "##lder": 68, "##cl": 1293, "##nop": 364, "fla": 164, "ot": 2697, "oto": 540, "##rrh": 319, "oea": 672, "csf": 5, "rrhea": 566, "rr": 883, "##hoea": 515, "##tory": 1020, "##vasc": 160, "i": 61486, "ir": 1379, "ido": 416, "itis": 12685, "##vical": 101, "rib": 125, "tho": 408, "##racic": 227, "##hial": 342, "##ipi": 155, "##ancer": 24, "##erf": 133, "##icial": 128, "ulc": 51, "##phi": 528, "##odes": 85, "ces": 681, "##tod": 173, "tr": 3904, "##yp": 2234, "inv": 73, "##olv": 28, "mei": 51, "##omian": 13, "##azi": 158, "##zia": 278, "mian": 53, "##ncr": 96, "##iform": 538, "##cie": 88, "##oids": 276, "croid": 13, "##ophil": 204, "##yi": 131, "us": 17533, "sex": 39, "##ually": 55, "##mit": 236, "ted": 3059, "##lent": 259, "too": 69, "mus": 659, "cmt": 65, "##ak": 448, "chd": 21, "##iak": 23, "leu": 317, "##ocyte": 246, "beg": 5, "##uez": 35, "bg": 61, "csa": 3, "stei": 98, "##brin": 77, "gr": 796, "##cytes": 137, "##ytes": 197, "##oxi": 251, "cyt": 503, "##lasm": 175, "##nez": 23, "##cyte": 282, "chs": 113, "chee": 6, "##ilit": 129, "##ubism": 15, "ja": 191, "##loc": 352, "crb": 4, "chia": 537, "fro": 91, "##ist": 577, "##erpe": 68, "##mmels": 6, "cken": 56, "##cella": 49, "##kun": 9, "##gunya": 22, "ck": 1525, "##ung": 155, "##unya": 34, "mos": 466, "##quit": 15, "##blain": 20, "##nios": 143, "##lain": 59, "sen": 696, "##tiv": 585, "##aur": 143, "##diu": 87, "chl": 209, "##lam": 376, "##yd": 590, "##iac": 454, "asi": 909, "chlo": 120, "##roses": 416, "##rotic": 673, "cir": 100, "##rho": 124, "##up": 602, "pbc": 5, "##osin": 292, "cl": 1293, "##lith": 367, "##ras": 498, "##rae": 225, "##iat": 272, "##demic": 120, "##ssic": 38, "vib": 26, "##tase": 1249, "slo": 45, "##och": 439, "##dermo": 78, "ear": 655, "str": 957, "mid": 359, "msto": 3, "est": 857, "##rophy": 1177, "##ormed": 53, "##acia": 668, "##llae": 63, "lud": 39, "loff": 6, "lae": 189, "##wen": 22, "##ft": 291, "##ellar": 605, "##eaf": 53, "##orm": 1247, "##eatic": 84, "##dde": 32, "je": 148, "mb": 818, "##ester": 187, "sca": 227, "##ini": 580, "tcd": 6, "chm": 60, "##lium": 141, "##lly": 1154, "uv": 138, "chr": 227, "ix": 405, "##nke": 101, "ley": 243, "##onent": 17, "ptc": 11, "cosis": 1695, "coses": 368, "ver": 681, "##ruco": 9, "cr": 1724, "eo": 1090, "##sin": 861, "##ilic": 308, "eth": 485, "##moid": 215, "sin": 861, "##usi": 183, "##ivi": 134, "##eit": 90, "it": 5017, "##xi": 549, "sph": 456, "##ron": 1037, "pol": 480, "##ya": 448, "chu": 67, "strau": 9, "css": 9, "eg": 776, "chy": 293, "##rax": 407, "pleu": 58, "##usion": 369, "##otile": 19, "ics": 589, "##mot": 169, "##ility": 669, "##anial": 147, "##osto": 219, "ccd": 27, "clc": 7, "##den": 747, "sche": 103, "##uth": 73, "##auer": 61, "sai": 33, "##ono": 394, "flu": 199, "chis": 182, "ori": 509, "##ental": 636, "opi": 345, "##idium": 139, "##rid": 417, "clu": 89, "##ache": 192, "##aches": 72, "his": 394, "##tamin": 162, "##rto": 111, "##motor": 122, "##inous": 345, "##gias": 324, "##algi": 205, "##ines": 305, "san": 201, "joa": 3, "wer": 110, "##nicke": 17, "cc": 767, "##oides": 345, "cci": 230, "##ozoa": 64, "##hlear": 118, "##ayne": 27, "##kayne": 16, "dwa": 17, "##fism": 16, "##eria": 445, "##eroid": 179, "nei": 56, "##wall": 32, "mul": 173, "##vih": 3, "smi": 103, "cok": 7, "##dei": 30, "##enu": 84, "##rva": 64, "dog": 54, "##ceps": 60, "gid": 39, "coi": 70, "fri": 53, "col": 487, "##eady": 19, "map": 36, "##ped": 361, "aah": 3, "ul": 3363, "uc": 1024, "##erat": 377, "unspc": 3, "##agen": 116, "##sk": 315, "##logic": 525, "##lse": 30, "cou": 96, "##lour": 41, "##ado": 111, "##tose": 259, "##mati": 273, "ng": 13590, "ngeal": 873, "ies": 3882, "cvi": 4, "##ulin": 436, "##ode": 525, "cli": 118, "##agi": 291, "##bial": 115, "##lon": 526, "##iz": 334, "##aly": 1673, "##icat": 173, "##loma": 384, "acu": 163, "##mina": 191, "##dyl": 263, "##tum": 710, "##real": 90, "##rru": 33, "acc": 186, "##inata": 69, "agw": 3, "exc": 71, "essi": 109, "bui": 4, "##ring": 861, "##unct": 199, "##iv": 1126, "ahc": 9, "ehc": 7, "##cop": 175, "oph": 1235, "##thalm": 145, "gp": 48, "##orrh": 243, "spri": 5, "##uncti": 102, "##culo": 423, "##let": 407, "ecz": 19, "##uls": 66, "sei": 37, "pyr": 167, "##exial": 8, "fit": 22, "year": 2, "##enous": 410, "##ysmal": 101, "ash": 183, "up": 602, "##lying": 40, "##ospas": 53, "##asms": 143, "##ona": 668, "##ries": 195, "asm": 602, "##onar": 60, "##rpu": 20, "##teu": 30, "##tei": 276, "##tea": 142, "##idor": 45, "##ffa": 11, "##iler": 17, "##enci": 22, "##erium": 258, "##yne": 125, "##bact": 160, "##wpo": 7, "yab": 6, "cow": 20, "cox": 58, "##sacki": 10, "##rvu": 5, "##nial": 255, "z": 2448, "cial": 1124, "crou": 16, "##zon": 70, "##zons": 15, "##tyly": 941, "##yn": 694, "os": 7739, "sku": 3, "cso": 4, "crs": 8, "##ose": 1554, "##ntane": 27, "pl": 1342, "goi": 29, "iod": 151, "cht": 136, "##trous": 33, "cryi": 3, "cry": 167, "lej": 4, "##eune": 11, "arm": 102, "##some": 154, "##somy": 130, "##jja": 3, "##ansf": 132, "##erase": 2018, "udp": 8, "##uron": 62, "##nsf": 133, "##ubin": 49, "unc": 279, "##jug": 14, "cro": 767, "eri": 1558, "ibd": 10, "##mial": 67, "##care": 25, "lar": 7177, "cru": 51, "##shing": 113, "aft": 75, "##hier": 20, "bau": 24, "##gar": 109, "##ten": 621, "##lobu": 151, "##toc": 288, "##occus": 200, "tor": 1288, "##ulos": 183, "eur": 581, "ean": 204, "##kes": 185, "##tol": 475, "##rli": 83, "cur": 143, "##lings": 48, "cus": 1060, "##hings": 31, "iii": 58, "its": 252, "##nko": 27, "##xa": 357, "##zo": 378, "##derm": 461, "##hal": 1006, "lax": 35, "ine": 10205, "##last": 318, "##glob": 229, "##creas": 35, "##stic": 1687, "cf": 131, "mec": 43, "##onium": 157, "il": 3194, "##eus": 462, "ten": 621, "##enias": 229, "##ster": 651, "##rus": 2124, "csn": 15, "##rme": 247, "##rly": 156, "##ocele": 771, "##irus": 1446, "##vary": 26, "cmv": 4, "##iral": 395, "##meg": 186, "##alus": 273, "lac": 441, "##rima": 60, "sac": 150, "##ndy": 191, "##lke": 28, "nc": 1782, "##die": 118, "##hka": 5, "dws": 3, "dwm": 2, "##ual": 591, "cai": 57, "##ssons": 4, "ae": 4447, "##pres": 155, "rap": 229, "dee": 29, "sque": 6, "##eze": 49, "##dso": 14, "bed": 193, "##sores": 6, "##ubi": 87, "##tus": 844, "##ubiti": 8, "##fy": 67, "##titi": 251, "##hagia": 274, "sw": 110, "##allo": 88, "##wing": 168, "##icult": 17, "dif": 67, "get": 50, "foo": 34, "do": 2062, "##nno": 60, "ody": 473, "##leti": 34, "##ici": 256, "dej": 9, "##tta": 51, "djri": 2, "##jer": 32, "dss": 17, "hsm": 2, "dje": 2, "##rine": 993, "ds": 1926, "ij": 34, "psy": 153, "##chos": 77, "##arct": 88, "vad": 12, "##nate": 1019, "bone": 68, "##cay": 22, "tee": 27, "##don": 316, "##iosi": 247, "fre": 71, "##quent": 44, "##sits": 28, "##reti": 261, "on": 25104, "##ser": 385, "##olys": 135, "##lyses": 130, "##lpa": 16, "##dont": 143, "exp": 64, "##osure": 31, "##scent": 146, "##vit": 263, "##rene": 65, "od": 2118, "ont": 477, "ogen": 798, "##tero": 414, "##ontia": 227, "##para": 403, "scl": 255, "##iary": 140, "##rit": 656, "##iati": 98, "##lso": 30, "##q": 649, "##atous": 848, "duh": 8, "##rings": 34, "dh": 256, "eru": 149, "##tit": 383, "##cine": 257, "##sni": 19, "##cose": 148, "vei": 27, "leg": 168, "##nou": 149, "##nga": 80, "##ngo": 302, "##gne": 79, "##richt": 19, "##ym": 632, "##sitis": 717, "dm": 221, "incl": 23, "##uding": 44, "groi": 4, "##losa": 161, "ipid": 182, "juv": 13, "##enile": 49, "iddm": 8, "idd": 79, "td": 203, "tdm": 2, "jod": 2, "##tant": 269, "aod": 11, "mat": 1179, "##urity": 75, "ncd": 11, "##keto": 98, "##doses": 304, "dka": 2, "##mme": 105, "##tiel": 24, "##lems": 12, "##pki": 4, "amm": 173, "jac": 34, "##quet": 15, "itant": 84, "##ppy": 40, "##phr": 229, "##mitis": 273, "cam": 119, "##urati": 49, "eng": 62, "##mann": 725, "##seal": 795, "##gel": 140, "##manns": 87, "##ntis": 92, "pdd": 11, "ced": 277, "##leman": 32, "dpd": 8, "dic": 503, "den": 747, "##oca": 425, "##orge": 50, "##orges": 10, "sh": 1151, "##prin": 32, "##tzen": 34, "pou": 37, "##nesis": 862, "par": 813, "fou": 34, "dgs": 6, "q": 649, "##otr": 285, "##uncal": 36, "##lack": 41, "##ova": 228, "##kao": 13, "geo": 25, "dom": 200, "##inant": 102, "##itz": 186, "cay": 22, "dig": 130, "##esti": 155, "git": 236, "dip": 196, "##hth": 229, "##pht": 190, "##iae": 338, "##ther": 231, "##riti": 352, "fau": 11, "throa": 7, "##nx": 287, "nas": 581, "##ryn": 200, "##cep": 538, "##fil": 122, "##rete": 85, "sub": 250, "##ease": 224, "##type": 103, "##term": 83, "sno": 30, "##cret": 70, "##ppe": 120, "##esium": 15, "any": 72, "lis": 2095, "##sum": 365, "##ptive": 232, "##rin": 1729, "##emin": 79, "hage": 129, "##emp": 115, "##tem": 244, "##pers": 165, "##rb": 514, "##geal": 1390, "##omat": 410, "dna": 20, "dou": 49, "cot": 166, "##soma": 147, "##dum": 94, "##rines": 32, "cov": 31, "##ering": 309, "##gol": 101, "##somi": 34, "##idism": 503, "xx": 55, "xy": 439, "gui": 64, "dra": 184, "dry": 32, "##cca": 90, "tea": 142, "##cke": 211, "dua": 19, "rac": 638, "ctive": 683, "##mali": 44, "dus": 136, "sti": 865, "drs": 14, "duc": 142, "##henne": 19, "dmd": 16, "##inger": 113, "##mpi": 32, "ju": 161, "##odena": 19, "duo": 51, "##enum": 105, "pti": 282, "dud": 11, "dgr": 3, "##xs": 85, "##ytren": 25, "##uy": 50, "##trens": 13, "##lma": 93, "##sci": 154, "##aris": 795, "##trac": 216, "##ita": 529, "##rai": 119, "##beral": 15, "##bert": 120, "hic": 1947, "hgh": 2, "##omia": 282, "##nom": 210, "hsa": 15, "day": 31, "fd": 117, "hsn": 9, "##ente": 270, "##rrho": 90, "##oeal": 33, "##ynt": 26, "##vel": 138, "##lers": 185, "##moe": 52, "shi": 236, "##gella": 13, "fle": 139, "##ner": 722, "jap": 5, "##anese": 29, "##illa": 201, "##kine": 106, "##esis": 1932, "##nse": 342, "##ua": 409, "##unia": 22, "##xua": 20, "##rco": 165, "##urs": 165, "##epsia": 34, "##smal": 198, "##neas": 34, "##noea": 72, "##rsi": 133, "schwa": 12, "##lbe": 48, "vu": 153, "##lva": 59, "ears": 42, "##hin": 545, "hyd": 491, "tae": 88, "ech": 185, "##oviru": 81, "##lamp": 25, "##psias": 69, "tox": 205, "ecl": 33, "##amp": 174, "ecth": 3, "pus": 135, "##tular": 75, "orf": 47, "##osum": 245, "shee": 11, "##hymaa": 4, "##oder": 237, "##rome": 252, "##ropi": 176, "ev": 444, "ed": 10573, "##hes": 557, "out": 192, "outw": 2, "##lde": 86, "##able": 729, "ici": 256, "ef": 461, "##fus": 131, "ehl": 18, "##nlo": 8, "ela": 327, "##stica": 235, "##ophia": 238, "mee": 7, "##keren": 4, "##bbe": 33, "eds": 127, "eis": 84, "##gers": 174, "##mph": 301, "fil": 122, "##arial": 106, "ocy": 541, "ell": 836, "van": 123, "##ld": 972, "##ndr": 330, "##onas": 232, "##tes": 1130, "##tinal": 710, "##tetr": 72, "empt": 10, "##icas": 102, "emp": 115, "##ye": 502, "##yema": 9, "##orax": 333, "##isy": 49, "##cis": 142, "##ber": 556, "tb": 82, "let": 407, "##gica": 189, "von": 8, "##het": 181, "vie": 53, "##oin": 289, "##group": 23, "##asic": 156, "tbe": 6, "cee": 4, "##sl": 348, "##kia": 299, "##bty": 4, "unkn": 4, "##wn": 226, "##umnal": 5, "jb": 11, "mye": 254, "sle": 89, "##lacia": 508, "##lio": 244, "ahl": 18, "##uelan": 18, "vee": 3, "##roma": 364, "##ndro": 245, "oll": 228, "efe": 62, "##card": 367, "##ditis": 805, "sbe": 22, "##cardi": 343, "imb": 75, "##alan": 166, "##llop": 47, "inn": 58, "u": 18431, "obsc": 5, "##bitis": 245, "##thal": 259, "##sitic": 64, "eno": 699, "eb": 780, "##meba": 43, "pig": 95, "##fr": 449, "##inge": 87, "bel": 125, "##comb": 45, "emia": 12773, "##opion": 77, "##erted": 58, "inw": 6, "esis": 1932, "det": 67, "##erge": 71, "wei": 42, "##rten": 69, "eph": 852, "emer": 32, "three": 3, "##zoot": 5, "##yard": 24, "vom": 15, "##iting": 68, "##rmal": 444, "##yses": 240, "lye": 14, "##bio": 81, "##taph": 60, "##rml": 20, "##uda": 53, "grea": 11, "##tigo": 34, "sui": 14, "ol": 6188, "##ccos": 20, "##did": 83, "##ymis": 43, "##tti": 240, "epsy": 58, "##lep": 213, "##sies": 89, "##lect": 97, "cad": 72, "##ucus": 14, "##ences": 96, "tem": 244, "##poral": 200, "##ycho": 118, "tle": 191, "pte": 82, "##inate": 399, "##physe": 86, "sli": 31, "##phys": 191, "##hys": 224, "##cler": 232, "laye": 11, "top": 442, "whi": 43, "epu": 15, "##lides": 50, "pgc": 3, "swa": 23, "##nous": 1076, "##pel": 171, "##nba": 24, "##dor": 165, "##feri": 49, "##urat": 68, "##tiva": 165, "##forme": 127, "##aema": 115, "##morph": 91, "##asma": 201, "ict": 123, "hd": 242, "##mmune": 120, "iso": 293, "immun": 163, "nb": 212, "mit": 236, "##chell": 13, "##rdt": 77, "##cher": 313, "##ich": 539, "elswh": 2, "ala": 686, "rel": 185, "##liti": 344, "dos": 274, "##smus": 278, "##uxi": 13, "##tropi": 139, "smus": 278, "##gent": 95, "##sing": 635, "squi": 9, "eyed": 13, "esth": 132, "##iom": 168, "ene": 953, "ethm": 12, "eu": 1718, "##thyr": 166, "##seo": 40, "exa": 108, "erc": 325, "##wards": 27, "glo": 359, "##lgi": 217, "eyeb": 10, "##alls": 29, "##lbi": 29, "##rnal": 214, "##ostos": 78, "spu": 22, "ophy": 1430, "##grown": 20, "##otrop": 120, "xt": 219, "splee": 3, "orb": 81, "rg": 1337, "##ergs": 67, "##rry": 117, "one": 3077, "hfa": 3, "ry": 5561, "##lsi": 70, "vii": 25, "lmn": 8, "owr": 9, "##nemia": 4882, "phi": 528, "spc": 6, "##mbin": 113, "##cele": 883, "##rato": 191, "stua": 2, "xi": 549, "pta": 72, "##nthal": 51, "xii": 8, "trai": 35, "twe": 12, "haf": 11, "xiii": 8, "##bili": 152, "teen": 10, "thri": 122, "ftt": 3, "##lte": 68, "sal": 1366, "##nco": 154, "##onis": 77, "##gna": 105, "##ximal": 49, "penia": 832, "far": 78, "tai": 91, "rss": 15, "spr": 69, "##ldy": 11, "hay": 19, "##vest": 45, "##maker": 49, "thre": 42, "##sher": 80, "##ola": 568, "##psia": 380, "##psi": 144, "bus": 129, "mya": 36, "roya": 4, "free": 12, "ak": 448, "##eyri": 5, "nia": 3477, "yu": 34, "##ppie": 5, "cfs": 7, "pv": 61, "##fs": 249, "cfi": 6, "##tty": 35, "##atosi": 182, "fat": 66, "##trate": 94, "##uchot": 5, "##edone": 28, "##zio": 39, "##nde": 256, "##tine": 707, "fae": 17, "eli": 541, "##onti": 111, "stoo": 9, "sym": 106, "soi": 30, "rain": 157, "##leuk": 162, "##lty": 53, "fas": 100, "embr": 65, "##ress": 182, "##usch": 30, "##good": 29, "fbd": 3, "oss": 236, "##ench": 58, "meyer": 37, "##fying": 66, "fop": 3, "mn": 222, "##chme": 18, "##yer": 147, "fmd": 12, "##fasc": 60, "mpd": 20, "##faci": 189, "fms": 4, "mps": 76, "fm": 76, "loc": 352, "##lari": 174, "##oidea": 217, "oz": 124, "##zard": 28, "ozz": 5, "fis": 63, "##sures": 53, "fdh": 4, "fod": 10, "dho": 16, "lize": 40, "##gment": 125, "##afian": 8, "emi": 1725, "rot": 739, "##gital": 439, "apht": 12, "##hous": 94, "aphth": 11, "aph": 273, "##rei": 99, "##gn": 369, "fb": 62, "##lue": 59, "hn": 190, "fox": 11, "##rdy": 14, "apo": 108, "##crine": 138, "##ard": 864, "fx": 15, "##dism": 683, "##rtin": 177, "fr": 449, "##ee": 573, "##ichs": 46, "##edric": 13, "frda": 2, "##eni": 981, "##hlich": 23, "bab": 21, "##inski": 20, "froe": 4, "##lich": 88, "fru": 33, "##ctose": 56, "pho": 988, "phate": 619, "ald": 193, "##lase": 1245, "##phos": 349, "##osu": 183, "##hos": 505, "##rp": 725, "hfi": 2, "##osph": 322, "##atase": 643, "##pd": 280, "het": 181, "hrom": 351, "##idase": 1310, "##cosi": 230, "pm": 129, "lys": 227, "##osome": 56, "gre": 154, "spha": 163, "##celus": 5, "##ners": 103, "oed": 53, "##rmi": 235, "##rrha": 82, "cag": 20, "##etri": 79, "mnt": 56, "##rier": 98, "##lbo": 29, "##lling": 138, "tge": 2, "geal": 1390, "gor": 59, "gau": 10, "##rosi": 428, "##uco": 292, "##ucher": 23, "##lion": 47, "zo": 378, "##alg": 248, "fac": 289, "##ialis": 211, "hz": 4, "##mse": 20, "gy": 1084, "gical": 467, "##olog": 198, "gyn": 27, "##otri": 66, "##chum": 16, "##tmann": 45, "##uss": 116, "##inker": 16, "gss": 6, "stru": 90, "ssler": 38, "gsd": 15, "sler": 53, "##tous": 1045, "##mans": 183, "gln": 2, "afl": 11, "##ice": 281, "##ntric": 189, "##rdia": 239, "lam": 376, "##rdio": 164, "##berts": 33, "##undi": 32, "ler": 1126, "##ebo": 68, "##ull": 168, "##mil": 163, "##iaris": 29, "##ule": 228, "##rach": 237, "##ival": 209, "gum": 43, "##vae": 35, "##ding": 618, "swo": 8, "vin": 179, "##cents": 19, "##ug": 233, "aug": 7, "##ede": 164, "##nders": 75, "##rcy": 21, "bud": 10, "##omyc": 186, "##asmus": 50, "bur": 104, "##hol": 486, "##deria": 17, "##ucoma": 49, "angl": 66, "acg": 3, "glau": 19, "##beo": 5, "sim": 82, "##plic": 56, "##sated": 55, "##ocyt": 396, "oag": 52, "gn": 369, "iga": 92, "ig": 1204, "mgn": 3, "##rl": 412, "##neph": 188, "fgs": 2, "smoo": 5, "##hica": 171, "isl": 25, "ared": 45, "gly": 279, "gie": 95, "iis": 13, "amd": 19, "exo": 91, "##ylase": 617, "##rase": 2391, "gaa": 5, "##rbe": 44, "##xtr": 136, "agl": 61, "gde": 4, "iv": 1126, "##erse": 112, "gbe": 9, "mca": 25, "##rdle": 30, "schmi": 11, "pea": 56, "##ok": 336, "##inase": 1248, "pfk": 3, "tau": 52, "goa": 27, "##egaly": 506, "appl": 17, "ster": 651, "##cic": 393, "ros": 1048, "##blatt": 19, "swye": 3, "rsal": 259, "##aic": 52, "gon": 176, "##ccal": 326, "gc": 68, "ure": 970, "##ccus": 236, "##sser": 58, "gos": 121, "vs": 103, "##rsu": 31, "gvh": 8, "##uinal": 32, "don": 316, "##reum": 17, "pud": 9, "##endal": 9, "##vani": 18, "cgd": 3, "##ow": 775, "##dows": 18, "##jani": 4, "##enouw": 9, "##llain": 13, "gbs": 3, "##resia": 27, "##astia": 132, "##nae": 481, "##coma": 243, "gac": 19, "hib": 47, "hal": 1006, "strei": 4, "oma": 3512, "hss": 9, "##alic": 513, "##rden": 69, "##nto": 404, "pka": 4, "nbia": 3, "##onal": 1531, "##rmia": 673, "ves": 364, "xa": 357, "##nups": 5, "try": 159, "##phan": 176, "##rola": 73, "hnd": 6, "##len": 425, "sea": 146, "##odic": 94, "##fever": 17, "##late": 873, "##equ": 100, "pd": 280, "sn": 286, "##hl": 470, "##fn": 79, "snd": 15, "son": 1070, "##nso": 110, "##orn": 302, "##stol": 65, "##ysto": 105, "##till": 40, "##sted": 147, "##ages": 132, "trou": 15, "##lures": 12, "wea": 44, "hf": 101, "chf": 7, "ccf": 11, "##nf": 432, "##wd": 31, "##riosi": 61, "chai": 7, "##klin": 45, "##nkl": 22, "##vy": 68, "igg": 24, "##berde": 5, "##dens": 104, "hel": 228, "##minth": 20, "##lm": 510, "hosis": 455, "##atit": 120, "##ginal": 170, "##coele": 222, "##ctu": 109, "##ssa": 123, "##rasia": 17, "##opo": 246, "##ietic": 233, "##pin": 624, "##lp": 419, "##inx": 115, "##opsia": 220, "##icr": 273, "##ania": 146, "hag": 313, "##bilia": 66, "##obi": 220, "##bil": 249, "##emat": 265, "troi": 21, "##sier": 46, "chau": 25, "##usen": 77, "##lbaum": 8, "##kle": 156, "##nh": 196, "##ausen": 50, "##baum": 45, "##erl": 158, "oad": 116, "hpf": 5, "hies": 1981, "hus": 330, "ahg": 3, "##luen": 36, "##zae": 49, "horax": 279, "##heses": 59, "ah": 269, "bue": 13, "##jos": 15, "##pid": 413, "emic": 2628, "gri": 66, "arg": 145, "cch": 59, "fev": 18, "dhf": 5, "##apore": 5, "thai": 3, "##land": 224, "##oso": 170, "hfr": 12, "kh": 60, "hnn": 4, "mv": 40, "mur": 78, "##umala": 3, "omsk": 2, "oh": 419, "vhf": 2, "##anum": 157, "##ymp": 316, "##yst": 637, "##stad": 39, "##argy": 26, "vod": 11, "hv": 21, "##cific": 79, "hep": 167, "ih": 173, "hav": 38, "##olic": 687, "ich": 539, "pt": 990, "hcv": 2, "##seu": 398, "##mpell": 34, "##pell": 69, "##nni": 87, "wd": 31, "wnd": 3, "hrf": 4, "erase": 2018, "##bitor": 20, "ban": 115, "##nist": 46, "mol": 232, "##ecu": 76, "ity": 2842, "##rag": 126, "##ier": 543, "##iq": 57, "iati": 98, "scia": 20, "throu": 4, "##turat": 16, "um": 8029, "##neal": 584, "##oden": 107, "##ojej": 11, "trei": 7, "scro": 28, "##gina": 108, "hsv": 2, "##igoid": 33, "##sters": 37, "##ilis": 190, "##pes": 236, "hip": 108, "cdh": 4, "##loca": 75, "ndr": 330, "##omic": 330, "##lvi": 67, "##nda": 140, "vhl": 2, "##spru": 11, "##ngs": 414, "##colon": 94, "mac": 315, "##olon": 152, "##ire": 210, "##ctal": 293, "##cki": 67, "hspr": 7, "##ungs": 52, "mini": 99, "bif": 24, "##urc": 24, "##ound": 142, "##utism": 38, "##uties": 7, "##utes": 31, "hir": 67, "##itism": 183, "lee": 59, "##erh": 55, "dor": 165, "lav": 85, "##ropic": 318, "wii": 12, "##hase": 29, "##eolum": 10, "stye": 4, "sty": 129, "##rnum": 31, "boi": 31, "##ards": 90, "clau": 11, "tru": 164, "##anan": 15, "##elin": 253, "blv": 2, "##nting": 120, "##tons": 96, "hc": 135, "hya": 50, "rds": 155, "hmd": 8, "sun": 26, "nph": 20, "##ates": 281, "##pis": 150, "##psis": 118, "rai": 119, "##ntum": 38, "##stick": 18, "sha": 102, "roo": 98, "ove": 306, "##nsi": 274, "ldl": 9, "##eptor": 72, "##dri": 143, "##ckson": 34, "##pop": 302, "##vid": 53, "##arum": 56, "##gest": 87, "hhn": 4, "hld": 12, "fc": 68, "iib": 37, "broa": 18, "##mna": 26, "##ipop": 97, "##opr": 290, "##ote": 352, "##eta": 545, "##igh": 148, "lon": 526, "##ht": 752, "##ight": 235, "##ght": 302, "##ontal": 122, "##ace": 470, "##ffe": 94, "##erman": 122, "caf": 18, "sk": 315, "que": 199, "scc": 10, "lab": 111, "fin": 156, "##dings": 25, "osis": 20559, "oxa": 149, "##luria": 135, "hpt": 12, "hpr": 16, "##actin": 91, "##som": 274, "big": 24, "bp": 95, "hbp": 3, "ht": 752, "htn": 9, "##rate": 765, "pht": 190, "##rich": 302, "elo": 307, "##ong": 282, "##cemia": 320, "##norm": 75, "ally": 954, "##tati": 283, "##aemic": 800, "oli": 933, "swea": 9, "hoea": 515, "##rease": 43, "onl": 20, "##remia": 362, "pth": 41, "##mones": 26, "##eti": 566, "##yon": 79, "ort": 534, "##tatic": 301, "upo": 19, "slee": 30, "ond": 647, "ml": 130, "icd": 9, "##hyo": 47, "icht": 54, "iph": 182, "ical": 1738, "adh": 62, "##artz": 17, "sia": 5597, "##prop": 115, "##nine": 395, "##rz": 73, "sul": 305, "##berge": 21, "##ntia": 380, "sie": 58, "ip": 1389, "##osus": 304, "##icus": 515, "wou": 9, "ibr": 303, "bh": 55, "pfe": 16, "##iffer": 28, "gf": 55, "##onc": 273, "##eosis": 215, "epst": 4, "##tow": 15, "##mmers": 22, "ility": 669, "##fest": 35, "ini": 580, "##inte": 272, "##nan": 207, "##ain": 603, "##omnia": 66, "dim": 73, "##sus": 602, "ivd": 4, "pid": 413, "piv": 10, "##rud": 33, "##rv": 280, "pee": 19, "##esias": 234, "##ride": 363, "obst": 59, "##ruct": 86, "ous": 6114, "isn": 9, "iasis": 3454, "iases": 895, "##oderm": 232, "itid": 234, "ita": 529, "ibs": 21, "##cks": 223, "##utz": 26, "##feldt": 26, "##feld": 72, "cjd": 15, "jcd": 3, "cj": 26, "nal": 5157, "##roi": 274, "##wsky": 65, "##urot": 25, "ioc": 117, "cln": 5, "jo": 139, "dj": 41, "##nical": 123, "ede": 164, "##ntu": 59, "##lous": 603, "##ially": 77, "nie": 97, "##onge": 56, "qt": 12, "##rdo": 36, "jt": 5, "##ticum": 247, "##gener": 98, "tria": 137, "kea": 10, "say": 31, "shy": 29, "ocs": 5, "plu": 25, "kss": 3, "saye": 2, "##gge": 43, "cpeo": 3, "mea": 48, "dri": 143, "##ritic": 232, "kcs": 6, "kc": 27, "##mop": 184, "unn": 38, "##atos": 295, "rei": 99, "dd": 456, "##tata": 102, "shu": 26, "##down": 44, "arf": 32, "esrd": 2, "crf": 4, "escr": 6, "esr": 3, "atn": 50, "##cyst": 336, "pkd": 24, "pck": 6, "##yce": 162, "kie": 56, "##bock": 42, "##nbo": 25, "##eck": 194, "kei": 15, "##nbock": 23, "lacia": 508, "##nky": 33, "stee": 9, "mk": 21, "mnk": 2, "kle": 156, "kl": 144, "##fel": 51, "xxy": 11, "kar": 67, "##yot": 62, "##ype": 1128, "##erous": 146, "fei": 27, "##llis": 176, "ullr": 3, "kfs": 5, "##brae": 57, "##aun": 43, "trna": 3, "##unay": 23, "kt": 44, "koe": 36, "##hlers": 14, "kr": 68, "xe": 177, "lakia": 123, "##eros": 231, "##isky": 4, "##opla": 189, "ku": 114, "kuf": 7, "##hio": 214, "##rkor": 17, "##ork": 49, "##ors": 330, "##hmin": 4, "kw": 33, "##ashi": 46, "##okor": 16, "ky": 449, "##asanu": 2, "kf": 22, "##atory": 662, "##yri": 212, "##yrint": 13, "##yr": 644, "arat": 87, "##rymal": 9, "lm": 510, "dai": 22, "eat": 283, "##heni": 54, "lgs": 4, "dew": 4, "##cara": 42, "ltb": 3, "##rence": 138, "moo": 21, "law": 16, "lec": 155, "##ithin": 37, "ansf": 132, "lca": 73, "lvf": 2, "outfl": 2, "ow": 775, "lcp": 5, "##orman": 17, "ll": 2964, "llo": 473, "##ione": 205, "lla": 1026, "##ires": 43, "##nella": 108, "lei": 133, "sne": 61, "ls": 1412, "##ish": 273, "##mania": 51, "mex": 9, "##icana": 9, "##ensis": 254, "esp": 78, "##undia": 10, "dum": 94, "##dwan": 4, "sir": 13, "##kari": 6, "##mdu": 11, "vl": 40, "sah": 15, "##lux": 50, "##igi": 134, "##nes": 1128, "len": 425, "##line": 1274, "bb": 165, "tt": 853, "pia": 698, "stu": 117, "##tga": 7, "lep": 213, "##pira": 65, "##tte": 272, "mud": 7, "##pir": 154, "##rca": 149, "ao": 158, "##iliac": 61, "##yez": 12, "ny": 710, "hgp": 4, "lns": 10, "hg": 45, "prt": 24, "##erer": 41, "lsd": 13, "les": 1464, "##emoid": 27, "##aemo": 124, "wbc": 3, "kra": 35, "gcl": 7, "##sine": 383, "krb": 2, "gld": 3, "##atid": 87, "##phat": 174, "ary": 2356, "scho": 47, "##gae": 32, "nij": 5, "##ssen": 93, "mld": 6, "pml": 6, "jc": 14, "##foc": 36, "##encep": 242, "##tina": 233, "pvl": 4, "##vent": 142, "##infe": 103, "vag": 107, "##ueur": 5, "pic": 784, "lp": 419, "lsa": 24, "lic": 2850, "##enoid": 83, "##dyst": 173, "##nid": 139, "mpsi": 15, "kee": 13, "##pples": 15, "urb": 36, "wie": 8, "##rical": 158, "##lung": 21, "mad": 54, "##elu": 19, "msl": 5, "##aude": 15, "##metri": 58, "lms": 40, "cic": 393, "gru": 23, "lpl": 4, "brg": 2, "grt": 4, "ias": 5526, "##legia": 292, "##legic": 176, "##ares": 85, "##aces": 72, "ld": 972, "##ology": 287, "lob": 355, "##stein": 225, "##ecta": 176, "##rda": 52, "scle": 219, "oi": 1223, "##hton": 13, "##litas": 34, "osc": 211, "hoe": 128, "##way": 85, "edd": 25, "loia": 3, "loai": 3, "loa": 83, "eyew": 2, "lqt": 2, "lor": 337, "sway": 3, "##back": 58, "##uate": 69, "##mba": 56, "##exes": 36, "lgl": 63, "##dwi": 11, "##dib": 77, "pathy": 4127, "airfl": 2, "ible": 228, "obstr": 30, "##lmo": 131, "ens": 1280, "lv": 292, "dle": 194, "cdl": 7, "##coid": 215, "##atus": 309, "chb": 6, "lut": 203, "##nsu": 95, "##stron": 71, "lcm": 6, "nic": 3808, "##holas": 4, "lgv": 2, "##mact": 17, "frei": 6, "hlh": 6, "##lute": 49, "##hs": 605, "mjd": 3, "##uese": 7, "nt": 7975, "cme": 5, "cmo": 2, "cym": 5, "mdd": 18, "myc": 273, "##etoma": 57, "mata": 219, "##ucci": 63, "cav": 66, "##ern": 347, "kas": 26, "##wski": 91, "##ctyly": 861, "iia": 43, "srt": 6, "##odi": 280, "##odia": 113, "##ttent": 40, "##udism": 8, "##roon": 8, "##sican": 9, "fal": 44, "##cip": 68, "mt": 175, "mtm": 6, "stm": 50, "##riae": 50, "bt": 56, "ser": 385, "##nin": 778, "##monal": 48, "##ched": 118, "##duria": 673, "msu": 12, "##box": 81, "oxo": 80, "##demia": 420, "gree": 23, "noc": 239, "##fava": 18, "pnh": 8, "##tural": 183, "##rfa": 26, "mfs": 10, "sjo": 8, "sj": 38, "##gren": 72, "##enic": 1933, "##rla": 36, "mss": 18, "##toid": 418, "##rati": 318, "##hyse": 86, "##num": 561, "##ndib": 56, "brue": 1, "##ghel": 5, "##asmas": 32, "##smas": 39, "mdm": 19, "##more": 35, "mrs": 21, "mie": 19, "mes": 306, "mro": 4, "##lni": 6, "nee": 60, "mns": 23, "melic": 489, "wax": 6, "##stos": 157, "mni": 46, "##nges": 95, "##occal": 270, "##eric": 851, "prae": 12, "pof": 37, "rog": 269, "rade": 89, "##urg": 196, "##yonic": 25, "ile": 737, "##oce": 371, "##ecal": 145, "##isti": 120, "md": 397, "##ement": 406, "ibe": 62, "iem": 18, "##imus": 59, "yok": 7, "##oga": 82, "##wai": 21, "mosis": 728, "mog": 101, "##lobin": 175, "mik": 10, "##ulicz": 13, "##kul": 8, "##iczs": 6, "##tulo": 28, "mio": 24, "pil": 222, "##lary": 800, "mvd": 3, "mr": 200, "##rlo": 33, "##rmu": 11, "sys": 56, "##tolic": 65, "mvp": 5, "lea": 194, "mix": 9, "ofd": 4, "odi": 280, "##cum": 720, "mc": 213, "##ruc": 135, "##usca": 13, "##hicle": 5, "nau": 42, "mot": 169, "##tling": 25, "moya": 21, "##oya": 46, "##icu": 625, "##yal": 81, "mcl": 12, "##saki": 29, "##cutan": 83, "kaw": 9, "##asaki": 14, "mln": 2, "kd": 105, "##lid": 201, "idu": 129, "##rona": 66, "##lf": 350, "##lfo": 50, "mpsii": 5, "gar": 109, "##ylism": 56, "ids": 529, "sid": 213, "##fili": 20, "##ppo": 79, "##ippo": 44, "ecc": 22, "entro": 35, "##rqu": 11, "##quios": 12, "##ford": 57, "aty": 26, "##pical": 114, "##hon": 321, "##dral": 79, "##turia": 222, "sua": 20, "##rez": 33, "##dylo": 122, "schei": 7, "##aux": 57, "amine": 1196, "ars": 288, "##lfa": 87, "##hate": 690, "##rales": 54, "mycos": 131, "mcd": 29, "mof": 7, "mso": 5, "##ior": 292, "##ples": 58, "##oti": 485, "pmd": 11, "##scu": 176, "##letal": 589, "orth": 89, "oped": 101, "mut": 64, "##eness": 242, "spea": 8, "erb": 78, "##flam": 70, "mg": 73, "mai": 35, "##ub": 666, "##opl": 282, "pplo": 2, "##verse": 55, "myia": 30, "fly": 62, "fli": 14, "##ggo": 3, "ack": 240, "ness": 1369, "##fica": 72, "myi": 16, "##tonic": 165, "tym": 39, "##panic": 46, "myx": 49, "nab": 39, "##othi": 39, "##bot": 88, "##hian": 35, "tse": 13, "nps": 5, "##ych": 178, "##eps": 150, "gel": 140, "##ineau": 12, "##inea": 71, "gli": 86, "##eau": 142, "##eptic": 191, "sl": 348, "##eep": 94, "##iness": 209, "posis": 176, "pns": 12, "##nasal": 360, "##rica": 243, "##rob": 172, "nld": 3, "avn": 7, "##toda": 28, "nem": 648, "stan": 89, "wals": 18, "##cm": 257, "##osit": 137, "nil": 173, "mcn": 8, "neg": 25, "nes": 1128, "##henia": 162, "##aber": 37, "nms": 10, "##neur": 470, "opt": 157, "om": 3974, "nmo": 6, "##cast": 27, "nn": 1336, "##tide": 550, "nyc": 108, "seei": 2, "##ardia": 208, "nto": 404, "noo": 12, "ehm": 22, "##weg": 13, "nut": 94, "##cker": 132, "##stal": 250, "onc": 273, "nys": 30, "##tag": 96, "##posi": 88, "##rbi": 108, "##ories": 32, "##ust": 157, "och": 439, "oht": 4, "##ony": 261, "iop": 134, "tico": 131, "##hla": 31, "ocr": 82, "##lom": 376, "otor": 173, "rd": 1543, "##ius": 371, "oo": 645, "uri": 806, "opc": 8, "umb": 97, "onch": 148, "oce": 371, "##ulosi": 70, "uve": 64, "##itide": 232, "##por": 379, "##nis": 420, "ois": 149, "##ised": 163, "oa": 1024, "iin": 11, "##muco": 98, "##ucous": 26, "orc": 80, "tes": 1130, "##icles": 61, "##ytis": 27, "##hiti": 57, "psi": 144, "##itt": 155, "orn": 302, "##acci": 66, "##ttaci": 5, "##cio": 154, "lin": 1996, "omy": 1665, "osg": 6, "sch": 543, "##latt": 38, "whe": 27, "djd": 2, "oas": 76, "tou": 153, "##aine": 276, "gol": 101, "pdp": 2, "##mberg": 39, "##pachy": 38, "hp": 119, "##sica": 43, "ocd": 6, "vro": 3, "oly": 537, "##aring": 108, "##ntr": 451, "imo": 87, "nae": 481, "stou": 6, "ostm": 27, "##ize": 101, "##siti": 227, "##oen": 184, "##nberg": 150, "##cture": 95, "nbe": 39, "##tui": 26, "##func": 67, "allrg": 2, "##rim": 234, "##idine": 605, "##acti": 252, "sis": 32116, "##nels": 14, "wt": 22, "pso": 62, "##hral": 138, "##diae": 25, "##rbo": 127, "ren": 663, "fem": 52, "nin": 778, "##minal": 293, "##lare": 185, "##tn": 248, "opa": 975, "##citi": 49, "oti": 485, "glue": 2, "ome": 976, "som": 274, "##ppu": 18, "ogic": 603, "og": 1454, "orl": 30, "excl": 8, "##yur": 17, "##aen": 59, "rant": 157, "ppp": 7, "##tulas": 12, "##fund": 24, "##aps": 124, "##rring": 76, "##llon": 36, "lef": 25, "pls": 16, "pap": 157, "phl": 106, "pata": 14, "##leb": 106, "##ovir": 210, "alm": 210, "##lian": 113, "##han": 491, "##egat": 27, "pbp": 4, "##pleg": 83, "ady": 72, "##namic": 93, "##lays": 9, "##lonus": 116, "pare": 106, "jam": 18, "##aica": 11, "tsp": 4, "##tate": 540, "##nias": 523, "##ncti": 111, "##uo": 187, "##hne": 27, "phoid": 89, "##yphi": 47, "##lete": 60, "##kins": 54, "##wy": 17, "##arily": 38, "##fold": 23, "##rian": 185, "##mbri": 12, "vt": 53, "##ycard": 19, "pas": 194, "ped": 361, "nit": 506, "phthi": 24, "##lge": 29, "hue": 27, "hut": 30, "ovo": 34, "##lay": 52, "pel": 171, "##agra": 52, "##mphi": 18, "pen": 399, "##llin": 354, "##illin": 206, "pcn": 4, "pey": 12, "##ronie": 19, "##yro": 243, "##nies": 44, "##uod": 49, "gdu": 2, "##api": 171, "##olar": 366, "kus": 17, "##smaul": 9, "##icar": 88, "phr": 229, "##nian": 217, "fmf": 3, "mef": 13, "##odo": 229, "##ntal": 879, "##ietal": 58, "##ertal": 51, "jp": 14, "jpd": 2, "##rle": 57, "pfc": 3, "pph": 8, "mpv": 5, "pet": 127, "##echia": 45, "peu": 15, "##ghe": 35, "pj": 6, "##hgers": 3, "pose": 52, "fls": 10, "ts": 2736, "##nju": 65, "##onj": 61, "pku": 5, "phle": 66, "##gma": 60, "phor": 144, "##tot": 141, "##oxic": 216, "##onse": 32, "##ridae": 534, "pie": 85, "##onid": 42, "##ygeal": 39, "##ifer": 117, "ccy": 18, "##ondi": 31, "##onema": 72, "##teum": 21, "##lexy": 28, "##rism": 313, "##yria": 347, "##ulata": 70, "##rgie": 14, "prp": 13, "##ffic": 32, "yers": 37, "##inia": 85, "##otide": 113, "##elle": 87, "##uris": 62, "##holm": 22, "##holms": 10, "dab": 10, "##ney": 106, "##ope": 472, "##rson": 130, "pci": 2, "##eumo": 148, "pk": 94, "##rgan": 77, "##anism": 76, "orgn": 4, "fog": 5, "oils": 10, "oil": 57, "##glut": 130, "##inin": 167, "##plsm": 4, "##sna": 39, "##ege": 97, "##ekte": 37, "outs": 19, "##mund": 16, "rts": 199, "##pson": 39, "ans": 1407, "rhu": 8, "##hiol": 46, "##yly": 1087, "##ila": 248, "##teral": 316, "##ctor": 179, "hei": 123, "##yen": 19, "##burg": 112, "lev": 81, "##enth": 58, "stic": 1687, "pco": 3, "usu": 22, "ciny": 16, "pmr": 28, "pom": 144, "##lyx": 127, "##idria": 9, "dria": 72, "##mura": 59, "por": 379, "##ioid": 104, "phn": 8, "##zos": 27, "##ebiti": 30, "pot": 148, "##assi": 57, "pow": 8, "##assan": 8, "una": 53, "##gned": 23, "pra": 195, "##bha": 12, "pws": 3, "##ocity": 27, "##licat": 51, "##irth": 53, "##erp": 235, "ction": 1225, "pac": 101, "apc": 11, "##tole": 76, "##pics": 11, "sve": 9, "pms": 5, "##tibi": 38, "##apism": 13, "ere": 704, "hul": 14, "##sey": 19, "##mnia": 77, "cep": 538, "rpc": 6, "rpo": 52, "##tch": 244, "##inson": 87, "##ward": 81, "##stat": 151, "##seni": 26, "##rabi": 26, "##gani": 28, "##othe": 80, "##oos": 88, "pbs": 3, "egb": 2, "eagl": 3, "obr": 50, "##sky": 208, "psue": 4, "iiia": 13, "##ioma": 324, "##brig": 11, "##seudo": 392, "##right": 49, "auj": 7, "##zky": 14, "##eszky": 10, "##our": 310, "nne": 179, "bih": 2, "iih": 12, "##cran": 133, "px": 41, "##riasi": 82, "##gium": 44, "##ygia": 25, "pub": 39, "##ertas": 14, "true": 8, "##ags": 30, "##iekte": 32, "##agz": 2, "jag": 6, "##kte": 42, "##omas": 660, "andr": 51, "##ws": 264, "##trat": 93, "ipf": 7, "##mona": 88, "##onic": 849, "pvd": 9, "pvs": 2, "##nst": 174, "##trm": 23, "##lein": 98, "##nlein": 36, "hsp": 17, "nlei": 9, "##chc": 12, "##owitz": 68, "##kow": 54, "ttp": 2, "##witz": 86, "##eliti": 46, "xgp": 3, "##utis": 29, "##metra": 132, "##omet": 123, "##osal": 123, "pinx": 88, "pin": 624, "##urete": 55, "##vate": 227, "pc": 164, "pdh": 8, "##etii": 5, "##toir": 7, "qu": 430, "##peci": 38, "hub": 3, "rad": 301, "##etin": 321, "##rhill": 5, "##bite": 40, "##auds": 41, "##anosi": 35, "rp": 725, "prca": 3, "##ndant": 24, "rsd": 13, "rnd": 15, "##fsu": 8, "##ctica": 18, "##anic": 198, "thie": 149, "##baut": 9, "##edo": 125, "##xia": 439, "rs": 4037, "ular": 4827, "##roy": 33, "ras": 498, "rf": 320, "rod": 349, "tub": 143, "ridae": 534, "reo": 92, "cum": 720, "rep": 159, "rsi": 133, "hx": 8, "wet": 10, "irds": 11, "sur": 128, "##fact": 56, "ards": 90, "##tnam": 7, "##ytial": 15, "rsv": 2, "rti": 430, "ekb": 2, "##maa": 13, "rls": 27, "rao": 37, "##tac": 152, "##hment": 93, "##ents": 464, "##ached": 32, "blee": 13, "arn": 84, "rol": 974, "rlf": 7, "rop": 1205, "orm": 1247, "##ful": 152, "rtt": 8, "reye": 6, "iz": 334, "##dies": 65, "rhf": 3, "rhd": 4, "rheu": 36, "hrt": 8, "##rhs": 7, "##nnial": 10, "##sonal": 45, "vm": 37, "##inop": 171, "##hyma": 73, "##beri": 33, "rb": 514, "##fvd": 3, "etc": 27, "kew": 6, "rvf": 2, "rin": 1729, "##pest": 46, "rna": 156, "##cky": 38, "sao": 4, "pau": 30, "##hada": 5, "##quial": 5, "##ttsia": 43, "##tsi": 36, "##culos": 83, "rms": 124, "##ceas": 6, "##llas": 33, "rub": 88, "tay": 18, "thu": 34, "##llu": 115, "##ldi": 39, "##lol": 375, "##iths": 98, "ses": 6370, "ovi": 231, "##hoff": 55, "gm": 304, "jat": 6, "##zke": 10, "##ffs": 45, "boe": 41, "scha": 39, "##umann": 28, "##ptes": 72, "var": 233, "bee": 25, "##atina": 63, "kyp": 18, "##hoses": 66, "##uer": 159, "##oles": 197, "hos": 505, "bil": 249, "##harzi": 21, "##yama": 42, "##isto": 83, "snai": 3, "##ponic": 4, "##poni": 17, "##onii": 22, "sja": 3, "sci": 154, "##mitar": 12, "adu": 35, "##lto": 27, "##lero": 177, "pss": 6, "ssc": 16, "##lios": 56, "scre": 18, "##fula": 13, "scr": 107, "##ofu": 54, "scru": 6, "tsu": 39, "##gam": 107, "##ushi": 62, "##tran": 350, "scu": 176, "##vies": 14, "##thesi": 130, "mer": 460, "seb": 42, "##aceo": 19, "##rheic": 46, "##eic": 186, "##heic": 54, "sbd": 4, "##rrhe": 108, "std": 12, "##utory": 5, "vd": 107, "vds": 3, "gut": 19, "##ectio": 94, "sbs": 3, "sgs": 4, "##wartz": 14, "##wart": 36, "pty": 38, "##alism": 319, "sm": 6146, "##lding": 63, "hou": 59, "sss": 15, "##oat": 121, "rbc": 3, "##lati": 240, "##ders": 198, "##icos": 75, "##tain": 111, "##icot": 39, "##bis": 75, "fao": 3, "din": 576, "##egren": 8, "##ehyde": 115, "sls": 7, "nad": 93, "ages": 132, "##ndage": 21, "apn": 35, "sas": 68, "##athi": 316, "asl": 17, "##olas": 73, "ord": 225, "##nam": 136, "##buli": 126, "##king": 462, "##walk": 27, "##lki": 26, "##ganum": 5, "##laa": 5, "##nalis": 170, "sphe": 53, "slu": 19, "##luric": 20, "min": 1342, "hs": 605, "mp": 1202, "##roch": 97, "##enism": 151, "bec": 59, "##hte": 44, "##rew": 69, "bek": 2, "##htere": 6, "##atio": 1133, "seal": 795, "spl": 241, "##mpa": 129, "##hrix": 98, "beu": 6, "##rmann": 190, "aur": 143, "##borne": 40, "##very": 37, "##atiti": 98, "##urus": 44, "##epha": 473, "##nur": 236, "exu": 50, "##dati": 60, "##vum": 79, "dil": 102, "##ende": 55, "##hnous": 4, "squ": 48, "##inti": 24, "##ropia": 241, "##dent": 272, "##nts": 823, "##fined": 25, "##ctic": 173, "##ngyl": 67, "##ylus": 219, "kal": 76, "neous": 776, "##bital": 229, "##amic": 257, "##rmer": 30, "sws": 6, "daw": 2, "sspe": 3, "##gaert": 8, "bod": 28, "##echt": 35, "ive": 4752, "##vian": 58, "stea": 61, "##ungu": 22, "##colo": 108, "une": 248, "##xp": 96, "##ected": 78, "##peri": 555, "##osed": 112, "##nfe": 116, "##erior": 143, "svc": 3, "val": 427, "##clear": 188, "olsz": 2, "##ewski": 37, "psp": 5, "eccr": 3, "gus": 311, "##tato": 36, "svd": 4, "##amus": 70, "##ilid": 12, "lue": 59, "ree": 104, "##trant": 32, "bou": 47, "##veret": 4, "svt": 6, "tak": 30, "##ayasu": 14, "##aya": 52, "##sele": 19, "##orel": 20, "young": 3, "cta": 357, "rae": 225, "ter": 3016, "##nosi": 294, "##ette": 73, "tgd": 3, "tts": 83, "ankl": 11, "tsd": 7, "osl": 13, "hht": 15, "##nym": 9, "dc": 232, "tel": 277, "orw": 8, "##agic": 334, "gca": 9, "##shold": 24, "noi": 101, "tmj": 3, "tm": 153, "##mpo": 75, "##sfu": 28, "sna": 39, "##pping": 128, "##pds": 23, "##ndo": 309, "##init": 88, "elb": 24, "##meral": 186, "tides": 2178, "tf": 46, "ais": 69, "##ensit": 76, "##vty": 17, "##acic": 277, "tos": 970, "##zs": 49, "##plt": 19, "gt": 69, "##rgers": 39, "tao": 4, "tosis": 4762, "ide": 3743, "essn": 12, "##vain": 31, "tie": 133, "##riax": 10, "dot": 121, "##unda": 27, "##rba": 89, "cina": 85, "athl": 11, "##letes": 8, "tp": 151, "ung": 155, "ui": 374, "##rfu": 29, "tv": 117, "tin": 2031, "##nitus": 12, "##zzi": 42, "##toms": 21, "tog": 109, "##aviru": 48, "##sured": 21, "##suri": 36, "pli": 111, "##atas": 124, "##cated": 117, "##owed": 51, "##sting": 152, "tdp": 11, "##saud": 10, "##ulsiv": 18, "gts": 6, "##heal": 165, "##rowed": 16, "##homa": 202, "egy": 3, "##ptian": 8, "##ynian": 10, "##emal": 32, "##hom": 239, "fluo": 41, "uro": 536, "##illar": 193, "axi": 121, "##nui": 8, "pax": 3, "##iur": 51, "worm": 178, "##iuria": 115, "##gill": 51, "##ux": 240, "##ocal": 184, "tn": 248, "##oure": 50, "##eux": 61, "##leur": 60, "gam": 107, "##mbi": 95, "rho": 124, "##iense": 69, "##desi": 23, "##zza": 22, "tbc": 6, "mtb": 7, "tbm": 2, "##isis": 347, "ptb": 6, "rtb": 11, "##vari": 114, "##bbi": 22, "pah": 18, "##vant": 4, "##sel": 107, "yat": 23, "##obyo": 4, "tul": 98, "xo": 246, "typ": 90, "##hoids": 46, "##oty": 56, "##phus": 39, "flea": 9, "tab": 141, "##ardi": 390, "jai": 2, "hil": 352, "##bran": 95, "##inar": 90, "##hani": 18, "##panum": 76, "##ject": 33, "fum": 24, "urt": 62, "ssed": 146, "gsi": 4, "uti": 132, "##tula": 52, "##yana": 9, "vkh": 2, "vk": 5, "##otid": 105, "hee": 45, "##rfo": 31, "##roe": 96, "uliti": 98, "vac": 56, "##nosa": 125, "##ants": 170, "pam": 221, "##sity": 183, "vvs": 2, "vv": 4, "##rens": 85, "vagal": 23, "##opes": 34, "vp": 27, "##arito": 8, "##xys": 26, "vf": 26, "thmia": 162, "vta": 2, "##rua": 15, "##lr": 154, "vur": 2, "emas": 130, "##brio": 44, "vid": 53, "vh": 35, "##gg": 182, "vir": 459, "vsc": 4, "##shed": 96, "##ligo": 83, "vcp": 4, "##nati": 134, "##nki": 33, "kno": 40, "##nds": 234, "jur": 7, "##gens": 83, "jrg": 8, "vwd": 7, "rag": 126, "rge": 244, "##lvo": 15, "##eaux": 29, "##house": 52, "ful": 152, "##minan": 28, "##piro": 65, "hmn": 23, "wh": 108, "ws": 264, "wr": 51, "##nick": 48, "gaye": 2, "wn": 226, "##nium": 328, "##ussis": 21, "##usse": 24, "who": 12, "##oping": 51, "wc": 19, "##vulsi": 20, "##sko": 14, "aldr": 6, "imd": 13, "wis": 36, "##slers": 16, "##epsis": 46, "##ergic": 217, "wpw": 3, "dmo": 5, "##quard": 15, "did": 83, "##moad": 9, "wfs": 2, "##erol": 419, "lal": 94, "##somal": 232, "##olase": 370, "xan": 86, "##thoma": 85, "##atum": 325, "yell": 18, "##halm": 148, "##tomia": 88, "##stom": 212, "apt": 63, "##yali": 23, "##lias": 243, "yaws": 2, "yaw": 4, "bub": 15, "##nue": 17, "yf": 7, "ye": 502, "ze": 417, "##weger": 16, "zel": 39, "zol": 111, "##noma": 248, "zoo": 63, "zy": 125, "aivr": 4, "##nans": 28, "dde": 32, "ebd": 3, "##odion": 15, "cmd": 57, "##uis": 75, "eba": 186, "aq": 64, "##sita": 33, "deb": 31, "##wli": 6, "ebsd": 2, "ebs": 44, "##leth": 28, "gab": 21, "rde": 101, "ebr": 254, "##acter": 302, "##dla": 14, "hps": 3, "##gator": 10, "xli": 4, "sts": 196, "klei": 7, "##enb": 72, "##lock": 94, "##litzs": 8, "jeb": 2, "##ancy": 112, "polio": 51, "ppm": 4, "tet": 109, "##hered": 45, "##raph": 68, "##hism": 305, "##heri": 61, "ebss": 3, "smea": 3, "##ulom": 92, "paa": 2, "afn": 9, "fun": 117, "ohs": 5, "mnd": 17, "bcp": 2, "hh": 114, "bhr": 3, "##enzym": 17, "sly": 118, "##dn": 161, "##erob": 37, "bv": 28, "nsv": 5, "ems": 55, "gdm": 5, "bse": 30, "caa": 8, "psoa": 4, "##psoas": 12, "##phago": 75, "aos": 13, "sla": 40, "##ythem": 46, "aps": 124, "##spho": 179, "##rso": 78, "moe": 52, "wol": 37, "sps": 20, "eric": 851, "fip": 2, "cil": 236, "##hora": 176, "dcl": 12, "##opian": 30, "##stis": 176, "##oplas": 194, "##umeni": 15, "sus": 602, "lfs": 13, "##iliar": 30, "sbl": 10, "##ida": 694, "##ratia": 12, "eh": 202, "ehr": 26, "##lichi": 8, "poe": 32, "tsuki": 5, "##pora": 148, "cn": 178, "pga": 15, "lloy": 2, "adpkd": 2, "kpa": 7, "adpk": 3, "kid": 16, "equ": 100, "bm": 92, "##inua": 17, "##jew": 11, "##nikov": 25, "##zh": 18, "##nikow": 19, "##vni": 5, "kov": 53, "##zhev": 3, "##nikof": 7, "arpkd": 3, "ipk": 3, "pkh": 2, "nag": 50, "##ying": 232, "gap": 21, "eht": 2, "rob": 172, "rt": 2362, "##egia": 340, "fl": 632, "floa": 4, "##rce": 41, "##ived": 21, "num": 561, "##mular": 8, "##chol": 316, "ony": 261, "hl": 470, "##ulous": 228, "cg": 63, "cpn": 5, "##hose": 46, "##aque": 45, "##veo": 57, "##eoa": 56, "ual": 591, "uip": 4, "jan": 24, "##bon": 136, "##zzard": 19, "##aker": 87, "ape": 112, "##dt": 299, "##idts": 5, "##illau": 5, "##uds": 53, "##dge": 93, "##rigar": 12, "##nwo": 6, "##ead": 148, "legia": 292, "##hdad": 4, "leo": 98, "##ntic": 202, "iiib": 11, "iiic": 8, "iiid": 7, "iva": 357, "##nase": 1875, "ivb": 3, "lan": 697, "##teine": 329, "pch": 18, "mjau": 2, "pf": 126, "##aund": 11, "##yli": 120, "ihs": 8, "##oyle": 7, "##isa": 166, "##enus": 33, "##ziger": 10, "jra": 4, "##dian": 129, "##sep": 107, "cph": 21, "lit": 792, "ebv": 11, "die": 118, "lvh": 2, "lrti": 2, "##cem": 133, "##aneal": 73, "##lison": 22, "##mical": 98, "##synov": 32, "dvt": 6, "##idymo": 14, "##idym": 22, "scf": 5, "##rmos": 19, "##ghb": 7, "##ulide": 23, "hhm": 3, "hum": 102, "lsc": 14, "##ified": 230, "cps": 20, "awa": 81, "bic": 215, "##ipit": 27, "##epit": 60, "shou": 6, "##ptom": 58, "gtp": 5, "##pse": 474, "##opin": 184, "##ogl": 300, "##ossal": 76, "##ssion": 364, "pvc": 6, "veb": 3, "ihd": 2, "rsl": 14, "##ptu": 31, "##ded": 332, "##oste": 480, "phaly": 742, "phal": 507, "incr": 15, "##vated": 77, "##ctiv": 231, "ou": 1477, "rent": 188, "##ril": 328, "##icum": 509, "##neck": 25, "##nulo": 96, "##cocc": 176, "infc": 3, "##gios": 37, "##uch": 158, "sag": 25, "##chus": 123, "##thio": 112, "##pica": 85, "##opica": 48, "pps": 19, "lig": 166, "##ament": 52, "##cco": 87, "##rheum": 41, "km": 39, "##mell": 50, "##euil": 10, "##ctomy": 405, "##lular": 139, "edw": 10, "##agm": 67, "dre": 136, "han": 491, "##dler": 104, "##orker": 53, "wel": 61, "##ander": 101, "ber": 556, "##nhar": 27, "##hetic": 311, "##nham": 13, "##hams": 23, "lh": 114, "##ermi": 159, "##nucl": 89, "##opht": 139, "lt": 760, "##loss": 76, "##tonus": 50, "tol": 475, "##tters": 62, "vth": 5, "xth": 13, "##venth": 25, "xit": 23, "##ssal": 92, "##vat": 121, "##ylop": 22, "tot": 141, "ati": 2127, "hyo": 47, "altr": 5, "##opho": 158, "##brain": 45, "##bism": 41, "##xatio": 16, "ln": 117, "lid": 201, "##dile": 15, "##phora": 55, "##ales": 240, "##flow": 34, "abc": 12, "##natum": 63, "##esi": 597, "##culum": 92, "##gni": 58, "cata": 109, "##enta": 300, "cgn": 4, "##lone": 432, "##berry": 29, "gb": 46, "kay": 29, "##isher": 24, "##kor": 56, "bx": 11, "nd": 2843, "##dyse": 39, "##umed": 20, "dx": 68, "##ltu": 9, "##irmed": 10, "prg": 6, "##thor": 154, "##clma": 5, "##rcl": 29, "crd": 28, "knee": 11, "##bcu": 10, "nod": 177, "unk": 28, "##ogy": 433, "way": 85, "mil": 163, "##dular": 279, "##phyl": 72, "##icem": 38, "##robe": 21, "##paral": 32, "vz": 3, "pes": 236, "gip": 5, "eee": 2, "##rra": 67, "mve": 2, "aus": 143, "##tral": 145, "##hrop": 135, "vrl": 5, "dlt": 9, "hpa": 13, "##isia": 69, "##syph": 36, "syp": 36, "##hilit": 12, "##sce": 132, "##tomat": 87, "##bulb": 42, "##ured": 133, "sem": 166, "##raia": 5, "##idas": 143, "##asive": 73, "cos": 533, "##sula": 20, "##psu": 32, "dub": 11, "##oisii": 4, "##ngit": 111, "boy": 11, "##lie": 112, "##ths": 183, "txc": 7, "ope": 472, "hyr": 221, "iat": 272, "##rogen": 155, "rie": 252, "woo": 33, "##agon": 50, "estr": 113, "oes": 155, "mod": 113, "rded": 45, "erg": 695, "##utr": 77, "vit": 263, "##ithi": 79, "cit": 199, "##rul": 119, "##gle": 110, "##abis": 26, "nba": 24, "clea": 59, "##pinal": 213, "deg": 61, "##ario": 59, "##tc": 317, "hmi": 60, "arms": 20, "##plga": 24, "upr": 91, "lmb": 2, "sde": 11, "cnv": 7, "##motr": 23, "##bos": 114, "##acral": 111, "##cral": 133, "uln": 17, "pop": 302, "##pthy": 20, "##icity": 264, "##crin": 55, "lux": 50, "##achm": 27, "##otal": 119, "##imit": 28, "##shoe": 20, "pdr": 12, "crv": 3, "##lest": 90, "##ving": 186, "iw": 13, "##sade": 24, "##elli": 224, "##xta": 23, "foc": 36, "apm": 10, "amp": 174, "##mpap": 7, "nvi": 19, "isis": 347, "##dual": 47, "opn": 39, "##droma": 98, "aac": 13, "cna": 10, "##gme": 95, "seg": 36, "sular": 30, "##bca": 9, "phys": 191, "##eop": 117, "##pond": 167, "deu": 21, "##ute": 248, "dcb": 5, "##dness": 221, "##fusio": 34, "tan": 531, "cb": 92, "ult": 238, "##lyc": 288, "phly": 8, "##cten": 15, "ik": 223, "##stit": 87, "##nnu": 17, "ensi": 162, "##isi": 153, "##ento": 124, "##yros": 45, "bk": 10, "##wma": 10, "##lce": 82, "##nla": 22, "bib": 6, "haa": 21, "hesia": 836, "##ods": 81, "##hot": 177, "##amous": 138, "lup": 22, "stay": 3, "##ormo": 71, "##ebrum": 18, "##locat": 21, "drai": 6, "##nage": 33, "##mono": 146, "##gmo": 25, "dac": 179, "##imal": 145, "cnd": 7, "##ldo": 54, "##onit": 79, "atrph": 3, "##ways": 30, "##boma": 40, "aion": 5, "##ance": 517, "y": 42331, "##cies": 223, "sot": 37, "brw": 2, "##gence": 65, "##genc": 22, "##scler": 220, "fug": 10, "##orans": 24, "##alli": 102, "##erts": 74, "##tagms": 4, "##ibul": 103, "##nna": 84, "aer": 57, "eus": 462, "##tach": 63, "nsu": 95, "osa": 933, "##lpi": 54, "eust": 9, "##ntra": 230, "##bpe": 13, "eardr": 3, "##rana": 25, "##ccid": 65, "##nsclr": 5, "mob": 51, "##cles": 129, "actv": 2, "##tib": 102, "bpp": 4, "##xysma": 8, "##scri": 33, "##ativ": 198, "##poa": 79, "mh": 42, "stg": 7, "seq": 39, "##uent": 107, "##ropo": 96, "prio": 12, "##erio": 215, "abe": 95, "mbi": 95, "##oven": 41, "##block": 27, "lft": 7, "##cere": 221, "##yog": 39, "##lavi": 53, "iac": 454, "pvt": 5, "##rrhoi": 14, "bov": 22, "##sif": 46, "##akes": 19, "##atine": 67, "tur": 298, "##bina": 43, "##inat": 213, "##fp": 43, "whoo": 5, "##ols": 52, "##orter": 49, "##pick": 17, "cob": 72, "##igat": 9, "##room": 19, "##ppers": 24, "##pper": 44, "##prs": 23, "##fier": 36, "sau": 29, "pne": 191, "##umo": 198, "vap": 12, "liq": 19, "##odont": 134, "hmr": 7, "mcs": 10, "alch": 4, "##triti": 47, "spf": 8, "ddn": 2, "isi": 153, "lg": 460, "sml": 10, "pye": 38, "pyae": 4, "liv": 69, "##tme": 34, "cys": 284, "##led": 387, "agn": 78, "##fera": 143, "##raum": 44, "pyc": 8, "##oele": 251, "ova": 228, "##ution": 168, "##olu": 76, "##rink": 17, "##oral": 605, "##gally": 8, "##mpted": 10, "##iver": 106, "##via": 76, "pg": 76, "pue": 25, "sev": 22, "threa": 13, "fet": 44, "gai": 20, "##artum": 57, "eoc": 108, "cati": 151, "##rup": 97, "ges": 408, "lie": 112, "suc": 65, "##verte": 56, "##entat": 79, "##prese": 27, "##elvic": 205, "##pelv": 47, "##vert": 131, "##mpet": 21, "##sibly": 8, "##pect": 71, "dam": 71, "izat": 107, "##uter": 71, "rup": 97, "##post": 334, "inate": 399, "##ngl": 101, "ement": 406, "##ngle": 54, "##abor": 46, "maj": 19, "##ernal": 152, "vb": 20, "##rone": 506, "##lya": 48, "##noa": 79, "##rthr": 229, "##ulum": 137, "##onod": 31, "mth": 13, "##ondyl": 165, "##astru": 4, "schmo": 5, "##orls": 11, "##osac": 32, "ref": 80, "##wau": 1, "##erin": 534, "##aneus": 31, "##spur": 17, "##gered": 15, "oft": 30, "led": 387, "##uspid": 70, "pld": 5, "may": 14, "##rela": 39, "##edu": 68, "##xio": 12, "via": 76, "nox": 52, "##atu": 221, "##rity": 199, "tac": 152, "ttn": 15, "##lving": 32, "##mega": 161, "##enit": 160, "##acus": 28, "jau": 11, "##gat": 79, "##calc": 180, "##mag": 121, "aop": 16, "##ature": 174, "trn": 17, "impl": 35, "dev": 78, "##well": 53, "##heter": 62, "indw": 2, "inflm": 2, "dur": 140, "ndi": 291, "aga": 145, "ida": 694, "fer": 494, "##lamm": 43, "chri": 18, "##hid": 94, "cst": 3, "hed": 291, "ectd": 4, "##hydro": 342, "hydr": 433, "xlh": 4, "xhe": 2, "eda": 93, "hid": 94, "##uston": 13, "cgc": 2, "##fed": 34, "nou": 149, "##myco": 183, "ivy": 3, "ivi": 134, "frey": 5, "etic": 1349, "gun": 14, "##thers": 25, "cpo": 4, "cpr": 5, "hcp": 2, "cpx": 5, "##egate": 36, "##ega": 221, "ppo": 79, "##lass": 112, "##clas": 63, "aka": 65, "##this": 41, "alf": 40, "fh": 77, "aip": 10, "pct": 8, "chp": 5, "##gnu": 3, "epp": 26, "##kis": 70, "##idia": 202, "##lida": 59, "##dida": 39, "##rida": 115, "##lman": 130, "ppe": 120, "pup": 25, "##like": 78, "##urida": 18, "##ocon": 74, "##hara": 65, "grae": 6, "peo": 21, "rvh": 4, "rv": 280, "##lmann": 52, "##osm": 54, "##lmans": 27, "hha": 8, "olf": 71, "##ented": 159, "sig": 81, "##nif": 57, "##oux": 22, "pun": 32, "##ctate": 77, "ppk": 29, "plc": 14, "ase": 9746, "##thet": 78, "asa": 128, "pec": 141, "##uliar": 13, "joh": 18, "##anson": 55, "##mli": 12, "rut": 22, "##ledge": 13, "rsh": 31, "##lobar": 64, "fria": 7, "lps": 9, "sae": 90, "scs": 20, "aly": 1673, "aarsk": 4, "aar": 32, "##skog": 13, "grei": 4, "aas": 35, "fgd": 2, "##iams": 15, "elf": 23, "wms": 2, "##dii": 81, "tar": 365, "kb": 30, "##rk": 323, "##meri": 41, "##guus": 10, "aic": 52, "blou": 3, "bow": 47, "lrs": 8, "##urab": 7, "outc": 2, "hoa": 30, "##metr": 122, "gray": 8, "grey": 4, "##euro": 375, "##nl": 124, "##ocher": 22, "ahd": 14, "pnd": 7, "ahs": 13, "##iza": 116, "##bach": 97, "##flex": 95, "##pad": 40, "gpi": 6, "ffi": 44, "ild": 84, "xs": 85, "chley": 10, "##ridia": 104, "lss": 11, "lcs": 10, "olp": 30, "hes": 557, "loe": 51, "##fler": 23, "##ffle": 21, "##nning": 91, "##vans": 34, "##rand": 130, "##cyl": 186, "acy": 131, "pex": 19, "xf": 39, "##enos": 117, "##drug": 23, "##avi": 249, "oneal": 322, "noa": 79, "ark": 127, "pnm": 2, "daa": 5, "##phism": 181, "##cant": 112, "##rsus": 69, "bpe": 13, "ctyly": 861, "##foot": 74, "bfn": 3, "frie": 17, "oav": 3, "##ebral": 612, "##schl": 20, "kbg": 2, "nf": 432, "##axial": 121, "##zen": 67, "vcf": 2, "##nzyme": 41, "adm": 20, "##hyt": 133, "ctr": 90, "##tter": 234, "##etal": 935, "dtd": 6, "fry": 15, "fea": 16, "##tures": 116, "##xle": 4, "hmc": 2, "hpp": 7, "mcku": 3, "chh": 7, "btd": 2, "bio": 81, "##optic": 99, "npc": 3, "##asal": 500, "cfn": 3, "fg": 32, "oks": 18, "##ggia": 15, "##laret": 16, "##aquer": 7, "hol": 486, "##matos": 219, "##dine": 884, "lya": 48, "cth": 12, "chea": 20, "trh": 7, "mau": 19, "##oner": 22, "wed": 86, "##dell": 18, "##ulose": 150, "##hlm": 9, "##eier": 16, "##ardes": 4, "isr": 22, "mha": 5, "cyn": 2, "##aenia": 127, "##abach": 12, "kms": 3, "xla": 6, "tyr": 98, "##osine": 262, "agm": 67, "goo": 24, "##zell": 14, "xxx": 23, "##olt": 38, "pay": 3, "osm": 54, "##uolar": 34, "##yll": 45, "wdm": 3, "pmc": 2, "##burgs": 26, "##biu": 18, "mbs": 38, "put": 37, "alem": 28, "luy": 9, "##yces": 128, "##done": 201, "##dome": 57, "chei": 51, "##angia": 44, "##ruff": 12, "##acea": 100, "tto": 78, "ingr": 7, "eps": 150, "yel": 302, "yns": 19, "antr": 27, "pyl": 58, "##oric": 166, "ract": 193, "ance": 517, "ceal": 51, "##yx": 226, "##mmat": 46, "##enda": 26, "##retin": 202, "gns": 12, "##slen": 14, "##clit": 42, "##psin": 120, "aat": 11, "aad": 16, "##sona": 29, "ldd": 6, "jet": 4, "lag": 104, "##adian": 29, "##tla": 29, "##hange": 19, "ifi": 153, "anx": 10, "emo": 437, "nfk": 2, "diu": 87, "##dotic": 43, "emu": 13, "##lsion": 81, "##rche": 49, "##haus": 26, "##ctile": 66, "##oten": 41, "##bit": 185, "div": 53, "##ision": 68, "##nosia": 84, "##seiz": 11, "ptic": 453, "ali": 842, "##erve": 42, "aw": 186, "endi": 60, "##smia": 88, "sbo": 10, "##bat": 70, "ket": 208, "ace": 470, "azo": 153, "##temia": 271, "##taem": 18, "paf": 12, "##xym": 21, "##chym": 51, "##quine": 124, "##bstet": 14, "##namia": 25, "##alo": 470, "foa": 10, "##idual": 33, "lat": 682, "zn": 6, "##icil": 28, "##romic": 186, "##proic": 8, "fv": 13, "##nob": 56, "aid": 93, "gpd": 4, "##lexia": 107, "bot": 88, "##ulism": 62, "gee": 5, "##ave": 151, "##aves": 33, "##have": 14, "eun": 23, "##uchi": 46, "##ortic": 149, "bog": 7, "##orad": 35, "ibm": 9, "##apper": 4, "wra": 2, "fsh": 7, "##ouzy": 10, "hpc": 7, "##odica": 31, "##storp": 8, "##kpp": 22, "##phall": 7, "hok": 29, "##rulea": 11, "phre": 23, "##inum": 160, "tal": 4934, "rbi": 108, "pkn": 7, "##rnier": 21, "rvt": 5, "##itia": 42, "tec": 62, "yrsn": 3, "##tca": 17, "##geria": 79, "##ynia": 613, "##tyl": 330, "##quin": 117, "mm": 613, "cm": 257, "##ezius": 5, "job": 5, "##boils": 6, "bfh": 3, "##thane": 42, "##ycomb": 17, "hon": 321, "##ey": 714, "##bing": 98, "ili": 573, "##vil": 55, "##hydra": 71, "##inu": 264, "##fart": 14, "##ymia": 24, "nma": 9, "##kymia": 14, "squa": 33, "mccu": 7, "##hans": 50, "##hypo": 719, "##otent": 12, "##bma": 16, "armd": 8, "smd": 34, "aam": 14, "trea": 29, "##acher": 70, "tcs": 5, "mfd": 9, "zw": 9, "##ahlen": 5, "tco": 25, "lff": 13, "##ipr": 57, "ops": 148, "ocl": 93, "onus": 247, "opo": 246, "onia": 629, "hla": 31, "itp": 10, "##centa": 19, "veg": 22, "##utic": 85, "##peep": 13, "##pace": 31, "boo": 22, "cop": 175, "##ils": 191, "pvr": 7, "vrn": 3, "acter": 302, "env": 12, "##ogeni": 196, "emm": 18, "##onsia": 4, "##scens": 64, "##ssive": 266, "##gemi": 27, "mato": 668, "fln": 3, "xm": 9, "bei": 6, "ents": 464, "##agus": 210, "##face": 57, "##oning": 139, "armp": 3, "##ocks": 68, "##head": 65, "loi": 137, "moi": 67, "hot": 177, "ppi": 58, "##bbers": 4, "##ohe": 90, "##icide": 50, "##curia": 38, "##mycin": 259, "##hlor": 116, "##vos": 27, "flou": 2, "frui": 4, "##quer": 26, "tree": 10, "##lua": 17, "oak": 5, "##ilo": 151, "##rose": 165, "##conic": 53, "##gwe": 2, "##rosia": 6, "##ago": 178, "##metic": 78, "dye": 2, "infr": 25, "##light": 38, "ush": 111, "##ceus": 42, "caz": 4, "##enave": 5, "sel": 107, "##vagem": 4, "##dola": 17, "##fire": 8, "etn": 6, "aqu": 51, "agen": 116, "##upt": 81, "##gur": 40, "##rif": 88, "rez": 33, "kbne": 3, "##bne": 19, "##gata": 36, "##otti": 70, "##notti": 18, "##ulosa": 91, "stria": 62, "##laris": 467, "ostr": 82, "##etra": 236, "kp": 32, "##ging": 288, "gerot": 13, "##eaud": 22, "arnd": 2, "##cchi": 18, "toma": 907, "emati": 31, "kis": 70, "##tinum": 79, "eed": 95, "##alin": 114, "##izing": 265, "##ising": 166, "mora": 49, "tme": 34, "##icis": 50, "##menta": 111, "ule": 228, "##ryt": 219, "beri": 33, "##brows": 12, "ava": 124, "##etr": 334, "##rata": 90, "pod": 117, "##ergen": 38, "##chan": 76, "##nul": 156, "ochro": 64, "##asto": 138, "##rowin": 11, "##ichia": 88, "suf": 34, "##diens": 76, "##stb": 4, "igt": 4, "form": 776, "eggs": 5, "##hell": 38, "egg": 26, "##uet": 44, "##ychia": 235, "mue": 10, "##rcke": 6, "##rny": 16, "##amid": 149, "##nsor": 48, "##crack": 18, "##onyc": 100, "##dena": 34, "##bond": 15, "##zine": 730, "##hine": 218, "##ffin": 53, "##ichet": 5, "##rip": 168, "##iotic": 152, "pad": 40, "jd": 43, "##lets": 49, "##yh": 26, "##ounds": 26, "##xae": 24, "##chard": 29, "pip": 87, "##scus": 23, "##lunar": 5, "##aton": 61, "##atica": 136, "##xial": 158, "##vany": 4, "##rini": 52, "stie": 7, "##gall": 32, "##puf": 5, "spli": 13, "##ough": 115, "##pita": 41, "##ranon": 10, "shoe": 20, "hin": 545, "##rter": 190, "tyi": 3, "knu": 6, "##halt": 24, "##arsal": 149, "ijo": 2, "lio": 244, "##rpal": 76, "##carp": 59, "##aneu": 36, "##ilber": 9, "##wac": 11, "##hman": 83, "ium": 2484, "##dity": 65, "hr": 1389, "##ygo": 33, "##lgic": 64, "obt": 10, "##liac": 109, "##nwa": 14, "##ldt": 60, "##waldt": 11, "##gis": 53, "##reso": 22, "##lved": 33, "##anis": 68, "rgi": 147, "##acin": 213, "ptal": 96, "##leods": 11, "##olin": 227, "kao": 13, "##ndum": 25, "sme": 50, "##dmi": 25, "##ise": 218, "##ira": 188, "##icia": 27, "##meal": 7, "grai": 14, "##spray": 8, "##riers": 38, "##parus": 5, "eip": 10, "##tax": 44, "cui": 4, "##rasse": 6, "##tans": 119, "##blom": 8, "lia": 1856, "upw": 4, "##honia": 76, "##uctor": 25, "apr": 84, "axias": 29, "##roso": 43, "##alia": 208, "cul": 1077, "##nosus": 74, "##cen": 229, "ding": 618, "##tly": 215, "##pend": 60, "##call": 86, "##diac": 246, "##oal": 146, "##xoi": 4, "esc": 126, "##nck": 72, "##ebach": 12, "laf": 9, "##tze": 27, "##hna": 17, "##soid": 9, "##itea": 15, "scoo": 7, "ay": 524, "has": 80, "##alva": 28, "##pheno": 66, "ivc": 3, "ong": 282, "evo": 61, "##luti": 42, "##ndic": 64, "##warth": 14, "sol": 164, "##diers": 8, "##nca": 55, "##usive": 106, "cret": 70, "rapy": 105, "##brey": 10, "##laria": 109, "cac": 67, "chio": 82, "##halic": 350, "##omel": 113, "wv": 2, "wss": 4, "##hall": 82, "hyc": 33, "nls": 3, "mds": 23, "mdl": 8, "phs": 24, "war": 100, "ww": 6, "cod": 64, "roye": 4, "##stl": 43, "##mill": 42, "fss": 4, "##dfa": 18, "##nesia": 219, "##shall": 17, "wil": 59, "wan": 36, "##iculo": 161, "fav": 16, "##trum": 59, "##raphi": 47, "acial": 801, "prea": 13, "afd": 13, "##wne": 10, "ruv": 37, "##alca": 40, "opd": 12, "##wry": 13, "cls": 19, "##kler": 38, "poa": 79, "web": 16, "##ucti": 72, "##ufs": 10, "ffs": 45, "##fan": 148, "jeu": 5, "##hyx": 8, "##iant": 64, "knie": 3, "koz": 5, "##lowsk": 2, "##chior": 12, "dmc": 5, "##nny": 38, "acp": 6, "bgs": 3, "lri": 7, "lw": 18, "##ches": 201, "##phia": 405, "wy": 17, "##hau": 59, "meric": 80, "match": 13, "mmr": 10, "##ayan": 40, "##hre": 91, "moy": 23, "##ahan": 14, "oid": 3059, "##das": 217, "##sohn": 18, "tdo": 3, "tism": 568, "xte": 35, "hhi": 6, "##jeson": 8, "##sman": 53, "##hma": 70, "##drom": 101, "axe": 21, "##nfeld": 24, "##athia": 381, "##isms": 451, "lph": 140, "##dst": 26, "##cte": 239, "##amel": 59, "##dury": 4, "kun": 9, "##drat": 31, "##rcs": 15, "choa": 14, "hhs": 3, "##anto": 71, "##ntin": 132, "##toin": 106, "##dow": 62, "fhs": 4, "##arin": 180, "##marin": 28, "##rka": 32, "rtho": 45, "##chler": 11, "pks": 9, "##ffry": 5, "##nm": 80, "##caro": 61, "##asomy": 33, "xxxy": 4, "##loidy": 50, "##xop": 56, "##endo": 232, "bos": 114, "##rff": 41, "##ange": 123, "angi": 310, "nge": 388, "cya": 37, "##sure": 102, "##miss": 36, "##abi": 158, "pse": 474, "ekv": 2, "net": 170, "inata": 69, "ige": 124, "engm": 4, "dkc": 4, "##tko": 3, "hbi": 11, "dk": 45, "dsa": 11, "actnc": 2, "##tsis": 14, "spoo": 5, "ndn": 14, "pum": 8, "phrey": 8, "bap": 7, "bj": 17, "##orns": 15, "##tad": 60, "ptd": 4, "##oride": 58, "##folia": 33, "##sors": 19, "##sural": 24, "##zar": 37, "mcleo": 5, "rtd": 8, "##testi": 53, "trs": 9, "srx": 2, "tat": 544, "##off": 150, "##sso": 112, "##onem": 76, "##erti": 101, "soy": 14, "soya": 2, "sero": 44, "##focal": 50, "##atile": 14, "##nfi": 34, "##ned": 678, "##vita": 57, "ipi": 155, "##roxi": 49, "abr": 49, "##rice": 80, "mme": 105, "##radi": 183, "##sial": 132, "##raxia": 49, "strum": 28, "##dylar": 73, "lial": 346, "god": 35, "##win": 92, "##yrat": 19, "awn": 7, "##ulsio": 16, "bae": 33, "##lz": 59, "##amon": 24, "##nated": 141, "##hause": 16, "##enber": 24, "##tzki": 11, "sr": 139, "##cyc": 120, "nsai": 2, "ceg": 2, "##nji": 12, "gd": 97, "##tobe": 7, "##zoar": 81, "##ball": 48, "rum": 588, "##ware": 14, "ris": 1271, "bloa": 6, "##masal": 8, "##masul": 8, "asum": 5, "##oar": 208, "lda": 5, "rda": 52, "##loric": 41, "##nogen": 298, "jun": 104, "##tve": 44, "box": 81, "##nter": 501, "##iditi": 61, "soa": 20, "##artic": 68, "piu": 10, "##lachs": 4, "##pani": 35, "##hli": 32, "cec": 26, "##oceca": 5, "##ocol": 81, "##njis": 5, "##inel": 28, "tag": 96, "kni": 10, "##tosi": 498, "##obe": 95, "floo": 4, "cloa": 6, "##mbli": 15, "fec": 148, "##alith": 26, "##eco": 139, "##iaque": 10, "heu": 56, "eld": 206, "raw": 30, "hco": 4, "hia": 1630, "minal": 293, "##hepa": 149, "##omyo": 106, "##gran": 134, "saw": 24, "##dust": 13, "##zonal": 6, "clh": 5, "##iss": 182, "##lc": 506, "##zzis": 5, "asch": 11, "##field": 34, "had": 61, "##erly": 46, "##xing": 22, "ition": 494, "kz": 2, "long": 57, "##atop": 106, "##ality": 288, "schro": 16, "##eder": 39, "##ips": 58, "mck": 14, "##rick": 100, "##ock": 295, "bon": 136, "iag": 22, "##ylate": 174, "##hyde": 145, "##anol": 97, "nh": 196, "jh": 4, "hfe": 4, "icc": 30, "##etica": 109, "##hac": 56, "hrh": 7, "##egm": 54, "##iller": 42, "xd": 37, "cof": 19, "##actor": 47, "##lfi": 35, "aprt": 2, "##nyl": 411, "nuc": 103, "##side": 323, "np": 153, "##ryl": 406, "pnp": 5, "adsl": 2, "opr": 290, "omp": 218, "##ylic": 241, "ump": 83, "umps": 22, "otic": 2138, "odc": 11, "xp": 96, "xpa": 15, "xpb": 2, "xpd": 9, "xph": 2, "xpg": 3, "viiia": 2, "phk": 2, "utp": 4, "##mera": 66, "##ylyl": 12, "ud": 864, "##gluco": 107, "##xose": 36, "kin": 421, "xyl": 90, "##oxyl": 64, "##arate": 93, "agt": 6, "cld": 12, "ogeni": 196, "gg": 182, "##halas": 40, "lad": 101, "##amide": 775, "dpn": 3, "dld": 9, "pep": 69, "agu": 78, "gsl": 2, "ppc": 13, "ngb": 4, "cds": 20, "dcs": 6, "oxi": 251, "##pase": 136, "nian": 217, "##tue": 13, "uz": 47, "frb": 8, "sap": 39, "##apb": 15, "aust": 20, "msd": 15, "##ymes": 28, "##ienc": 59, "##uori": 31, "##avo": 28, "cyp": 21, "pcb": 6, "fhha": 3, "##hyl": 319, "ksr": 2, "hsd": 8, "##ife": 120, "drey": 4, "##nsit": 92, "pfi": 11, "##genae": 22, "edscl": 2, "edsh": 2, "edsv": 5, "##rox": 226, "edsk": 2, "bcs": 7, "edsb": 3, "arcl": 7, "##rsy": 12, "##kx": 6, "clou": 11, "oia": 12, "oic": 108, "exis": 121, "##meth": 246, "will": 29, "##vina": 8, "cryo": 65, "##pyrin": 20, "mw": 6, "uda": 53, "hchwa": 2, "pca": 23, "##bulin": 267, "gk": 18, "atal": 307, "##ahara": 27, "alstr": 7, "##troms": 10, "alms": 7, "##troem": 12, "##wle": 10, "atl": 16, "okl": 2, "hit": 93, "##elman": 41, "##lmns": 7, "dine": 884, "qd": 9, "##anos": 84, "sep": 107, "srd": 12, "##nha": 65, "fah": 15, "oca": 425, "bad": 29, "##sson": 116, "aie": 4, "##anase": 46, "##anate": 41, "imi": 154, "##zole": 530, "##myl": 103, "##eine": 414, "##ransf": 132, "opl": 282, "hpi": 4, "dase": 1450, "hhh": 8, "oct": 51, "octd": 2, "otc": 14, "##nino": 24, "##cinic": 71, "##inem": 430, "##rof": 145, "##olate": 319, "sar": 135, "vrie": 6, "##vale": 44, "##onate": 377, "pcc": 9, "##aric": 205, "##aryl": 110, "fad": 13, "mcc": 28, "hmg": 5, "fig": 14, "thf": 4, "##onine": 112, "##lfu": 15, "hom": 239, "oast": 13, "ssa": 123, "##inuri": 153, "lpi": 54, "##tek": 5, "##xine": 100, "croo": 11, "##ked": 181, "mlle": 3, "##diol": 141, "vdd": 12, "vddra": 2, "fus": 131, "fic": 284, "##eased": 38, "ddd": 10, "##sent": 73, "anced": 56, "cis": 142, "ccn": 4, "lom": 376, "##rast": 53, "gbm": 9, "scri": 33, "##bloom": 9, "roy": 33, "##ocyst": 164, "##sical": 159, "##colic": 193, "##rusor": 8, "##tract": 69, "ske": 90, "##wpe": 3, "bul": 379, "##thral": 123, "##itary": 113, "##rrous": 17, "erent": 65, "##erno": 33, "##screw": 17, "##lasi": 215, "isth": 36, "##mica": 107, "erin": 534, "##plasi": 167, "##trix": 43, "point": 25, "strol": 113, "roma": 364, "##mmary": 53, "##eol": 82, "ewe": 14, "wk": 20, "inl": 13, "##ornis": 12, "adj": 7, "acent": 27, "##quo": 15, "ovu": 18, "dta": 7, "accr": 6, "##arean": 9, "road": 23, "##eas": 329, "##arian": 73, "cut": 122, "ized": 341, "##cey": 19, "##scoll": 8, "##tfn": 5, "idm": 6, "##alit": 128, "##ztod": 4, "##ittal": 12, "##inst": 36, "##poc": 122, "##dere": 28, "pem": 31, "##towe": 5, "##dli": 17, "bia": 223, "rud": 33, "##otte": 33, "foi": 5, "##uan": 65, "##tail": 18, "##rty": 73, "##cuo": 23, "##erger": 107, "dal": 1096, "ale": 437, "alx": 4, "##drd": 8, "##eil": 57, "##lpine": 12, "baum": 45, "##hnig": 14, "ish": 273, "bai": 15, "##dles": 55, "afg": 3, "##anger": 46, "##bles": 63, "keit": 10, "##tches": 43, "##ghing": 35, "##cond": 74, "eig": 74, "##cence": 72, "##ulsi": 47, "jme": 4, "ej": 61, "eme": 264, "eie": 22, "vil": 55, "klu": 5, "##pke": 14, "##umpke": 8, "##sack": 24, "cmta": 3, "##ffy": 23, "hmsni": 3, "##erian": 57, "opmd": 2, "##igne": 35, "dbr": 8, "##aigne": 17, "##vio": 36, "##core": 69, "##cing": 131, "amst": 10, "##erdam": 5, "quai": 2, "##rophi": 179, "shr": 11, "##unken": 11, "##ysi": 241, "netic": 215, "##hyal": 37, "##kness": 111, "##ysm": 181, "srn": 4, "eal": 3826, "horst": 29, "emd": 24, "##gardt": 15, "ffm": 10, "##vea": 36, "##grow": 25, "##ecto": 144, "##illae": 23, "##ueo": 2, "##direc": 16, "##gsky": 5, "##curi": 18, "irv": 3, "tug": 6, "##rely": 10, "##plo": 74, "##lopia": 68, "##mous": 225, "ire": 210, "##uke": 37, "hen": 440, "##yder": 28, "##aros": 17, "##vig": 16, "##neaud": 6, "##ucens": 12, "ative": 1413, "ivth": 2, "thn": 11, "##sses": 261, "cx": 19, "##rchi": 56, "##ivat": 45, "##hysis": 109, "cdn": 3, "##helix": 17, "aom": 3, "##anal": 132, "etd": 5, "##yemia": 15, "cing": 131, "##lier": 40, "##agari": 6, "baz": 14, "##zana": 4, "##dox": 42, "##lina": 118, "##monic": 99, "##usis": 149, "##adal": 52, "##sexu": 20, "##atin": 486, "tsh": 13, "##illo": 149, "ghd": 7, "ighd": 2, "##ropin": 153, "##lini": 53, "iad": 44, "##gial": 36, "##leri": 82, "iting": 68, "##leria": 25, "##hoid": 177, "mrd": 13, "unl": 8, "##inic": 240, "##ese": 247, "drp": 6, "anti": 234, "dun": 19, "##nigan": 8, "##rling": 59, "##bso": 33, "ptive": 232, "##ndial": 29, "lih": 8, "wom": 5, "ssion": 364, "##rimi": 39, "##grove": 15, "##dul": 137, "##itr": 152, "chn": 53, "hle": 151, "gdt": 3, "##reds": 5, "pds": 23, "tdh": 3, "##zide": 271, "##sant": 135, "##shek": 11, "rem": 218, "##inked": 19, "dhs": 13, "sd": 304, "hbd": 11, "##jab": 18, "##toxic": 160, "##chii": 10, "igm": 93, "##lymp": 202, "##xemia": 77, "##euk": 165, "vaa": 3, "##wach": 10, "##chman": 38, "sds": 29, "osk": 50, "##axis": 155, "idi": 526, "##eren": 61, "##rix": 169, "eos": 111, "enia": 1441, "fel": 51, "fhl": 3, "hpl": 5, "##lonal": 53, "two": 11, "igd": 6, "##lysi": 140, "##cyto": 293, "gps": 8, "brui": 9, "##llik": 6, "##rein": 60, "flau": 2, "##jeac": 10, "hm": 357, "iic": 23, "iid": 56, "iie": 13, "iif": 10, "iig": 10, "thp": 8, "##nants": 36, "##nger": 244, "##nka": 11, "doa": 53, "##pular": 148, "##edia": 94, "##tinin": 73, "##arent": 34, "sb": 205, "##ttis": 39, "##xel": 20, "##ghted": 54, "idios": 32, "##oei": 22, "rom": 868, "##nier": 77, "tim": 132, "dgi": 60, "##dbrth": 9, "##hart": 59, "udd": 22, "##ogr": 141, "##oup": 79, "##viae": 13, "##yph": 155, "##genes": 147, "##epe": 55, "##rella": 61, "piz": 5, "##zle": 18, "##tsc": 20, "aeg": 12, "##ypti": 7, "kan": 51, "##sasii": 4, "##uitum": 14, "##onei": 11, "##gmat": 22, "bfr": 3, "##ocida": 6, "snu": 9, "##ffles": 22, "hro": 867, "atory": 662, "##mouth": 9, "##nsul": 43, "##hwest": 10, "dut": 6, "##tonii": 4, "##ez": 277, "##asus": 17, "casi": 7, "##ysc": 48, "##hern": 43, "maz": 45, "##zot": 17, "##tii": 80, "##rina": 77, "spec": 77, "##onae": 37, "##ntry": 29, "bum": 58, "unt": 119, "##reat": 98, "weg": 13, "scou": 3, "##culi": 173, "##ector": 56, "##mary": 115, "cter": 376, "ghou": 4, "ogo": 46, "##uen": 79, "cem": 133, "##kens": 9, "##lact": 171, "ngu": 134, "##zze": 3, "##naris": 20, "##chtz": 5, "hj": 9, "##arre": 42, "##hill": 51, "##mbran": 41, "##key": 38, "##alop": 56, "##lpox": 58, "rab": 96, "uas": 2, "pis": 150, "##goed": 4, "##rypox": 10, "##eon": 46, "##opox": 24, "##ilpox": 4, "##npox": 45, "hse": 5, "##moni": 88, "##fish": 28, "mcf": 7, "evr": 12, "fvr": 2, "##miri": 9, "beb": 4, "##aru": 58, "maya": 6, "##ambo": 15, "nyo": 3, "onn": 64, "zik": 4, "uga": 41, "##ssel": 30, "##weni": 9, "rio": 454, "##ishi": 18, "ilh": 28, "##jin": 4, "##quara": 7, "kou": 20, "##ango": 17, "##zzy": 20, "eva": 66, "##enza": 63, "##itial": 124, "virus": 1243, "pir": 154, "mok": 16, "##rien": 52, "bwa": 3, "##osse": 67, "tah": 10, "##yna": 62, "ain": 603, "gma": 60, "ouche": 8, "wye": 5, "##omyia": 13, "##esto": 55, "##tuba": 17, "##paru": 12, "##nsa": 65, "cuo": 23, "##iro": 136, "uu": 15, "##guine": 13, "##hinde": 6, "thei": 16, "##birth": 42, "mum": 193, "mif": 17, "mig": 40, "##uel": 34, "kem": 17, "##erovo": 4, "##zzle": 13, "sda": 26, "ipn": 5, "oviru": 81, "##rwa": 14, "##lk": 189, "##zani": 11, "##sible": 105, "elk": 9, "ipa": 93, "broo": 29, "nid": 139, "##ulans": 23, "phia": 405, "fon": 23, "##aea": 49, "##rosoi": 4, "##rion": 74, "aspe": 28, "##cet": 210, "forme": 127, "##test": 81, "##tomi": 62, "api": 171, "##olus": 84, "sak": 23, "bolus": 57, "##polar": 39, "haw": 20, "##chle": 42, "##lera": 87, "vio": 36, "##lace": 76, "##urans": 13, "##linae": 45, "##porum": 31, "##amoe": 34, "##lima": 19, "eim": 89, "##spora": 95, "##mond": 88, "##nkel": 26, "tyz": 3, "##zeria": 4, "##rios": 124, "##mita": 25, "omit": 35, "##ito": 329, "##gler": 35, "##gleri": 9, "##hlk": 3, "##fia": 35, "##unce": 8, "tric": 974, "alg": 248, "##zoon": 82, "##yto": 332, "##eidae": 30, "##ossi": 59, "besi": 21, "##talli": 17, "##lata": 138, "tza": 2, "##neen": 4, "##ycis": 5, "##nk": 336, "pb": 84, "cun": 27, "##iculi": 96, "##lod": 119, "##inium": 101, "##lex": 249, "##onel": 40, "iosis": 2038, "##bol": 125, "##yosis": 112, "ji": 85, "##rove": 47, "##cii": 19, "##myce": 47, "idio": 103, "##prol": 143, "##mino": 197, "cari": 72, "mam": 37, "mali": 44, "##heii": 10, "##heei": 5, "##ota": 158, "##gnit": 19, "##icol": 77, "##thit": 16, "##inas": 182, "dae": 1459, "##tomum": 116, "##oense": 10, "##ylur": 11, "##yle": 152, "cyl": 186, "eutr": 36, "##trema": 17, "##omum": 139, "##innum": 5, "##rch": 220, "##yric": 174, "##hlo": 132, "##ineus": 24, "verr": 33, "##him": 47, "##erus": 70, "##orchi": 48, "##ifica": 70, "##ramma": 5, "brau": 7, "didae": 90, "##nuta": 7, "##emol": 43, "##epis": 84, "##epa": 233, "##olat": 56, "##inol": 172, "##lepis": 42, "##ormis": 258, "##mbr": 89, "##iar": 110, "##iidae": 139, "fim": 11, "##bria": 10, "##olia": 117, "##ezia": 79, "mill": 42, "##voy": 32, "avi": 249, "dav": 17, "##ainea": 4, "##gnia": 15, "kha": 15, "##nicum": 70, "##yla": 225, "ula": 1179, "##rius": 122, "##idea": 311, "##aro": 253, "##ulor": 19, "##roca": 78, "##ecum": 47, "##roce": 102, "##lanus": 18, "##chrum": 4, "##anus": 98, "##uar": 38, "##halus": 225, "aro": 253, "##phar": 169, "##ynx": 110, "##azia": 50, "##ipe": 114, "##ocer": 111, "arct": 88, "##spir": 116, "##onds": 47, "##resi": 86, "nicum": 70, "##iger": 47, "##trich": 216, "##binem": 50, "##bst": 85, "##ntat": 88, "##iden": 64, "##nutus": 10, "cycl": 120, "##akis": 52, "##lura": 30, "##urosa": 7, "deo": 22, "desi": 23, "kae": 10, "##dik": 11, "eop": 117, "##deri": 43, "##gnis": 5, "##nchus": 85, "##peria": 38, "##icei": 5, "##ollis": 100, "##agia": 373, "##rj": 15, "##rong": 71, "##orni": 49, "tum": 710, "##dera": 30, "##dina": 52, "phos": 349, "##roach": 12, "bug": 7, "bugs": 6, "lari": 174, "##nath": 45, "##enop": 68, "##haga": 65, "##ngia": 59, "##uia": 8, "itans": 52, "xen": 31, "##ylla": 12, "gna": 105, "cidae": 36, "coid": 215, "##arsus": 31, "##anid": 29, "luc": 193, "##yso": 59, "##iomy": 48, "##rtia": 51, "oestr": 25, "rosis": 2915, "##erebr": 147, "idae": 1308, "ambl": 16, "##yom": 44, "##sidae": 23, "odo": 229, "##ssus": 74, "##cola": 79, "##roida": 31, "##roos": 18, "apis": 11, "yas": 30, "##guri": 13, "##stion": 93, "##dites": 31, "nud": 6, "##rga": 98, "##otes": 36, "##edres": 5, "##nemi": 509, "##lumin": 12, "##optes": 62, "##topt": 9, "##ecte": 18, "##otis": 15, "##uat": 58, "##lzo": 3, "##wema": 5, "##hosa": 32, "hak": 41, "##moto": 95, "##hound": 8, "##eler": 23, "##psed": 34, "utt": 75, "##erna": 106, "req": 19, "ring": 861, "olog": 198, "wob": 5, "##blers": 8, "##nra": 6, "hne": 27, "##ading": 75, "##khite": 15, "ccs": 7, "##nail": 69, "##ddon": 13, "##pion": 97, "pbd": 8, "ird": 43, "##ctata": 25, "rcd": 11, "cdp": 13, "cdg": 85, "evd": 4, "##yco": 300, "##ener": 150, "##neri": 16, "##ucin": 57, "dsc": 14, "##ulfi": 23, "mng": 4, "##arit": 31, "##coon": 15, "##lders": 37, "##ulit": 118, "cmi": 4, "##otomy": 243, "##keni": 13, "ders": 198, "##ggers": 18, "##icula": 295, "##burgh": 17, "##dadei": 4, "##tases": 128, "##horn": 70, "##mpho": 143, "##coral": 15, "poh": 18, "##atoma": 219, "##nose": 154, "ink": 87, "kum": 4, "##linge": 11, "gae": 32, "ftd": 16, "grn": 17, "hdd": 10, "pgr": 2, "mst": 23, "wl": 44, "##msen": 29, "ddpa": 2, "ubi": 87, "fld": 11, "dft": 4, "##ime": 343, "rsed": 23, "onh": 12, "##oop": 61, "kje": 5, "##vati": 50, "##akov": 10, "##esce": 54, "##nsive": 181, "##eudo": 396, "##ioi": 54, "##pno": 25, "##olyti": 56, "##hroid": 51, "##facta": 13, "theo": 7, "##dore": 26, "##green": 20, "##zmann": 20, "##ike": 122, "gdl": 4, "##smann": 32, "buc": 32, "##klers": 13, "cdb": 3, "cdr": 3, "ice": 281, "iri": 216, "##doc": 162, "wip": 3, "kri": 3, "##flake": 16, "ppd": 18, "nv": 191, "elsw": 2, "##here": 80, "nve": 62, "##veal": 102, "##oveal": 55, "vmd": 3, "bmd": 6, "##uros": 65, "rpe": 96, "gho": 13, "##trol": 160, "dv": 64, "##vator": 79, "##press": 91, "fix": 12, "##bleed": 22, "##ttic": 90, "##rki": 35, "##phon": 57, "##ezing": 35, "##itte": 54, "##ethr": 67, "spray": 8, "##dw": 66, "bip": 27, "lof": 73, "##grens": 17, "earth": 2, "##toni": 136, "##nite": 57, "##shers": 27, "##ytos": 159, "bhl": 2, "##chial": 302, "tof": 44, "##bell": 104, "deh": 55, "##isce": 28, "##etti": 84, "pve": 2, "##valv": 41, "##valva": 6, "fdc": 2, "avr": 4, "nra": 6, "##ealed": 16, "##mity": 48, "##fora": 39, "##fti": 31, "##hoc": 128, "##kam": 27, "##eca": 143, "##lemic": 139, "##sthe": 207, "umbr": 5, "ppv": 4, "##rode": 91, "##satio": 86, "iab": 59, "zur": 13, "jak": 5, "luz": 2, "chc": 12, "fcm": 6, "ok": 336, "eoe": 12, "ee": 573, "##refl": 30, "##foy": 14, "##ezoar": 72, "pim": 25, "mvi": 2, "##mural": 52, "##ccu": 82, "odd": 20, "pgn": 9, "rfs": 5, "bph": 3, "dsd": 14, "sphi": 37, "##nrgia": 5, "chla": 26, "metr": 122, "throi": 10, "yet": 16, "periu": 26, "hcg": 2, "##ionic": 92, "him": 47, "##oda": 146, "tsho": 3, "##zone": 169, "fda": 8, "##pling": 46, "deio": 5, "##leted": 20, "cate": 126, "you": 15, "##yld": 10, "wds": 7, "xpi": 4, "dms": 10, "igf": 6, "ghr": 5, "php": 18, "ihh": 2, "ncc": 5, "ated": 1498, "##mola": 28, "##isone": 69, "arent": 34, "##rolo": 55, "##arche": 38, "ohi": 32, "##mark": 55, "attr": 16, "hhc": 11, "fhh": 6, "arh": 10, "##tles": 32, "##pine": 362, "##lamin": 241, "tcn": 7, "tc": 317, "cbla": 2, "mgc": 6, "mga": 8, "##acet": 141, "thio": 112, "##oac": 165, "##ety": 144, "##yme": 146, "our": 310, "tmau": 2, "dosis": 1220, "ldh": 11, "##arase": 20, "fmr": 4, "atp": 15, "ads": 82, "##sat": 161, "ura": 511, "##oyl": 181, "upt": 81, "cpti": 2, "cpt": 6, "##inyl": 98, "oac": 165, "##acyl": 116, "tase": 1249, "##urine": 79, "dpy": 3, "dph": 10, "oste": 480, "##toa": 76, "dha": 24, "hof": 60, "cet": 210, "fed": 34, "##smic": 153, "##aeco": 17, "##utres": 6, "bleu": 3, "##otres": 5, "zu": 31, "##mbu": 27, "zum": 4, "##busch": 25, "ebb": 12, "fca": 8, "##riee": 5, "##doid": 42, "##kson": 46, "anta": 74, "##cea": 125, "aird": 6, "nfj": 6, "##fcn": 15, "astr": 204, "rus": 2124, "elt": 64, "enic": 1933, "##toxgn": 5, "##hmrg": 6, "##nvsv": 5, "tio": 1878, "mrsa": 2, "##cill": 81, "##dl": 219, "cca": 90, "##sati": 102, "jn": 5, "##gling": 28, "##grad": 30, "dow": 62, "##sassi": 4, "##erre": 46, "##erres": 12, "##uba": 55, "ock": 295, "##liki": 4, "sf": 250, "##utu": 25, "##uyo": 6, "isf": 11, "bha": 12, "##iemi": 7, "##poli": 70, "##ilian": 25, "cdu": 3, "hpv": 3, "myr": 8, "mecia": 4, "gay": 3, "##ozoal": 38, "hms": 34, "##diva": 8, "##elian": 28, "##mani": 65, "##gom": 65, "##atric": 110, "##uchwa": 5, "##syge": 5, "sib": 34, "##bens": 12, "##jevo": 11, "##lievo": 5, "##eale": 14, "clay": 3, "##rmic": 139, "##anga": 18, "sow": 2, "##vell": 23, "##ller": 229, "dhd": 33, "hur": 59, "rip": 168, "##aera": 6, "##dural": 121, "lets": 49, "uard": 22, "##nced": 89, "foot": 74, "vai": 13, "optb": 2, "nmc": 6, "trc": 13, "##ctus": 73, "##taed": 4, "dsr": 2, "##city": 353, "##orted": 28, "occls": 3, "infrc": 2, "##peric": 91, "rct": 113, "ophth": 141, "##rient": 62, "##udine": 13, "##gula": 81, "##dyn": 107, "##nded": 63, "jae": 8, "pmm": 4, "cdga": 3, "cdgi": 50, "iix": 2, "##umpox": 8, "rvd": 5, "arvd": 2, "##robes": 13, "bct": 2, "srv": 2, "vr": 84, "##utan": 103, "##cfied": 9, "rtry": 11, "nccl": 5, "urth": 18, "##oneum": 156, "dmi": 25, "cmp": 8, "uncnt": 3, "##ntrld": 9, "##ontr": 72, "##osmlr": 4, "##ngts": 4, "##derin": 39, "bni": 2, "mgr": 11, "artr": 5, "bsl": 7, "crt": 5, "vrt": 14, "embl": 15, "athsc": 2, "ntv": 3, "grene": 17, "athrs": 2, "bps": 5, "##logs": 7, "vn": 20, "##hlts": 18, "##sens": 236, "##sded": 4, "##stmy": 7, "##ilt": 43, "##ourtl": 4, "blt": 3, "isd": 16, "insc": 7, "##nctr": 9, "dfi": 4, "##cncy": 4, "##rtm": 16, "catn": 5, "drm": 9, "rdia": 239, "drmti": 2, "##chrom": 136, "##plg": 32, "pmt": 5, "##blad": 28, "lieou": 2, "liou": 4, "bof": 8, "##bula": 117, "emias": 1432, "##acro": 292, "##ofi": 95, "tad": 60, "xxyy": 5, "etin": 321, "eti": 566, "##uff": 88, "iency": 204, "##nhe": 27, "##melia": 258, "rbs": 3, "icp": 7, "prf": 8, "nr": 87, "neb": 25, "nk": 336, "##ming": 154, "dium": 565, "dias": 196, "##roft": 9, "erdh": 3, "##cyan": 30, "bcg": 6, "##mette": 4, "##oix": 18, "##enkow": 6, "##edys": 5, "troye": 2, "spg": 16, "##xide": 124, "##ysian": 99, "bch": 12, "bhc": 5, "##tier": 44, "ags": 30, "hyoi": 5, "sre": 10, "##nagh": 5, "bce": 5, "##dalo": 12, "##basal": 76, "##nceph": 307, "##ulate": 82, "doo": 15, "esss": 2, "##evi": 103, "##remi": 95, "ppt": 2, "##dule": 16, "##wake": 16, "##xisms": 4, "##bilit": 76, "hnp": 3, "lyo": 36, "##nique": 25, "##nator": 35, "guyo": 2, "bury": 19, "cms": 22, "cmse": 2, "##kag": 14, "##ude": 126, "mep": 33, "##aptic": 79, "irp": 2, "##epti": 146, "##mpan": 54, "##oscl": 113, "##hold": 34, "earp": 2, "kley": 13, "lap": 108, "##seau": 13, "##motos": 18, "kik": 6, "##uchis": 14, "trio": 40, "tpi": 5, "hk": 40, "##kinas": 59, "##eod": 102, "##ocyto": 223, "sgd": 3, "mpo": 75, "##ovoy": 12, "hcf": 6, "##lhof": 14, "aitp": 4, "hig": 47, "xhi": 2, "##gger": 49, "##ppa": 33, "##cule": 27, "##raft": 49, "lfa": 87, "rhs": 7, "##aron": 160, "cdgii": 29, "##erdin": 25, "cfd": 15, "cfh": 5, "ating": 930, "cii": 19, "##megen": 8, "bbs": 11, "nbs": 2, "gis": 53, "##celli": 16, "aib": 4, "aia": 17, "shie": 3, "stai": 16, "ofg": 5, "onto": 157, "##molar": 40, "##tious": 139, "insp": 9, "naf": 12, "##ison": 85, "ssn": 14, "sdn": 2, "cq": 37, "tmn": 6, "aor": 53, "##tner": 29, "ft": 291, "npl": 10, "lke": 28, "drta": 2, "##ctin": 192, "##graft": 34, "aum": 113, "puj": 3, "xr": 6, "iu": 439, "##sperm": 70, "##horo": 53, "##uring": 67, "vau": 4, "##rtal": 113, "##gome": 15, "##latio": 147, "##istic": 172, "##vinyl": 10, "##roli": 157, "aes": 93, "##tival": 87, "##tip": 67, "##olyx": 99, "##icata": 37, "##uj": 27, "emat": 265, "faw": 1, "##cett": 4, "##igo": 219, "##poid": 62, "##zinum": 5, "##iker": 8, "##hec": 33, "##ystic": 237, "ilr": 14, "##zari": 13, "##izz": 21, "erma": 1034, "knd": 7, "wdr": 2, "win": 92, "mak": 21, "icted": 53, "##fort": 43, "eec": 19, "crea": 79, "aec": 47, "schoe": 6, "##rman": 198, "##itser": 10, "kir": 8, "tns": 9, "##rley": 19, "##nson": 207, "##utter": 71, "elid": 20, "oud": 42, "##hoorn": 12, "hie": 223, "##malis": 50, "olmst": 3, "olms": 17, "##tead": 11, "##bbean": 5, "cnc": 5, "rpk": 4, "atio": 1133, "rak": 34, "##moral": 197, "##alar": 64, "##oul": 60, "lop": 400, "js": 26, "prie": 4, "iom": 168, "##ophos": 70, "sat": 161, "##urn": 96, "uct": 255, "##rpi": 41, "rc": 857, "mag": 121, "##glyc": 244, "reu": 32, "ucm": 2, "eichs": 24, "rsm": 4, "drei": 8, "##fuss": 17, "hau": 59, "edm": 27, "cnm": 3, "agg": 77, "ates": 281, "meye": 9, "crm": 3, "nbo": 25, "anf": 10, "cdd": 4, "nion": 66, "isthm": 7, "##cone": 50, "##liths": 82, "##allow": 20, "toc": 288, "##nesic": 16, "##omi": 315, "gaz": 15, "eyebr": 6, "##ores": 57, "##ratus": 38, "##temic": 219, "##gth": 25, "##ucted": 55, "run": 97, "##iny": 109, "##rosse": 27, "ils": 191, "jou": 5, "##ubert": 29, "bol": 125, "cpd": 10, "##espie": 15, "gls": 3, "acf": 3, "rca": 149, "adt": 2, "hnf": 6, "##obox": 10, "fj": 12, "apk": 5, "##nho": 15, "##arius": 30, "##eris": 56, "##leaf": 26, "##kenb": 4, "##ecken": 25, "shn": 7, "##korn": 8, "##quois": 12, "##elic": 583, "ddr": 15, "##mdi": 9, "nam": 136, "##dp": 181, "nhd": 3, "##lco": 42, "sut": 25, "lmd": 3, "##alsia": 5, "##gelt": 14, "trp": 20, "##ysp": 210, "##leton": 14, "assm": 2, "##steal": 59, "##chrs": 7, "adl": 10, "##tedt": 21, "bf": 66, "ogn": 50, "##omb": 291, "##ngul": 26, "uh": 29, "##dall": 23, "##tino": 150, "##shima": 15, "##epine": 60, "##april": 58, "##xidil": 10, "##idone": 103, "meio": 3, "##totic": 265, "##cism": 156, "ran": 1014, "##oidy": 59, "##ypes": 43, "xq": 10, "##kett": 37, "##lovi": 26, "rn": 1007, "##angio": 171, "##quesn": 3, "##nrl": 16, "snr": 5, "unr": 22, "##oque": 11, "bim": 5, "##anual": 7, "flue": 33, "iap": 67, "dad": 45, "tip": 67, "avo": 28, "##idan": 9, "pda": 6, "##gram": 98, "##tact": 49, "##dict": 28, "##edict": 12, "##dikt": 10, "##mmun": 193, "cpi": 2, "sni": 19, "mci": 11, "##tosh": 10, "##myd": 27, "uts": 55, "weye": 3, "wad": 22, "phc": 12, "meb": 31, "clb": 5, "##hysi": 69, "##rito": 75, "##aemi": 465, "##mast": 77, "cyb": 3, "tpn": 2, "ixa": 8, "xia": 439, "itor": 53, "tod": 173, "##dlers": 29, "ured": 133, "luf": 5, "##edic": 69, "hdl": 6, "##helin": 15, "##nze": 40, "##labo": 19, "##gesic": 20, "##liz": 88, "##ather": 46, "cious": 94, "intcr": 4, "##ncu": 46, "##wood": 17, "##henic": 42, "bld": 10, "frm": 10, "urn": 96, "##nhi": 27, "##brth": 12, "##lpo": 36, "nata": 136, "dma": 25, "df": 121, "mplga": 4, "lte": 68, "##retr": 99, "rflu": 5, "##cile": 27, "##ureth": 56, "slc": 4, "##lund": 24, "gtc": 5, "ign": 111, "##uity": 59, "##tars": 49, "lva": 59, "##boli": 80, "ppn": 5, "glio": 47, "titis": 1524, "##tens": 157, "##roco": 112, "airs": 28, "##ching": 179, "umn": 24, "##unde": 59, "##clap": 28, "mdf": 11, "ebm": 2, "##gate": 64, "extrn": 2, "fom": 3, "##inis": 74, "cdc": 16, "ssi": 300, "##ntupa": 14, "##rest": 116, "##ludes": 8, "tg": 37, "nq": 10, "##wmi": 3, "##quy": 18, "sdh": 6, "ixb": 2, "golo": 11, "trl": 34, "jir": 3, "##asek": 4, "zue": 5, "zer": 94, "##ddler": 16, "pdc": 12, "kau": 5, "##upl": 26, "lim": 94, "ake": 130, "port": 108, "ebst": 2, "##ddi": 46, "##sions": 268, "caria": 36, "##unter": 28, "clm": 7, "##hugh": 10, "pfb": 3, "##erica": 96, "##khan": 9, "##eato": 47, "##quele": 4, "##mptom": 36, "##bom": 47, "esia": 1354, "##lmic": 121, "##knife": 9, "pon": 327, "lai": 56, "##tso": 16, "wts": 2, "tid": 634, "##icola": 45, "##tarsa": 26, "##eolus": 14, "edt": 27, "##rano": 68, "##mined": 34, "edi": 233, "##ndnut": 5, "##rell": 43, "tas": 518, "##orial": 73, "##ocia": 28, "apg": 3, "psc": 11, "##ogue": 14, "##hene": 116, "##none": 237, "##inan": 62, "##phine": 66, "##fen": 157, "##tanil": 28, "fen": 157, "##tanyl": 8, "##zinol": 12, "apa": 94, "##ropa": 200, "##enac": 22, "##olac": 61, "##binac": 8, "##ufen": 11, "##opro": 227, "##rolac": 24, "##ume": 120, "nap": 75, "##roxen": 8, "##azone": 150, "##xicam": 20, "##metin": 10, "##onan": 32, "##sium": 68, "##smu": 66, "##fate": 81, "ago": 178, "##hang": 56, "mine": 1574, "##azine": 550, "##apri": 19, "done": 201, "bis": 75, "##hron": 71, "##inone": 95, "doc": 162, "##usate": 8, "perm": 125, "##yclo": 71, "eto": 309, "##mida": 77, "##open": 170, "tone": 352, "##caine": 154, "caine": 154, "##oxin": 141, "##fos": 35, "##stim": 80, "##sole": 38, "##latin": 83, "##roni": 106, "##ulfan": 21, "##ulph": 72, "##lfan": 35, "##lpha": 78, "tepa": 19, "##uci": 106, "##oglu": 52, "ifo": 153, "##phala": 110, "##urea": 118, "##zene": 31, "##ycin": 339, "##icin": 129, "icin": 129, "##anine": 120, "##bine": 120, "acri": 36, "##plat": 41, "##xane": 42, "##axel": 17, "##abine": 54, "tane": 152, "##ethyl": 170, "##oxide": 107, "athi": 316, "##pram": 37, "##dopa": 94, "##ldopa": 22, "##idopa": 31, "##uride": 34, "##olide": 50, "##yclic": 26, "ipr": 57, "indo": 21, "##azid": 71, "moc": 121, "##emide": 48, "##axine": 14, "trac": 216, "##prot": 294, "##serin": 24, "##lami": 106, "##ceta": 34, "##pent": 64, "bit": 185, "##aze": 81, "##pidem": 40, "##oba": 211, "bital": 229, "##zepam": 136, "##raz": 63, "##epam": 160, "##olam": 93, "##zolam": 57, "##azam": 16, "##pate": 100, "##ssium": 42, "##azol": 92, "##azepa": 25, "##azep": 33, "##amate": 81, "##bam": 55, "##lofos": 10, "##iride": 20, "##zap": 13, "##noate": 19, "ena": 443, "##ntha": 29, "##xol": 66, "##ixol": 47, "##pert": 151, "##pride": 25, "##egi": 108, "##oline": 376, "##ulf": 128, "##iram": 69, "##ulp": 93, "##ptor": 92, "##olol": 249, "##xolol": 10, "##rolol": 36, "esm": 40, "##ved": 145, "##ilol": 14, "##eolol": 10, "##obu": 196, "##nolol": 64, "##uzo": 10, "##zosin": 38, "##oram": 22, "nif": 57, "##ipine": 86, "##zem": 35, "##pamil": 14, "pine": 362, "##tig": 106, "##acho": 35, "##etha": 95, "oxe": 39, "##drine": 66, "##amol": 56, "##oter": 22, "rim": 234, "##iter": 61, "##aline": 168, "dop": 148, "##retic": 161, "##frin": 11, "xam": 42, "##loids": 39, "peri": 555, "##perid": 31, "##hesi": 149, "##phen": 240, "##idyl": 70, "##hexol": 5, "##xene": 36, "orp": 232, "##buty": 50, "##hex": 73, "##acta": 84, "##adine": 93, "##izine": 59, "##lizi": 14, "##loz": 5, "aza": 27, "##izin": 68, "ned": 678, "##omil": 15, "##tifen": 10, "lod": 119, "##amini": 34, "##phin": 125, "##capi": 55, "##lien": 24, "##wde": 5, "buf": 6, "##exam": 23, "##rali": 78, "dit": 223, "##hra": 85, "oint": 61, "##xin": 236, "##nzo": 17, "enb": 72, "##ltice": 15, "##tami": 97, "##cylic": 26, "##olen": 45, "lenic": 112, "etr": 334, "tino": 150, "chic": 39, "cine": 257, "##osuri": 29, "##ecid": 24, "##xant": 73, "##urium": 56, "##lofen": 13, "dan": 111, "##aver": 44, "##oxate": 10, "##stone": 86, "##xynol": 10, "##xinol": 20, "oxin": 141, "##prost": 98, "##rost": 172, "##enes": 237, "ipe": 114, "##uanha": 14, "coal": 22, "fab": 16, "##enil": 57, "##oxime": 56, "##xone": 42, "##oxone": 8, "##obalt": 9, "##sodi": 29, "lub": 28, "##lose": 286, "##llose": 68, "##fine": 46, "##fta": 13, "##tatin": 171, "##ece": 58, "##azole": 455, "eco": 139, "##bex": 6, "zid": 84, "##lovir": 81, "##icl": 73, "za": 316, "##ycl": 127, "##aviri": 21, "##virin": 21, "fos": 35, "##carn": 37, "##ridi": 89, "##hona": 22, "##nser": 20, "hex": 73, "##orate": 47, "##yti": 196, "ise": 218, "##zal": 42, "##idin": 139, "##llia": 35, "pera": 131, "##ntel": 20, "##pheni": 18, "acin": 213, "##amyc": 17, "##date": 129, "tei": 276, "##urate": 38, "##piroc": 32, "##ones": 145, "##xacin": 111, "##dix": 20, "##xil": 53, "cef": 36, "##oxil": 18, "##halo": 202, "##lotin": 5, "##moxef": 10, "clor": 13, "##xime": 88, "##zime": 14, "##tibu": 30, "##odin": 32, "##pirom": 8, "##treo": 32, "##lene": 111, "##midi": 55, "##nide": 189, "##quino": 27, "##zin": 201, "##mpin": 19, "rif": 88, "##abu": 23, "iazid": 38, "##utol": 28, "##nzy": 21, "##thion": 52, "##toxin": 71, "stit": 87, "##ima": 198, "##acil": 135, "##sone": 290, "##onide": 50, "##olone": 280, "##beta": 89, "meta": 178, "##hasic": 56, "##phane": 24, "##midin": 42, "##formi": 56, "##bose": 40, "meg": 186, "##etate": 141, "ety": 144, "##nodi": 11, "olone": 280, "nan": 207, "##ozo": 61, "##ofen": 63, "##trin": 119, "##trone": 31, "##sfe": 119, "##mip": 43, "##ifene": 16, "##lide": 100, "##ssin": 97, "##relin": 89, "ocin": 30, "ocic": 6, "##onin": 166, "##oet": 36, "##asta": 50, "ancr": 65, "##parin": 61, "##dion": 73, "eta": 545, "##otin": 43, "sor": 275, "##bitol": 8, "##ophor": 61, "##pher": 63, "##tinic": 20, "itol": 221, "gem": 85, "##fibro": 156, "##zil": 24, "##ucol": 17, "##pimox": 8, "##fibr": 258, "##etine": 46, "##tyli": 26, "##azide": 226, "##semi": 91, "##rynic": 22, "##reno": 89, "##alyl": 15, "##rusi": 15, "xip": 13, "##pril": 163, "##sino": 74, "pril": 163, "##rtan": 23, "rau": 78, "##wolf": 23, "##goxin": 24, "ouab": 2, "##xim": 30, "##goc": 84, "##vine": 50, "##lator": 114, "ndil": 14, "gtn": 3, "tran": 350, "bam": 55, "##ethan": 33, "nose": 154, "nate": 1019, "##ronyl": 12, "##uryl": 24, "mox": 32, "##lyte": 39, "##plase": 26, "##mela": 93, "cfa": 4, "cia": 876, "bth": 4, "##vocal": 13, "cola": 79, "rm": 2488, "ciu": 27, "jes": 9, "##sners": 4, "##uses": 91, "##emor": 114, "lcha": 3, "lll": 3, "rl": 412, "rul": 119, "ruz": 8, "ite": 641, "##lch": 54, "##owsky": 50, "fcs": 6, "flai": 5, "##ylia": 72, "##bling": 72, "ocp": 2, "oat": 121, "okt": 2, "schle": 8, "opht": 139, "mla": 6, "tss": 9, "rq": 20, "##uret": 123, "itide": 232, "##hols": 12, "##hap": 63, "##ault": 29, "##lnu": 6, "##kele": 55, "##ucing": 42, "##uka": 22, "##yami": 20, "##yonis": 5, "##rals": 33, "cdi": 6, "##phlts": 8, "##stomy": 247, "tav": 24, "##eras": 176, "bpn": 2, "##bier": 8, "##dwick": 18, "##twk": 6, "##aphy": 202, "fn": 79, "##heum": 45, "##ypic": 38, "zit": 5, "flh": 3, "##escen": 50, "ncm": 3, "##ticu": 203, "aao": 3, "csc": 7, "##uit": 111, "##daem": 27, "##roth": 76, "ccp": 3, "##hete": 78, "avm": 9, "##cough": 13, "iias": 3, "fhc": 4, "urg": 196, "##spori": 60, "psia": 380, "rey": 68, "##nolds": 15, "lls": 163, "##ails": 38, "csb": 2, "##cinal": 43, "drv": 3, "deea": 2, "mrx": 43, "gyl": 69, "##cogen": 49, "##uver": 12, "engl": 4, "iim": 9, "##elm": 46, "##eyer": 55, "mayou": 2, "jnc": 2, "pyru": 30, "##eci": 105, "para": 403, "##ebril": 12, "hyg": 8, "##romas": 102, "##bco": 14, "mally": 26, "pio": 51, "##vage": 20, "nkh": 7, "amr": 8, "epm": 6, "hrs": 27, "oyan": 16, "lbd": 5, "##borg": 30, "pme": 30, "uld": 14, "##bners": 8, "mpt": 76, "yo": 716, "ixth": 7, "cco": 87, "##lgu": 9, "##pni": 7, "##worth": 18, "buj": 1, "##adoux": 4, "##turna": 7, "sdl": 4, "dlb": 3, "mf": 70, "lui": 9, "qte": 2, "##efs": 21, "##bsen": 23, "sms": 705, "##icap": 11, "mct": 8, "slca": 2, "##hock": 27, "##tland": 16, "hbh": 3, "##taine": 30, "drc": 3, "eastm": 2, "flp": 5, "##insky": 15, "##tzs": 20, "##oway": 15, "##ffl": 26, "##micr": 259, "##erson": 93, "andd": 6, "cmr": 4, "##andez": 10, "glh": 2, "##ikar": 18, "##facia": 87, "jw": 2, "mcm": 8, "jm": 16, "##ello": 150, "##sala": 25, "krau": 8, "##vli": 7, "##oon": 202, "##evel": 46, "##mmer": 70, "grayi": 4, "allat": 6, "xl": 54, "##inct": 32, "##bella": 67, "arts": 49, "mrxsa": 3, "##uech": 10, "mwk": 3, "##obile": 26, "##solf": 10, "##ugh": 154, "gur": 40, "##rieri": 8, "##ussi": 33, "enal": 984, "ental": 636, "##ngold": 8, "mls": 4, "mco": 6, "##jaerg": 14, "ddp": 5, "dds": 37, "mts": 8, "dfn": 18, "pav": 8, "##ante": 91, "##chin": 129, "nce": 1679, "nhs": 5, "##user": 58, "mmm": 4, "##eiro": 20, "##eman": 165, "oor": 66, "##thuys": 7, "ood": 159, "ohd": 5, "##okoro": 4, "prl": 6, "prd": 8, "##nema": 150, "##necke": 6, "##eer": 25, "prou": 6, "ito": 329, "shs": 11, "ccc": 5, "gul": 111, "##iene": 51, "##furd": 14, "##jamin": 4, "guio": 2, "sct": 6, "##hme": 30, "sg": 88, "sny": 5, "srs": 5, "stw": 3, "wai": 21, "##hayan": 8, "##zan": 13, "##acker": 26, "drou": 9, "atk": 2, "cbl": 21, "clae": 2, "arx": 5, "##vls": 5, "brn": 4, "##evale": 14, "##ska": 46, "##chet": 35, "afa": 18, "##ahy": 23, "esw": 2, "##ished": 69, "nke": 101, "##sue": 23, "crn": 11, "vss": 5, "atlg": 5, "blg": 5, "ciate": 23, "##pito": 15, "intvr": 2, "##ioni": 89, "##oili": 18, "##yed": 37, "schoo": 3, "##iment": 33, "##arisy": 4, "##maid": 25, "nun": 5, "##cnn": 6, "oka": 32, "##ribed": 55, "##romo": 69, "spn": 8, "##rily": 47, "mav": 17, "cup": 33, "##penic": 265, "##toph": 84, "##obia": 83, "##ilb": 30, "##ratio": 165, "##roup": 53, "proc": 85, "cyto": 293, "hhv": 3, "##eud": 398, "nates": 60, "ask": 28, "##anop": 68, "##dly": 44, "##rava": 41, "aggr": 28, "avat": 19, "##plast": 95, "dens": 104, "bdc": 4, "##vhd": 15, "pgl": 5, "plg": 32, "chao": 2, "##tely": 82, "##pter": 61, "tig": 106, "##lbu": 53, "##calis": 82, "mek": 6, "##ongi": 20, "##rug": 52, "vol": 60, "##avior": 18, "##ulen": 34, "itat": 77, "eas": 329, "##ructi": 32, "##erper": 18, "##osta": 138, "##atis": 116, "##losu": 35, "pree": 13, "##xist": 14, "##ifie": 51, "##birt": 18, "sprai": 3, "evi": 103, "##dence": 26, "##obar": 102, "##unni": 10, "heb": 9, "##erdon": 12, "iow": 2, "##alae": 20, "jei": 1, "##keium": 4, "ckl": 66, "ends": 14, "##endum": 4, "cll": 8, "sez": 8, "##ralis": 170, "emato": 199, "##gelii": 4, "##myces": 105, "##ckii": 12, "##othr": 62, "##actu": 29, "##anse": 22, "##lmi": 103, "tbg": 3, "jor": 19, "##ordi": 31, "##cens": 90, "##ices": 80, "##icae": 35, "eith": 5, "##traum": 34, "##tured": 49, "##dica": 121, "mngie": 3, "roe": 96, "##held": 14, "hey": 12, "pbl": 3, "dp": 181, "##rgy": 126, "stau": 10, "##ffer": 65, "ecd": 12, "pts": 11, "ptp": 6, "thing": 74, "##ctas": 124, "##oot": 153, "##bergs": 57, "##jdu": 9, "hjc": 2, "lho": 14, "##anil": 55, "pma": 10, "##leus": 41, "orph": 166, "max": 38, "##tma": 67, "##nns": 125, "##solin": 12, "lcd": 9, "ties": 583, "##fsn": 7, "##dging": 25, "##itoid": 6, "ooph": 19, "orec": 39, "##urous": 14, "##ulop": 102, "inent": 46, "##meni": 175, "spp": 5, "hap": 63, "##erged": 5, "##ogram": 77, "##mies": 23, "cmh": 4, "ppr": 41, "##ntan": 52, "##nel": 186, "##rtic": 279, "##bour": 31, "##depo": 22, "##undii": 4, "wid": 16, "##geta": 13, "iss": 182, "##mitus": 19, "##spor": 124, "##lyt": 105, "##tlg": 15, "nco": 154, "nsg": 7, "ectio": 94, "##olc": 17, "##btc": 17, "phleb": 66, "wks": 10, "##ssy": 34, "##sru": 8, "icu": 625, "##tali": 116, "##gada": 13, "##ubal": 22, "##uman": 24, "hoy": 2, "##eraal": 8, "hre": 91, "##rsson": 38, "hoi": 49, "##hary": 105, "##zygo": 24, "##kinin": 13, "##lik": 47, "psu": 32, "##edom": 26, "kru": 5, "##sonia": 27, "##aceae": 364, "epo": 62, "gsh": 4, "##rtc": 7, "##stern": 55, "##oster": 127, "thl": 20, "##asema": 4, "##lsive": 98, "##temp": 68, "avd": 7, "aov": 4, "dba": 20, "##hat": 223, "##tium": 100, "uria": 3584, "cmda": 2, "mdc": 28, "miyo": 3, "##rized": 50, "##een": 122, "##milz": 7, "##andin": 62, "kai": 9, "phyr": 52, "uss": 116, "upsh": 2, "anto": 71, "##lliti": 33, "##llosi": 70, "##rowth": 40, "ugh": 154, "irl": 12, "##ferol": 104, "afc": 2, "##glass": 46, "##nef": 15, "##mula": 49, "##burst": 19, "##folds": 8, "##lpool": 5, "##ococc": 112, "##nifi": 15, "sz": 42, "##ulgai": 3, "##donae": 5, "niz": 74, "##lvu": 26, "##ninii": 4, "##cei": 31, "##ense": 210, "yao": 4, "##undei": 4, "##ouin": 9, "##casin": 8, "##uata": 5, "##vica": 53, "##ulis": 37, "##aden": 198, "dls": 16, "##lmei": 11, "##idar": 12, "bryo": 23, "cea": 125, "ibul": 103, "##nkles": 6, "jel": 12, "##zz": 55, "beau": 13, "##onyx": 8, "wav": 9, "##oing": 21, "poro": 68, "##paper": 10, "##ceous": 132, "able": 729, "##apy": 121, "##alen": 39, "##ckles": 11, "##olet": 29, "##aini": 27, "cfc": 2, "pib": 9, "##prk": 4, "##owski": 40, "##olis": 81, "tnf": 3, "fp": 43, "##erni": 53, "mgd": 3, "##lino": 87, "oai": 6, "oda": 146, "nste": 29, "##bbl": 18, "ooz": 7, "##tice": 60, "xsc": 7, "xci": 18, "##thw": 8, "##idur": 78, "##genum": 31, "itic": 836, "##thin": 120, "##eptal": 82, "ndy": 191, "csi": 2, "inase": 1248, "idase": 1310, "##eptid": 42, "asn": 6, "##spase": 32, "##gine": 49, "##deli": 23, "##lul": 52, "psr": 2, "nsi": 274, "##drism": 12, "patio": 16, "phoe": 20, "obj": 4, "##scal": 27, "tow": 15, "##yond": 3, "##catio": 121, "##quate": 20, "##kim": 16, "##taric": 126, "##citr": 44, "##bino": 34, "##nza": 79, "##rolin": 55, "##benz": 28, "##adio": 50, "chol": 316, "##enol": 211, "phen": 240, "##isat": 76, "##enine": 45, "sdd": 9, "tk": 32, "eya": 6, "##erone": 336, "nmn": 3, "artic": 68, "got": 52, "sgo": 15, "gpt": 5, "sgp": 2, "izing": 265, "ising": 166, "shp": 7, "##phosp": 301, "fmn": 3, "adp": 9, "dir": 30, "nsf": 133, "##adip": 48, "##onase": 169, "##lula": 27, "##zyme": 55, "alase": 61, "##iase": 122, "##char": 95, "##enase": 186, "tide": 550, "##imin": 37, "atase": 643, "dii": 81, "dfp": 6, "##boxy": 50, "##ether": 17, "aadc": 2, "ddc": 6, "amin": 711, "##nita": 105, "##utase": 192, "##mase": 34, "##roxy": 161, "##arot": 59, "maai": 2, "bhs": 9, "rpi": 41, "##grat": 24, "ecy": 33, "dpg": 5, "##onyl": 158, "##euc": 70, "gdp": 2, "gmp": 2, "rug": 52, "##ulosu": 15, "syd": 7, "##owi": 42, "##manii": 11, "##rico": 42, "ust": 157, "##picu": 17, "duv": 3, "##alii": 5, "gad": 14, "hod": 87, "##ctum": 41, "##sence": 50, "neoa": 6, "##urum": 10, "nse": 342, "obu": 196, "##itum": 47, "##grin": 36, "##egal": 126, "tok": 33, "##viale": 6, "##vense": 5, "##mmu": 175, "ceum": 22, "##pium": 45, "##lvum": 15, "icum": 509, "##forte": 6, "sum": 365, "##mori": 19, "##ardii": 11, "##fard": 8, "##ieri": 36, "##cheri": 25, "ochr": 66, "##aceus": 35, "##yz": 12, "dob": 23, "##vagin": 62, "##dg": 174, "unu": 17, "##nited": 6, "##ureus": 15, "##trand": 41, "astl": 14, "ken": 187, "##ppl": 47, "why": 2, "scy": 8, "##ylar": 85, "yun": 3, "##rici": 13, "##wear": 24, "##bid": 42, "cfeo": 5, "##orme": 154, "ncb": 4, "##meno": 81, "##elop": 92, "angr": 21, "##vely": 146, "##lth": 25, "urch": 13, "usn": 26, "##oring": 42, "lytic": 385, "##avio": 17, "msh": 5, "anm": 8, "pcf": 13, "alis": 1293, "##zoid": 13, "irm": 31, "pao": 2, "ttd": 4, "uta": 253, "##bez": 20, "vrs": 3, "grs": 2, "##icle": 129, "mdv": 3, "ccu": 82, "##rsay": 3, "##inae": 311, "##vial": 19, "##mont": 22, "##isae": 5, "##nya": 43, "key": 38, "##nstei": 17, "##etan": 31, "ora": 622, "inst": 36, "itut": 19, "atx": 3, "##bir": 36, "##ances": 93, "alps": 3, "##prof": 34, "##nost": 69, "ctal": 293, "##nech": 19, "##ltra": 105, "##seous": 245, "dn": 161, "chie": 19, "##ipo": 283, "bn": 64, "##uir": 13, "sjia": 4, "hoh": 30, "##scul": 146, "##role": 43, "##loic": 22, "cotic": 255, "##gale": 21, "##uptio": 22, "##retio": 38, "##siva": 59, "airb": 5, "##orne": 110, "##enica": 40, "##erosi": 125, "pgd": 2, "ggs": 21, "##rer": 69, "##nsky": 82, "##gular": 62, "##nych": 102, "##monia": 129, "anus": 98, "##ucc": 61, "##teno": 82, "bay": 7, "##mese": 28, "##neau": 37, "##rmati": 73, "##aire": 87, "##oined": 5, "##luvi": 6, "caye": 3, "##tful": 19, "eeg": 3, "chon": 231, "##mbian": 12, "##xh": 13, "##eimer": 29, "##vus": 90, "##lga": 54, "cele": 883, "##orius": 47, "hmp": 7, "ifd": 10, "##rnu": 25, "##axia": 149, "##aking": 70, "##crani": 108, "pyg": 8, "##angy": 212, "puo": 2, "tine": 707, "##ultus": 10, "##rsum": 10, "##bby": 10, "##arbo": 114, "jug": 14, "##ulare": 118, "##vatum": 29, "##boid": 36, "genic": 1118, "##garth": 6, "##lpos": 101, "gag": 11, "vip": 10, "##tzii": 6, "wat": 47, "zei": 4, "##riap": 13, "##ints": 53, "##ltry": 13, "kla": 8, "##uder": 19, "matic": 564, "##bdom": 35, "##adis": 17, "##ebrae": 49, "##ssez": 6, "##nua": 33, "##ouse": 84, "##onica": 90, "##reta": 30, "plau": 2, "##lett": 12, "ritis": 1725, "##ntly": 159, "##phyte": 59, "##loped": 68, "##ccida": 4, "ulo": 847, "##quus": 5, "ogy": 433, "orr": 313, "##arton": 17, "##eif": 27, "##chen": 73, "##tchen": 3, "##oful": 15, "alac": 147, "##ljevo": 5, "##plet": 64, "##tup": 10, "##burn": 34, "dyt": 11, "##erot": 97, "##axy": 34, "##growt": 10, "antic": 54, "esb": 21, "##nuric": 183, "acyl": 116, "jia": 8, "idc": 16, "lmna": 2, "##asilm": 4, "phaa": 2, "##bery": 20, "vre": 48, "##latn": 15, "##ilatn": 7, "##zont": 5, "intrc": 2, "##lpsy": 5, "##ocerv": 17, "##rpr": 52, "##thyrd": 17, "nre": 33, "vlca": 2, "##estic": 52, "era": 1173, "ips": 58, "offs": 19, "##pring": 11, "off": 150, "psau": 2, "myoi": 2, "erbb": 2, "##theli": 77, "##asu": 41, "##rable": 111, "##eoma": 48, "cao": 2, "##ilv": 14, "bitis": 245, "##arino": 16, "sfu": 28, "mfc": 4, "mcp": 6, "##beck": 38, "##erst": 45, "##hisis": 279, "##eaten": 14, "##auma": 43, "niv": 18, "##nomy": 44, "ktd": 6, "kos": 23, "##phalo": 179, "##fers": 16, "##ebra": 111, "##geson": 4, "ckd": 18, "lng": 10, "##kled": 38, "fcd": 6, "##riele": 9, "##iasi": 386, "##hata": 73, "##manis": 5, "haem": 224, "ats": 110, "##yml": 7, "osi": 2491, "##ymal": 202, "peg": 4, "alo": 470, "mmi": 38, "##thoff": 5, "uth": 73, "fpa": 2, "##toja": 10, "##necs": 5, "drr": 7, "##goid": 65, "vts": 3, "gcd": 4, "mcle": 6, "iru": 239, "##dji": 16, "rsp": 14, "mrk": 2, "maye": 2, "rkh": 7, "##ged": 199, "##pmann": 4, "##ltr": 122, "ole": 1205, "olo": 445, "iibs": 3, "##lro": 14, "pcl": 2, "fha": 2, "ocyt": 396, "##kinje": 4, "grd": 2, "##hmye": 6, "encph": 3, "##oneu": 105, "##laque": 16, "##mpat": 35, "hlt": 7, "##fill": 21, "rx": 85, "eam": 48, "cnp": 4, "##iltus": 5, "##gea": 130, "##tage": 36, "##anoyl": 5, "fpl": 2, "ppa": 33, "agp": 6, "cgl": 2, "eppk": 7, "##aning": 22, "cid": 407, "bir": 36, "##ots": 66, "##ubo": 53, "gbb": 4, "ogs": 29, "ff": 592, "##quen": 24, "xdr": 2, "ator": 445, "##aei": 9, "##rar": 64, "##apid": 15, "##aeli": 12, "##yryl": 141, "##patie": 24, "##lil": 8, "##oulsi": 10, "doy": 2, "dhr": 6, "##lean": 44, "##ornea": 129, "dfna": 3, "zs": 49, "aba": 105, "##skan": 18, "##scan": 23, "ainy": 12, "bsa": 5, "oaf": 2, "arv": 33, "mfm": 2, "fpd": 7, "##aml": 8, "aml": 8, "spre": 9, "##ngel": 41, "cnt": 13, "yi": 131, "##ssels": 18, "##llen": 63, "##oulin": 6, "##inez": 10, "anh": 39, "##vc": 50, "rmd": 16, "ooch": 2, "##gnon": 30, "stha": 4, "vbs": 3, "nxd": 3, "nsh": 11, "##ew": 216, "spga": 2, "cmde": 2, "##ewald": 5, "ulm": 71, "ayg": 2, "aym": 8, "nsr": 7, "aun": 43, "baf": 8, "cse": 7, "##oy": 193, "jps": 3, "jph": 2, "cpc": 2, "glc": 20, "ppkne": 2, "prot": 294, "##mone": 80, "##egs": 9, "psn": 2, "##zd": 13, "dt": 299, "dsma": 7, "##bdoid": 25, "ofc": 3, "##yoshi": 25, "aide": 12, "hec": 33, "##pfd": 8, "##cma": 14, "##upa": 28, "gdd": 8, "omm": 70, "##lbach": 17, "brs": 13, "sbr": 4, "fsn": 7, "hna": 17, "##clp": 7, "myp": 12, "##kovic": 4, "##osity": 85, "hmna": 3, "viia": 2, "##rani": 125, "mdw": 6, "peoa": 2, "hpe": 2, "##neffe": 6, "mlr": 9, "##tap": 114, "##utra": 17, "mdk": 14, "mmd": 15, "##koff": 15, "leb": 106, "wm": 16, "mlc": 3, "tl": 261, "sthe": 207, "kok": 32, "##rated": 237, "braue": 2, "kpp": 22, "kef": 2, "mpc": 6, "##ichol": 24, "##ormal": 64, "kcn": 3, "enfl": 9, "arp": 94, "oof": 15, "pfm": 2, "nno": 60, "ocele": 771, "##honi": 30, "##nik": 26, "blau": 4, "pdz": 2, "pnk": 5, "gep": 5, "auts": 2, "cim": 15, "##mour": 36, "##aska": 18, "fgf": 2, "feb": 21, "##ndler": 66, "spra": 14, "brk": 7, "gcc": 5, "loey": 2, "lah": 9, "##rbane": 10, "##selet": 5, "lle": 359, "psh": 9, "##kirk": 4, "##wick": 43, "nsd": 11, "daii": 2, "rri": 142, "##mere": 35, "spd": 15, "smda": 2, "arcc": 2, "atfb": 2, "mdp": 15, "crya": 4, "##chyl": 54, "ots": 66, "aspg": 2, "hyt": 133, "##ilin": 72, "##bcd": 19, "##ocho": 147, "##suria": 168, "hii": 13, "cdm": 8, "mckeo": 3, "##bloch": 11, "mrt": 6, "adlt": 3, "abcd": 3, "hnfa": 2, "##kah": 10, "##jii": 6, "fsp": 6, "tsc": 20, "##ssie": 7, "##poly": 311, "hdc": 4, "kuz": 1, "##nieck": 1, "##gyria": 79, "##mmpc": 4, "##ifa": 48, "eca": 143, "eik": 5, "ldy": 11, "rpy": 2, "tkc": 2, "goe": 40, "##minne": 8, "##pino": 32, "xlt": 3, "thc": 12, "shf": 12, "bry": 44, "xn": 10, "cfp": 3, "pfd": 8, "##tori": 41, "xlp": 5, "xme": 3, "##zyg": 27, "prs": 23, "fxta": 3, "tdd": 6, "dl": 219, "asg": 7, "ihg": 3, "gpl": 4, "##heck": 20, "issc": 2, "hts": 50, "hdr": 8, "ambr": 4, "kds": 5, "fph": 3, "muh": 2, "##dauer": 8, "kui": 2, "##eten": 30, "mcr": 6, "wg": 8, "##vrp": 3, "vc": 50, "erv": 170, "##ghton": 10, "bhd": 7, "hmo": 30, "pfhbi": 6, "hfu": 2, "achm": 27, "gms": 7, "##usos": 12, "gv": 19, "##glom": 50, "msm": 5, "##fibri": 87, "cma": 14, "cmtri": 4, "cmtdi": 8, "snc": 7, "tcp": 4, "ait": 53, "coq": 4, "oxp": 5, "nml": 4, "epr": 94, "ftl": 5, "roi": 274, "asd": 15, "##thrix": 88, "htl": 6, "##iev": 35, "cba": 3, "bfi": 3, "nsl": 26, "cmte": 6, "ipd": 8, "ika": 26, "hop": 128, "##whs": 5, "fcn": 15, "ilv": 14, "cie": 88, "aei": 9, "lcc": 9, "pcha": 3, "lpr": 28, "thm": 114, "bgd": 10, "bbg": 3, "##wf": 16, "##tten": 67, "smn": 12, "evrx": 3, "edv": 3, "##quez": 11, "muo": 2, "vaz": 1, "fpo": 3, "aya": 52, "bcd": 19, "##ngy": 314, "amcx": 2, "xlsma": 2, "xlsa": 2, "alds": 10, "adf": 8, "ixd": 2, "nsia": 17, "odg": 7, "##uart": 18, "dxse": 2, "cbp": 2, "pmg": 12, "rrd": 3, "scn": 6, "xhm": 2, "##bkg": 3, "ug": 233, "rfm": 4, "odp": 8, "odpd": 3, "smr": 9, "ahm": 17, "##wx": 3, "##omer": 104, "sx": 30, "maa": 13, "##lx": 39, "mks": 3, "cdt": 3, "##atur": 103, "mcco": 3, "##adic": 96, "asr": 4, "hca": 12, "lel": 17, "agb": 2, "##inova": 10, "##uxe": 12, "bda": 15, "##takis": 10, "dya": 7, "gdh": 12, "vw": 10, "krp": 3, "upg": 4, "gnm": 6, "fk": 18, "vam": 5, "ppb": 6, "##scin": 34, "mrg": 9, "##acer": 27, "##raf": 47, "csnba": 2, "dax": 5, "xpe": 16, "arw": 3, "##wey": 6, "##mulle": 8, "stl": 43, "##ocula": 55, "zwe": 6, "##ndam": 15, "ved": 145, "##zay": 6, "##feet": 18, "lpha": 78, "raa": 28, "##lane": 49, "omc": 7, "##vaux": 4, "##tout": 17, "tbs": 2, "bcy": 3, "cmn": 3, "jar": 23, "##udi": 55, "kho": 4, "iosc": 28, "ryu": 3, "##yuan": 12, "##uenay": 8, "igfr": 2, "sso": 112, "rig": 147, "##ues": 125, "rcp": 5, "rhn": 2, "enh": 36, "mz": 3, "##oren": 73, "ulb": 47, "hcl": 5, "umph": 3, "pde": 4, "epd": 17, "##gmy": 6, "aoo": 2, "##socas": 10, "apb": 15, "gik": 5, "##imura": 22, "ppf": 2, "kow": 54, "##arski": 8, "rmc": 2, "kop": 38, "##zyk": 5, "kro": 3, "hjd": 2, "saa": 11, "pkp": 5, "rns": 72, "##eel": 75, "cze": 33, "##izel": 4, "oeis": 2, "otd": 6, "mva": 6, "nnh": 4, "vli": 7, "dlc": 4, "##alie": 34, "##bly": 53, "hml": 7, "epmb": 2, "lgm": 27, "snee": 9, "brd": 3, "mip": 43, "tmi": 2, "feo": 6, "fif": 5, "ffd": 3, "##pens": 44, "##ither": 11, "gir": 9, "##bank": 15, "mpe": 98, "eich": 41, "ecp": 6, "drd": 8, "##hond": 219, "##ahel": 7, "##gins": 19, "##ttia": 10, "##hnut": 15, "##varia": 41, "dont": 143, "ddu": 12, "##ribo": 51, "ress": 182, "##chron": 43, "##smark": 12, "##edial": 36, "bst": 85, "ccl": 44, "ohu": 20, "nii": 131, "##kawa": 19, "scj": 5, "cdo": 7, "menee": 8, "ihp": 6, "pry": 3, "##dact": 113, "zd": 13, "dpe": 4, "phm": 8, "##ermid": 11, "iddsf": 2, "##itin": 119, "##orti": 186, "##osyl": 146, "phra": 25, "aoc": 9, "acrp": 3, "##scher": 87, "##pled": 35, "bde": 8, "gbf": 2, "nm": 80, "##dric": 46, "gne": 79, "qs": 11, "##shot": 28, "bsc": 36, "##ajal": 10, "ctru": 6, "ctp": 3, "cpp": 6, "##mta": 10, "roz": 19, "lmp": 8, "mml": 5, "mmla": 2, "##joen": 4, "hma": 70, "kre": 11, "rps": 26, "fth": 25, "##toba": 27, "dah": 4, "##lberg": 45, "##poy": 4, "keu": 2, "bpi": 2, "cip": 68, "##arara": 8, "##bion": 10, "##bium": 36, "shc": 5, "##forth": 12, "hrd": 9, "##nja": 9, "asal": 500, "affn": 2, "hga": 11, "hls": 18, "cble": 2, "##greve": 10, "reh": 19, "mow": 4, "##lez": 13, "##eron": 124, "##alez": 6, "ncf": 6, "soc": 80, "gom": 65, "etf": 9, "kub": 4, "##ulnar": 36, "fuh": 2, "gw": 21, "##gang": 75, "ffu": 31, "##wadi": 10, "erm": 847, "epv": 2, "pvh": 2, "mcke": 5, "##ever": 78, "eems": 3, "eem": 20, "##arge": 64, "ssp": 13, "##tvoy": 12, "dbs": 3, "aught": 2, "##rgh": 34, "##izia": 22, "plo": 74, "jea": 8, "lsf": 3, "vmc": 3, "aim": 19, "##yan": 119, "orst": 44, "##avik": 10, "##emann": 73, "yv": 14, "##gille": 17, "ndh": 17, "##riend": 5, "oba": 211, "##irh": 8, "spie": 24, "##zam": 25, "##alu": 80, "cmdi": 2, "##iken": 9, "##idem": 83, "zhao": 2, "phil": 256, "mcgra": 3, "ffe": 94, "fpe": 2, "tcc": 6, "ghi": 12, "tfr": 2, "##lough": 23, "##hw": 39, "##inkel": 16, "##athe": 92, "##rall": 46, "##usas": 5, "ulin": 436, "cfm": 4, "##dda": 16, "##horic": 65, "bakk": 4, "##oido": 91, "boc": 77, "##hori": 124, "sting": 152, "lhr": 3, "pcd": 10, "##fak": 4, "##aj": 55, "fts": 30, "gcs": 5, "bwc": 3, "##hami": 22, "mop": 184, "##ggen": 8, "##rster": 20, "##romb": 205, "eao": 2, "##wim": 20, "##lley": 26, "amcn": 3, "##ayat": 10, "iiac": 3, "mun": 213, "##hala": 185, "sox": 12, "##vry": 6, "aak": 2, "obe": 95, "antl": 16, "##etto": 27, "##jalde": 8, "##bik": 5, "upi": 40, "##ngton": 64, "undr": 6, "loh": 36, "##hardt": 24, "##ntion": 86, "tef": 16, "eum": 554, "tlp": 2, "nog": 184, "lb": 265, "##nbg": 6, "sdt": 4, "##wki": 3, "##ridge": 27, "##rave": 43, "stb": 4, "##astad": 4, "##slet": 11, "yor": 13, "yps": 44, "ssk": 2, "clei": 29, "elsc": 9, "##chnig": 8, "eww": 3, "acv": 3, "fdd": 6, "itmb": 2, "##iaca": 22, "ctm": 2, "cz": 80, "##rifo": 25, "##esl": 13, "##belli": 22, "##rfi": 31, "sra": 22, "ibgc": 3, "yam": 24, "##guchi": 9, "##tura": 52, "##uctus": 18, "wns": 14, "##steo": 292, "mfh": 6, "bdm": 5, "aab": 8, "##sian": 178, "sv": 81, "##eins": 85, "ahh": 4, "##rary": 48, "phism": 181, "rfl": 19, "##ymous": 25, "##oit": 41, "##pyri": 48, "rbed": 46, "ua": 409, "ping": 391, "##utka": 10, "hch": 7, "yss": 43, "sbby": 2, "##ecker": 22, "mpr": 41, "hme": 30, "edstr": 2, "##jl": 11, "ctl": 6, "arrh": 56, "gif": 16, "recht": 4, "##ansi": 29, "giu": 15, "mpp": 7, "phd": 14, "hln": 2, "##mall": 39, "##plate": 30, "ead": 148, "##oteux": 4, "pcs": 3, "shm": 32, "gds": 4, "hcc": 10, "pnpo": 2, "thma": 25, "nguye": 2, "ebl": 17, "##garet": 10, "koo": 7, "##vieve": 10, "##vive": 7, "sbc": 6, "##thern": 16, "maf": 10, "##jee": 2, "sq": 61, "mpi": 32, "##rotal": 72, "##fants": 15, "epe": 55, "dclre": 2, "abcb": 2, "pont": 61, "cge": 3, "##ouri": 54, "hci": 2, "otu": 50, "dch": 7, "dfm": 3, "##gonia": 10, "##tinen": 27, "aul": 51, "edsm": 4, "cgr": 7, "yem": 17, "##enite": 8, "##oulos": 18, "##tela": 30, "##mda": 28, "ntd": 2, "teu": 30, "##rsen": 63, "kns": 6, "##lpe": 34, "##adeh": 9, "shl": 12, "ums": 197, "scp": 2, "hob": 38, "rdc": 9, "rbp": 3, "##lcif": 39, "cub": 23, "##itale": 28, "##gyi": 11, "##lagh": 14, "##elen": 22, "##aere": 18, "ner": 722, "tpt": 3, "psd": 11, "##rston": 8, "fort": 43, "ouvr": 2, "rdp": 6, "pkc": 4, "meie": 4, "##gated": 63, "##ohoid": 5, "gle": 110, "bga": 5, "vah": 7, "athia": 381, "hbb": 4, "pfhba": 2, "##rted": 109, "##pesvi": 19, "inph": 4, "horn": 70, "whs": 5, "##otter": 12, "vsd": 3, "urias": 296, "urea": 118, "##icate": 64, "##erd": 76, "##bony": 9, "##larg": 17, "##edius": 24, "##ferr": 62, "ors": 330, "fbs": 2, "patic": 178, "##culus": 85, "effl": 9, "##wash": 17, "##anu": 200, "ded": 332, "oral": 605, "etl": 9, "nfl": 100, "bdb": 3, "mgs": 2, "phpva": 2, "nhe": 27, "mbe": 64, "fraa": 2, "hain": 21, "lbs": 5, "xfe": 5, "##renia": 60, "##monas": 160, "tib": 102, "##iot": 79, "##septa": 17, "##franc": 13, "six": 5, "##sten": 103, "impr": 12, "##oper": 157, "##eusi": 15, "##henol": 58, "rdw": 5, "bat": 70, "##lite": 44, "##eline": 44, "##ovs": 8, "nter": 501, "##gnant": 58, "##spid": 86, "koc": 37, "##sard": 8, "##somn": 35, "##amoid": 8, "ose": 1554, "vig": 16, "##orous": 52, "cab": 35, "##plin": 17, "##bnail": 9, "##ours": 42, "vab": 3, "##uded": 39, "##nzie": 5, "ssb": 8, "lsb": 5, "##flav": 37, "##yseal": 716, "##ilio": 30, "##teal": 210, "mtr": 7, "mtt": 8, "aai": 4, "##oeck": 27, "##hda": 10, "##lek": 11, "##sers": 38, "##lates": 22, "mpa": 129, "uncn": 5, "hpro": 3, "lst": 26, "hda": 10, "ndp": 13, "##asmic": 105, "ntr": 451, "ntc": 9, "othr": 62, "lpd": 6, "rch": 220, "sce": 132, "exf": 23, "##fldt": 7, "##uous": 131, "##xrt": 5, "mvm": 3, "stc": 59, "##exert": 16, "ya": 448, "utr": 77, "iip": 9, "##gell": 16, "bmi": 2, "hpd": 6, "cte": 239, "frai": 4, "lpa": 16, "##iesis": 156, "##cculi": 11, "dau": 26, "##werse": 8, "btp": 2, "##sapa": 4, "cchi": 18, "bds": 8, "eom": 73, "gjb": 2, "##ston": 122, "##ifier": 30, "lds": 120, "aap": 7, "phoa": 5, "##woc": 4, "wnt": 2, "lfl": 2, "gat": 79, "draye": 2, "idhb": 2, "ddo": 11, "##cusis": 90, "edss": 5, "hac": 56, "##famil": 21, "##rint": 47, "##dhry": 10, "gcm": 2, "myd": 27, "##axin": 14, "stx": 2, "##eret": 29, "mft": 5, "nte": 669, "##lcnac": 5, "##ppase": 4, "rft": 4, "zap": 13, "##pella": 14, "##donal": 12, "rid": 417, "xle": 4, "wski": 91, "##wb": 20, "wu": 7, "spm": 11, "gloo": 2, "yak": 2, "cio": 154, "vuo": 4, "##pala": 58, "tmb": 5, "ups": 49, "hrm": 9, "mcv": 2, "wse": 2, "edsd": 2, "erms": 12, "edsc": 5, "##enn": 77, "eard": 15, "##rums": 39, "##faces": 15, "onj": 61, "ew": 216, "##enem": 75, "##penem": 27, "##glen": 6, "##front": 58, "cpm": 6, "ods": 81, "##acity": 7, "cen": 229, "##ocep": 106, "##livan": 4, "ermit": 23, "ansd": 3, "sry": 8, "ftm": 3, "hfs": 5, "##lacr": 34, "##lach": 11, "dla": 14, "##zakii": 5, "smc": 6, "##nkled": 16, "mtc": 9, "gdi": 2, "znf": 2, "xec": 2, "lra": 5, "##edal": 37, "cdfe": 2, "tpm": 4, "bna": 3, "##evity": 5, "itg": 2, "urd": 27, "##fki": 2, "glco": 2, "cbx": 6, "mpm": 2, "fap": 9, "gsn": 3, "ixc": 2, "aipl": 2, "##ovic": 48, "cdgo": 2, "pgm": 5, "##cheti": 8, "cei": 31, "ogd": 4, "kg": 16, "ogl": 300, "xpc": 7, "kut": 16, "##ploid": 31, "##myel": 249, "##gamma": 57, "rtn": 21, "opth": 21, "##neuro": 338, "dps": 10, "onst": 54, "##lgif": 7, "cnj": 2, "##ively": 128, "##ogni": 18, "stae": 2, "usa": 85, "sns": 23, "##rnrl": 4, "ndo": 309, "rst": 196, "nbi": 11, "##throm": 210, "##rcli": 6, "##rtclo": 4, "##dwn": 4, "fct": 8, "rgn": 8, "##ount": 40, "thd": 10, "thg": 2, "boa": 17, "##craft": 6, "##union": 24, "##tulum": 8, "insr": 2, "plt": 19, "##ginea": 5, "##lage": 70, "tions": 1671, "##mosa": 26, "##opy": 138, "##roxyl": 22, "##irae": 8, "edg": 9, "##vite": 14, "##corn": 69, "dso": 14, "##whr": 9, "htr": 6, "astic": 880, "##ggi": 20, "shly": 7, "moda": 15, "antoi": 16, "##aso": 142, "##mbat": 13, "##avit": 35, "##aded": 50, "cfe": 8, "alden": 11, "##fmann": 16, "##arzt": 5, "tz": 381, "##skar": 4, "##quier": 5, "##sous": 6, "##nato": 34, "cto": 338, "##orin": 95, "##lvar": 64, "haya": 3, "##saka": 9, "aks": 32, "azi": 158, "khi": 5, "ueb": 9, "##kamo": 6, "##isson": 17, "abb": 18, "##ailla": 6, "dpa": 12, "stt": 13, "##raya": 9, "##send": 12, "hw": 39, "##vik": 12, "##imon": 20, "syb": 2, "yus": 5, "meu": 4, "boh": 12, "mde": 12, "##enp": 13, "ceu": 11, "##dtson": 4, "meh": 5, "yal": 81, "bob": 2, "##kerat": 160, "qa": 9, "##oui": 13, "##nari": 31, "##umara": 8, "##bulo": 93, "ctn": 37, "kat": 31, "waa": 7, "##zola": 19, "##kker": 4, "##tzer": 23, "##obes": 30, "##raco": 83, "##terlx": 4, "ptl": 8, "schaa": 3, "schae": 12, "osh": 28, "##taxia": 59, "##unis": 32, "##smans": 4, "##ffn": 10, "dreye": 2, "##tinek": 6, "slt": 3, "soh": 7, "sof": 19, "yeb": 11, "##tolo": 60, "##agno": 28, "dib": 77, "##bern": 19, "##ifuji": 4, "oku": 10, "zad": 2, "zam": 25, "##iff": 99, "##lips": 13, "##schel": 6, "##rsha": 11, "dyc": 12, "tpe": 7, "kap": 19, "##lowi": 10, "##urtha": 4, "stos": 157, "hsi": 2, "##dock": 6, "##lang": 139, "##rah": 46, "##arpo": 26, "##atar": 36, "##brata": 4, "##gaard": 5, "cuc": 4, "##andi": 115, "kam": 27, "ship": 54, "utl": 11, "##edge": 27, "##dakou": 5, "##yanni": 5, "xb": 16, "##tola": 22, "##nyi": 10, "kot": 8, "aho": 8, "isa": 166, "##ssh": 15, "mse": 20, "##quat": 20, "##cka": 25, "iahsp": 2, "cchio": 7, "ched": 118, "set": 76, "##osia": 105, "##ectro": 53, "##kell": 15, "##xell": 7, "##hapa": 5, "##rwal": 9, "msa": 11, "##cario": 13, "nfa": 67, "##loto": 11, "##gora": 19, "zil": 24, "##nbaum": 15, "clp": 7, "##gari": 16, "##terna": 71, "##yma": 115, "##eker": 28, "##geman": 13, "##llouf": 4, "lyn": 40, "##eling": 75, "##nski": 43, "##ssan": 23, "##hieu": 4, "##arthy": 8, "seo": 40, "ram": 476, "##snow": 11, "yer": 147, "##makov": 4, "##eble": 6, "##raef": 9, "##mose": 18, "##lmaz": 3, "##aglia": 10, "##ulou": 47, "##dwell": 13, "##nme": 15, "gnan": 22, "jss": 2, "soe": 14, "erki": 13, "##walt": 10, "bah": 1, "##emuka": 4, "gtd": 2, "preu": 2, "lane": 49, "##arde": 36, "##dysp": 193, "##ferer": 4, "##owicz": 5, "##hina": 19, "yed": 37, "##losyl": 14, "##ndez": 17, "##ruch": 17, "##skopk": 5, "##wicz": 21, "##itu": 135, "##mara": 19, "##calv": 17, "##tabi": 19, "mcg": 7, "##ibbon": 7, "ers": 2439, "aig": 18, "aren": 63, "fhd": 5, "##turi": 61, "##cidi": 55, "enbe": 26, "##akoff": 5, "##fne": 20, "fne": 20, "##warts": 8, "alth": 16, "ue": 705, "osx": 4, "nfec": 74, "gth": 25, "##toi": 137, "##kling": 46, "##atti": 29, "##toff": 10, "##pting": 21, "##pef": 4, "bmf": 5, "cbm": 6, "nmda": 2, "gpr": 2, "##gnt": 11, "hwe": 8, "##igodu": 10, "mnm": 2, "beck": 38, "##typic": 34, "fnd": 16, "iij": 5, "igl": 42, "bln": 3, "lrr": 4, "xv": 24, "ocm": 7, "omd": 8, "##ythe": 54, "fw": 2, "tcb": 2, "##bc": 141, "bbi": 22, "##lieu": 10, "mdn": 8, "lkd": 4, "hdb": 9, "dag": 27, "plca": 2, "tnc": 8, "ngp": 2, "cks": 223, "ighm": 2, "lus": 1315, "##itan": 74, "rple": 7, "tx": 28, "##rlne": 5, "rsk": 12, "dmg": 3, "lsn": 9, "nvl": 3, "neh": 10, "trm": 23, "shg": 3, "vmt": 3, "##usly": 97, "##berc": 54, "##riat": 52, "##atri": 74, "##lodin": 14, "rtic": 279, "dox": 42, "##chor": 143, "##itral": 20, "##caval": 17, "##ett": 166, "##oofed": 4, "ncs": 6, "lr": 154, "##letic": 8, "jon": 6, "axsp": 2, "tex": 43, "##lepsy": 49, "##erln": 4, "##laced": 22, "##yoid": 34, "mhb": 5, "xyy": 14, "yy": 33, "epc": 3, "gob": 3, "gch": 5, "##mento": 45, "avs": 13, "ado": 111, "acrd": 5, "adcl": 2, "sfn": 3, "fbc": 3, "gph": 2, "##ysd": 15, "hghh": 3, "jds": 6, "kim": 16, "lfi": 35, "ltc": 2, "erger": 107, "naa": 4, "gpa": 6, "ahp": 4, "##ppen": 31, "kpl": 5, "igk": 2, "hbl": 12, "krei": 8, "##tani": 48, "raf": 47, "##vps": 11, "apu": 97, "fgl": 3, "tpd": 3, "nis": 420, "##lipd": 4, "mbl": 47, "cbd": 3, "glee": 2, "mch": 3, "##qmr": 3, "hgc": 5, "htg": 3, "##lnd": 7, "rmf": 4, "icr": 273, "bbd": 3, "xyyy": 3, "phae": 24, "rcr": 10, "blc": 5, "gyr": 43, "phpa": 2, "##ctio": 286, "mmp": 5, "abh": 7, "rgs": 113, "nbm": 4, "ks": 532, "ube": 141, "igb": 3, "myoa": 4, "prpe": 3, "ichth": 25, "##yin": 53, "vda": 2, "##khart": 18, "##ackie": 25, "##mitr": 11, "ral": 4553, "##fene": 22, "##nali": 70, "hvd": 4, "dva": 6, "msp": 4, "ushk": 2, "aidp": 2, "##nklin": 16, "##hilum": 38, "##dioli": 6, "rence": 138, "##chko": 8, "##lhed": 5, "chte": 14, "bpa": 7, "pmgy": 3, "lpf": 3, "iil": 5, "isp": 77, "lrb": 5, "iik": 6, "mpy": 31, "kmi": 3, "tii": 80, "stk": 2, "crp": 15, "jok": 2, "ufs": 10, "##actyl": 111, "actn": 3, "pik": 19, "tys": 31, "##henko": 12, "##urp": 34, "##nect": 44, "rted": 109, "##tzger": 6, "##kines": 58, "##iril": 31, "asps": 7, "crie": 2, "##udo": 413, "##eber": 50, "pae": 35, "##uped": 20, "##limb": 48, "xlc": 2, "##ians": 42, "##iles": 25, "sory": 146, "##ruo": 3, "pug": 4, "pei": 4, "##ador": 8, "##auzer": 5, "##lled": 70, "yolk": 2, "hat": 223, "##etit": 18, "##dymis": 38, "##aldes": 6, "##coel": 49, "##tylis": 7, "tive": 3157, "##endii": 4, "tus": 844, "adnfl": 2, "##euvre": 5, "noh": 21, "##abra": 8, "##glin": 21, "##ontic": 77, "##bje": 7, "eous": 1316, "##gii": 60, "##navir": 35, "##usia": 102, "##kmann": 23, "slou": 4, "pleg": 83, "##copy": 50, "glia": 27, "dguo": 2, "##snb": 24, "osp": 610, "ampd": 3, "apd": 14, "kk": 23, "ddh": 9, "rhp": 3, "fes": 26, "fho": 2, "irf": 3, "jj": 8, "ngly": 11, "edsp": 4, "tcr": 9, "ilf": 12, "ndg": 2, "epk": 2, "sam": 86, "icl": 73, "pw": 22, "yang": 6, "##yng": 181, "asns": 4, "rnh": 10, "##xps": 4, "##tmp": 5, "##nstra": 16, "##umab": 19, "##phro": 120, "##tids": 17, "##blind": 17, "bcgi": 2, "##qual": 20, "##otype": 54, "##bner": 34, "mvc": 3, "##citis": 203, "ional": 1072, "ibg": 3, "hcy": 2, "hge": 6, "##mte": 14, "fna": 6, "smu": 66, "alw": 5, "##itne": 5, "quie": 7, "phh": 6, "##osmia": 62, "eot": 39, "ncie": 30, "##irc": 89, "vrc": 2, "bly": 53, "##stul": 37, "##ypnia": 4, "##sfb": 4, "nlr": 2, "accf": 4, "aha": 35, "sga": 11, "##plers": 4, "ifng": 3, "##ngam": 9, "iy": 19, "ssr": 10, "##mping": 30, "bto": 4, "ilb": 30, "ilrb": 2, "lck": 4, "msc": 20, "ooc": 49, "oomd": 3, "ssm": 17, "##sba": 58, "ivm": 3, "##hout": 29, "vsv": 7, "##sbas": 11, "xig": 5, "##ortel": 14, "tbr": 4, "pgb": 3, "miu": 7, "aif": 2, "##rred": 40, "zf": 12, "sif": 46, "rdj": 5, "isg": 6, "##rihf": 4, "rdo": 36, "aal": 33, "rja": 5, "mup": 3, "##wta": 4, "xvi": 23, "tno": 5, "##nepd": 3, "igs": 50, "glob": 229, "##xion": 52, "##dylic": 91, "spla": 161, "alic": 513, "##neage": 22, "itive": 287, "##ryst": 27, "##gual": 136, "##drop": 87, "##topic": 67, "##ncing": 25, "drea": 4, "##tment": 103, "##anni": 41, "##aryn": 174, "emt": 18, "##ulla": 41, "##salva": 9, "##rynx": 95, "##gral": 109, "##ently": 86, "mto": 9, "myoe": 7, "dgk": 6, "arhg": 2, "anl": 12, "ths": 183, "##oci": 94, "##hilar": 12, "##rgia": 56, "##prung": 35, "##toral": 47, "##otoi": 7, "##hew": 22, "##adam": 10, "haz": 13, "##elnut": 4, "##cured": 4, "fot": 10, "pfa": 3, "mpb": 12, "ebp": 2, "raq": 9, "ksh": 2, "kic": 49, "##moti": 44, "arism": 149, "##tual": 96, "##coli": 131, "##inck": 19, "##sbg": 4, "sfm": 3, "##iou": 95, "rrei": 2, "scm": 3, "iio": 10, "mrf": 3, "##lahi": 9, "aisb": 6, "##enou": 64, "tks": 4, "rdi": 450, "##awi": 11, "pmp": 2, "yuan": 12, "##smore": 11, "sks": 26, "auk": 2, "ssme": 2, "xvii": 2, "zl": 10, "yos": 109, "bvs": 3, "ail": 164, "##jk": 4, "sgm": 4, "lik": 47, "echs": 3, "##cann": 19, "##pero": 92, "##leda": 16, "arths": 5, "##ahdd": 5, "##rhan": 9, "amdd": 2, "sos": 99, "odr": 23, "ria": 5897, "chey": 6, "##orbid": 15, "mcla": 2, "trt": 11, "nex": 25, "##dtve": 7, "##fove": 22, "atrp": 4, "sbf": 2, "exdtv": 2, "spt": 2, "fpi": 3, "##oital": 10, "##erlin": 19, "urr": 66, "##valia": 3, "itory": 116, "##hlea": 26, "luj": 3, "##apple": 18, "soni": 75, "##vons": 4, "##sley": 31, "lbw": 5, "yong": 5, "##oscis": 5, "##ortin": 115, "upd": 3, "##ehe": 12, "itk": 4, "sft": 3, "##tonin": 66, "wry": 13, "ifn": 4, "afm": 4, "##jus": 7, "erine": 293, "##bros": 73, "##prov": 12, "##oked": 28, "##rous": 379, "##istr": 31, "esch": 51, "##under": 46, "##iens": 131, "##ules": 90, "bak": 10, "##rania": 49, "##ntive": 17, "##pple": 62, "##ssens": 18, "##dman": 41, "##opod": 44, "fkb": 3, "##unnos": 5, "##egel": 21, "##first": 8, "##stero": 138, "isk": 40, "##nius": 20, "chman": 38, "jum": 7, "##onji": 4, "##enin": 230, "##agrel": 5, "##veod": 7, "veo": 57, "ahn": 3, "otx": 3, "mug": 3, "##wort": 10, "myh": 7, "##oabg": 4, "gda": 11, "peb": 18, "yoon": 2, "rdeo": 3, "iddc": 2, "sih": 1, "##iwes": 4, "##idds": 14, "zhu": 3, "##tini": 81, "thau": 4, "iaa": 4, "##veau": 10, "ocn": 5, "yh": 26, "adsd": 4, "iol": 415, "mfl": 5, "##tev": 12, "mrl": 2, "##vdx": 4, "lsm": 33, "##flad": 4, "brie": 11, "sing": 635, "iq": 57, "##leli": 13, "idh": 5, "##mcu": 6, "##herd": 13, "##eferi": 5, "##gaze": 23, "##fidd": 5, "chde": 2, "##nbh": 10, "nsc": 40, "iiq": 5, "##nnes": 17, "iddf": 3, "shd": 17, "nmi": 6, "##hba": 22, "##npf": 4, "rmn": 2, "rdm": 5, "##evs": 8, "dci": 7, "baye": 2, "bez": 20, "##ziana": 4, "##vor": 41, "##feren": 32, "uncl": 18, "##tnl": 16, "bne": 19, "##duce": 23, "##etil": 7, "##eels": 15, "jas": 5, "vat": 121, "oer": 40, "krt": 2, "dlr": 12, "mrr": 2, "##sdc": 12, "##take": 25, "yosh": 7, "##shita": 5, "##udain": 5, "##kova": 20, "##eesch": 5, "##hez": 21, "sip": 28, "ncal": 44, "##nyla": 33, "iln": 2, "mib": 14, "##lesi": 21, "##rieth": 6, "##cuum": 15, "##orine": 50, "ttr": 38, "##undo": 10, "##zure": 46, "skra": 8, "skd": 4, "jl": 11, "mmy": 10, "##mlas": 5, "iec": 73, "##eid": 53, "##vepd": 3, "##dhh": 15, "nda": 140, "##scw": 10, "tun": 33, "##nelle": 20, "##rance": 115, "##exci": 17, "##hino": 111, "##hosp": 320, "##rtro": 44, "dg": 174, "bsp": 7, "atus": 309, "rws": 3, "sdb": 5, "##mers": 77, "##kill": 28, "##teo": 307, "##urst": 42, "hpm": 7, "##pato": 85, "##olig": 75, "taf": 10, "##cking": 133, "lk": 189, "##uted": 27, "tom": 591, "##zee": 8, "ibb": 16, "kuc": 9, "##insk": 10, "##kucs": 4, "##dme": 9, "lcae": 11, "elh": 3, "##attab": 6, "##jans": 9, "taq": 2, "msk": 5, "##rlp": 4, "aux": 57, "ilm": 19, "adk": 4, "ints": 53, "lgi": 217, "##onu": 90, "##lope": 73, "##essen": 16, "##veld": 24, "pez": 13, "##ncer": 45, "##fusi": 43, "koh": 7, "abu": 23, "yp": 2234, "ghs": 40, "ghre": 3, "##ucane": 4, "kur": 9, "##fusin": 5, "##olyn": 28, "##mogl": 67, "##greek": 5, "mda": 28, "##case": 66, "plai": 11, "sive": 921, "##ftia": 6, "wolf": 23, "##mmon": 45, "praa": 2, "##dca": 25, "##riid": 9, "iddh": 4, "eor": 41, "iddms": 2, "imde": 4, "##chcm": 4, "cug": 3, "tsa": 8, "yq": 3, "mtle": 3, "kah": 10, "##ucid": 28, "anch": 68, "wwo": 3, "##udel": 5, "nef": 15, "sky": 208, "##ivo": 46, "##pool": 15, "##ipela": 8, "##gans": 31, "dpp": 5, "nfs": 3, "##dron": 42, "##ronic": 94, "tud": 23, "dst": 26, "##geli": 16, "roh": 70, "##lano": 87, "huf": 5, "##nagle": 4, "prk": 4, "fbl": 3, "##ymo": 70, "vps": 11, "gpp": 3, "##zaki": 16, "##choli": 59, "pst": 9, "rii": 25, "##koid": 8, "##hva": 4, "##uenz": 16, "xc": 93, "eyeg": 3, "##amil": 43, "cza": 2, "##czak": 6, "aldh": 3, "##alle": 99, "##rust": 23, "ipp": 83, "##fand": 4, "shb": 7, "##lipin": 29, "apv": 6, "##ucle": 84, "##aflet": 12, "abi": 158, "##mvps": 4, "gsm": 9, "##qtl": 3, "meo": 5, "##xcf": 4, "pag": 22, "##anini": 4, "##zzo": 19, "laa": 5, "tpf": 2, "fhe": 5, "arl": 68, "##viba": 8, "ndca": 5, "iddss": 3, "dfa": 18, "##fsa": 14, "vic": 510, "odl": 3, "rrs": 11, "##rno": 52, "iks": 8, "gha": 12, "##ouet": 7, "table": 161, "prai": 5, "city": 353, "fns": 10, "##algic": 53, "##serpl": 7, "##dibu": 54, "##gyo": 8, "hfm": 5, "alkh": 5, "##urma": 8, "##haini": 4, "##prck": 4, "akh": 2, "sod": 61, "idn": 8, "##adfs": 4, "##zka": 5, "wska": 7, "##qi": 14, "opm": 22, "##perin": 72, "##osb": 6, "hlb": 13, "idds": 14, "lsk": 3, "##lvs": 5, "spro": 23, "edf": 6, "vor": 41, "##venu": 11, "pob": 17, "##inds": 10, "##ddfs": 6, "bix": 4, "fih": 5, "ohv": 2, "ihe": 15, "lhe": 13, "ocho": 147, "pii": 10, "tda": 10, "kil": 39, "##mucor": 20, "pmi": 2, "##onat": 104, "elm": 46, "##asty": 77, "iir": 7, "pdm": 8, "hao": 7, "ceb": 6, "##alid": 36, "ifa": 48, "##ntile": 52, "##ahrs": 4, "jr": 9, "stef": 10, "tli": 12, "idp": 16, "##ogsa": 4, "phri": 42, "gub": 4, "##ribf": 4, "##gmans": 4, "cria": 37, "##dhy": 4, "rdl": 16, "sdj": 1, "##laba": 16, "iit": 50, "##farb": 11, "##libf": 6, "mdb": 18, "##jed": 4, "lso": 30, "##ipede": 15, "##idum": 28, "##tsch": 11, "niu": 51, "gj": 8, "##hyri": 51, "##ersi": 79, "##ulia": 46, "agi": 291, "##asur": 10, "##ntial": 135, "##lonic": 159, "shda": 3, "lyp": 68, "##sdem": 5, "dmr": 6, "##luta": 95, "ddx": 2, "ahlb": 2, "aeck": 5, "##ammer": 12, "nsa": 65, "##akso": 8, "oci": 94, "##helle": 7, "tma": 67, "##xas": 15, "##iman": 16, "##gnec": 4, "##bani": 10, "##shman": 20, "##yshi": 9, "aiid": 3, "##rdd": 11, "bup": 9, "##uist": 5, "##eill": 17, "##mnes": 11, "oie": 42, "kaya": 23, "kamp": 10, "##kres": 4, "##pads": 7, "syl": 228, "rvr": 3, "clna": 2, "##thel": 96, "##eses": 209, "nl": 124, "##paste": 18, "##nfu": 25, "##eroma": 51, "lrp": 4, "achr": 22, "naz": 37, "mute": 7, "##heral": 67, "hsc": 9, "tatio": 182, "##ypt": 83, "##pses": 20, "ileal": 21, "rya": 19, "ryr": 3, "ssf": 4, "##iba": 53, "##vesl": 6, "mle": 9, "tpp": 3, "##terl": 18, "##xoa": 12, "ahr": 23, "##dorf": 35, "bdv": 2, "##leio": 11, "csp": 6, "oors": 3, "ohe": 90, "##fba": 9, "bav": 6, "##ahaka": 4, "hkt": 2, "##racht": 21, "##ohan": 10, "##esda": 6, "##grade": 43, "##chid": 24, "hbo": 4, "pyu": 2, "pak": 3, "efp": 5, "##emy": 17, "hif": 5, "##thyl": 180, "oom": 56, "##ycot": 33, "enone": 45, "worms": 45, "dsko": 2, "insl": 2, "##strin": 28, "egf": 3, "iot": 79, "bca": 9, "cdgwa": 2, "##neds": 21, "luo": 42, "##uddin": 5, "usr": 7, "##osba": 5, "ddi": 46, "##cags": 6, "ssd": 23, "##zdan": 3, "##ofian": 5, "zk": 13, "##wag": 14, "arsk": 8, "##guson": 4, "yob": 3, "##eln": 9, "sdp": 6, "mtd": 20, "##bera": 17, "##uisk": 5, "##exin": 40, "dga": 12, "ror": 105, "rar": 64, "rnu": 25, "mys": 5, "mpn": 6, "##stosi": 79, "msn": 16, "nek": 22, "rlt": 2, "htra": 2, "##oaiv": 4, "wac": 11, "##acsin": 5, "##mnal": 10, "##yac": 13, "##caliz": 11, "voc": 16, "##alise": 12, "unst": 11, "dynia": 516, "##pain": 36, "cres": 16, "diz": 11, "##zines": 7, "sob": 27, "ota": 158, "##lgias": 187, "##nthem": 59, "ence": 938, "##gued": 5, "##gues": 43, "##guin": 43, "##arine": 62, "##itude": 39, "##xias": 93, "fuo": 2, "##ngeus": 51, "ore": 560, "ostom": 98, "##mitt": 37, "croa": 35, "less": 182, "lbp": 3, "quea": 2, "##ously": 86, "##rvy": 18, "##mare": 31, "##skel": 65, "ural": 762, "thou": 10, "##aint": 50, "##dors": 33, "##eting": 37, "swoo": 6, "##opal": 51, "rev": 64, "##eez": 24, "lot": 128, "##eless": 38, "##lless": 5, "##tated": 88, "##tates": 29, "##wheel": 10, "##idit": 68, "##odyn": 85, "##tancy": 26, "gnt": 11, "rgd": 4, "##lky": 20, "##overs": 25, "##jecti": 19, "ailm": 2, "unw": 5, "##rhyt": 47, "##url": 23, "ching": 179, "##nslen": 4, "##barn": 8, "##ulas": 66, "maid": 25, "tit": 383, "##dling": 28, "lur": 103, "##onet": 10, "thea": 9, "tap": 114, "shru": 3, "toei": 4, "##eing": 32, "##ocat": 33, "##ocate": 13, "hys": 224, "##sper": 106, "##nchal": 4, "##ursi": 12, "##lsu": 17, "##guth": 5, "##tence": 81, "##gast": 165, "##rding": 22, "tnd": 6, "##ixis": 12, "##nome": 45, "##come": 53, "##nwald": 6, "##enne": 59, "heg": 9, "##kacek": 4, "##tock": 22, "blui": 2, "##lexi": 45, "##inus": 143, "##used": 36, "##erism": 42, "##logi": 118, "##sody": 17, "lli": 637, "##rue": 26, "ard": 864, "achs": 17, "##errin": 51, "##talg": 29, "opha": 263, "##osias": 24, "eryth": 204, "hness": 26, "##wels": 9, "##tomas": 88, "##gish": 10, "ruq": 2, "##ndra": 22, "##lness": 58, "##oun": 107, "llq": 2, "luq": 2, "shoo": 6, "##maces": 4, "##romes": 26, "##vings": 5, "##stasi": 32, "##romia": 37, "##onias": 96, "##reses": 80, "hud": 5, "##jnen": 3, "##nof": 31, "ron": 1037, "##rils": 12, "ongl": 7, "##pitz": 11, "mcb": 3, "##urney": 8, "##vsi": 2, "##quisi": 5, "##nings": 31, "##cko": 9, "##nina": 34, "##rech": 17, "##ubic": 49, "##llage": 21, "aru": 58, "##mplet": 16, "##nged": 52, "##opnea": 33, "lyi": 10, "bsh": 5, "##ained": 111, "smp": 5, "##ysa": 74, "ola": 568, "##wire": 8, "wir": 6, "##cost": 67, "##idial": 68, "##utat": 25, "##kenin": 10, "##fere": 42, "##sleep": 40, "peau": 28, "##uced": 45, "onal": 1531, "phag": 192, "##oned": 44, "##vious": 16, "##tick": 27, "lif": 133, "##siv": 159, "##aving": 49, "##ypnea": 26, "blea": 5, "##achi": 66, "##bric": 21, "##bited": 19, "##basic": 22, "##cycle": 12, "##buse": 18, "##ostic": 32, "##fting": 44, "play": 5, "##ited": 106, "##acio": 98, "kym": 9, "rlq": 2, "##cope": 63, "##bant": 12, "##geus": 67, "##bled": 17, "##lence": 108, "##gging": 31, "##banc": 19, "##mish": 19, "##tchi": 23, "##anted": 31, "eral": 905, "##rged": 35, "##ghts": 37, "##aming": 12, "puc": 5, "##kered": 4, "##ivel": 22, "##ugg": 13, "laz": 44, "##nched": 27, "aemic": 800, "##mesis": 64, "##sness": 163, "##uffl": 12, "uable": 17, "##rting": 51, "##nergy": 14, "##otox": 86, "##trem": 62, "##aved": 10, "ortn": 13, "##mbar": 55, "##cidal": 17, "##happy": 6, "##nanc": 30, "##band": 25, "##iona": 177, "##etrat": 14, "##vivor": 4, "faci": 189, "ggi": 20, "##oking": 19, "mlf": 2, "##anci": 22, "##rupti": 30, "ior": 292, "ined": 231, "##oved": 17, "##caps": 41, "##inced": 5, "grie": 4, "##urned": 8, "##fte": 16, "stree": 7, "##asies": 18, "##limi": 24, "##cce": 43, "ulat": 204, "##eved": 5, "##eving": 5, "each": 18, "now": 48, "##mben": 5, "##enly": 5, "##tairs": 12, "rle": 57, "dwi": 11, "##pped": 96, "toi": 137, "exh": 6, "##ibits": 4, "eats": 35, "##time": 24, "##times": 7, "toes": 15, "scree": 4, "##lable": 51, "##phone": 28, "##ewed": 11, "##metry": 19, "##backs": 7, "##mbles": 16, "ches": 201, "screa": 2, "fan": 148, "##tast": 39, "##heit": 31, "##igr": 63, "##ngea": 82, "ntg": 2, "##cids": 15, "jog": 6, "acts": 28, "##iali": 62, "##zes": 44, "##nding": 141, "##ssing": 109, "expr": 10, "##ectly": 9, "##ily": 127, "##lousy": 5, "##lem": 171, "##oves": 53, "##arpal": 64, "##rovi": 51, "##irs": 89, "##eated": 66, "##wly": 17, "##gion": 34, "##occu": 53, "##hotic": 111, "##vera": 34, "##peni": 165, "##nches": 14, "##appe": 55, "##iet": 104, "iated": 173, "uno": 127, "##uce": 75, "##hoot": 10, "##movi": 8, "##ocked": 20, "tches": 43, "##lun": 53, "##ckli": 15, "##ucta": 22, "##ique": 49, "own": 165, "##bbles": 8, "##eezi": 10, "##lves": 33, "rue": 26, "epw": 8, "##mics": 41, "appr": 9, "##oach": 24, "##style": 6, "##iving": 26, "##ewing": 20, "##rdian": 14, "lun": 53, "##acula": 50, "##ndon": 35, "opne": 33, "##sfied": 20, "##hion": 66, "##iding": 30, "##lish": 12, "lem": 171, "##eali": 22, "##rful": 15, "eup": 17, "##horia": 173, "##aste": 86, "##rpen": 12, "##kati": 10, "##jecte": 2, "##essa": 26, "ectin": 77, "##kery": 5, "##ilan": 11, "##tua": 36, "ave": 151, "##gonal": 18, "rit": 656, "enj": 4, "toy": 9, "##hend": 9, "##erba": 19, "nci": 90, "##terio": 100, "##odyni": 75, "ssor": 57, "dni": 13, "##ngal": 30, "##cuti": 12, "hug": 7, "##tted": 68, "##nacki": 6, "##ider": 121, "##lized": 114, "##lised": 44, "ima": 198, "##uble": 35, "prei": 6, "##scopy": 27, "##aped": 24, "mah": 34, "##mask": 6, "nw": 24, "##symp": 68, "ako": 29, "##hter": 18, "##uckle": 34, "##histo": 55, "trv": 2, "##jv": 3, "sses": 261, "##ews": 41, "outb": 4, "##reak": 36, "##dmill": 13, "pinal": 213, "##plant": 64, "##riso": 18, "indr": 10, "##hmann": 51, "##arkin": 23}