[PAD]
[unused1]
[unused2]
[unused3]
[unused4]
[unused5]
[unused6]
[unused7]
[unused8]
[unused9]
[unused10]
[unused11]
[unused12]
[unused13]
[unused14]
[unused15]
[unused16]
[unused17]
[unused18]
[unused19]
[unused20]
[unused21]
[unused22]
[unused23]
[unused24]
[unused25]
[unused26]
[unused27]
[unused28]
[unused29]
[unused30]
[unused31]
[unused32]
[unused33]
[unused34]
[unused35]
[unused36]
[unused37]
[unused38]
[unused39]
[unused40]
[unused41]
[unused42]
[unused43]
[unused44]
[unused45]
[unused46]
[unused47]
[unused48]
[unused49]
[unused50]
[unused51]
[unused52]
[unused53]
[unused54]
[unused55]
[unused56]
[unused57]
[unused58]
[unused59]
[unused60]
[unused61]
[unused62]
[unused63]
[unused64]
[unused65]
[unused66]
[unused67]
[unused68]
[unused69]
[unused70]
[unused71]
[unused72]
[unused73]
[unused74]
[unused75]
[unused76]
[unused77]
[unused78]
[unused79]
[unused80]
[unused81]
[unused82]
[unused83]
[unused84]
[unused85]
[unused86]
[unused87]
[unused88]
[unused89]
[unused90]
[unused91]
[unused92]
[unused93]
[unused94]
[unused95]
[unused96]
[unused97]
[unused98]
[unused99]
[UNK]
[CLS]
[SEP]
[MASK]
[unused100]
[unused101]
!
"
#
$
%
&
'
(
)
*
+
,
-
.
/
0
1
2
3
4
5
6
7
8
9
:
;
<
=
>
?
@
A
B
C
D
E
F
G
H
I
J
K
L
M
N
O
P
Q
R
S
T
U
V
W
X
Y
Z
[
\
]
^
_
`
a
b
c
d
e
f
g
h
i
j
k
l
m
n
o
p
q
r
s
t
u
v
w
x
y
z
{
|
}
~
¢
£
¥
§
©
«
¬
®
¯
°
±
²
³
´
µ
¶
·
¹
º
»
¼
½
¾
¿
Æ
×
Ø
ß
æ
÷
ø
Đ
ħ
ı
ĸ
Ł
ł
ŋ
œ
Ɛ
ƒ
ƞ
ɑ
ɛ
ɣ
ɸ
ʹ
˂
˃
˙
˚
˜
΄
Α
Β
Γ
Δ
Θ
Ι
Κ
Λ
Μ
Ξ
Π
Ρ
Σ
Τ
Υ
Φ
Χ
Ψ
Ω
α
β
γ
δ
ε
ζ
η
θ
ι
κ
λ
μ
ν
ξ
ο
π
ρ
ς
σ
τ
υ
φ
χ
ψ
ω
ϑ
ϒ
ϕ
ϖ
ϱ
ϵ
І
А
Г
К
М
О
С
Т
Ф
а
е
и
к
о
р
с
т
ь
׳
ᅟ
‐
‑
‒
–
—
―
‖
‘
’
“
”
„
†
‡
•
…
‰
′
″
‴
‹
›
‾
⁄
⁎
⁰
⁴
⁵
⁶
⁷
⁸
⁹
⁺
⁻
₀
₁
₂
₃
₄
₅
₆
₇
₈
₉
₋
€
℃
ℏ
ℐ
ℒ
ℓ
ℙ
ℛ
ℜ
ℝ
™
ℤ
ℬ
ℱ
ℳ
Ⅰ
Ⅱ
Ⅲ
Ⅳ
←
↑
→
↓
↔
↦
⇌
⇒
⇔
∀
∂
∃
∅
∆
∇
∈
∊
∑
−
∓
∕
∗
∘
∙
√
∝
∞
∠
∣
∥
∧
∨
∩
∪
∫
∶
∷
∼
≃
≅
≈
≔
≡
≤
≥
≦
≧
≪
≫
≲
≳
⊂
⊃
⊆
⊕
⊗
⊙
⊤
⊥
⋅
⋆
⋯
①
②
③
④
─
═
■
□
▪
△
▵
▶
▸
►
○
●
◦
☑
♀
♂
♦
➔
⟨
⟩
⩽
⩾
⪯
、
。
〈
〉
・
一
三
上
下
不
与
且
两
个
中
丰
临
为
主
义
之
也
乳
了
二
于
亚
些
亡
交
亦
产
人
仅
介
仍
从
他
代
以
们
件
价
优
会
传
伤
估
似
但
位
低
住
体
作
使
例
供
依
侧
侵
促
保
信
值
像
先
光
克
免
入
全
公
共
关
其
具
养
内
再
冲
况
准
凋
减
凝
出
分
切
列
则
初
利
别
到
制
刺
剂
前
力
功
加
动
助
势
包
化
区
医
升
协
单
南
占
危
即
厄
压
原
参
及
双
反
发
取
受
变
口
另
可
史
叶
号
司
各
合
吉
同
后
向
否
含
吸
呈
员
周
呼
和
咳
品
响
唑
善
嗽
器
噬
四
回
因
围
国
图
在
地
均
型
域
培
基
增
壁
处
复
外
多
够
大
天
失
头
女
好
如
始
子
孔
存
学
它
安
完
定
实
室
家
容
密
察
对
导
射
将
小
少
尚
就
尼
尽
局
层
展
属
岁
工
差
已
巴
带
常
干
平
年
并
广
床
序
应
度
康
延
建
开
异
式
引
强
当
录
形
影
往
征
径
待
很
得
微
心
志
快
态
性
总
息
恶
患
情
意
感
成
我
或
所
手
扩
扫
技
抑
抗
报
择
括
持
指
按
挥
损
据
排
探
接
控
推
提
操
支
收
改
放
效
敏
数
整
文
料
断
新
方
族
无
既
日
早
时
明
易
是
显
晚
曲
更
替
最
月
有
服
期
未
本
术
机
杂
杉
条
来
板
极
构
析
果
架
染
查
标
株
样
核
根
案
检
模
次
正
此
步
死
殖
段
每
毒
比
气
氧
氨
水
没
治
法
泛
泡
注
洗
洛
活
流
测
浓
浸
润
液
淋
深
清
游
源
漏
激
灶
炎
点
烟
然
照
片
物
特
状
独
献
率
环
现
理
生
用
由
甲
电
男
界
疗
疫
疾
病
症
痛
瘤
瘦
癌
白
的
皮
益
盒
目
直
相
着
知
短
研
确
磷
示
神
离
种
科
积
移
程
究
空
穿
突
立
端
第
等
筛
算
管
类
粒
系
素
索
紫
纤
约
级
纳
纵
线
组
细
织
终
经
结
给
统
续
维
综
缓
缺
置
美
群
考
者
而
耐
联
肝
肠
肺
肿
胞
胸
能
脑
腔
腹
腺
膜
自
至
致
良
色
节
范
荐
药
获
著
虑
蛋
融
血
行
表
被
袭
西
要
见
观
规
视
解
计
认
讨
议
记
论
设
访
证
评
识
诊
试
该
诱
说
调
象
负
质
贫
购
资
起
超
越
路
身
转
软
较
辅
达
迁
过
近
还
这
进
远
连
述
适
选
通
速
造
道
部
都
酶
酸
醇
采
重
野
量
针
铂
镜
长
问
间
阳
阴
阻
附
降
限
院
除
险
隆
随
隔
难
集
需
青
非
面
靶
项
顺
顾
预
题
风
食
首
验
骨
高
鼠
龄
ﬁ
ﬂ
ﬄ
％
（
）
，
－
：
；
＜
＞
［
］
𝒜
𝒞
𝒟
𝒫
𝒯
𝒳
𝔼
##1
##6
##C
##o
##r
##d
##e
##i
##s
##t
##c
##h
##p
##a
##3
##u
##m
##y
##x
##R
##T
##f
##M
##S
##4
##9
##A
##l
##b
##j
##n
##w
##k
##g
##N
##P
##−
##0
##F
##I
##5
##z
##v
##E
##G
##2
##β
##O
##D
##Y
##V
##W
##H
##±
##8
##B
##J
##Z
##×
##X
##q
##7
##L
##U
##K
##°
##∼
##®
##≤
##η
##Q
##Ψ
##→
##™
##∥
##♂
##ł
##ℓ
##≥
##₂
##₃
##≈
##α
##˜
##χ
##²
##ε
##⊥
##Δ
##↓
##∓
##μ
##ø
##ı
##≫
##∣
##ʹ
##∝
##ϕ
##τ
##γ
##δ
##⊕
##Θ
##¥
##∶
##₇
##⁵
##ß
##∕
##µ
##⁻
##∈
##∞
##€
##©
##´
##∂
##ζ
##π
##⊃
##⋅
##∆
##κ
##³
##œ
##ω
##⋯
##₁
##∩
##р
##а
##с
##₀
##ħ
##¹
##λ
##Γ
##₄
##⁺
##σ
##ι
##∗
##♀
##Ω
##⇌
##⁹
##○
##Φ
##⁴
##θ
##ν
##΄
##Ⅰ
##ﬁ
##º
##═
##⩾
##⇒
##÷
##≧
##ℳ
##∙
##ψ
##≃
##ξ
##⁸
##ο
##ﬂ
##＞
##₅
##₋
##Σ
##о
##₉
##≦
##₆
##⁷
##↔
##─
##¢
##О
##Т
##Ø
##√
##Α
##Χ
##≪
##ɛ
##£
##Τ
##¯
##φ
##¬
##˚
##⁰
##е
##т
##и
##Ⅱ
##₈
##↑
##½
##ɑ
##С
##＜
##⁶
##Ⅳ
##⊂
##⩽
##Β
##А
##К
##˙
##∧
##Ξ
##←
##ℏ
##ϵ
##≡
##⇔
##⊆
##ŋ
##➔
##△
##▪
##①
##М
##Μ
##Υ
##ρ
##ς
##⊗
##ĸ
##Π
##æ
##∘
##υ
##∷
##◦
##□
##≲
##≅
##℃
##∑
##¼
##∇
##ь
##ℬ
##Λ
##ᅟ
##∊
##𝒳
##Ɛ
##𝒞
##ϑ
##Ф
##≳
##∃
##⊤
##к
##∪
##⪯
##⁄
##▸
##●
##Ι
##¾
##ɸ
##∫
##ɣ
##ϱ
##⊙
##ℝ
##Ⅲ
##І
##⋆
##▵
##■
##Г
##˃
##↦
##ﬄ
##Æ
##ƒ
##𝒜
##˂
##Κ
##ℜ
##ℙ
##∠
##ϖ
##∨
##ϒ
##ℒ
##∀
##∅
##Ρ
##②
##𝒟
##ℤ
##Ł
##≔
##𝒫
##ℱ
##ƞ
##Đ
##𝒯
##♦
##ℛ
##𝔼
##▶
##ti
##he
##on
##er
##en
##es
##ed
##in
the
##al
in
##or
##at
an
of
##an
##tion
##ro
and
##it
##ar
##ic
##as
##re
##is
##ent
##ec
##el
##ing
to
##ation
##om
th
##ul
##ol
##ur
##et
##ac
##os
##ly
##le
##ve
##ith
##ig
with
##id
##us
##ati
st
##ter
pro
con
re
##ot
for
##uc
##il
##ow
as
##if
##ess
is
##ce
The
##ts
##ut
##ated
ex
##un
##am
##im
that
##ere
##od
was
##oc
##ity
##um
##tr
be
##tic
##em
on
res
##op
##ir
##ab
##ud
were
##ver
com
##ate
al
##ents
##ion
ac
##ell
##se
##ys
##ain
##her
##og
##ag
by
##ad
##ant
##rom
or
de
##ted
##ical
##ib
##ap
##ng
##ment
##vel
su
##th
##pl
ch
##ff
are
pr
im
##ure
##ase
tr
inc
dis
##ine
cell
at
##ence
pati
##ay
##pec
stud
##ers
wh
##qu
comp
ad
##ies
from
##ign
##iz
##ress
sh
##por
In
##iti
##igh
en
##te
##fer
##ific
##ore
##ip
##ial
ne
##ations
ind
le
##iv
un
patients
se
exp
##ous
##ans
##enti
##yp
ass
##orm
gen
rec
##oun
per
eff
##rou
we
us
##ph
##ition
not
sign
this
##ge
##tor
can
##st
dif
##tiv
inf
##ens
##ther
pre
##reas
##ting
ha
##ear
##ch
##ia
cl
##ep
di
rel
##ich
par
##ary
##ding
inter
bet
ap
##ular
differ
##olog
##able
##ost
##ect
##ance
##tive
##enc
met
have
study
##ons
##reat
cont
co
cells
##bs
str
which
##der
show
reg
ev
trans
##ong
mod
##ally
##roup
##ative
##we
Th
##est
signific
ph
pl
spec
##and
##ved
resul
##pro
##ween
##duc
##ression
##vi
significant
##ym
between
##ose
##erm
group
##age
car
##all
anal
##oci
##ied
##yl
activ
##ection
me
##end
cons
##ist
whe
##ue
##ual
sur
##ari
pres
##ug
##ath
det
##ction
##ound
##00
all
##tein
ab
##ome
##so
##ates
sc
##rol
##ast
int
than
##oll
these
level
##port
inv
been
has
compar
##ide
fac
associ
also
mic
sub
##NA
cor
##ges
##ight
##ak
am
pos
##rap
##uld
##fter
##per
##oth
##tin
treat
We
##tim
##ple
may
high
##ros
##ility
##dition
protein
##ely
he
##lud
resp
##unction
##yst
##one
##form
increas
##ulation
##ects
##ator
This
##ive
##our
##yn
##ech
bas
##ating
but
Fig
no
##vely
dat
##ach
med
more
##wo
low
##ected
their
treatment
sp
##ard
##cer
after
##cess
##velop
##ever
analys
##ill
##out
anti
dec
ag
##ized
results
ar
##mun
control
##ub
other
red
tim
suc
develop
##aus
##uring
it
##ood
##cr
##ree
##hib
bi
function
includ
##alu
used
##ases
##action
##ox
using
two
both
dise
##ri
meth
id
##ures
obs
##ass
##ew
data
vari
##anc
##acter
##yt
##ond
##tal
##entr
##osis
expression
##iss
##ism
model
##ater
10
bl
studies
sam
year
##ob
associated
##ystem
chan
##lu
had
des
##uced
up
##act
dep
sug
##owever
##alth
clin
obser
##ogen
mon
man
li
factor
##ological
out
##ution
##hes
##inding
conc
sim
system
##urr
over
##ors
20
el
form
##ined
##plic
ris
typ
##entif
##ile
dr
found
ser
##atic
##ven
##ays
during
acc
gene
##agn
under
time
analysis
##ants
levels
hyp
##pt
meas
use
##ite
hig
increased
present
compared
##ail
##uct
produc
##tain
different
##ult
##ole
##gen
path
##ential
##br
##ild
##hem
em
health
##itive
one
risk
clinical
sup
identif
non
inhib
significantly
such
##ici
##arg
es
##ollow
activity
repor
partic
##ization
disease
ob
##ences
##ork
dem
##hen
prov
##gr
ins
perform
pot
indic
##ace
##rease
appro
##ber
its
##atory
follow
##tern
exper
showed
method
##ments
end
gl
##res
##ct
there
contr
qu
##ugh
exam
most
only
##cc
effects
##ently
##row
specific
tum
based
##ions
effect
##ities
Al
higher
syn
##hed
num
##tively
op
##ability
cancer
def
pol
##tig
##amm
However
well
##ective
rem
observed
hum
##ane
##onstr
##ium
##urther
immun
##ough
gener
##par
##ould
into
##yc
our
##av
sel
##own
##idence
##als
pred
import
therap
##ency
##tical
##ack
##mon
##ible
##ron
sm
kn
##echan
##ited
determ
##les
char
evalu
##oid
These
rep
##yd
12
##ination
##gh
##estig
##ature
##ark
years
##ilar
when
investig
mechan
ma
corre
process
##ric
occ
##inal
##rough
##til
assess
could
min
age
19
mul
##fore
##irst
loc
##ten
##ines
##ology
##onse
reported
impro
struct
respec
##ren
related
##ause
##erg
##ok
diagn
##adi
demonstr
##ormal
concentr
##ord
##ne
##lex
sec
term
##ery
aff
imp
micro
lik
##ale
character
po
addition
##olec
##raph
pop
groups
gr
response
induced
##ivid
##ize
human
Figure
through
mem
##vers
##ix
##ural
fr
##vious
reduc
first
conf
##ains
mut
those
##ulated
sens
patient
sugges
##oph
##its
number
condition
##ute
ep
tiss
acid
To
factors
##tions
br
three
mor
development
role
et
increase
rate
##ort
intr
##tit
child
important
who
##osed
There
cr
invol
##aining
##over
grow
##ov
##ement
col
##ior
type
val
including
##air
similar
ran
##af
##tid
##ider
predic
fl
cases
post
##ograph
medi
##asm
potential
##endent
##usion
##und
##other
requ
tes
##view
molec
##eptor
fe
care
disc
mechanism
rat
##ental
##arly
##ucle
lower
##iqu
##ful
##ational
##rop
respectively
new
within
##ured
##omes
do
prob
##RNA
##led
It
among
main
finding
correl
##omen
prim
lim
As
long
00
mice
shown
##reated
del
##roph
15
changes
drug
CD
##itor
##ived
sequ
ox
##ene
##crip
infection
##ues
inj
bec
receptor
cyt
some
##arge
genes
poss
##ital
##ividual
prom
##osph
##istic
##oma
##up
aut
##echn
##ie
##old
month
##hel
##ock
##ages
##xim
phys
each
##ha
vir
surg
##eng
did
##gan
##requ
total
blood
work
##crib
##asc
previous
individual
they
tumor
prev
##ise
sol
experim
need
11
mean
##ross
cal
##ade
techn
complex
95
outc
consider
##cop
##otyp
sever
stim
##though
dire
multi
An
frequ
##arget
sym
app
due
identified
##ores
##tained
positive
##ek
comb
decreas
peri
mus
##ically
performed
##ex
ol
##ily
proteins
DNA
less
ext
target
prog
normal
201
##ody
##osp
neu
while
200
small
respons
expl
##havi
resear
##ind
growth
##ness
##abol
##ples
CI
##vention
##ptom
##otic
cap
common
##ake
##sy
##ival
pat
differences
14
coll
provid
##eld
##jor
test
##lamm
##eter
reve
##are
subj
binding
inform
lead
behavi
extr
##di
rele
curr
interaction
great
prot
##lis
##trib
##ink
hyd
av
findings
treated
will
13
major
##ire
review
pathw
children
adm
therapy
signal
mo
further
without
II
women
##ogn
should
population
##etr
##ressed
caus
particip
describ
neg
##iter
##int
period
about
30
und
##ateg
reduced
##ang
##atis
##ield
##fic
species
so
influ
##ning
fib
mat
sing
18
reveal
chem
antib
##vir
tissue
nucle
##ately
metabol
##gest
class
tem
##hip
##GF
mark
##ves
##plet
vis
initi
##ites
##Cs
phosph
set
##inis
##ety
evidence
flu
conditions
##ice
abs
inflamm
suggest
surf
25
surv
pe
week
##med
case
For
ret
presence
##ced
##ained
valu
##ung
single
months
research
induc
mal
##ascular
second
symptom
Ch
St
dom
exc
IL
coun
PC
subs
analy
requir
16
line
organ
##ified
resist
cardi
enh
pers
early
prop
improve
##ins
##ties
calc
24
hyper
##zym
days
same
##onal
mg
measure
demonstrated
##ption
##ty
##acy
##reg
cat
range
pattern
phen
##ither
activation
stress
##ocyt
##ving
##oles
##ory
##oss
qual
ele
large
transcrip
vit
decreased
lif
radi
##eth
fam
estim
information
Table
##ength
primary
brain
##oper
contrib
Our
vol
##hesis
cle
##iven
50
my
samples
cult
##erst
##omy
whether
neur
##urs
rece
isol
##viron
regul
##plement
dependent
##ms
obtained
##aging
05
cyc
##plications
dose
relations
##vere
day
any
100
##omic
##lic
##ax
several
values
der
##etic
Further
local
plasm
known
ref
##och
functional
revealed
##eu
rati
repres
17
prol
hem
sk
included
##osure
prof
membr
##icient
fem
trial
four
would
##ension
underst
lab
##atively
musc
lip
approach
many
anim
adv
##sequ
##ian
enzym
est
techniqu
region
following
##ick
##ft
##esis
surface
relationship
##cin
survival
provide
hosp
appear
models
again
##erc
direct
because
##amic
proper
##ensity
where
##itis
hydro
diagnosis
concentration
##oh
measured
aim
##cent
strong
##ymph
##MP
negative
##anti
##arm
##tric
analyz
rates
developed
##ening
particular
design
HI
##andard
##ulations
synt
environ
difference
avail
either
conduc
complet
nec
adminis
##tered
structure
sl
equ
size
vs
methods
genetic
##eptid
pub
CO
##sych
param
distrib
possible
life
current
molecular
bacter
involved
effective
part
loss
confir
multiple
characteristic
prac
##ification
##plication
##ication
##anced
001
change
mater
##erv
lymph
pain
##ules
result
##eration
concentrations
likely
commun
##ward
##tration
quality
##uss
##verse
Although
##ylation
Ad
greater
##CT
01
##vity
sus
production
##atin
##ronic
standard
##ulin
investigated
cir
being
like
subjects
association
##AP
formation
phase
##istent
surgery
resid
##ust
symptoms
mechanisms
##ission
Am
determine
press
body
compon
##plant
against
differenti
order
##lished
add
experi
if
occurr
diab
##ellular
##verage
reaction
various
exposure
lo
gluc
##SA
##tory
before
serum
Un
##ography
##uted
strateg
might
les
hel
##roscop
detected
oper
chrom
adj
liver
identify
##ults
studied
very
examined
21
responses
##aneous
##ording
tra
general
foc
rats
allow
outcomes
free
virus
value
##atus
indep
injur
##AR
polym
link
##opl
##iver
support
hep
##itivity
##pha
gu
bone
contrast
##ince
reduction
recom
##ision
evaluated
##andom
behavior
proced
##ocytes
water
##ler
##tality
##nal
##ually
mi
dim
##ocial
##ke
however
ratio
##AT
##az
arter
weight
fail
##onic
environment
##ists
whereas
membrane
chronic
##tex
statis
his
er
##of
##olution
enc
death
##uration
##cep
40
##ish
muc
performance
pur
##atures
##ably
mass
hospital
mortality
hear
##otherap
os
manag
sample
sex
estab
determined
##acc
plasma
vitro
circ
increasing
participants
neuro
##ostic
##icity
##ised
ang
net
##AS
Com
RNA
supp
report
preval
##ynamic
random
##cept
vi
##amin
available
##CC
men
state
##eters
##ner
##tegr
progr
##helial
considered
mm
##tis
##anding
ro
On
individuals
how
##iving
resistance
bene
mediated
previously
000
##work
##ters
##eutic
##round
##ull
larg
prec
distribution
##ectr
22
##ae
elect
CT
More
proble
required
##aw
success
acute
lung
signaling
transcription
##RI
##try
discuss
nan
oxid
psych
temper
viv
MS
scre
mit
AD
##opt
pathway
site
ach
deg
pressure
vers
##operative
self
properties
At
##ouse
active
highly
HIV
##yr
kg
compound
contin
ur
described
##ateral
family
field
##etes
fat
expressed
then
bel
controls
##otype
gly
area
achie
inhibitor
types
vivo
hypot
inflammatory
decrease
##inant
them
ul
##ount
via
##ule
better
##more
##ergy
novel
even
##pective
##tivity
##ances
frequency
weeks
##ended
stimul
immune
PD
flow
stage
Thus
##ogenesis
##line
muscle
focus
diseases
represent
AT
##ands
60
##els
exhib
##reast
##red
assessed
ren
impact
Ca
All
mac
##tically
medical
dys
ques
##ially
accur
##iciency
carb
##ient
tox
mRNA
pul
##Ps
##otherapy
##ling
hist
integr
##asis
know
severe
##ets
reac
prolif
systems
presented
##val
23
characteristics
ability
##eric
cent
status
analyzed
Furthermore
##eline
peptid
##app
down
cause
##osition
rap
sites
electr
Res
##rome
inhibition
across
ke
network
parameters
volum
Ex
atten
overall
breast
hom
poor
att
##iat
derived
##PS
super
therapeutic
analyses
##ibility
Re
##ocy
##entral
often
regions
##ces
sequence
##ll
management
imaging
alpha
##10
block
refer
cross
optim
##ides
##CA
lack
tested
##itation
sensitivity
relative
recent
##truc
##uk
##vant
average
apopt
social
beta
##lusion
##ove
##iological
##ators
##roc
indicate
##ancy
regulation
Con
dam
##ices
injury
correlation
##gn
##oy
prevalence
##ask
valid
##amine
##bers
evaluate
Here
##emia
##uture
outcome
##AC
extrac
Therefore
##tinal
pap
##ogenic
Wh
##oses
sal
conducted
##ison
play
amin
##ables
##ysis
cellular
limited
##opath
magn
##pected
##till
physical
length
##AD
thus
Tr
##ographic
##li
kin
indicated
energy
##OS
##ledge
heter
observ
##lin
intervention
influence
chall
##went
least
inhibit
##ode
##ochem
##art
subst
sour
28
detection
##amp
##etal
independent
##ising
##ams
##odies
improved
epit
incidence
effic
deliver
synd
effec
cri
morph
##astic
metast
short
##inc
impair
##ols
five
rapid
CR
He
containing
##aps
followed
old
material
combination
##de
animals
##tors
dist
##ours
interactions
healthy
##iting
eth
##ressive
##ower
##ensive
##enced
caused
##plied
orig
suggesting
experimental
##eding
few
##etry
processes
saf
left
##urn
features
##rogen
position
recogn
carcin
fil
neurons
##ologic
OR
investigate
##igr
tumors
heart
##tice
given
##ether
##izing
liter
##arr
##itud
events
percent
glucose
##abil
##resp
##CL
score
diet
ver
prior
maxim
35
secre
assay
phot
##aking
##omp
##rob
ill
surgical
##orph
lig
tissues
##read
26
diabetes
##vement
pregn
util
areas
##hest
help
temperature
suggested
knowledge
##ales
##mit
ER
male
release
cogn
still
elev
promo
wor
##go
suggests
##NF
biological
##terior
consistent
efficacy
##cence
prepar
PE
##lor
received
Moreover
key
seen
content
drugs
##emic
although
initial
domain
does
approxim
ST
visual
##CR
##lying
##oung
199
step
separ
coh
biom
additional
##ecting
##etric
##ased
benef
light
27
pathways
correlated
##olic
confirmed
Pro
##inary
solution
##tle
enzyme
volume
##itu
isolated
##12
baseline
trials
phosphor
ir
After
surve
proposed
##enting
diffic
intra
times
increases
lesions
obj
index
tub
##medi
experiments
record
##pr
applied
mutations
produced
##pecially
minim
##ral
##olar
displ
density
patterns
No
##orders
characterized
##ones
food
##ygen
affected
corresp
##emb
##pite
ess
insulin
therefore
monitor
suppor
understanding
sch
lipid
BM
made
continu
example
six
technique
ec
##ople
good
##eness
dynamic
section
administration
receptors
hand
measures
moder
proliferation
pharm
refl
##ochond
29
spectr
literature
point
scores
activities
unc
32
her
assessment
demonstrate
artic
syndrome
especially
carr
fold
renal
##antit
45
##fusion
vacc
include
populations
##orb
##ird
##uble
Rec
cere
IC
defined
##order
One
cur
clus
young
80
shows
##icular
##fficient
##ored
90
mouse
CS
affect
##atal
useful
functions
##ying
36
public
enhanced
amino
##ulf
##inally
##iotic
cardiac
adult
##onding
smok
##aff
arr
repe
educ
PA
Im
subsequ
propor
mix
skin
critical
necess
accum
auth
toward
##normal
te
##aken
serv
recover
##ochondr
##ged
ax
clear
hypert
disorders
invas
emerg
strains
off
complications
recomm
training
##hyd
compounds
adults
resulted
structures
oste
Pati
Ig
##encing
##entially
agg
question
##arch
versus
sum
##ru
48
alter
33
access
##ploy
nat
transfer
future
##PA
##ogene
##grad
resulting
##ious
task
right
central
nit
recurr
apoptosis
median
progn
##ave
female
adap
failure
##otor
lear
facil
transl
consum
comparison
miR
criter
prost
##omal
##ints
back
PT
substr
damage
##tine
depend
lines
endot
##ocard
##utes
Sc
evaluation
lay
peak
##ST
##ID
##hetic
dev
regression
distin
provided
parti
31
people
guid
##tib
diagnostic
molecules
combined
##enz
abnormal
##versity
reduce
synthesis
fraction
When
vascular
diss
gas
stimulation
established
components
mitochondr
provides
##ense
successful
progression
intrac
Pre
infected
##ulate
culture
migr
real
altern
remains
70
##ining
cer
differentiation
injection
glyc
##romb
cytok
tests
sw
promot
##coh
quantit
##RT
chann
##arc
##monary
according
##arding
above
37
strain
Ar
##roscopy
place
approximately
pH
require
##50
top
##ocyte
##MS
##hold
particularly
cost
mid
absence
epid
essential
##BP
obes
cognitive
##roduc
collected
lat
neut
##pri
##ustr
##ld
history
##ytic
screening
##isting
capac
##odes
selected
practice
SD
scale
duration
much
colon
techniques
complete
needed
activated
kinase
ve
MD
seg
##LA
sensitive
able
metabolic
since
##ovascular
side
ey
##iatric
paper
procedure
contex
host
yield
Ph
strategies
##set
cohort
34
##11
PCR
occurred
##thm
transplant
relatively
##put
ml
oral
alone
With
inflammation
community
##ES
setting
Inter
##ason
genome
testing
Med
go
air
oxygen
##urse
Me
##oint
proportion
medic
fluores
02
poly
##oplasm
AP
concer
antibody
##ressing
da
structural
angi
prevent
acet
prote
power
wild
challen
glob
##active
##yro
secondary
##ata
load
directly
indicating
catal
action
##ipher
##orption
controlled
sequences
##otox
Addition
plat
##ging
HR
##II
exerc
##mission
aden
##aches
conn
chemical
highest
Us
##artic
see
##iratory
##ibr
##rosis
alcoh
cm
ultr
cop
importance
75
Of
pair
bar
doc
eng
though
seem
terms
markers
While
cycle
##esting
Sup
plac
underwent
measurements
CA
criteria
application
hal
labor
agents
pharmac
##lus
stem
larger
HC
detect
PP
plant
variables
metabolism
##erve
Patients
##omas
##bry
difficult
microb
employ
##formation
limit
sil
leading
malign
older
##ont
##otypes
introduc
infections
improvement
expected
##rem
##ayed
prefer
##tries
antibodies
antigen
##ER
##oding
bro
disorder
CH
respond
wid
##ochemical
42
summ
##ument
act
experience
ampl
mutant
relevant
purp
##estinal
viral
##function
along
estimated
chromos
recently
elevated
Sim
III
##rees
IF
repro
##yg
##opro
upon
distinct
mel
38
contribute
don
lit
regulated
home
depression
##agen
Se
statistically
bacterial
##idne
IV
peripher
head
mutation
onset
peptide
degrad
interven
tog
##priate
iss
situ
EC
SN
hours
alg
chain
variation
degree
together
best
capacity
embry
##ogenous
##lish
##ret
Co
bound
inhibited
##ame
plan
Using
ear
##oxid
context
quanti
read
hip
delivery
natural
PR
thromb
##omer
coron
authors
linked
approaches
polymer
cou
horm
Ac
reli
##otid
##titution
here
PI
rather
##ef
induction
err
AS
detail
enhance
##ture
regarding
consequ
implement
basis
kidne
##not
##hood
products
predicted
##ectomy
occur
macroph
amount
inhibitors
undergo
component
pros
##irth
##arb
##tics
##ession
CD4
##oscop
wide
ov
having
AC
pulmonary
##OR
##ficial
acids
##isted
##ulating
spect
fluid
HP
##isms
##rm
##onomic
necessary
##ots
##eling
series
##itional
##ifically
aged
##20
problems
nut
##ics
open
ca
underlying
##rix
##terol
memory
methyl
spati
environmental
interventions
animal
Two
stable
##oz
exercise
##oids
##icians
##ier
log
daily
fer
##ele
facilit
achieved
whole
problem
nuclear
perce
carcinoma
HS
cre
exposed
nm
por
examine
En
calculated
mL
##pling
##MA
mainly
acqu
selection
##DL
##ique
categ
discussed
interp
generated
toler
evolution
##ps
linear
##dom
##ophil
Br
artery
##ered
corresponding
strategy
frag
##izes
43
##truct
mes
##chem
regard
##kn
learning
##tif
##leep
adverse
##na
course
mamm
reproduc
tempor
AL
bu
TR
##idity
electro
conclud
substanti
shif
03
source
##ogr
alcohol
##aft
SC
Both
ME
countries
##ights
reports
trig
hypothesis
protoc
diagnosed
39
##roke
Health
resistant
restric
##ergic
##53
##acts
Among
##occ
##bral
she
cryst
processing
CP
causes
NO
mar
##anes
bacteria
bre
##take
way
examination
##inated
##pression
spe
panc
##ceptib
attention
##asts
accuracy
##ool
majority
hydrox
65
intensity
pregnancy
##lo
##encies
specificity
strength
subsequent
##ina
safety
##ventional
terminal
##orpor
peripheral
Des
shap
another
##ending
cardiovascular
exhibited
SP
bio
##arily
hy
interest
internal
experiment
##agon
##NS
dysfunction
transport
bil
leuk
developing
44
comple
motor
full
interval
##RNAs
glut
TNF
repair
severity
must
##ector
treatments
call
view
##inity
##rh
##lob
##ream
##yroid
respiratory
ant
Over
world
matrix
ventr
marked
describe
adoles
longer
susceptib
##13
##itude
##NT
maximum
perm
famil
alternative
##AL
##orn
MI
rad
phosphorylation
appropriate
recru
medium
third
physiological
##iety
uptake
##outh
var
MC
ed
##16
later
ion
Stud
identification
##ik
##bo
postoperative
moderate
images
calcium
induce
sleep
therm
##ethyl
chemotherapy
birth
##EM
##pir
fract
composition
simple
##brid
##irus
##uter
recovery
MR
endothelial
##plicated
##oster
##imens
transition
##erved
rare
little
education
##MT
published
ever
##mediate
fix
nerve
electron
By
extent
potentially
implant
strongly
highl
biop
procedures
55
Finally
mental
ischem
##rolog
generation
rh
frequently
thick
Americ
aspec
mitochondrial
##den
carbon
ATP
program
adjus
stroke
certain
accumulation
epithelial
unique
TB
points
const
##ched
46
##obl
retros
led
survey
##inf
stability
kidney
They
forms
doses
late
##orith
efficiency
designed
04
##MD
##hesized
appears
special
##plementary
females
coronary
##anol
##cher
AR
half
phenotype
##olesterol
intracellular
wall
##osts
bur
plants
72
conventional
RA
ge
students
males
##ann
##tiveness
##tivation
##ively
fact
resour
nor
##fac
##O2
carried
compare
profil
degrees
cho
##urb
##14
trend
Similar
##equ
algorith
tool
##MR
resolution
means
datab
eas
regulatory
47
##osa
broad
pig
around
antibiotic
attrib
##atives
monitoring
las
yet
##elet
commonly
NF
confirm
AB
od
Ind
dig
##ariate
systemic
chlor
abund
##rine
RT
##verex
Cl
Since
##lation
appar
sci
responsible
PS
recomb
Sp
oxidative
occurs
enzymes
purpose
MT
event
modified
##reatment
variety
members
administered
transmission
recorded
quantitative
star
##ortic
assum
##known
inst
52
residues
##ching
##uts
incorpor
subun
myocard
hypertension
unknown
##istry
services
produce
measurement
intake
global
humans
fit
##ify
stages
##aph
article
leads
radiation
generally
percentage
dimension
##ering
targets
grade
IR
##rup
##rin
##linical
##ds
reference
##neum
##eral
##eal
advant
MRI
##less
##land
become
polymorph
IFN
substrate
##umin
neural
##uch
Na
##isc
##most
randomized
aw
degradation
double
##otion
assemb
anx
spatial
67
##que
41
ES
remained
repl
##LR
cluster
NS
Ap
laboratory
##ident
aimed
99
toxicity
located
nurs
smoking
56
prevention
color
##IP
##isp
confidence
origin
##cers
construc
subc
bind
54
nature
irr
maintain
profile
##aged
adhes
##ings
tend
##reshold
slight
49
now
secretion
During
selective
concern
weak
sulf
53
64
barri
Results
cortex
obesity
Compar
image
systematic
##utive
effectiveness
##utaneous
Sur
benefit
##ert
##ophag
Bec
continuous
involvement
antagon
traum
rob
remov
last
domains
layer
agre
##atitis
infer
##icle
associations
migration
Af
fav
clos
widely
##estern
##DNA
US
##eti
proj
##PD
##rog
signals
remain
applications
##orts
hybrid
establish
turn
advanced
eight
adip
promoter
##ared
predict
soci
paras
ster
##ils
noted
fas
##ocal
##use
seven
marker
account
Eu
optimal
Pl
pass
sem
AN
Le
make
constit
reviewed
roles
overex
##ternal
extrem
##odium
imm
Acc
avoid
##AB
discover
making
reducing
assays
S1
ful
CC
Most
##LC
##ycin
what
##ired
statistical
soft
gender
##stream
heterogene
variable
biomark
dynamics
cholesterol
manner
##FP
consumption
anterior
##oring
complexes
diam
threshold
exist
core
##akes
objective
Pr
##ET
find
Ca2
inhibitory
isolates
##ometry
belie
Despite
contact
##lear
magnetic
##ope
##ococc
interfer
specifically
scan
cand
198
##alk
aggreg
predom
requires
product
usually
hepat
direction
58
##iology
##18
##any
contribution
neuronal
##aling
57
far
temporal
bo
grad
##17
SS
##erative
states
vary
##ank
85
##15
##idate
ped
Group
##ids
investigation
##US
Fe
trad
others
##amma
indicates
staining
lesion
morb
##roscopic
##itin
defin
mechanical
##by
##obacter
numbers
coe
taken
##LI
maternal
satis
feed
lateral
understand
##vent
##ultaneous
##gin
##itable
##ou
materials
ow
##elling
diff
HT
formed
conj
near
63
##ta
CB
comm
currently
##otide
extracellular
pneum
efficient
vess
recommend
infants
##OC
##hens
plays
diabetic
significance
##ologies
revers
##SH
fram
##EC
relationships
molecule
needs
reason
##onia
mob
fluorescence
invasive
62
Afric
gran
targeted
##phal
macrophages
cannot
Supplementary
anxiety
space
Because
coli
princ
SI
##trans
##ometric
##OD
conclusion
melan
slow
59
##tile
reconstr
decision
placebo
66
ter
clinically
stimulated
##elines
##ED
suff
pancre
elements
bond
final
variants
myel
attenu
Data
below
reactions
almost
antic
HB
altered
##au
##ats
ED
##argeting
mother
comparable
mild
label
##io
##pled
affinity
recurrence
Ins
agent
Based
numer
96
past
##idine
68
lact
##cted
##oral
categor
##ee
Inc
prostate
profession
supplement
gast
Additionally
reson
##ectivity
sexual
##GFR
microscopy
##osing
Cons
enti
##aptic
knock
ventricular
##ars
##elf
towards
CM
##ella
iron
##illary
constant
mil
olig
Sever
throughout
vaccine
##ra
hepatic
##ON
##ention
observations
smaller
##version
##aring
##naire
fully
distance
##rope
BMI
gastric
white
receiving
##ytes
allows
base
cytokines
##ange
involving
genomic
despite
search
##HC
CF
segment
##estingly
subt
cancers
channel
emotion
73
attem
arth
##PC
sequencing
possibility
norm
##osite
tw
replac
simultaneous
obtain
prognosis
living
inn
promote
metal
disp
##ynt
deriv
Ag
##apping
variability
analog
ste
lum
##19
upper
lys
##oprotein
behavioral
auto
squ
concept
##ula
targeting
respect
external
showing
fatty
##oglob
document
ultras
tom
##rehens
##ground
transf
##ality
liqu
address
ligand
trigg
impaired
##robl
Europe
dop
bal
nanop
##ylated
posterior
##inus
##BS
unit
##opathy
reconstruc
3D
Gen
personal
cys
prospective
complement
predictive
particles
CV
incub
VE
spinal
##iversity
myocardial
alb
basal
differential
polic
close
PM
asym
##poc
adjusted
ens
transplantation
focused
##crim
ven
##aine
providing
cerebral
challenge
collagen
##amide
resection
PG
partial
##ened
flex
estimate
profiles
AM
##itr
##ounts
upreg
##lier
##alian
Reg
SA
##tility
##arian
iso
##obic
pan
rot
78
explore
##SS
##to
##pocamp
##aves
Gr
recognition
cultures
observation
HA
aspects
Not
intestinal
##inations
hormone
##inate
Ser
Interestingly
rou
location
ves
divid
rib
frequent
metastasis
relation
HD
peptides
##dle
spectrum
##itively
che
##ectin
asthm
Sh
cytotox
arterial
sources
Ne
##itiz
mixed
##VA
hemat
##eletal
expressing
##IN
pathogenesis
protocol
quantif
agreement
ble
MP
##ecutive
76
##ontaneous
malignant
item
cortical
classification
##TP
##group
PK
Several
experienced
##ancer
##ii
enter
every
##pect
0001
69
alterations
74
force
##aces
behaviors
exclud
cas
sufficient
compr
completed
costs
prognostic
stimuli
gamma
kine
proxim
If
##care
impairment
##ives
removal
promising
guidelines
##ench
alk
reactive
offer
programs
discrim
ng
##HD
83
prolong
put
shor
##ervical
##ico
##olved
polar
elim
specimens
dele
cruc
enrol
##ocl
fung
toxic
prepared
school
Overall
cytoplasm
51
eye
pen
77
comprehens
mutants
existing
98
##ibly
HF
DM
families
joint
sperm
successfully
multiv
assign
##dominal
manif
disch
hippocamp
consist
bias
antioxid
morbidity
orth
chromosome
##osomes
tract
##acch
gel
transcriptional
Sub
benefits
leg
92
rapidly
coord
deficiency
Ab
##herence
##PR
PL
protective
conver
PF
predominant
84
replication
solid
bios
##ogenetic
##apl
86
deep
clearly
recommended
diversity
##otrop
##isation
##ades
completely
##here
##bal
hypox
##seud
WT
LC
nanopartic
##xt
H2
odds
sodium
##ritis
seems
employed
spontaneous
limitations
thickness
accurate
exce
mill
From
Some
matched
dimensional
##onucle
88
##asia
dietary
##uls
inser
##olip
fusion
##yth
interview
unclear
Mul
82
endogenous
estimates
TGF
agon
##orrh
IgG
networks
entire
Di
##osomal
stabil
explain
illness
traditional
center
According
##way
Bl
dog
OS
transform
cultured
anat
orient
##ivers
97
BP
neurolog
root
##fl
excess
primarily
##ework
until
retrospective
##osin
AA
diameter
undergoing
pyr
soil
gre
87
93
liquid
prediction
actin
NH
mode
##rec
neon
79
behaviour
robust
instr
polyp
recip
phenomen
emph
microg
##ili
earlier
##venous
##oxide
##irect
T2
contain
issues
nutr
##EG
therapies
Ass
slightly
##RA
supported
adequ
Sec
Three
##tices
probably
algorithm
MA
conserved
vitamin
media
occurrence
disrup
minor
appeared
94
defects
rich
superior
movement
##sis
resonance
##NP
theory
abnormalities
technology
##cents
##icles
nucleus
##ype
gain
aer
achieve
independ
89
##IC
##back
dil
neutral
adapt
##angu
gastro
repeated
som
irradi
wound
du
adren
cervical
neurop
morphology
chromat
##ocation
fed
exhibit
divided
ra
nam
##abor
suppress
device
correct
onc
##aching
regulate
pancreatic
biopsy
tools
##onin
seed
p53
error
adhesion
urinary
Previous
##imer
cut
basic
SR
##aria
##heless
largely
channels
DC
transcript
wave
represents
subject
medicine
framework
defic
emb
tumour
Cr
protection
heat
##arin
pathological
thyroid
developmental
localization
##for
retin
##olytic
##MC
GC
fund
##allel
communication
FA
##portun
date
Four
crucial
medication
rs
meta
fetal
##immun
##FA
61
##helium
cytos
##apse
##itary
fo
##K1
##ervation
feas
whose
summar
working
progress
epis
person
##inking
TC
Spec
Anal
units
ratios
BC
##ises
##OL
compl
org
LV
AF
occup
asthma
diverse
##ohist
abdominal
added
contains
laser
invasion
loop
shift
choice
healthcare
DR
exch
wa
fibrobl
deficient
Per
##uary
opportun
##derly
fluor
##ologous
NA
skill
##rac
satisf
operation
shape
sed
middle
##OP
fragment
##iform
##ema
typical
methylation
##tenance
radical
transgen
American
comparing
nine
susceptibility
##ude
background
DS
questionnaire
band
ROS
CL
database
carri
intermediate
CD8
First
##ways
reflect
poll
adolescents
substantial
##ck
LPS
organic
safe
own
##A1
illustr
genotype
##ections
anest
motion
##IS
resources
absorption
##eli
plus
PB
##igen
United
Es
##adder
curve
arch
minutes
IP
datas
##ember
parents
apparent
subgroup
programm
rev
##pati
##ophys
##rophy
##27
positively
called
spread
71
##OX
explained
##ients
NP
accomp
##mia
MMP
implementation
contained
tetr
##tingu
overl
##ished
signs
growing
burden
##ogens
initiation
De
##cular
descrip
uns
OH
accept
metastatic
classified
##ancies
interf
except
Be
eg
##eta
ann
##fication
fron
fibrosis
##ighted
institution
maintenance
eluc
perceived
chol
accel
potent
donor
probability
next
##let
GP
##man
thought
elderly
regen
counter
CSF
thor
##ran
displayed
##itone
presentation
tolerance
infar
micros
Other
##EP
sectional
distingu
decreases
hydrogen
questions
##asons
##ronch
inac
##lerosis
##rel
##iffer
interpret
##wenty
##imen
gest
##cal
allele
optical
##odynamic
Nor
extract
##NC
##IR
SL
closely
cytokine
SH
motif
latter
remaining
##ectively
done
ray
##antly
Trans
typically
##itals
beneficial
service
depth
challenges
trauma
spl
Clinical
##ulatory
implications
vector
fast
##asal
haem
recognized
suitable
infil
atr
vel
extensive
varied
conclude
##certain
eyes
encoding
ovarian
psychological
##unding
element
##ician
##25
speed
graft
feature
mM
##ready
##iral
phyl
thereby
oxidation
cathe
membranes
settings
##uit
##ozyg
transpor
hab
##organ
goal
parallel
##used
physicians
aud
cord
face
blot
fin
marrow
run
cover
accompan
##tious
biochemical
platelet
neutroph
antim
Sm
##okine
already
##ton
precurs
restor
##rocytes
FD
opp
influenced
sampling
NK
cycl
prem
feeding
detailed
subunit
tail
dominant
##oked
cereb
tomography
magnitude
economic
##ifications
MAP
##ivalent
HCC
noise
##lim
decline
##tead
users
##70
phosphate
independently
recombinant
marg
matter
DA
Recent
##down
##olysis
miss
includes
tri
partially
##osal
CY
extended
nucleotide
cis
##ocar
distal
##ext
clinic
500
ID
viruses
##aries
Or
##avage
langu
vas
New
nerv
aortic
##icrob
##ythm
serious
##ori
facilitate
extraction
node
81
TA
##SD
##rosc
understood
##pectively
##21
Mean
demographic
nanoparticles
suppression
failed
Dec
fall
National
##BC
ethn
##truction
China
##tering
##acchar
##yle
##wide
recurrent
devi
##30
regular
rab
urine
fracture
minimal
correlations
princip
Western
ten
##opic
affects
reliable
veloc
Bi
break
##chers
epidem
Gl
06
perme
challeng
indirect
##Es
##TR
stimulus
##treated
RR
prolonged
purified
den
##ellent
possibly
adjust
take
hydroph
national
##mitted
Cu
oxide
rest
balance
ads
bleeding
##mic
##HA
HCV
validated
##38
##EL
variations
##DM
##inese
UV
Such
explored
organization
pediatric
acetyl
##biqu
Is
comprehensive
##Cl
SM
effectively
pal
intravenous
Chinese
##isions
##itudinal
##P1
delayed
Cd
haz
biomarkers
Sch
lymphocytes
##hing
TLR
generate
##B1
##GA
##enza
expect
workers
devices
localized
regis
Only
occurring
##uting
##UC
improving
risks
allowed
autom
##40
overexpression
induces
cav
fish
Compared
antioxidant
Similarly
express
driven
sensory
##forms
ech
swit
histological
periods
practices
amounts
athe
maintained
Partic
ultrasound
theore
modification
##ache
metabolites
consecutive
emotional
pool
original
##part
preparation
##EA
introduced
propose
computed
Second
##oxy
axis
analysed
ranged
amb
expans
elic
##idal
parameter
coding
ye
electroph
pathology
neck
##ectal
##enchym
efforts
coupled
recruit
##yros
##ament
iden
ranging
acquired
morphological
##umab
##aro
labeled
##ban
States
consequences
##BD
injuries
ubiqu
enrolled
gradi
ET
germ
##lyc
infusion
##ches
fixed
91
##sp
##otr
word
attr
##versely
Many
diffusion
nervous
autophag
Jap
##ostasis
polymerase
IGF
hospitals
advantage
deletion
##ica
retinal
competi
##ners
har
ure
commerc
conjug
native
adop
##Is
##amb
operative
intact
##IT
fig
height
hazard
eryth
Dep
##rophic
assembly
##ials
excellent
##ospital
dors
transduc
angle
circum
wr
variant
sat
synthetic
arm
attributed
tel
sets
##umn
align
bronch
spor
intern
lowest
clusters
ischemic
rise
vac
proximal
manifest
smo
##enter
identical
2010
Also
fiber
##urine
##ping
move
##eting
##ested
analyze
##EN
documented
substrates
##VID
randomly
##iciently
Zn
possess
VEGF
##ercul
##iph
necrosis
##gue
##Fs
degen
synthesized
affecting
##atib
younger
serve
soluble
El
##yz
##cribed
##23
favor
benz
PV
oil
##unc
routine
pneumonia
Fr
stor
##acer
miRNAs
determination
##ict
BD
Par
Pol
ions
conform
##ectious
##azole
correspond
display
transient
##otypic
regulating
engine
distr
NC
exchange
vul
implicated
delay
##itus
numerous
spectra
reporting
##acted
producing
availability
##urrent
mostly
##ilep
language
progressive
##oscopy
equal
seiz
pairs
##3K
Jan
volun
issue
sensor
immunos
aging
fal
kD
##hal
bul
comput
belong
barrier
##artment
immunohist
##wise
microbial
inclusion
CK
dogs
extracted
ker
##osine
capable
nod
injected
nodes
deaths
##insic
probe
Met
tax
##teen
##osome
variance
neph
plastic
coefficient
milk
taking
Given
chromatography
interv
##ware
##urg
HLA
pathogen
nons
mammalian
HPV
##jection
fibers
accep
downstream
thermal
markedly
ischemia
organisms
childhood
abundance
##oscopic
##Ms
true
TP
emergency
return
synaptic
reconstruction
S2
##ialysis
##gens
tre
si
regional
negatively
##aryng
tasks
dental
controlling
##hesia
##ontin
##undred
reasons
check
amyl
house
##ione
opi
obese
ethanol
lap
schiz
compart
LD
##bre
depending
Six
°C
predictors
μg
ring
parent
verte
smooth
300
##yond
acceler
researchers
##ermal
caps
adherence
##atically
##ped
influenza
separate
##izations
errors
##ynthesis
AMP
concluded
venti
hundred
shock
atom
##ows
##activity
ana
decl
restricted
integrated
07
dend
receive
##enic
dependence
candidate
08
##tives
traits
##ION
skeletal
residual
staff
##itative
apoptotic
organs
admission
collection
eti
ast
involves
ide
steps
rabb
##theless
preoperative
pack
AK
##TA
2015
discharge
##ensus
##DS
##itory
2012
solutions
mis
##arged
EP
gover
longitudinal
##Vs
feedback
mothers
reached
count
tyros
attemp
COVID
bladder
downreg
yeast
##anded
reverse
expansion
##enes
always
##ensions
University
policy
heterogeneity
Em
poorly
assigned
##err
##ochemistry
glutam
multivariate
bilateral
##mental
##ements
knee
##get
##HR
##ned
definition
crystall
healing
##urally
Resear
identifying
relax
cad
directed
##iment
logistic
IS
##ophage
##ocrine
##dr
##ophren
##thal
High
threat
##ods
Ev
impl
allel
##ancing
electronic
##ime
vaccination
intervals
identi
output
##ma
hypothesized
##acent
casp
2014
EM
input
pseud
discre
antigens
2D
adequate
European
##rium
simulation
income
hydroly
referred
hepatitis
viability
frequencies
##ls
junction
urban
##train
##28
vag
##illance
outs
##ignific
##osterone
##IF
##ued
vessels
accoun
amplitude
disturb
##ovirus
just
functioning
##intestinal
##ectric
2013
##RS
Treatment
presents
comorb
spectrom
blind
EB
MB
kill
suppressed
##lycer
communities
lob
inher
subsequently
##ipl
##cl
persons
easily
Meth
shorter
phenotypes
progen
records
##26
infarction
##icrobial
##ococcus
distributed
PET
SF
Rh
fill
Inde
##−1
caro
storage
measuring
nutri
depends
Indeed
pathogens
Recently
green
##cap
##GE
experiences
dispers
modulation
African
particle
dehyd
GS
nearly
once
mim
replacement
skills
mature
##rate
separation
circulating
Dr
enhancement
newly
spectroscopy
##ocarcin
##actic
tun
track
##olding
coverage
Col
velocity
limb
demonstrates
##entia
##LP
Twenty
draw
##oxyl
categories
infectious
surge
##24
presenting
##osity
persistent
SE
##entific
##oglobin
sustained
accompanied
antibiotics
##uff
intensive
reduces
Another
##ept
T1
Hospital
initially
##ologists
##ked
immunity
##isons
considerable
surfaces
uter
pregnant
##itoneal
##Ds
##oin
##uvant
neurological
volt
conversion
complication
##RP
##patient
January
varying
recommendations
nursing
melanoma
coupling
simulations
changed
pla
##enetic
Mod
hydroxy
##athy
##kin
##oblast
schizophren
susp
manip
characterization
ligands
column
determining
uncertain
conflic
μm
equivalent
##erculosis
clar
2016
##be
causing
PH
items
Exper
##asty
2000
minimum
explan
none
##time
##60
beyond
simultaneously
Particip
TS
##anine
translation
LT
thym
kDa
crystal
2009
characterize
autoimmun
computer
dram
##aline
extracts
interact
##oved
##olecular
Immun
Additional
##treatment
bp
2011
modeling
LA
diver
contrac
recruitment
airway
##oded
##iaz
##29
CN
RP
foll
##ociation
##GS
itself
ben
##amination
endom
Studies
##mediately
nurses
##anth
metastases
venous
defect
SNPs
##abilities
##riched
released
gastrointestinal
Study
seek
##34
##ighb
hypoxia
fractures
##ypt
nitrogen
##lusions
promoting
perception
##OM
maximal
##fort
microbi
pharmacological
mach
Follow
graf
tit
sizes
GAB
reproductive
planning
hair
##ah
catalytic
##opo
hemorrh
million
validity
adjacent
##omers
investigations
placed
irradiation
attit
phenomenon
neonatal
##oline
removed
died
transformation
epilep
charge
interface
##itted
give
dual
##ifying
begin
NT
composed
putative
socio
##ilities
validation
Comp
##factory
enriched
##point
integration
09
CX
colorectal
##ophageal
muscles
version
mitochondria
actions
150
salt
SU
##ai
##otal
##ofil
##Ns
transcripts
hour
gli
##Rs
atherosc
RS
sections
120
absol
fewer
mol
walk
##57
worldwide
##ellar
represented
reliability
egg
Cor
##rief
##enari
##igible
##isition
theoretical
rural
miRNA
##ota
panel
LDL
##achment
remod
Cont
psychiatric
assessing
summary
neighb
repeat
homeostasis
TH
gut
excluded
hard
emission
stay
reper
##iveness
Inf
cortic
utilized
Differ
lar
benign
EGFR
drop
cleavage
mention
##nel
incubation
##aper
retention
splic
dementia
embryos
Research
Dis
##resh
buil
tyrosine
fibroblasts
ple
transgenic
appearance
Never
predominantly
satisfaction
loci
##ocytosis
live
antagonist
clim
scaff
substance
define
cul
locus
GFP
reach
##ulum
recruited
ground
depressive
Austr
lacking
identity
congen
adaptive
articles
improvements
Nevertheless
κB
rod
subset
##omit
##ardi
TM
plate
##ilateral
inters
sn
corne
ms
##leuk
clearance
DP
Analysis
thin
##eptide
##90
susceptible
##unct
immediately
##avy
suic
similarity
decreasing
glycos
Eng
whom
##IL
caspase
spin
##habil
inhibits
##elihood
##kt
overc
400
deficits
BR
acquisition
murine
##mark
Str
substit
classes
leaf
myc
malaria
drinking
##urys
##ump
evident
dos
compet
software
temperatures
Non
ELI
supporting
kinetics
note
CNS
catheter
vein
##anged
gland
##ohyd
##P2
veh
centr
surviv
gap
derivatives
attenuated
##odon
##oe
shared
##icin
parad
predictor
compens
##ady
##acco
contributes
mixture
##avirus
##oints
distinguish
##F1
rout
fields
scenari
SV
deple
South
recording
##ring
forming
NMR
positions
##weight
schem
surveillance
##atase
contraction
clon
Intr
biology
scientific
colle
##rous
##lia
dy
treating
likelihood
##oman
pulse
allowing
environments
adaptation
##acr
became
online
differentiated
fluorescent
##wh
barriers
##axis
deposition
##acting
advantages
##ests
Cell
##NK
substitution
kind
Intern
##ero
intrinsic
cycles
buff
Li
autophagy
##ocomp
strati
start
Ep
exact
residue
##ience
μM
list
modul
##IA
##rounding
fibr
increasingly
phases
2008
makes
##issions
gradient
providers
GABA
insight
viol
aspir
curves
influences
##inger
isolation
##°C
chromatin
applic
antimicrobial
disability
Hb
##tivated
extremely
unli
correction
respondents
layers
Participants
Mic
absolute
##IM
detectable
HM
never
radiotherapy
hypoth
##vis
##enia
room
##areness
chick
member
challenging
leukemia
##urance
sinus
discovery
mineral
microM
schizophrenia
tuberculosis
evaluating
reactivity
extension
NAD
unf
##irty
flav
lymphoma
cytoplasmic
instead
insights
##GT
supports
genotypes
dopamine
continued
complexity
pathogenic
substantially
utilization
##operatively
medications
surrounding
DD
interpretation
concerns
implemented
gal
entry
polymorphism
centers
emphas
##iness
cartil
##aster
modifications
scaffold
fragments
##cill
epithelium
interesting
gold
neurode
representative
E2
##ided
saline
##habilitation
##ias
maturation
untreated
embryonic
ensure
FT
qualitative
scat
aims
##load
##me
##ifer
zone
subjected
loading
##bar
IT
250
##ry
retro
outside
constructed
anth
My
##ystolic
composite
div
##udes
ELISA
##iance
consisted
Cal
##otropic
dorsal
##tition
regulates
##atid
##ury
thi
##oming
sten
utility
black
greatly
perfusion
pure
largest
Scale
##rotein
##EF
##aemia
careg
##dehyd
Each
considering
agonist
##R1
##vance
##enchymal
heavy
inoc
array
gir
##teine
valuable
aggregation
mand
##ritic
##chron
##ocytic
##oxin
##uous
insertion
##aving
##alling
perc
##atch
Increas
##alities
1000
describes
ML
Hence
inducing
##oclonal
##rie
pathophys
team
mapping
GH
Figures
##queous
exclus
depletion
##ette
##uman
comparisons
obvious
Child
proph
parts
##ks
encoun
chest
Sal
##omical
OA
estrogen
##term
##uf
STAT
consensus
##oside
medial
##rich
aug
cytotoxic
lost
##owel
fresh
Can
##leukin
partners
##luores
##uria
excit
follows
Hyp
Neu
##eds
practical
limits
orientation
##ensis
counts
Sw
ways
thorac
sti
electrical
segments
enab
diminis
tube
##ignificant
pel
participation
meaning
subunits
RF
##ypes
##amental
##ectors
Medical
penetr
emerging
consequence
##ozygous
hearing
strom
##anted
remark
pert
##ather
##CD
heterogeneous
ane
scanning
physician
arthritis
standardized
spectrometry
##lux
##80
##EV
fractions
##bl
assist
##itect
##ptomatic
implantation
##22
vulner
Ang
bov
estimation
##cephal
ages
binds
oscill
polymorphisms
voltage
dip
options
activate
##tial
TF
##ought
GA
infant
abundant
uniform
smokers
BA
##atigue
consisting
arg
##illin
actual
##nt
##BL
##mentation
2017
immediate
situation
persist
##umul
extra
ket
valve
conduct
atrial
TT
wind
distress
professional
too
differentially
precise
consistently
excre
autoimmune
govern
foot
highlight
##uments
ones
tob
prevented
##ana
asymm
##illus
fever
##LS
habit
commercial
##agement
##edic
dry
aqueous
radio
regeneration
##ontal
##ensin
##ilib
System
adenocarcin
##oidal
clinicians
##vic
##ott
197
##auc
pron
parental
mT
lapa
veget
prevalent
libr
##olin
upregulated
locations
config
promotes
stronger
rar
derm
glutamate
aneurys
Import
##amus
arteries
admitted
awareness
trends
##prising
systolic
GR
resource
##ilibrium
##tt
gang
albumin
granul
predicting
##lets
household
tobacco
inhibiting
##umor
requirements
##break
##OH
##ote
##adily
precursor
diges
2007
##going
pac
az
residents
au
construct
2A
rhe
##rot
promin
fixation
microgr
##yte
Hg
indicators
aggressive
introduction
regardless
WH
regimen
##ogram
limiting
CRC
requiring
concerning
symptomatic
biosynthesis
adjustment
protocols
##enal
##ensities
virul
option
demonstrating
monitored
alleles
country
##lyce
existence
starting
volunte
##ached
##plasia
uses
CG
MM
Mg
##cript
suspected
##apped
chains
glycop
##igm
separated
Ma
##ends
transm
visits
sarc
differed
Qu
##otomy
cartilage
sought
##omycin
absent
coc
acting
##adic
nuclei
correlate
hippocampus
created
##oon
hr
yielded
false
evolutionary
hapl
125
##oli
##LD
perspective
concomit
mentioned
relevance
COPD
professionals
biofil
proved
electroc
jud
lipoprotein
vessel
##65
empir
hex
##CLC
##ads
supplementation
cDNA
preventing
blue
epig
classical
DT
2005
monoclonal
##acin
##ze
instrument
delivered
zinc
rehabilitation
##lip
decades
consists
asc
blocked
advances
involve
1A
##ecal
amyloid
subtypes
grown
abuse
ultim
Taken
outbreak
Hz
##ayer
##ocardi
fundamental
Post
ethyl
##Hg
max
educational
knockdown
displac
CON
unex
##ordance
HDL
nasal
##ferase
namely
extens
2006
Akt
databases
##rect
addressed
arrest
cold
##arrow
TG
##ley
maintaining
##appa
##oic
neither
scales
ps
analges
glomer
##ogether
DH
initiated
##plex
histone
##sin
##plicit
author
inner
pil
perf
##essions
##entive
End
Medic
decisions
SAR
sho
exists
##born
methodology
macrophage
##AMP
##ophosph
##henyl
Pub
movements
leaves
ongoing
hypothes
trim
combinations
reinf
##phosph
##opathological
donors
why
replic
twice
decomp
retrie
##off
##oor
Si
prophyl
Hep
##mal
##acet
sple
episodes
Jun
elevation
candid
##abric
Following
##inating
##ceptions
PO
##plete
aberr
##pass
aure
contributed
Gu
S3
bowel
faster
timing
fatigue
rig
breat
cavity
guide
##ash
AV
NR
frontal
##liminary
phenyl
relapse
limitation
bearing
signalling
ICU
##N1
multic
##yan
UK
synth
Whe
##draw
infr
offs
mobility
DF
##IV
mell
category
operating
##ears
puls
project
Due
recovered
cytotoxicity
immunosup
UC
stop
phylogenetic
##rose
shel
brief
deb
Conc
encour
restriction
enrich
pp
##igar
peaks
sensitiz
adjuvant
enable
effort
technologies
##ulties
##vascular
saliv
lipids
tree
##aid
map
interleukin
rating
OP
December
Africa
##ademic
nonc
recipients
GM
congenital
deviation
metall
interpre
##ait
aureus
multid
platform
cla
##aphyl
dimensions
mess
adsorption
nico
##ysacchar
stere
determin
transfected
PAR
outer
##49
##itol
##sw
cond
cardiomy
contamin
architect
##amer
plasmid
permeability
traff
##urity
focal
regulator
indices
immunore
##ounced
##water
bodies
##ND
remodeling
##pat
mer
##alpha
##arth
distributions
##psis
parasite
##idin
##embr
##angi
arti
Under
hippocampal
discovered
##rown
nM
ent
bran
##pread
##dehyde
interc
spectral
SB
opioid
##usc
PU
integrity
##ato
null
changing
##osen
withdraw
simulated
tag
trop
computational
genomes
explor
CE
##Gs
amplification
##hydro
formal
comorbid
##ochrome
##agulation
translocation
priv
##enin
lamin
dataset
##idespread
##ibration
femoral
##acial
collabor
SW
##iologic
##P3
asymptomatic
Control
vesicles
cyst
emerged
warr
accom
modulate
Mon
evoked
manus
3H
##upt
##rovers
ii
phospholip
tumours
overexp
##LT
rank
reviews
sepsis
worse
ubiquitin
vehicle
EA
histor
inferior
exogenous
##ichia
instance
Aβ
hydrophobic
Human
phenotypic
##times
hor
gon
virt
acts
film
##anic
pigs
diast
AUC
##gent
##Bs
HBV
quad
anesthesia
beam
auditory
##umulative
##DP
fungal
ulcer
angiogenesis
stenosis
connectivity
Multi
cov
sustain
##uz
proven
nutritional
Cancer
ect
representing
enzymatic
stre
fibrin
capture
text
##mod
encoded
Germ
vide
##enop
##cription
##ffici
annual
aver
vaccines
bovine
proton
##avi
siRNA
Out
consideration
confer
mellitus
adipose
graph
you
spine
accurately
Plasm
##adian
innate
enough
constitu
exception
biomarker
Up
widespread
##eed
##uctu
screen
comparative
##ders
IM
narrow
portion
unch
survivors
efficiently
##opor
assisted
difficulties
performing
##inflamm
fabric
land
##xin
participate
##osens
##OT
L1
cigar
Arab
symm
becomes
contributing
share
carotid
##ospor
peroxid
##opoie
supply
TE
create
##aryngeal
disruption
##iae
waste
chond
equation
file
interviews
fir
Importantly
SNP
bile
##aceu
carbohyd
microm
controvers
responsive
Phys
synthase
technical
##usions
##otes
sense
##fficients
synerg
##H2
facial
stiff
secreted
##omon
##elves
##35
##37
##otides
pronounced
catalyz
##obil
feasibility
approved
gave
solvent
Ti
weighted
feasible
international
algorithms
spleen
favorable
quite
offers
hybridization
cran
electrode
##UT
Car
##IDS
flux
preferred
fluctu
##oxic
na
activating
##beta
ju
glycoprotein
tight
precip
LS
quantified
observe
onto
sep
##tes
steady
elucid
leth
retrospectively
carriers
##veolar
attack
##esides
phag
##otrans
woman
preference
overcome
002
trip
race
exer
MG
careful
youth
##icking
fear
words
##uth
comprom
fa
Five
respective
coefficients
visit
born
girls
QT
recombination
beginning
reinfor
##pecific
incorporation
##tub
sched
relaxation
clones
potentials
harm
mucosa
2004
discrimination
vital
nov
infiltration
##heimer
mediate
C3
arom
prominent
lens
detecting
lineage
##sies
reading
Del
Their
accepted
Even
indicator
ventilation
hence
inactivation
##ply
##olate
conformation
##BM
Alz
1β
eosin
mmol
ART
trained
circulation
figure
analytical
steroid
epilepsy
Thirty
manuscript
##acerb
Os
screened
##athione
pall
MHC
sessions
readily
contents
##iction
labeling
constrain
##tructive
striat
Op
AG
dex
chosen
mucosal
brid
rarely
leak
started
correlates
##36
Ni
injections
His
cyclic
##oplastic
searc
vertebr
GI
Mn
opposite
Rep
Au
pharmacokine
sound
neurot
interference
effector
inside
dehydrogen
##atics
undert
HER
##amous
Mo
bor
##oglyc
RV
bypass
##urated
degeneration
exacerb
thal
visible
hospitalization
Alzheimer
copy
fet
##anese
So
Coll
speech
thems
elong
attachment
themselves
##inson
##uity
echocardi
concomitant
bip
##opes
anomal
academic
object
depos
##elled
diarr
preced
occlusion
##FC
discontin
negl
AI
complicated
details
EGF
Ob
microarr
mA
presum
NE
ablation
guided
Park
mmHg
##uits
nutrition
industr
adenocarcinoma
raised
annot
Wnt
plane
toxin
impacts
subjective
xen
continue
compliance
endoscopic
ethnic
py
attitudes
mTOR
get
neutrophils
Type
bis
MAPK
Escher
Mal
mening
casc
Specifically
width
##zyme
subcutaneous
quantify
##embrane
##ger
Fl
answ
sulfate
protect
aid
diastolic
##K2
protease
closed
CO2
neurodegen
greatest
IQ
examples
1B
##ukary
traj
##ebr
unp
retic
Escherichia
wavel
CRP
isoforms
##ophila
##raction
assessments
3A
##cape
##omics
dendritic
newborn
explanation
ECM
##empor
##CAM
zero
cAMP
etiology
##pler
promoted
asked
HE
##mented
enhancing
##ida
exon
easy
difficulty
volunteers
MV
teeth
former
Vari
##tisol
Er
DE
##haps
discussion
bulk
resc
PEG
cumulative
reporter
##ancial
epidemiological
tip
attempt
##luorescence
Methods
##estim
cham
Future
capt
anatomical
somatic
cohorts
##hythm
substances
2B
lifest
hypothal
dimer
##itting
neuron
EEG
placement
##nia
##ded
WHO
precision
enrichment
observational
finger
NMD
lymphocyte
equilibrium
reversed
CVD
##ascul
forces
##rotic
quin
reductions
homolog
kappa
ideal
nutrient
##ituitary
manifestations
corneal
situations
obstruction
##des
##ivariate
malignancy
yields
western
##pring
rheum
##elets
eating
mom
elucidate
relie
##Ls
couns
##erves
cirrh
equip
m2
005
pretreatment
##gal
DN
calculations
##iking
examining
resolved
remission
volumes
war
stom
la
##ufficient
acceptable
unable
resting
LH
selectivity
similarly
##omeric
consult
##opoietic
Dise
quant
facilities
upregulation
sor
assumed
USA
pic
##onate
acetate
look
incorporated
vic
genus
chromosomes
quantification
cann
reflected
##IG
EF
phosphatase
probes
delta
dark
##aires
department
instability
orb
subtype
improves
##ypical
believed
##amycin
accounted
GO
glutathione
reperfusion
propag
North
predictions
PI3K
plasticity
incom
##ausal
belief
seizures
##ife
HO
transduction
ocular
##otensin
##atinine
##engt
artificial
regimens
Arg
intes
##eptive
missing
Man
powerful
NSCLC
structured
##ada
modes
kinases
opportunity
eukary
practition
subgroups
laparoscopic
adolescent
##osystem
htt
kinetic
driving
glass
cultural
candidates
Myc
##ilic
##oresis
preliminary
quick
##rocyte
##CLUS
excessive
naive
mesenchymal
hydrolysis
##max
##E2
ASD
##asion
hemorrhage
##ories
##urrently
rotation
harb
connected
plaque
Hist
datasets
##GC
diffuse
antis
evid
Kore
CONCLUS
perturb
strand
resemb
LP
Fif
##ufact
blocks
##platin
##fold
reveals
antiv
determinants
##hea
2003
walking
atherosclerosis
##tructure
differentiate
##ycl
##inn
epigenetic
Then
quar
##ylate
##G2
produces
synchron
ester
##aden
##oL
trait
user
biopsies
bird
virulence
MSCs
##ito
homogene
disapp
mono
##uly
iod
pyl
demand
##NOS
microbiota
burn
carrying
sensing
lactate
NPs
selectively
fine
route
cytochrome
templ
shaped
##O3
optimized
allergic
overlap
univers
elimination
rice
argin
##thern
vision
pituitary
shar
##imental
considerably
expressions
bands
Instit
upd
diagnoses
##zed
creatinine
denti
##assium
normally
undertaken
hydroxyl
##sh
##agnetic
cry
grap
excretion
##rane
##uses
participated
dehydrogenase
##inter
climate
infiltr
##het
##naires
dialysis
absorb
BS
##III
Fort
Braz
description
2018
interferon
Bet
bonds
coated
complementary
abol
reward
phyt
##lands
##related
−0
overweight
BB
stimulate
RNAs
partner
##pin
cytometry
cues
standards
RCT
financial
##amily
##OVA
semi
believe
phosphorylated
##hene
ine
fasting
##C1
##ester
comprised
P2
adrenal
experimentally
larv
motility
scans
stret
##rought
squamous
nitric
traumatic
LR
digital
##opathic
##As
compression
##atible
##ophilic
##56
crop
aspect
Rel
stent
##oel
round
##terone
PPAR
box
immobil
implants
studying
edema
hemoglobin
principal
linkage
None
She
##onsequ
##prot
##ograft
##ynaptic
requirement
Serum
AIDS
##ustry
extensively
O2
manufact
##nc
copper
ecological
pi
vectors
Bcl
depr
##dep
##hern
rupt
##ozo
##adiol
Treg
embed
upstream
##luor
forward
clustering
let
epidemic
esophageal
organism
quantum
claim
##osures
incubated
##vas
Brazil
ce
Red
monocytes
homologous
##idop
CAD
KO
##E1
thrombosis
Cox
dri
MDA
carcinomas
films
Eight
micrograms
##ocortic
fruit
lungs
Cp
doub
preparations
terti
insufficient
sometimes
GF
##idase
##42
offspring
apply
Consequ
inhal
empirical
serot
explo
TD
gestational
catenin
CKD
Within
microtub
tib
##economic
blocking
##43
innov
engineering
##tral
foods
Eff
##pathetic
square
stained
Japanese
colony
psychos
May
deter
refrac
##PH
mobile
2002
statistics
But
##ques
highlights
advance
ventral
conformational
##iation
estr
cortisol
potassium
embryo
sera
ATPase
modern
unchanged
Pe
vaginal
##omb
etc
lumbar
fitness
diminished
COX
##iasis
##uv
viable
investigating
contamination
serine
incident
##gl
knockout
lifestyle
##iples
law
opportunities
Long
hormones
translational
##atidyl
Dros
BL
science
exhibits
pay
exclusively
platelets
optimization
##ools
postn
spi
contributions
##opol
##engthen
genetically
enables
stimulating
##hers
decade
dissem
agonists
##ush
perman
elicited
India
dispar
biomass
lep
nanos
##ala
##ulose
International
tau
uncom
edge
spp
##ECT
unus
##67
##ocys
gradually
suicide
##unt
corrected
potenti
redox
##ounding
##±0
cation
bott
Significant
metabolite
Organ
mediators
adapted
mast
pelvic
##omat
architecture
##ofl
guidance
examinations
##mol
seeking
Japan
pup
bed
alignment
cisplatin
##aceae
Surve
Early
mov
VS
angiography
focusing
##omonas
Surg
Consequently
wavelength
##environ
proportional
##gence
angiotensin
##2A
paired
Consider
carrier
##47
proliferative
##ians
dosage
Oct
pren
ultimately
##ister
##ulmonary
hemodynamic
##inflammatory
stiffness
prescribed
dramatically
tension
LM
causal
premature
pand
Fac
triglycer
ath
##ighting
Wor
preterm
aort
Consistent
jour
mos
Soci
dL
Patient
industry
compartment
keep
##outhern
##acterial
##erge
closure
stratif
gestation
principles
##39
##lycemia
thoracic
Asian
##CS
EV
CONCLUSION
SOD
formulation
rabbit
combining
publication
representation
triggered
##agul
uterine
deterior
retained
##irc
frame
##adequ
##angement
expanded
plot
SARS
vertical
diets
silencing
microenviron
##oplasty
boys
##iplinary
trigger
##etrial
session
transporter
adjusting
adenosine
chromosomal
##orous
intestine
cutaneous
questionnaires
tendency
pg
neutrophil
goals
horiz
suppressor
outpatient
##uing
stromal
idea
MH
##itic
cysteine
Information
coordination
tooth
solub
atoms
obst
interacting
tended
##puts
ND
helix
FR
roots
P4
hold
transformed
drain
S4
modulated
##phrine
##ubation
Drosophila
BMP
Gal
apical
processed
##antic
Resp
003
synergistic
modalities
TCR
chloride
##1A
loaded
Gy
##yster
participant
##titis
building
separately
regulators
dyn
defense
duct
##ranial
Pt
testosterone
immunohistochemistry
season
PKC
##lass
##hemical
colleag
antagonists
Children
sugar
reflects
atrophy
covari
GTP
March
activator
##anger
monke
termin
passive
ADHD
withdrawal
took
larvae
modest
2001
rearr
surveys
malignancies
incre
biofilm
OT
occupational
deform
refractory
rejection
##ierarch
PTSD
pandemic
rule
mood
##uctase
isolate
rhythm
ball
sul
##ariable
eligible
blockade
mRNAs
RB
##viral
##asome
equally
NI
##iar
GD
##aum
##rowth
##uron
conclusions
##acillus
perceptions
TN
##oyl
pilot
sensors
June
discrep
TK
##atum
gall
linking
wet
HIF
ammon
##pan
Its
##48
adopted
dur
immunoglob
DL
##45
IA
##onom
elastic
pent
trache
##NPs
##atile
highlighted
antit
Prim
conserv
pore
socioeconomic
throughput
shifts
metric
##flow
pooled
applying
antiviral
DCs
GL
teaching
flexible
A1
##ram
hepatocytes
tertiary
vacu
##keletal
Glu
lifetime
critically
meet
peer
##asic
property
opening
SEM
colleagues
##ameth
Care
suffering
generalized
capillary
mask
cocaine
perhaps
pylori
Mater
recall
##emat
arginine
VT
##ionic
systematically
inadequ
mammals
engagement
4A
astrocytes
##zing
bud
splicing
IU
pump
fri
excitation
paradigm
##isk
scar
border
##herin
Subsequ
helpful
pip
Austral
wt
prolifer
enhances
BT
##itors
##HS
postnatal
Bay
generating
vascul
##entricular
##ference
intell
English
partly
Det
monol
kb
World
library
lobe
farm
epidermal
extend
endocrine
communic
needle
PN
IN
tolerated
division
Together
microorgan
alveolar
strict
And
##ocellular
Mut
ranges
##kle
functionally
##BA
clarify
enl
peritoneal
switch
conservation
ances
duc
indications
##uation
excision
##ofluorescence
BAL
drive
##kely
transferred
##apses
##HL
Gene
buffer
anch
110
##choline
latency
##ocon
electrophoresis
predisp
inverse
HL
optic
##ynthetic
summarized
spermat
unlikely
span
inducible
shear
turnover
osteopor
anemia
usage
##gesterone
Fc
scal
operated
caregivers
Dop
Forty
##eleton
exposures
embol
motifs
sequential
heparin
scheme
constructs
##min
filter
##ming
sham
shorten
bat
Notably
##olid
visc
##ulus
##ensitivity
##fe
Int
ERK
shed
bic
microarray
informed
anticip
uncertainty
##apt
incons
atypical
CoV
##UR
maps
##cepts
##transferase
2019
##avail
Hisp
night
alteration
brom
meeting
HPLC
nicotine
Pa
tele
attempts
##OF
branc
perfor
##CP
apo
BMD
Multiple
dye
explicit
##sA
##omotor
tumorigen
covered
##63
180
leuc
reversible
emergence
scattering
select
##RD
silic
Assess
policies
##ocular
##odal
dissection
immunop
leptin
PSA
##inder
Ital
psychosocial
##astom
FS
validate
terminus
managed
myeloid
discl
responded
carboxyl
neoplasm
protected
market
SLE
flap
amel
tryp
transmembrane
coating
##uncture
galact
dissociation
##ometer
keratin
##orec
##onuclear
##heres
Conversely
aqu
surgeons
rough
##cious
progenitor
obl
preventive
private
homology
indication
acidic
##otyping
table
irre
hous
Low
##anges
sent
##azol
verified
MF
Index
##obacteria
MY
infl
displacement
##ns
distant
##utr
##ysaccharide
##ees
##elt
fertil
hypertensive
weights
prospectively
automated
##titial
hydr
principle
interpreted
posts
##asing
IgE
##lit
rabbits
competitive
pref
1990
##yll
industrial
RD
Class
##ibular
postm
dyst
hematopoietic
Blood
##xy
##B2
indeed
severely
disappear
corticoster
programme
##iable
gives
##odil
##izumab
ACT
deficit
configuration
potency
##nea
fore
tab
MET
FI
##aste
##68
luc
gp
OD
1a
##ora
grafts
carbohydrate
otherwise
##vasive
##ellow
transfusion
unaff
objects
##aceutical
sclerosis
pathophysiology
arrhythm
isot
arise
TI
Besides
encephal
canal
offered
Protein
Gram
reaching
CD3
contacts
violence
noc
matching
electric
##azine
cos
##ME
hydrog
##H1
cirrhosis
ANOVA
fif
oxidase
GSH
##iber
##MRI
600
lnc
hemisp
surprising
R2
##isciplinary
varies
##aments
##rospective
dich
##ochrom
fist
purposes
antico
fibrill
inactive
concurrent
parasites
idi
##oustic
popular
immunosupp
fourth
##oderm
rectal
manual
1α
FGF
Meas
##lings
##ocated
##oxygen
##ectives
hierarch
Ret
##rontal
G1
controversial
##eded
unaffected
molar
unilateral
microscopic
ADP
Id
##atibility
Expression
fungi
metals
attached
##minis
##nat
##apor
rRNA
seizure
Bo
##osan
lam
recognize
rheumat
integrin
retina
C2
minute
portal
##essation
##omestic
immunological
Val
Institute
alle
mechanistic
##ococcal
##iod
Disease
syndrom
takes
Parkinson
actually
video
FP
conven
adul
competition
expon
Apr
mutagen
##MV
##quin
patch
3B
incomplete
H2O2
##actant
operations
inges
Exp
chamber
Su
window
bab
vaccin
Function
reflex
unusual
##aved
reag
sediment
oct
##ino
microenvironment
fatal
mt
overview
evol
ecosystem
##linear
glauc
fre
OCT
peric
A2
cadherin
applicable
##lies
schools
##openia
##GR
##T1
##amil
hypers
unrelated
Mor
consent
dro
moment
AML
Statis
naturally
##idopsis
##ectable
##cine
##yph
normalized
##omorph
wheat
Initi
superoxide
cessation
T3
simpl
extreme
Ul
##BI
decay
##quito
breeding
Ten
Clin
##ulder
permanent
mammary
Pb
##odef
carry
hypertrophy
registered
##agm
prone
Min
lethal
##ese
##itig
##inosa
senes
segreg
locally
conv
aromatic
cattle
beh
aggregates
##estic
##idae
##rene
charged
mind
##recip
thresholds
Arabidopsis
illustrated
NM
D2
mediating
capability
DO
tracking
##abolic
evolved
##co
Ki
##55
instruments
declined
pancreas
##nR
Cys
gyr
microscop
Kn
##opathology
##ographical
embedded
novo
D1
commit
FC
##88
exclusion
nitr
##GD
numerical
activates
Increased
accelerated
encountered
restored
analyzing
Total
polymers
cystic
Australia
intraoperative
##asonal
comorbidities
comprising
microf
hosts
glycer
personality
referral
axial
birds
FL
Cas
##cale
##roz
Radi
derivative
cognition
prescription
Syn
modality
rated
IgM
searched
C57
cyan
weekly
wors
static
##oblasts
usual
##osyl
currents
##ricult
##ographs
tens
##like
jus
##gi
##99
Ele
April
remarkable
β1
practitioners
##gu
Women
mathem
glands
1999
concepts
completion
agricult
##utable
immunization
downregulated
Appro
##N2
Ox
responsiveness
conflict
pow
PAH
##arcoma
hall
phosphatidyl
pressures
simply
subsets
scoring
##eptides
neurotrans
fu
##akers
##urses
microc
Pseud
EMT
reasonable
H1
Indi
achieving
##elles
attractive
clean
IC50
preserved
percutaneous
apparently
serotonin
assumption
mosquito
##K3
dosing
##ycline
endometrial
precursors
##hion
dimethyl
trunc
stored
cascade
nonlinear
zebr
Drug
anastom
distances
scenario
ionic
utilizing
##ivation
##iol
antidep
consistency
##phthal
p38
Ram
CAR
HSP
Society
boundary
electrodes
##onical
##ception
shell
##grade
##axel
##75
Lys
##PCR
bund
##ediatric
radial
##iments
Salmon
mutated
##duction
prenatal
exert
profound
##66
persistence
ppm
domestic
IBD
away
mir
##ropl
encodes
insurance
##ocr
marine
flat
endothelium
##uate
http
IgA
##avir
2a
chemistry
##otoxicity
vulnerable
sympathetic
abilities
##rogenic
intense
emphasis
clinics
##herent
reductase
July
sheep
##agg
abolished
code
##ograms
anaest
VI
transfection
tendon
gonad
branch
yr
##ober
aware
##unately
promoters
feeling
implanted
##ostatic
##aven
Primary
Qual
calculation
Current
2C
equations
stratified
dense
influencing
machine
##agic
caud
Ques
endomet
cust
##menting
##mitt
gait
coinc
JA
nurse
contral
filtration
stomach
physiology
##points
waves
preclinical
##M1
VL
subp
antidepress
##Os
injured
constraints
Eth
alkaline
##iant
latent
construction
CCR
job
##okines
004
neurom
proportions
flexibility
Center
M1
depressed
criterion
immunodef
oocytes
axons
saturation
Her
##thood
##oplasmic
routin
detr
nonin
##timal
##inea
fashion
promotion
provision
##ulates
slope
progesterone
anticancer
camp
Next
specimen
##RIS
nano
5p
##afish
ROC
coil
##obacterium
sequenced
adulthood
##anal
institutions
inadequate
##95
morphine
manipulation
intracranial
eventually
microorganisms
coex
transmitted
FF
sun
##ulos
GST
##tructural
overlapping
returned
hypog
becoming
accumulated
chor
##A2
Figs
encaps
additive
swe
microglia
termed
unexpected
AH
VA
lineages
##01
modulating
Department
enabled
##igation
desired
polarization
slower
Stre
stabilization
Notch
##inephrine
##afts
Doppler
Currently
eosinophil
##oreceptor
interstitial
##ologist
pathologic
minimize
##asone
##ygd
dysreg
randomised
Sing
cytosolic
correctly
##O4
##arum
##atical
lowering
##inase
estradiol
##era
calculate
##ocor
##abs
immunohistochemical
acuity
HU
Rho
attend
neurodegenerative
##andem
Salmonella
cloned
##ards
drainage
Cyt
prophylaxis
elucidated
FM
glucocortic
contralateral
##ationally
140
pregnancies
build
reflecting
aerug
Anti
eggs
##33
connection
obstructive
##ploid
mitig
illustrate
interacts
cyclin
secretory
seasonal
travel
tet
van
adding
amplified
neo
TBI
government
TRA
attributable
Accordingly
##umb
aeruginosa
##aminergic
profiling
dl
offic
##encephal
scenarios
immunoglobulin
##chlor
MCF
afford
swelling
##gone
H3
downregulation
warm
Comb
##gia
meaningful
homogeneous
cats
mobil
iii
##L1
BRCA
##nis
belonging
##rupt
##tism
amelior
giving
##itability
verbal
isoform
front
##ura
##44
amygd
macro
##onomy
allevi
immuno
##ysiological
ACh
statin
##oblastoma
ratings
resol
##itten
links
##iary
abor
preferences
##pos
opin
##udden
##icillin
##ional
copies
hypotheses
geometry
conceptual
America
##iel
##iosis
aneurysm
happ
mimic
rupture
photos
topical
coval
nic
favour
ethnicity
##olym
Aug
##G1
emp
##inates
accordance
aerobic
C1
pollution
infrared
Ge
atm
lysine
shoulder
hot
glomerular
poorer
intention
symb
##OA
hyperg
aorta
photo
defective
Sept
stat
##sia
coping
dox
Subj
1H
anaer
##otherapeutic
##iers
GW
son
blast
dihydro
complain
##what
##enopausal
##F2
sampled
quantity
connections
1998
circadian
nerves
130
bipolar
envelop
gained
strengthen
specialized
Mc
hospitalized
undergone
##ticular
cooper
digestion
conservative
forest
##yces
administr
cigarette
ile
H3K
SG
olfactory
lith
##yclic
##abin
AND
5A
constitute
##tures
Through
nodules
Ha
Aut
Chronic
##olone
Nr
diarrhea
##enta
Association
histology
##ositol
Test
##BG
hind
headache
establishment
unst
##ministration
template
##advant
##iciencies
glioma
accessible
Considering
##parts
Staphyl
##irable
Assessment
zebrafish
sph
harves
replaced
endemic
directions
µg
prevents
coagulation
##ardia
describing
antitumor
warranted
disturbances
fair
Develop
spr
drink
SDS
geographic
##actin
##lusive
clamp
tRNA
##rile
picture
OC
formulations
##ocking
##atories
apprec
Tw
lac
oriented
Cre
densities
circular
recordings
nucleotides
named
Between
postoperatively
radiological
fasc
centre
supplemented
adsorb
papers
converted
anthrop
##unk
mitotic
osteoporosis
Sr
##f2
synthes
urea
beliefs
sucrose
4B
Plasma
nmol
##assay
discrete
##factor
deprivation
##Med
##umer
spent
somewhat
abstr
lasting
RO
##endit
##ersonal
interfac
xyl
##acing
##pes
manage
##ositive
append
##ropathy
Sam
Fas
disadvant
moving
conscious
##while
soy
bonding
resident
attempted
repeti
##agland
Evidence
um
##rosp
##utrition
insuff
##ellite
105
CHD
tandem
folding
##iative
moderately
continuously
attenuation
glaucoma
##R2
##hex
pari
horizontal
ACE
sick
colitis
chron
##bor
diffraction
##edical
CMV
preferentially
cool
GT
lands
HER2
multim
motivation
marginal
equipment
##emographic
ars
##ogenes
occasion
droplet
##rod
Altern
subpop
lesser
transitions
similarities
mism
intrav
calibration
##69
##illi
September
##onym
graphene
blotting
meal
MO
Coch
scler
PW
focuses
CoA
consequently
##ony
##oxacin
demands
radiographic
F1
psori
Sn
accounting
spind
cure
scaven
fibroblast
proinflammatory
canonical
damaged
##aemic
satisfactory
reads
Median
chemicals
responding
cyclo
osteocl
Age
Pres
Hig
HSV
ECG
losses
##astatin
regarded
Question
neuropath
##letes
##heric
sudden
##ECs
##iger
introduce
##oarth
come
topic
deplet
colonization
##elve
Mac
androgen
dramatic
publications
histologic
HDAC
evidenced
surgeon
aberrant
threatening
Sa
facility
vast
modify
tach
##sts
##ocin
atomic
esophag
prove
ultrason
pock
amph
##imb
superficial
drawn
trafficking
victim
##inance
syndromes
atmosp
doctors
##ostr
confirming
Progr
perin
NMDA
facilitated
anten
AKT
sib
proce
student
sea
Multiv
inputs
histopathological
para
constants
accounts
tubular
##opia
duod
repeats
necessarily
objectives
compatible
Diagn
medull
exploration
##oprot
osm
bottom
plans
expendit
consumed
striking
##olarization
served
quickly
##32
formula
OB
stig
S6
imped
Te
lymphoid
trace
Canada
##partum
##iliary
cement
trees
presumably
##aight
##UN
RE
circumst
glial
Coun
conditioning
notion
somat
biliary
neuropsych
adduc
SCC
triple
held
##idium
acyl
ABC
##ulsion
##osphate
scaffolds
neighbor
##iferase
echocardiography
##ergies
##athyroid
homozygous
106
##ww
##PV
##ewise
October
hepatocellular
leukocyte
Hispanic
##ga
##ift
elongation
Fifty
evaluations
1C
Lik
definitive
finally
sharing
##onn
counterparts
salivary
citr
staging
lag
##uclear
muscular
HbA1
Cardi
##fortunately
##phone
running
universal
Medicine
Micro
Ras
breathing
codon
phenomena
Individual
Form
##UD
intended
##inted
fluctuations
Staphylococcus
legal
familial
arising
##ocyan
##oir
ethical
##amethasone
Central
T2DM
screw
##ola
3p
participating
recipient
##antib
switching
repress
respir
straight
contaminated
seeds
signature
intermedi
placental
restoration
IQR
confounding
preservation
mixtures
episode
subm
purification
institutional
hypoxic
raw
##adj
web
distric
Herein
methodological
FV
G2
eukaryotic
conjugated
underestim
pharmaceutical
wat
MIC
##trained
mediates
Ol
prefrontal
##MCs
Survey
avoidance
catech
ventil
##lutin
##tidine
kidneys
meat
circuit
##ibilities
##rectomy
weakness
dest
##iding
##ophore
##after
accompl
##PT
station
acoustic
contexts
remove
##oides
firing
Fox
big
anis
##vian
##regular
BDNF
Bas
autologous
antibacterial
mV
##ophen
inver
pneumoniae
margin
M2
immunofluorescence
immature
S5
fertility
substituted
transporters
DI
EBV
##angements
supernat
##omized
compartments
Mex
##oxif
serves
fate
heme
lengths
##T3
##62
immunodeficiency
Asia
##sk
1997
UTR
behavioural
##ivity
rheumatoid
routinely
provider
uncommon
##arse
depleted
##osus
mann
##bil
solv
inherent
amp
STAT3
##inge
essentially
fMRI
destruction
conduction
irradiated
##olus
##ucas
Pharm
neonates
##ented
university
cros
implies
serial
match
bioavail
heterozygous
##rex
##ubicin
##omerase
silica
leaders
##ips
phage
##activation
##eted
rect
##lipid
owing
##yel
Swed
Acute
inversely
##atonin
##static
Americans
conditioned
##family
antip
engineered
mouth
prescrib
Unlike
RCTs
amygdala
parietal
tick
poli
PubMed
nom
port
Gol
nutrients
##ettes
##atosis
CAP
CCL
La
gaps
anatomy
##anish
##59
inserted
hyperplasia
##ellum
##allow
confound
##haus
Model
Hsp
crystals
penetration
stranded
##ires
grain
teac
recons
corresponds
built
idiopathic
visualization
Different
athletes
herb
hormonal
1b
MK
SK
thorough
insect
behind
##ofib
800
Changes
##abine
alkal
actively
papill
dispersion
##aker
##roid
##lerotic
facilitates
taxa
continues
ds
ALS
##uled
irregular
cysts
palliative
##SC
modif
incid
averaged
worth
proof
lumen
Germany
standing
##echanical
viscer
##DR
retard
##porting
Sym
differs
entit
descriptive
tetra
distor
That
ging
C57BL
relief
fell
chi
ventricle
tap
perioperative
Mar
Tg
mapped
pestic
chicken
establishing
fibrillation
played
insec
art
RN
lute
minority
Und
T4
designated
Supplement
fragmentation
efflux
conjunction
expert
veter
##EB
neuroprot
stresses
quantitatively
3a
spot
epitopes
##O1
www
clone
gyrus
##ej
Sevent
optimize
minimally
N2
verify
NCT
Administration
cerebellar
electroly
Seven
optimum
oxidized
antif
DES
revision
##inting
cutoff
intraper
chim
What
arms
NaCl
colonic
condens
immunoreactivity
laboratories
dilution
MW
unstable
prostagland
LG
WM
rely
senescence
radicals
Psych
flank
Path
##vision
expectations
##genic
usefulness
indirectly
porcine
oligonucle
periodontal
designs
reserv
displays
indicative
FDG
organized
##otub
yellow
colonies
felt
##ometr
intram
planned
##uck
individ
VAS
##inform
asymmetric
##tee
Third
##ogenicity
Caucas
qPCR
responders
axonal
nitro
investigators
OSA
immunotherapy
wk
sufficiently
sac
MRSA
##C2
CpG
Conf
intermitt
lup
##itated
Hu
filled
strongest
judg
##urable
axon
##ognitive
assembled
CXCR
HbA1c
experts
affer
ros
Hear
reproduction
Cochrane
##imus
##appro
1D
gro
##ported
##otoxic
seemed
chance
tone
underl
##oking
160
works
reticulum
juven
render
##31
##osarcoma
##rozen
mathematical
stated
views
chel
inpatient
broader
joints
##BT
UN
contrary
hyster
##77
junctions
luciferase
Bayes
ago
hearts
reproducibility
mitral
##opr
CYP
paral
renew
deterioration
##AA
Leu
strept
AKI
machin
hydroc
addressing
gangl
epiderm
spontaneously
aspirin
##ading
LF
summarize
perox
##obs
Those
3C
slic
plaques
##uge
RAS
Inhib
Disc
ankle
2020
AMPK
centered
creating
supplementary
listed
Mat
synapses
##odialysis
Whereas
fulf
suffer
univariate
CXCL
deline
disturbance
alanine
OF
cows
slowly
bif
August
photon
historical
microscope
foreign
##pi
sector
1995
##hydr
smoke
leakage
determinant
##electric
organizations
Pan
striatum
Rem
enabling
crude
lives
scope
Outc
misc
##esium
Yet
undet
familiar
ligament
P450
##pend
##imetry
##respective
Tc
##zation
2b
kinds
impairments
overexpressed
lived
propagation
plots
anaerobic
steroids
captured
##M2
vertebral
HRQ
inh
1996
epitope
Vis
pharmacokinetic
coch
##SCs
##oric
initiate
gross
excitatory
began
pit
dendr
disulf
fecal
counseling
proximity
obtaining
##p1
shr
written
##51
##ails
##ilst
Cand
polymerization
Enter
##La
##ctive
abscess
eliminated
nond
catar
rational
Equ
promise
ends
sand
Risk
##ptions
Level
pseudo
remote
ips
transplanted
resin
quadr
16S
reservoir
##erstanding
hams
##lamp
##osites
anomalies
hors
flavon
##urk
categorized
neoplastic
unm
circumstances
##etheless
grav
nucleic
##roplasty
importantly
##where
affective
immunosuppressive
exec
postpartum
immunoprecip
unders
##usive
city
percept
suffered
think
foci
##ythem
wear
mononuclear
lic
##essive
##aran
Ed
trem
massive
multivariable
RC
##inergic
cultiv
SO
##ously
engage
beg
society
##omial
acceptance
CAS
Th1
predicts
analogue
ophthal
##46
##ometh
titers
##thromb
Diab
Organization
analogues
adrenergic
##athe
spike
consuming
artif
##ubb
chloro
dopaminergic
relatives
incision
myosin
brach
orally
neuropathy
Go
unlike
Ta
##ano
individually
Questionnaire
employing
follicular
##keleton
##ycardia
##tium
PCA
biomedical
##antom
scored
epidemiology
##78
Evalu
Cent
faces
JNK
stream
conductance
racial
genetics
virtual
expand
inequ
Gly
estimating
Golgi
catalyzed
##hyp
FU
##eces
Finding
##itudes
inoculated
dead
##ejun
distinguished
moiety
aspart
depic
carcinogenesis
defining
##D1
Higher
filament
##olum
nitrate
##uscular
##opyr
isch
polypeptide
Raman
##aturated
101
hyg
##ulty
motiv
##ionine
##affe
binary
experiencing
rescue
talk
cerevis
irrevers
split
Pd
lign
##berg
##urons
Cx
rhin
inconsistent
courses
imbal
Time
##rogate
intens
productivity
##eries
##ielding
die
##ius
General
##formin
cellulose
articular
tumorigenesis
extin
carefully
solubility
Various
mtDNA
ald
Standard
##bean
tex
segmentation
primers
nav
relig
precipitation
monkeys
shifted
FOX
frozen
cerevisiae
##enol
##esare
synov
ALL
anion
Sl
104
piv
challenged
##pectives
fluids
tric
Regarding
fitting
divergence
##feeding
Sel
##plementing
##ossible
deletions
attending
retrieval
biologically
submitted
Do
assume
behaviours
Review
Ste
electrom
integral
VP
Ir
##oarthritis
BF
ligation
Unfortunately
##tified
Black
Pseudomonas
##ectories
granules
cycling
Pur
CDK
machinery
serop
ectopic
##urgical
ureth
##tribution
habitat
Bio
rules
cough
clock
tac
kept
vasodil
fermentation
suspension
proteasome
commercially
registration
imag
##iton
111
##ompass
Lip
##orth
10−
relate
OM
killing
ADA
leukocytes
gam
angles
pa
##son
Identif
forced
LN
endpoint
spher
Wil
##hep
transcriptome
C4
East
##MO
arb
ambient
positivity
plas
dent
##eled
encompass
##ete
##oney
module
monocyte
helical
##Us
arrays
##day
capsule
Subjects
tur
White
vo
guinea
MSC
dermat
Sequ
PFS
GnR
##omatous
merc
eliminate
amn
Upon
##va
covariates
Phase
trajectories
##tending
TLR4
spindle
falls
006
State
108
powder
neurotransmit
century
##diagn
##eties
Glob
visceral
##oradi
##ayers
autonomic
How
polyc
electrochemical
classic
##esarean
##ithelial
##58
Char
NLR
mu
respiration
Sixty
##ART
HeLa
considerations
perspectives
pancreatitis
##imal
wider
reproducible
Whether
intron
dexamethasone
Inv
nanom
trypt
stimulates
##1a
mediator
partition
appropri
repetitive
pigment
brown
rodents
HH
zones
repression
FDA
programmes
adolescence
coordinated
anesthetic
Iran
sized
##plastic
enanti
matric
sole
instruc
MN
autoantib
alkyl
ded
admissions
clonal
Experiment
pin
probable
##rep
arteri
releasing
KD
thrombin
##king
##ethylene
solely
##engue
##entin
103
originally
atherosclerotic
##uvate
sap
eleg
bioactive
melatonin
##41
reflux
inoculation
Therap
slices
themes
silver
masses
##LV
##omod
incorporating
bioavailability
phon
Febr
##organic
PTH
##ensitive
Latin
##onge
catalyst
Understanding
hol
entirely
peroxidase
sensitization
heating
Ps
##orubicin
Po
February
deal
executive
refr
##yrin
branches
DG
interfere
swim
employment
chaper
APC
##sychotic
permit
##73
##apine
septic
intermittent
lupus
supportive
accommod
propensity
sulph
EN
##ulsive
FSH
plates
gray
specified
Serv
migraine
differently
ICD
##oxygenase
Net
##cy
##regn
##patients
strengths
breath
neurologic
pleural
Indian
ganglion
Tyr
ejection
haplotype
##ague
MAL
aspiration
##ux
vom
##ij
noninvasive
pocket
P1
##esophageal
Intra
##idic
Section
Ke
##ACE
terr
cG
learn
##ontrol
##da
chemokine
histamine
RSV
Impro
##oler
##mann
inappro
deformation
##opulmonary
##inescence
Subsequently
emo
balloon
assayed
bring
##ticed
RNAi
1980
IOP
vin
##omet
labelled
oscillations
Th2
phantom
##urnal
resusc
##opa
flexion
Differences
microtubule
ON
exhibiting
hs
exhaus
##odic
insufficiency
##mber
km
##anium
desc
##enn
irrespective
suggestive
structurally
Food
µM
##ostatin
007
learned
tibial
din
Comparison
CYP2
Fis
functionality
analgesia
outbreaks
analgesic
##emporal
##omyc
##oemb
pulses
DV
6A
TEM
concentrated
SCI
fused
##ronectin
fistula
phenolic
##ishman
heavi
priority
##enstr
anatomic
empt
gyn
tor
elicit
funding
collaboration
mandibular
Nove
peroxide
##000
facilitating
West
ineff
intensities
##RACT
##plicate
thous
GV
##romycin
##ogeneic
pollut
hypothalamic
Nin
##rug
##PP
##airy
discharged
November
personnel
players
5B
modifying
Findings
Genetic
GnRH
##oea
UT
##izer
102
multis
coherence
genital
##lam
dysplasia
follicles
##ya
genera
##antitative
Functional
seq
lev
constitutive
##omere
assumptions
iter
008
reinforce
##alc
##know
NAF
A5
automatic
elective
bases
radius
ole
stabilized
intim
PCI
rain
metrics
##otrophic
Dat
envelope
soils
perinatal
TSH
energies
109
agreed
disrupted
degraded
##bumin
cue
##uli
developments
ta
coronavirus
##mg
rings
triggers
winter
##IK
acup
backb
transmit
modules
mAb
##ectory
Instead
perceptual
inherited
sarcoma
helps
vulnerability
##unting
canine
methanol
abnormality
brains
volunt
cranial
outl
##DH
supr
contribut
##itamin
dominated
semantic
myocardium
neoplasms
autosomal
##ifferenti
ribosomal
DSM
dynam
multidisciplinary
dw
Approxim
##isis
dism
compromised
exclude
confined
Hel
bridge
ureter
geographical
##atinib
##amines
WOR
##LE
Once
ubiquit
QoL
Quality
Statistical
peroxidation
##uccess
causative
BH
walls
ont
agricultural
plaus
closer
##iazep
##virus
vesicle
##gic
psoriasis
Sci
menop
inability
vomiting
influx
##itosan
summer
matrices
intermediates
bin
ovary
willing
Ba
augmented
extrap
progressively
##tized
mating
modelling
ABST
KR
##onduc
corn
stake
##anyl
primer
ganglia
encode
MCP
accumulate
##isely
ment
##hn
projection
##rosion
##rogens
ABSTRACT
##oplasia
drought
Commun
##ney
saliva
Molecular
symmetry
confirms
trajectory
##retro
starch
vestib
PTEN
##ipot
##oxicity
micron
postmenopausal
selen
alcoholic
remarkably
transverse
##ografts
disl
catechol
orbital
PBS
adequately
fulfill
cerebellum
quantities
centres
cytoskeleton
##icans
deploy
percentages
##onectin
crani
SES
Web
adipocytes
larval
uncover
competing
depart
placenta
emotions
sial
til
##apsed
Collectively
Smad
nas
##98
filling
Heart
reversal
detrimental
ipsilateral
Cro
extinction
hierarchical
guideline
attain
PCa
handling
Day
##eg
##KO
sept
erythem
plasmids
theories
filaments
glycine
##BR
pollen
blockers
scr
dB
emissions
escape
flag
liposomes
ingestion
##64
wounds
##Ws
purs
testicular
subcellular
##onc
argue
contractile
##UNC
autism
antipsychotic
proteases
relies
sulfur
haemat
##XR
survived
##eps
Hem
diaph
else
interrup
P3
##ausea
##ipt
Tai
QOL
1994
utilize
##ATED
ger
households
answer
caffe
om
Prov
Australian
##ifug
traffic
##ocep
118
notable
differing
Measure
Social
expensive
grafting
enhancer
capabilities
sharp
pivotal
##S2
##eterious
cardiomyopathy
competence
Gre
inorganic
Meanwhile
rodent
orders
viewed
vibr
neighborhood
pharmacokinetics
Vi
gather
grouped
seconds
##estr
NADPH
Northern
positioning
Though
cef
Ro
splen
Use
Neither
bronchial
BW
oncogenic
circumference
initiating
rub
##astern
examines
biased
##arbon
fire
##orbent
herpes
Asp
stratification
##cip
imply
##enteric
altering
consultation
clustered
Bayesian
##ologically
##DI
##omegal
curric
plur
B1
southern
limbs
107
lattice
AQ
surfactant
gram
priming
HG
dysp
frames
deleterious
caries
boundaries
##ubin
drivers
conductivity
luminal
lin
habits
##imp
rigid
##growth
##otoxin
extremity
Abs
relating
trade
negligible
Increasing
ALT
##lampsia
##ographically
endometri
Approximately
PLA
##wan
definitions
##SI
##eck
SBP
trimester
glyce
passage
reciproc
notably
coast
RH
RI
##itance
caroten
hygi
##XA
projects
multicenter
react
harmful
##Ts
Bar
##vised
cholinergic
decomposition
##ject
##ostomy
##oti
comorbidity
Hyd
classif
magnesium
crossl
bench
##ximab
##abec
dairy
MDD
macular
Science
finite
percenti
deposited
Surgical
Epid
Korea
angiogenic
CAT
disparities
ultrasonography
Spr
##ishes
##urc
medicines
##head
glycosylation
incorporate
retrieved
##oprop
vocal
attributes
##ungal
##CG
Cells
RMS
allergy
fibrinogen
biologic
microvascular
engaged
##odend
breastfeeding
lectin
spots
##entists
bus
##120
cataract
illustrates
entity
##amel
projections
##ita
burst
bacterium
urgent
##ocompatibility
immobilized
horses
Chem
Pri
managing
acetylcholine
perfect
representations
##otting
apart
doctor
hazards
sheet
broadly
northern
mesh
hoc
therapeutics
landscape
##NTs
restore
SNA
aneurysms
glycogen
TRUNC
CD34
metformin
bill
loops
echo
WORDS
##po
TRUNCATED
disulfide
allo
lymphatic
cytosol
Likewise
acknow
diag
NAFLD
approval
##S1
##omyel
spherical
Self
choices
debate
tagged
feel
##arom
Lact
##CN
##D2
spik
periodic
Mel
adhesive
hope
invari
immigr
##anned
Single
CAM
##iforn
NSA
trunk
concerned
##litaxel
recyc
mixing
4C
aller
codes
pathologies
tradition
erythrocytes
dial
aspartate
Rab
une
CD11
lowered
hemisphere
Multivariate
antiretro
wood
progenitors
Log
nausea
clinician
prophylactic
##ares
##ander
innovative
monomer
complaints
Mark
name
tightly
EL
kcal
juvenile
acetylation
mirr
amongst
ACC
deox
jejun
cleaved
paro
entered
##ophan
##wards
reliably
circuits
viscosity
mutagenesis
plex
chemot
tropical
##istance
redund
herein
ration
conditional
##asting
physiologic
efficac
thrombocyt
RG
Ultr
##acil
##opolysaccharide
addiction
glycerol
chemotherapeutic
derive
excluding
##imaging
backbone
##tification
hypothesize
##54
##oblastic
HMG
Rap
testis
sen
##Ca
##opsy
discusses
kit
extending
discrepancy
wean
cone
##uretic
LE
radiographs
corticosteroids
##asi
##ophyll
allocation
CEA
Kr
persisted
Italy
##raphy
macrom
batter
SMA
lean
APP
imper
hypothalamus
ign
##xual
##52
NPC
##eless
##pus
electrostatic
splice
EG
NB
maize
D3
prompt
spite
desirable
Tables
##erate
BBB
twenty
conducting
##97
opposed
##opathologic
said
Pi
precisely
mitogen
hallmark
##NAc
450
##osacchar
demographics
deviations
##bilical
endoplasmic
##rench
asymmetry
MAT
porous
discriminate
##play
##RE
##orylation
reflection
summarizes
scaling
dengue
exons
apparatus
vig
4a
HFD
vill
renin
BAC
##metic
##atation
DW
##prisingly
##ipine
aligned
nemat
##sc
wire
Nonetheless
##astin
Fem
sporadic
Da
Contr
weaker
##ipro
gastr
##rological
dissemination
chemokines
soon
Supplemental
Cross
##hol
Nine
PPI
fifth
titr
##titude
##PE
intubation
Ec
stack
Specific
expenditure
camer
##monic
intellig
Mid
subd
format
##infected
morbid
balanced
tubulin
Korean
insects
curv
preceding
##PSCs
##entric
raise
Work
neutralizing
##rospinal
Obs
gov
constituents
Act
Mit
Ce
receiver
ACS
train
endoscopy
exponential
elu
curative
Pac
analyse
LDH
Strept
##3A
##ani
ionization
p21
##astric
transcribed
direc
pluripot
##urate
TRI
frail
##eption
saturated
claims
termination
##lipidemia
gains
##istar
protr
##iatr
schedule
Nrf2
irreversible
Labor
monotherapy
##olymer
islet
##amidal
Development
regime
##wing
##INE
stigma
substitutions
transforming
registry
stressors
confocal
exploring
##ona
inappropriate
generates
myelin
ethylene
eIF
ACL
survi
##urin
##usp
overexpressing
NOS
##iferative
poison
##ulator
characterised
ice
chitosan
hemodialysis
catalys
infarct
physically
il
Cer
foss
##oke
##p2
spreading
Experimental
##ecan
gradients
clade
covering
revascular
Internet
Lim
##yroidism
cholec
grass
anne
gingival
neuros
##atine
conce
##VI
flight
whereby
albicans
Tumor
##ault
dissoci
maxillary
college
dysregulation
Phe
##unctiv
SIRT
fabricated
Numer
##olab
modeled
fruits
CRIS
spring
emphasize
pix
attitude
Previously
ordered
manifestation
Extr
ferr
invest
Depression
truncated
agree
##hetamine
##imetric
##idazole
diagnose
Ext
unb
ulcers
plasmin
French
##iff
adoption
compan
##itabine
Def
fibres
haplotypes
##X2
aggregate
##plantation
revealing
Prior
4D
##nec
arrangement
stain
spatially
instances
falcip
crystalline
photoc
##ATA
##aver
trabec
##aign
detector
iv
##itz
veins
survive
##ylamide
moun
routes
trich
vaccinated
##robor
timely
IK
caution
##a1
opinion
Wistar
antiretroviral
##tise
Alt
Note
immunized
##ING
##hetized
ambulatory
Glc
Electr
##orac
##terase
calls
agar
##key
Pf
##room
triglyceride
homogen
Bacter
##plements
proc
microbiome
puber
aeros
##osidase
##itives
confirmation
lysosomal
Et
Candida
triglycerides
proteolytic
cm2
FEV
abortion
pull
nanoparticle
Few
implementing
metalloprotein
prostaglandin
##mm
Global
cod
promp
elegans
immunost
##tinib
##onymous
##aplan
##auss
##endocrine
weakly
transpar
assistance
##erving
operational
##lial
##tituted
UA
sexes
properly
Techn
##enger
##irubin
subtle
prescribing
German
applicability
Mi
virtually
##iguing
heterod
##ozoa
waters
delays
analogs
polarity
##nutrition
resorption
##oted
##ulture
LL
doxorubicin
CRT
##uloskeletal
highlighting
##xia
##X1
phospholipid
BV
suture
trust
INT
C5
SER
falciparum
##ovir
checkpoint
journal
births
stationary
Prot
reconstructed
##adren
##AST
Kaplan
phospho
Evaluation
infertility
Program
osteoarthritis
antidepressant
integrate
Surprisingly
##tructures
1993
antigenic
GBM
##ailed
leucine
coordinate
docking
##perg
phosphorus
geometric
AE
your
striatal
voluntary
hands
KL
Bel
interne
colour
electrophysiological
sacr
ICC
monthly
parac
allogeneic
##aterials
advice
immunomod
##osel
immunobl
##arial
Delta
kerat
Ver
segregation
arthroplasty
##anz
##odegrad
##fall
oocyte
##onium
card
##x1
pep
##ylic
spir
Pot
##61
giant
##OV
retr
fertilization
Ala
accid
##uty
paclitaxel
DHA
excited
glutamine
##otyped
choose
sports
ling
denat
suppressing
twin
hyperglycemia
platforms
possibilities
128
##place
MDR
dermal
entrop
HCT
bacteri
##atinum
cooling
hydrogel
fibronectin
##olecules
##hi
##olateral
removing
umbilical
corrobor
interfering
##oconstr
Th17
duplex
resuscitation
Datab
##bow
tailored
##71
endpoints
vox
##entary
distinction
toxins
##actor
fitted
incontin
interplay
##amed
comes
prosthesis
menstr
cf
##nd
breakdown
CFU
missed
##etary
##omies
1992
oncology
fetus
myeloma
NIH
wastewater
CRISPR
flies
exerts
transc
##orep
unfav
##vac
Californ
webs
gradual
loads
contextual
exceeded
dust
adiponectin
fetuses
##umination
surrogate
problematic
##inator
##arium
Ga
leaving
allograft
shortening
fruct
entr
pyruvate
GB
RPE
signatures
arous
FH
##aris
generic
##oxifen
##ethylation
exploratory
##uccessful
creation
##CH
##79
µm
unw
PGE2
pathophysiological
hypersensitivity
##OG
glucocorticoid
chemically
##cell
interests
sided
##ragm
##uric
##SP
Emerg
bioinform
France
mG
duplication
came
##iphosphate
Bacillus
taste
inactivated
nonspecific
Case
##osc
unres
neuroprotective
##ara
##inear
##uan
modulates
##empl
campaign
aggression
medicinal
Short
Before
TV
Thr
Meier
going
##ococci
##BP1
##enem
breaks
avoided
globally
arc
QTL
##acyl
3b
pretreated
brought
##iated
multil
surveyed
synovial
recessive
surgically
anticoagul
arach
demonstration
stoch
driver
paid
##using
LB
##ittle
trypsin
resected
worm
##F3
cardiomyocytes
iNOS
semic
##ardial
hernia
ingr
comprises
Alternatively
biotin
##72
bones
neurobl
anticipated
visualized
SOC
nephropathy
contractions
calcification
Apo
Immunohist
nonp
hydrophilic
cyl
plausible
131
gels
NAC
realistic
iodine
degenerative
vasculature
selecting
teams
imbalance
folate
##ongue
aquatic
##hips
##emporary
beads
California
pet
topics
##partic
origins
stretch
##otechn
ss
road
5D
##x2
avoiding
exosomes
vertebrate
##FT
genotyping
methionine
##eit
exerted
que
MCI
acceptor
cerebrospinal
ascertain
NSAID
yielding
##itization
arsenic
DU
cigarettes
##tention
1c
##OE
B2
ammonium
E1
Physical
##iders
normalization
libraries
##IO
cephal
cot
tryptophan
informative
FN
underlie
overload
connective
Pears
Cap
EVs
123
compact
dissolved
arres
##tia
ord
##odg
CD44
biod
Chi
lifes
Bax
accessibility
grades
borne
scientists
elast
##elle
sput
friends
regularly
##hepatic
##aced
organizational
Secondary
deposits
specialist
CDC
ham
additionally
rigorous
sexually
dic
GE
##ucose
##iotics
whilst
interviewed
129
SY
TNFα
##itating
##ophysical
divers
narr
009
##imers
conflicting
margins
Pearson
sedation
##uent
collect
Medicare
replicate
GG
stand
RBC
##iently
NG
RCC
monolayer
##osperm
erythrocyte
editing
Small
tris
##hypert
disordered
##arboxyl
##agit
##AG
identifies
##iguous
crypt
moist
##amoxifen
associate
BRA
bac
##fen
endocytosis
patches
Colle
harvested
##icidal
CTL
##atology
Av
osmotic
Pred
NIR
constitutively
Imp
Young
##ham
##inement
##orp
transferase
##ASH
Diabetes
modulus
6B
allergen
ingred
##vation
231
nocic
islets
A549
postulated
prep
absorbed
lactam
About
LI
##gative
prednis
conflicts
updated
##orepinephrine
glycol
reagents
King
14C
niche
chose
CRF
##aled
Aff
126
discontinuation
guan
Quantitative
##genesis
immunoreactive
resolve
mucin
ERK1
Southern
##usted
thromboemb
##abis
Inhibition
strip
OV
conve
##ocks
clients
dismut
##itter
immunocomp
malform
painful
internalization
##rd
MetS
##ops
acr
allocated
burs
illnesses
BE
BN
##ois
ACTH
sedentary
BSA
BRCA1
political
##alin
disappeared
antifungal
##κB
inferred
designing
##affin
##force
acquire
Surv
multiplex
##uction
##onazole
blocker
Joh
newborns
develops
lysis
suppresses
##LAB
compensatory
##ondition
covalent
##icul
lipopolysaccharide
Last
ineffective
converting
oxal
Eq
Mass
##FR
incontinence
occip
##itinib
##LED
batch
shapes
##oreg
transgene
skull
rationale
##irection
constitutes
Elect
trap
ortholog
mum
oligodend
antioxidants
##reon
nal
terminals
##urane
contig
papillary
IG
##DC
##nx
##utely
friend
##urations
HN
##holders
Seventy
compensation
dissolution
postsynaptic
attacks
crosso
##pe
silicon
discipl
telephone
145
consumers
##illa
##lyl
fluoride
Pain
hole
catalase
##necess
##ofol
aph
temporary
Retrospective
##fish
bolus
##mium
AMI
ammonia
possesses
anastomosis
Exposure
reperto
##edom
115
photoreceptor
Caucasian
linker
follicle
faculty
musculoskeletal
Prote
mini
homes
determines
##fr
Behavi
##acetyl
caffeine
##enzyme
Fourier
annotated
ensemb
regenerative
conjugate
blinded
lncRNAs
cow
revised
immunosuppression
glycemic
comfort
amplitudes
Network
BCR
##otroph
DMS
stroma
splenic
suicidal
continuing
interested
avian
discom
Tregs
##unic
histologically
translated
METH
13C
nick
##igma
inhalation
pell
lithium
##azone
pum
EMG
habitats
Twelve
thiol
hemorrhagic
##valence
Antib
accomplished
vestibular
stochastic
chemo
Spain
neighboring
F2
##oprost
edges
Mb
keratinocytes
GLP
PAC
intraperitoneal
##nals
##timulation
planar
security
##idel
AU
today
sin
##k1
microv
Trp
hypotension
TiO2
##pation
##stem
methylated
##lamyd
Bal
Hal
doing
tubes
granule
meningitis
##oprotective
hygiene
encourage
descending
Male
enroll
expertise
killed
##iles
Database
##ativity
##otransferase
##otopic
##econd
originating
unnecess
cit
kappaB
sacrific
##hr
sacc
unexpl
##opress
germline
##rows
Back
Life
differentiating
chip
exclusive
ether
Atl
pulp
impacted
##face
yl
155
##rovascular
Streptococcus
Zh
equival
##85
electrons
livers
Ur
IHC
curc
rapamycin
conformations
teachers
crisis
ascorb
BALB
##emed
residence
waist
##ondyl
hypo
deeper
polymorphic
##yses
Cs
thyro
##etrical
Lew
tachycardia
biases
volatile
attentional
surround
Rad
tongue
Mg2
##exp
platinum
##ordant
mobilization
##izable
1991
anc
shunt
presentations
solvents
##quine
##odontic
##luent
dedic
240
##activ
analogous
south
##ilience
supplements
acupuncture
EU
AZ
E3
ili
infras
cleft
##ern
cardiopulmonary
PKA
pod
PAS
nation
GPs
acceleration
autoantibodies
obstac
AMD
##ican
retrograde
fabrication
clo
cationic
combine
VTE
interactive
concordance
telomere
phagocytosis
heavily
conges
amine
rose
fly
efficacious
speculate
worsening
satisfied
prepare
##la
S100
eV
composites
isomer
fibrous
discussions
keeping
NET
##ortical
discomfort
Know
ferritin
norepinephrine
alters
Major
tuning
Pharmac
amput
retinopathy
annotation
perforation
135
pose
##onder
locomotor
paediatric
##87
##ece
chiral
##aired
mismatch
couples
Cdc
Ru
comprise
##umental
proteomic
##AP1
percentile
SLC
fibre
cave
VC
propr
stimulatory
unre
consolid
prey
neuroendocrine
recommendation
reprogr
parathyroid
helped
##ushing
hered
fur
18F
Canadian
odor
GWAS
solar
##prol
intraocular
refers
departments
##mega
Spanish
enlarg
##oxia
##ocaine
##FS
Rac
chondrocytes
corresponded
periphery
stone
Score
explaining
##olipid
floor
morning
Sol
aryl
retain
ease
lamb
PARP
##domen
124
Che
T2D
impedance
##irt
##but
triggering
figures
##fulness
polarized
soybean
parenting
robustness
sides
thermodynamic
BI
##lated
##JECT
fum
adopt
hinder
##WT
##heme
elsewhere
raises
112
dioxide
attended
expanding
##oracic
Daw
Nan
augmentation
##osum
##PSC
##osides
emphasized
Src
entities
beds
##Se
gelatin
##olation
looking
divergent
Examination
revascularization
Mice
microd
##MI
##vastatin
rising
district
##arynx
heterozyg
##ba
adenovirus
##ez
ICP
sustainable
spaces
##floxacin
elabor
crops
biosens
style
##omed
albeit
norms
##bu
Lo
Surgery
##atelet
caregiver
oxygenation
NCT0
##onuclease
##adication
probabilities
undersc
hyperm
diameters
electrolyte
dismutase
##ancomycin
adenomas
ZnO
plateau
##tem
##cean
lacks
116
170
##band
suppressive
integrating
corpus
Mycobacterium
replicated
achievement
dedicated
ASA
singlet
##glycer
neuromuscular
Ill
cities
##igenous
antisense
##hR
immunosorbent
implying
##ills
refractive
dens
turb
##abit
dehydr
##isin
##100
osteoclast
energe
easier
Adv
PDGF
##idone
bundle
inference
##ichi
##elect
era
HPA
overestim
##accharom
succin
BRAF
##DA
##trial
physic
rearrangement
vegetables
lifespan
housing
##HP
duodenal
Hodg
noticed
Prospective
hyperp
literacy
electrocardi
##orable
femur
##oplast
HepG2
Gauss
##cing
nanotub
programmed
fractional
Eg
biogenesis
sorting
HV
mesenteric
cited
##astoma
TGFβ
salv
robotic
College
smart
encouraging
TL
generations
##ughter
microtubules
##plies
##ju
arrhythmias
tear
malformations
##benz
briefly
190
##imes
##urgery
alternatives
thymus
anaesthesia
lid
##iesis
danger
string
microbes
curcumin
Commit
99m
DEN
capital
centrifug
##entioned
stakeholders
distinctive
gem
##mp
safely
qRT
##epithelial
kary
##quis
neuroimaging
FISH
122
Fisher
phe
crossover
employees
Pers
##portion
##arried
cil
epidermis
cub
epithel
hypother
gynec
appropriately
angular
brainstem
##TS
##abd
noradren
abdomen
pollutants
##odemographic
venom
ICAM
##F4
subpopulations
feelings
psychosis
neuropsychological
citrate
bright
insectic
caudal
thrombocytopenia
deleted
curriculum
calor
HEK
pyramidal
Bone
thereafter
sparse
Ple
##oval
##oglycan
protecting
advoc
glycolysis
Calc
introducing
##utation
5C
LY
transloc
pals
nodal
##istribution
hepatocyte
biosynthetic
excitability
occlud
##cein
immunoprecipitation
gamb
##edge
lists
dried
bath
AST
EE
eGFR
scarce
titer
##olated
responsibility
##olet
arousal
afferent
want
epileptic
anter
##ectual
NGF
septal
operator
notice
##utch
observer
biodegrad
Niger
urg
ie
sequel
Hodgkin
ubiquitous
allelic
Random
epidural
MTT
##iab
Brain
unnecessary
incremental
bull
deoxy
IB
##DD
proline
##itate
PUFA
700
##orr
polys
Nether
existed
condom
##ourse
##sil
chart
unid
PCOS
adenoma
convenient
CaM
##otropy
NIC
nt
leave
Baseline
phospholipids
##anin
exercises
England
##Hz
pertain
##formed
confounders
cyclase
periodon
##olk
Pop
##ena
incomp
##afil
##accharomyces
Supporting
segmental
chimeric
mot
350
interpersonal
wash
TIMP
York
protects
##L2
tot
stressed
graded
cm−1
DOX
parenchym
lot
##otemporal
cytology
Rb
##×10
implicit
decided
contemporary
##cales
rearrangements
##birth
micr
Local
ageing
replace
spectroscopic
sheath
dermatitis
benchmark
biofilms
##agittal
peers
SPECT
tomato
uterus
camera
bilayer
definite
H4
quer
obviously
arises
depicted
##ogl
extends
uncontrol
##henol
prostatic
PDT
gated
##erebral
perturbation
##tructured
RAD
roll
Netherlands
ophthalm
bot
epic
anchor
χ2
##fil
endovascular
alumin
pars
##DLINE
resilience
intravenously
counting
Educ
disrupt
mP
cooperation
Numerous
approximation
vertebrates
proteinuria
tracheal
##role
ot
thrombus
interm
specialists
branching
airways
##arot
##afen
##oni
Factor
simulate
helper
##bach
phosphoryl
Epidem
##lycemic
##obacterial
##f1
titanium
CLL
surgeries
configurations
Taiwan
explains
Mental
bending
##aco
MEDLINE
compromise
DAP
##cetin
amide
##ochemically
210
cannabis
polymeric
Oral
PAGE
geometr
##oot
##forward
aeti
##pot
emerge
posttrans
detox
##atric
diagnosing
explanations
##oflav
Onc
presynaptic
commitment
hereditary
##oto
neurogenesis
hydroxylase
UP
office
toxicities
pools
opioids
journals
organelles
immunostaining
Mt
religious
##lining
scin
explicitly
5a
133
suited
Invent
waiting
##reonine
Sprague
master
##ilis
##onv
##oneph
collective
reass
successive
Laboratory
Gh
intercellular
Oste
eradication
freedom
curvature
##ophosphate
carbonyl
warf
TOF
##imension
##otropin
##opathies
calves
slud
ductal
Crohn
##±1
propofol
CA1
physi
Little
##ball
glucagon
DEG
depolarization
##urt
resultant
constric
##agia
hospitalizations
sar
tamoxifen
angina
Eighty
Dawley
##ulas
tubules
C6
pulsed
MTX
messages
ns
phone
monomers
microw
faecal
##amen
cochlear
OBJECT
overt
parasitic
Like
superfamily
Public
abstin
Symptom
AAV
fungus
transported
##orrect
heterologous
reciprocal
##rox
PLC
contradic
pointed
adsorbed
troph
diaphragm
linearly
conjunctiv
BK
methodologies
mercury
peroxis
##elfare
##list
enlarged
Cy
PDE
##4A
places
regards
disabilities
roughly
Gd
failures
dimers
synthesize
Auth
##nary
##osensory
lamina
Sex
inspec
##odyn
palm
appra
positioned
taxonomic
osteogenic
preoperatively
humoral
##ioma
isotope
north
purch
dysph
insensitive
xenograft
entropy
RM
evolving
OBJECTIV
cultivation
##Tr
thinking
Prob
parenchyma
Men
droplets
esophagus
cations
##hypertensive
symmetric
dominance
##position
##ipr
constrained
146
Inventory
abrog
neutrop
mutual
cup
manifested
laryngeal
##alanine
autonom
maximize
belongs
Pap
say
stopped
ic
##criptions
diagnostics
syr
bilirubin
Direct
tea
assignment
##borne
##requency
rac
retardation
thickening
necrotic
MSM
##kary
endocard
choline
Stage
##aviolet
##amming
1st
embolization
##KY
Great
vancomycin
##ucleotide
Bu
traditionally
proteome
##etine
carn
manufacturing
silico
Plasmodium
conjugates
##zymes
Integr
stores
Phosph
Activation
Positive
schemes
interfaces
pacing
oncogene
transpos
##aumatic
##olerance
##opy
##orthy
ace
mitosis
Gaussian
autopsy
ecosystems
supernatant
microsp
##IKV
Est
##idden
##odec
microRNA
freezing
instrumental
Nat
##bred
##ENT
judged
VM
Exc
necessity
digestive
sensitized
immobilization
administrative
##p3
##ofacial
pater
##functional
sputum
##iled
nicotin
Mexico
##ken
approximate
colocal
hern
Liver
MAC
reacted
pesticides
neurotransmitter
originated
##ealand
##optimal
perfused
performances
interd
Committee
##quar
H2O
accelerate
vibration
proliferating
##rolimus
herbal
chromatographic
expectancy
EH
VR
Adj
chickens
sati
cerebrovascular
cing
dispersed
Zealand
##ysaccharides
automatically
intellectual
Mr
cass
##icion
##asp
CCK
CHO
Initial
125I
Investig
##ye
deformity
##orh
ligase
tro
serving
export
presumed
rhiz
##ELLED
enamel
uniqu
UNLAB
UNLABELLED
dilatation
FEV1
holds
River
columns
Large
##irteen
##iring
vasoconstr
esters
##ophosphamide
hydrogels
arachid
exploited
##Cl2
##liest
recycling
setup
price
apnea
thalamus
seques
prolactin
114
sut
##heal
sludge
ensuring
hypoglycemia
palsy
BCG
##ranean
dependency
SAP
##itatively
##OSE
preec
##verty
interventional
artifacts
atmospheric
progressed
haemorrh
transiently
ly
occasionally
preclud
kinem
pyro
microsat
Mutations
impossible
##ublished
Mem
lymphomas
poverty
tracer
deficiencies
argued
reagent
##omnia
##iop
detachment
palmit
menstrual
##ini
gh
solve
hydrochlor
sphing
occipital
CD45
##PSS
reactivation
##rates
##graduate
stretching
##ASE
effusion
playing
##ania
##rost
##ipal
punct
metaph
pmol
aberrations
obstetric
##uce
##uzumab
incorrect
remed
##abolism
stool
operate
fructose
prosthetic
game
Monte
##enses
dilation
myocytes
assuming
vasopress
military
##ido
##ectomized
transpl
lactation
arbitr
##irectional
PPARγ
Den
repertoire
conjugation
leadership
omega
agencies
magnet
lies
classify
undetectable
MCA
tetrac
attenuate
##oquin
##iate
Sweden
cuff
grew
GPCR
manufactur
affili
SAM
stabilize
package
makers
regulations
documentation
sociodemographic
serotype
voice
Cle
San
BCL
AOR
foundation
CBF
infiltrating
##edema
outlined
amen
DQ
thirds
solving
##mer
##pyr
writing
effectors
typing
Family
PMA
inhaled
Diagnostic
encapsulated
Genome
competent
##erated
preferential
declines
Compound
db
apt
enrollment
coded
consumer
##itron
salts
lactic
Pacific
chronically
##ucl
eosinophils
multidrug
rip
CD40
swallow
##wann
filtering
aldosterone
managers
aerosol
##ogeny
strictly
stepwise
##74
##ifferentiated
bim
##ught
infused
##osom
tracts
##othelial
##piratory
reality
lncRNA
collecting
filters
osteoblasts
##ris
threonine
cholecyst
119
Medica
inversion
Experiments
cohes
plasminogen
exceeding
LC3
##ki
##utri
##adjuvant
GAD
##urium
##amate
##icious
##aterally
vapor
tolerant
congr
cy
##erally
subclinical
##89
uninfected
simplified
custom
killer
Registry
endotoxin
##oplasma
swine
##oprol
ADC
glycoproteins
restrain
biomechanical
collaborative
mucus
dentin
escal
endoc
characterizing
neuropathic
initiatives
collapse
GFR
neurodegeneration
##artan
stabilizing
##aldehyde
L2
enlargement
pharmacy
displaying
dispersal
##opharyngeal
Adult
Chrom
##pp
##omide
siblings
gating
functionalized
mosquitoes
Outcomes
cosmetic
Obj
IVF
1989
##GL
Poly
Analyses
amorph
UL
Grade
surviving
##oichi
##vin
unpublished
moved
Prevention
undergoes
physicochemical
scavenging
EPS
messenger
spanning
Italian
##tiles
inactiv
##axia
##acrylamide
references
lenti
##ford
disseminated
latest
grading
archae
Individuals
##B3
Tur
immers
1R
proteomics
##enth
starvation
rotational
endometriosis
##ocyst
##azep
battery
ultra
SCD
ho
##P4
fuel
DLB
salvage
embolism
Sep
stents
##yles
inspir
lymphaden
cGMP
Camp
−1
##aminase
113
wrist
vegetation
crack
raising
##obacillus
cadmium
dispens
periodontitis
landmark
##ifies
##agglutin
quasi
##NO
intakes
Km
breed
MDS
fairly
subtil
##etite
sav
theoretically
cred
B6
##uterine
dere
117
β2
Environ
##ama
BPD
HUV
MU
##cholesterol
glioblastoma
WB
##bp
Contin
##WH
desire
corticosteroid
cloning
reinforcement
sweet
##tide
##icol
psychotic
quarter
##atrol
von
polysaccharide
borderline
totally
infrequ
##riage
naph
elusive
neuroc
##organization
lipase
guar
##onit
worked
Scheme
adherent
##plicity
secret
sugars
4b
crown
panels
##att
undes
Sox
##idation
interneurons
IH
polyps
##yclonal
calibr
granular
atopic
warfarin
distinguishing
spermatozoa
suboptimal
plexus
##ophores
maca
##olipoprotein
topology
uniformly
##iling
sediments
anticoagulation
##ementioned
vitre
neurodevelop
deterg
##umina
Knowledge
malnutrition
inositol
regurg
ranked
statins
alive
scheduled
CXCR4
primates
tried
tensile
germination
KRAS
##uminal
workplace
microflu
earliest
suspicion
Medicaid
afor
##enders
RNase
Fin
##jug
meg
TRP
repeatedly
gent
##grav
##nex
##veratrol
antihypertensive
##AT1
aforementioned
OVA
132
firm
career
qualitatively
ketamine
nos
opt
cutting
rights
OBJECTIVES
realized
PRL
##ineal
Cong
soph
GLUT
perturbations
doped
Pat
nitrite
Tiss
satellite
lib
island
##ief
cultivars
##yday
137
sequelae
SET
##WS
Ont
##ji
1988
##MM
##idelity
neoplasia
HRV
##brile
sensation
##amuscular
tons
flanking
IBS
##iterranean
convergence
accompanying
Neuro
micelles
attracted
Prac
Postoperative
sparing
gate
##ozyme
histidine
erg
Visual
offering
destabil
formulated
poisoning
acceptability
smear
Saccharomyces
VO2
hyal
PAI
LO
reb
##ynchron
catalysts
earth
subtr
Mann
ceramic
Normal
##relation
synapt
slice
update
Down
sa
Prof
microglial
discrepancies
procedural
moisture
metallic
Materials
annually
ultraviolet
oz
rein
sagittal
##1p
alternate
##ka
Lung
Port
technological
accessory
Brazilian
turned
eastern
unfavorable
WC
contraceptive
iliac
semen
##obenz
triang
sterile
oligonucleotide
Again
jo
##heast
progeny
Subsequent
serological
Sah
oligosacchar
astroc
##ieties
rays
GAP
##etting
tends
Lower
oxidant
creat
##rology
harboring
##ALY
ideas
hydration
adducts
ABA
Mediterranean
##anil
Sil
compositions
charges
cytoskeletal
selectin
rescued
microRNAs
smallest
paradox
DB
indoor
##ACS
cT
searching
Scre
PAP
##uistic
river
##amers
sister
carbox
ALK
Factors
parasit
Trad
oligomer
oxyt
PPV
LTP
CD14
##me3
EBP
LOS
pathogenicity
discrimin
infrastructure
music
ribosome
##esia
cyclophosphamide
lacked
versions
FB
permits
reserve
uncontrolled
Main
##ussion
Eleven
ancestral
##yrate
preserve
HBsA
nude
##quartile
dispro
220
Part
marital
dilated
GABAergic
acknowled
adiposity
ALP
noct
neuroblastoma
durations
Tn
Asperg
##pecies
transportation
strands
postural
renewal
##5A
neovascular
##oflurane
adrenocep
victims
DSS
##lers
bank
CML
Cardiac
##faction
##WF
##2a
cytogenetic
mandatory
encounter
Carlo
##odom
depended
files
##osteric
Maxim
mutational
mosa
Ly
catalysis
amorphous
MEK
searches
frailty
##osamine
eukaryotes
121
EPA
##andial
carp
Hip
##inities
##rist
ultimate
##imensional
##OLD
intelligence
prescriptions
stably
consciousness
DFT
##isal
ascending
CPT
everyday
Rob
ChIP
photosynthetic
prere
contract
Conclusions
eNOS
stones
cesarean
tors
catheters
wake
glucuron
TP53
surprisingly
melting
fibrils
##itch
demyel
delivering
analytic
hyperactivity
##ker
dielectric
##afenib
measurable
grains
##ailing
capacities
Mu
R1
reaches
##aded
IPV
dropped
lavage
##esthetic
##eworthy
restrictions
varic
BPA
VEGFR
CU
tether
##heses
##itish
##ocortical
##inositol
addresses
entering
exempl
HSCT
personalized
##idi
DBS
NADH
client
insol
cyclospor
cooperative
Ninety
##illing
synthet
decompression
dyes
Mich
synapse
observers
recurrences
convert
##ocysteine
babies
EX
138
##atization
pores
colonoscopy
DMSO
##izz
stoichi
##ycle
convers
contour
ubiquitination
##96
particulate
outflow
interquartile
coordinates
##incter
Mechan
RL
##lab
faced
##aric
##odia
##1R
drying
ORF
swimming
oligomers
spray
missense
discontinued
serotypes
este
accident
carbohydrates
H1N1
##amn
dendrites
antenatal
##uling
euth
expiratory
anesthetized
##uzz
statement
nested
##ogroup
##onyl
polyclonal
allerg
TRPV
Generally
PURP
dislocation
stressful
hop
residential
adher
unless
characters
transcriptase
offset
Saf
##innitus
##IGN
oils
independence
##awa
##anus
fingerpr
Body
shRNA
monkey
Lastly
##aind
osteoblast
2c
morphogenesis
##rexate
macroscopic
erythemat
flaps
##ropo
##tebr
OX
intrap
Community
oblig
fos
aminotransferase
##vest
##enching
PAD
##CO
293
localize
##obarb
companies
NL
shifting
freely
##bladder
tolerability
Super
##diagnosed
##76
##pen
calculating
natri
speaking
welfare
forear
adaptations
144
refined
helices
statistic
##rete
hybrids
directional
##aceous
xanth
board
fibrotic
cholangi
Pen
prompted
DEGs
##ua
phospholipase
Associ
##tera
outd
NHS
theta
ERα
butyl
##ibrill
exceed
continuum
polyethylene
Fab
SHR
PURPOSE
bioinformatics
exacerbation
##arbonate
fidelity
##MPs
Append
##atite
VF
##ulse
Near
besides
##ubs
Aspergillus
##HT
message
anthrac
cc
##aze
HBsAg
CD25
trabecular
mitigate
imprin
##uish
flavonoids
##tran
S7
programming
EMB
##oxon
rDNA
Ho
##itt
Ken
##GN
trif
horn
Ra
texture
##odiazep
##82
ensemble
##PI
##A4
epidemiologic
anisotropy
VD
axillary
ascites
##flex
mGlu
Tb
stock
##yne
Common
guarant
Breast
Occ
uve
physiologically
##itine
##earman
intramuscular
compensate
billion
##orax
diseased
inheritance
sheets
solubil
weaning
ESI
MUC
##lem
##rio
couple
PMN
semiconduc
##apy
overd
electros
fractionation
ARDS
OCD
METHOD
huge
##NV
##otrexate
psychometric
seedlings
crest
passed
coastal
Anx
acetic
computerized
solved
occupied
##je
V1
##acetic
condensation
##field
sophistic
##ituximab
mimics
dealing
Tf
pharmacologic
##lobulin
enteric
AEs
mining
FNA
pharmacists
##ongevity
munic
illumination
moral
moieties
nodule
Renal
Overex
Eastern
Project
hematological
CBT
##well
Sk
##imentin
##iphasic
Background
diffus
quit
hypothe
NV
DENV
outper
Samples
##itual
PFC
RANK
CHF
viewing
richness
015
aa
tang
IGFBP
PTC
pairwise
hamper
N1
Dutch
025
HRQoL
##anda
Average
##ethanol
preeclampsia
legis
127
##omethyl
neoadjuvant
ECs
infusions
##brain
mechanics
postin
velocities
Therm
compares
Emb
##worm
labour
immunogenicity
Hyper
reprogramming
salmon
tunnel
##udi
humidity
empty
married
reviewers
straightforward
elbow
disproportion
adenine
HSC
Cat
navigation
investment
##ythms
kil
skew
1987
##uclein
patency
increment
jaw
hysterectomy
facing
tablets
##helin
H5
tonic
EDTA
resis
cryp
EQ
chaperone
dodec
recap
MPa
##amino
Pak
Rats
hematoma
exactly
##hedral
grey
excised
combines
CCA
Clus
1970
readmission
μmol
##ignificantly
##arate
##insulin
##itre
FG
##oal
bup
cornea
##edicine
grid
Ts
motivated
nanocomp
portions
##ogonal
unin
prototype
Spearman
thymidine
##tigraphy
thousands
declared
##X3
farms
preserving
orthop
visualize
selenium
lignin
documents
extremities
cryop
favourable
##MSCs
preceded
##arotomy
##cil
penicillin
Altogether
A3
abstinence
FK
aven
##ivac
multif
comprehension
##ado
ras
Fifteen
##idia
NN
islands
##oretic
autonomous
##vacizumab
Ov
STEM
extrinsic
cingulate
##OB
individualized
outgrowth
inspection
flood
##ullary
pluripotent
Special
Magnetic
secrete
##infection
Leishman
IE
helic
##ultry
twins
helping
##IST
Kingdom
Trials
contractility
CABG
Hy
aggrav
IMP
encephalopathy
san
abiotic
Fre
histopathology
SIRT1
FX
rhythms
contaminants
##arby
##ocysts
##relin
owners
insomnia
occupancy
accr
AAA
Mes
bad
##roids
impuls
consolidation
attendance
bubb
coming
varieties
##omyelitis
Trial
trib
p65
branched
Cas9
longevity
intran
dichlor
capsid
##ML
histories
CW
Estim
##elin
shortened
bisphosph
TRAIL
carries
esteem
Insulin
packing
inverted
##idge
creates
hCG
DESIGN
##ulsions
begins
Fib
hundreds
baby
episodic
Ach
migrate
##efined
PBMC
quies
##glycerol
mosaic
EAE
##AI
affinities
shedding
##chool
descriptions
autonomy
##omorphic
##itiv
Equation
necro
regurgitation
genomics
parametric
ICA
##itan
City
oxo
periv
migratory
poses
ultrasonic
mineralization
GFAP
anthropometric
alleviate
CD13
appoint
GN
infancy
##dis
monomeric
Hom
cultivated
##aceutic
RES
him
wing
##thrombin
benzene
silent
quartile
##AN
potentiation
Loss
efficiencies
British
##ky
##DF
crossing
People
chimer
BG
CSA
myofib
##erin
repressed
exud
cofactor
imposed
FGFR
labels
basement
destro
microwave
sevent
worksh
DBP
arranged
##fa
coat
friendly
##ulae
catheterization
uniquely
Trich
##izers
##entation
prime
Let
Xenop
rif
##omotion
016
4E
GDM
midline
purity
hypothermia
subpopulation
bony
coherent
dyspnea
Demographic
Prol
012
neighbour
Repe
Cognitive
##health
apolipoprotein
##ords
indexes
juice
##TE
touch
##side
##atalytic
TMS
p16
Perform
Character
immunomodulatory
##eptidase
PBMCs
sounds
sarcop
##yrene
buc
insoluble
cured
crow
prerequis
primed
hydroxyp
acidosis
FE
##idym
##irium
##plo
productive
##igibility
##ago
SCA
instruction
menisc
scalp
##atable
scattered
coexist
book
PCV
##91
genotyped
Survival
deduced
tinnitus
##84
liv
minimizing
encephalitis
Russ
classifier
bundles
Top
CREB
##onary
osteosarcoma
febrile
Xenopus
attained
Service
HK
MYC
HSCs
orbit
amputation
intriguing
advantageous
lipoproteins
bid
##nexin
dot
##atr
##iana
##odi
protons
steatosis
##jected
Dem
Tissue
##ancers
forearm
Overexpression
PRP
##ereb
disab
costly
Female
intrauterine
##ingly
##ophilia
vacuum
maze
aggregated
encouraged
poultry
multifactor
##tigm
##istinguish
Green
bread
accidents
Orth
province
consequent
engaging
ischaemic
psychopathology
robot
Management
##osexual
DFS
##aceuticals
meiotic
seminal
Appendix
salinity
##actions
PCP
##itized
##GFP
hypertrophic
Gi
##SM
##ortal
telomerase
pacem
Conclusion
deemed
row
capill
##oelectr
sphincter
##ighteen
drift
Complete
secreting
7A
relates
##oxidase
Kv
##Ss
nitros
1985
analytes
polyacrylamide
possessed
wanted
##ixed
##eliac
septum
##omeres
specialty
pups
##imilar
##ophilus
Sem
kHz
donation
patterning
DK
diarrh
Morph
official
Whit
GVHD
##Pa
gallbladder
##olys
Har
##anolol
transducer
DNMT
VO
radiolab
exit
coagul
Hol
neutralization
##citabine
School
##ulo
##trin
CYP3
Growth
NY
computation
##oste
Imaging
EGFP
ESRD
subtilis
endurance
##94
transit
Pediatric
anticoagulant
virulent
glycan
undifferentiated
##ophagy
morphologically
##ivacaine
##AX
positron
evolve
calf
SSc
##aliana
Saharan
disadvantages
repressor
epinephrine
##del
synuclein
Combined
isomers
ellip
##oidosis
##ortem
FTIR
Now
Pal
##night
interconn
antidepressants
neutropenia
##inkage
##iatry
cu
##2B
clinicopathological
benzodiazep
nonm
fails
cylind
mirror
valence
olds
hydrol
originate
##angl
keto
thaliana
steel
glycans
TU
honey
##obut
ICH
hypothetical
REM
143
volumetric
bit
methane
##juana
measles
tibia
Logistic
HGF
relapsed
sphe
AFM
##ulic
cotton
sigma
Severe
pyrim
isother
evapor
radioactivity
angioplasty
SAH
father
impairs
148
Prop
##gamma
subscales
computing
NPY
arrhythmia
visually
pauc
perp
2nd
##respons
continuity
##olism
ward
##prandial
predisposition
cage
store
##arinic
##urea
hypothyroidism
##oscope
ethics
funded
Vitamin
psycho
##ca
##omavirus
##estock
900
df
CsA
Identification
cobal
##02
packed
allergens
##isson
impression
distortion
##mill
##anning
KS
quenching
##silon
134
homogeneity
Ber
execution
phenol
spiral
sophisticated
proteolysis
porph
Kd
nanow
##amins
monoc
readers
lysates
HNS
Bor
##TC
acutely
##oxetine
instructions
aiming
justif
EI
AFP
drives
FIT
clarified
intramolecular
covalently
vent
##agre
CPR
unfold
methotrexate
microspheres
3rd
voxel
nickel
Elev
##astically
Az
atmosphere
titration
lymphocytic
cadaver
Conflic
willingness
Nigeria
NGS
##idth
##ipping
Guid
lambda
##istan
136
WS
erosion
mas
polypeptides
##F6
##orin
##arter
fathers
##erine
inexp
lobes
##ylline
torque
morphologic
labelling
##umm
subcl
catheps
Are
immunocyt
galactose
noteworthy
steep
switched
allosteric
bonded
Intrac
resveratrol
projected
##een
##inesterase
interfacial
cloud
obsc
transduced
Lymph
Sign
pad
seasons
microsatellite
PCL
##nic
chitin
checked
##ulent
desens
puncture
dependently
laminin
Clinic
stems
VIP
pict
##iella
specification
##plicating
142
apex
bromide
pelvis
folds
##nam
pun
choosing
alloy
damaging
##relations
##86
saw
meals
pneumococcal
T1D
crosslink
workload
##onitrile
cast
freeze
Fos
MMS
constraint
##pine
creatine
convenience
ancient
void
foster
beha
activators
Off
##ications
immunoassay
spikes
spondyl
##293
puberty
CFTR
##olith
Comparing
thirty
abstract
##otechnology
supplemental
##3a
Groups
palate
microfluidic
patent
RIP
pK
CNV
Perc
##ussis
quercetin
outpatients
##c1
pec
##idol
##operation
hematologic
translate
cd
##rophin
quantifying
tetrap
paraffin
transplants
##ev
plotted
uric
dib
dephosph
##ogaster
##icked
circulatory
warning
##ondii
favored
##Ag
overw
SOX
Wang
EO
Secondly
laparotomy
MMPs
hamster
synthetase
1986
centrom
Education
##oviruses
paths
Sensitivity
Py
paternal
##83
neurotrophic
skeleton
foam
suggestions
emergent
##kinin
disin
contraind
interpreting
##imil
##arn
spores
autoimmunity
collateral
##opoiesis
multifactorial
##yse
##ystic
flowering
cope
Synd
##osphere
tread
##400
##width
erythropo
Lewis
oxytocin
underpin
mimicking
monolayers
looked
See
inflammasome
irrigation
lose
parenteral
CIN
bifurc
polyn
econom
nearby
##ket
##ensic
139
biphasic
echocardiographic
dihyd
proxy
Leishmania
##ira
NSAIDs
##arijuana
Mil
adjustments
opportunistic
##opropyl
marks
biodiversity
##oxane
1beta
covers
phenylalanine
##apter
expectation
Musc
normative
drawback
GlcNAc
##tivities
##GB
ulcerative
arachidonic
Chlor
epididym
6C
schist
livestock
CNT
Dys
debr
flows
##plasm
hidden
solitary
testes
ingredients
##uns
##han
scanner
posture
hypercholesterol
hyperther
Libr
ultrastructural
filtered
adversely
Rather
dying
Inj
worker
letter
Circ
nose
modular
normot
nigr
cryopres
Swedish
##modulin
##umber
disappearance
##ami
011
natriuretic
##book
freshwater
014
pixel
##yclin
sitting
##pa
boy
holding
PCNA
Ub
discer
reasoning
redundant
disk
engr
##600
Ref
nocturnal
suitability
##130
shoot
ASC
Inflamm
Helic
bevacizumab
##issive
oligonucleotides
##alg
##eterm
topological
submuc
really
coal
##tipation
##rophot
Lactobacillus
##Ks
typh
terres
desorption
innovation
PAF
ALD
Interview
EST
organis
inexpensive
subcortical
alginate
sport
gliomas
013
##amicin
Target
thaw
Relative
substitute
Angi
duoden
3T3
cath
Tor
underestimated
subclass
spacer
dehydration
##vix
Almost
SNR
disparity
aOR
supernatants
##FF
##ulins
##ionate
##ositis
depolar
laryng
catch
Dig
transferrin
aux
pyrid
disturbed
##noid
beta1
polysaccharides
midw
neurotoxicity
isop
adds
conferred
##Fe
trapping
los
##chol
statements
ataxia
elevations
proposes
141
recapit
Screening
Fourteen
dereg
try
homologs
farmers
narrative
orange
nucleation
PDAC
chlorophyll
##ainees
paralysis
confers
triplet
Levels
Du
IX
##b1
APOE
microbiological
MHz
dystrophy
prokary
Complex
018
peaked
polyphen
##iprofloxacin
##orum
sphere
##igms
##ystall
dyslipidemia
##ci
oval
##esity
GSK3
cascades
3c
TFs
eat
primate
ecology
assemblies
micromol
anaemia
##ASP
Phot
Phyl
CYP1
##itum
dextran
shut
urethral
business
##FGF
recognizing
Meta
concrete
wavelengths
runs
##uran
##optotic
intent
##ithromycin
ORs
PY
##itonin
guanine
orthogonal
ranking
synchronous
MALDI
##SE
daytime
##plicates
LBP
##itates
##ictor
##ething
caring
oss
##dU
C18
combat
Polym
phosphatidylinositol
SUV
##trate
017
recognised
AChE
CMR
hat
TLR2
pM
##imurium
litter
formalin
epsilon
lenses
IFNγ
manually
appetite
Sleep
unequ
175
WR
preschool
something
displaced
##istine
valves
amylase
nationwide
153
eliminating
arbitrary
##icide
insignificant
PAHs
pret
##itivities
outline
XRD
senti
intrad
regimes
vehicles
mC
##orbol
##aginal
melanogaster
paradigms
resemble
delirium
ovaries
##dh
Elevated
newer
Ultras
##Hs
reform
metalloproteinase
replicates
absorbance
##eptic
thymic
radioactive
backgrounds
dimerization
intu
HTLV
bridging
FFA
HCl
menopausal
Taking
MIP
dots
LU
laws
things
intravascular
2H
##istinguishable
carboxy
##rew
pairing
gastroenter
marijuana
Poisson
clades
spacing
appearing
Clostr
binge
emphasizes
supervision
Alcoh
Stat
##ront
##iomy
maintains
glucocorticoids
geriatric
gemcitabine
##iper
FRET
perceive
squares
mAbs
imaged
##ofen
certainly
grafted
EMBASE
##opyran
microgram
##Tc
##obi
somatosensory
intolerance
##atergic
Prost
starts
GTPase
Remark
thrombotic
investigates
lysosomes
Tat
##iro
ingu
asthmatic
Cyp
320
terat
capillaries
Anxiety
exacerbations
grand
vegetable
comments
vasopressin
cores
##ava
##luoro
rhinitis
washing
dihydroxy
potato
recre
##atit
indometh
publicly
##yx
##life
reinforced
Good
rituximab
postprandial
EPO
BAT
Fed
α1
##imotor
Veter
ze
catalyzes
5b
##itely
licens
untrans
versatile
benzyl
rhod
surrounded
eligibility
PRO
Kle
ticks
CTC
nanotubes
supine
Maternal
saving
grating
Student
vimentin
##TL
explores
suspended
##acrylate
SQ
##omatic
Il
indomethacin
##arach
maturity
PHA
arrival
##ario
lethality
Flow
NLRP3
repetition
vesicular
deacetyl
infect
##ublic
retest
Nit
PLGA
medulla
EGC
weather
adipocyte
Tub
worst
##oelectric
Lep
App
##93
##fully
cognate
jun
##aP
antin
##omm
##traumatic
##entified
savings
cargo
contributor
remn
##roduction
wealth
hydrochloride
Stress
##81
ghrelin
elongated
photosynthesis
##len
deaf
concentrate
pesticide
brachial
biophysical
audi
loos
somatostatin
FAS
anions
##ouracil
##GH
##alis
considers
biof
disposition
Library
GSK
##omegaly
Histological
ozone
neuroph
α2
hairpin
H7
##osoma
integrins
extrav
homeostatic
Real
shares
##ume
corticosterone
neglected
deprived
unsaturated
Thirteen
Response
GER
Han
modulators
prion
##arges
##therapy
AO
tocop
Activity
trophic
##litazone
potentiated
HSA
WA
##ureth
tremor
##ugg
multin
augment
averaging
vicinity
marginally
disadvantage
##enoic
##abr
supplied
centrifugation
##axial
dissip
belonged
Rating
operon
indistinguishable
FAK
senior
locomotion
comment
lever
connecting
packaging
noradrenaline
treadmill
ZIKV
TNBC
##nes
seal
##entanyl
##oge
leukemic
##vie
##uitr
Ech
##olars
pictures
TW
twelve
scatter
##YP
##herol
mismat
##py
Structural
addic
burnout
amniotic
nucleoside
lidocaine
Method
medullary
reorganization
methan
dict
##Ig
comparatively
##cope
degrading
gondii
##GG
degrade
aluminum
Sus
##rogenesis
algae
receptive
##FV
incenti
gathered
legs
xenografts
##vert
##okinase
neurodevelopmental
Eph
innervation
homocysteine
orthodontic
Whitney
##tebral
NH2
CAC
Significantly
advancement
CSCs
##opaedic
parenchymal
Key
##etts
##obia
##03
##unted
ended
wise
Lp
haemoglobin
auxin
##atil
##imide
Arc
GPR
Heter
strengthening
insert
feet
sigm
##eminal
remainder
insertions
methyltransferase
SMC
##D4
calmodulin
##racheal
reproduce
Lin
endors
##amol
##Bank
constipation
##oxins
Prom
##hesus
agglutin
##pendicular
transparent
165
TCA
fits
nont
Anim
Apart
##erver
methoxy
Preoperative
##odex
altitude
debris
##produc
fluorescein
##oprote
DRG
radioimmun
##itness
neurof
argument
anger
optimizing
Od
crystallization
Measurements
lex
propranolol
##house
covariance
diploid
vitreous
Binding
ovari
B3
##ishment
Color
inguinal
LRR
Diagnosis
BNP
Sixteen
facilitation
mannose
Cam
implication
##arous
feces
troponin
epist
##ocol
230
internet
##92
##EX
##umen
Until
##ipar
radiography
pS
rew
Sea
##actants
detergent
diarrhoea
tidal
veterinary
r2
##uronic
##ffee
perpendicular
##entions
Actin
glutamatergic
EPR
NHL
Air
districts
ciliary
##rement
##ocardial
eyel
detoxification
falling
##iaceae
thio
pole
##oxone
cervix
fing
360
copolymer
empower
disclosure
menopause
##±2
intermolecular
##ailand
terrestrial
dysphagia
erythroid
CD11b
Enh
p27
##aicin
cam
reader
approached
pertussis
collections
tuned
anomaly
##otri
cellul
##gran
FAD
quadru
paracrine
phthal
nematode
Emergency
collectively
Dex
glycosyl
dressing
Concer
penetrating
SCN
conception
##ike
dividing
fric
spectrophot
medias
##viruses
Cry
HNSCC
Glyc
UGT
steril
VH
PCB
TX
TUN
##lea
opinions
##electro
Mortality
##abinoid
tilt
WBC
LVEF
practitioner
Tu
swallowing
##ao
electromagnetic
girl
install
answers
predominance
##ble
sensorimotor
pT
##etaxel
CSC
randomization
##ymp
subfamily
introns
participates
seropositive
educated
conting
##anial
aetiology
IOL
malformation
vibrational
erythematosus
##udin
monocyt
##ishing
paucity
##oter
ATG
handle
##romised
##olipids
##proliferative
Hong
unpre
##kes
pitch
##andibular
invertebr
risky
casein
GPI
tablet
6a
MCT
frameworks
memories
bicarbonate
enorm
##ARC
Firstly
occupation
gad
##dynamic
Glut
Centre
##atial
diphenyl
constituent
##repres
##atectomy
nu
plain
Fus
subscale
consultations
gau
##imburs
dentate
polyph
##SR
Mad
lie
chemoradi
##ARs
methylp
opac
##asions
mediation
Outcome
##une
##rig
##erum
##ganese
168
TKA
##ocic
warming
dynamical
##imeter
clot
prerequisite
##ocomial
parity
breeds
thalamic
bulb
cleaning
triphosphate
##iax
##uspid
bag
nAC
##VE
thigh
Water
Animal
Obesity
finis
##ferases
electrophoretic
instrumentation
getting
scene
dipole
mediastinal
##ariatric
till
staphyl
IKK
desm
Animals
##arbons
temporally
linguistic
indole
guiding
SRS
mandible
equipped
Province
Phil
glycosylated
Potential
##vular
##V1
versa
152
sedimentation
worms
TUNEL
twofold
##ocrit
tetracycline
280
##rote
##oplasts
difficile
went
harvest
inacc
##okes
shortly
tensor
gravity
Gold
##inar
invariant
simplex
cilia
1E
##iez
synchronization
inconsist
Republic
phil
splitting
ciprofloxacin
immunogenic
ROI
##RCC
metac
##yphilis
ducts
##CB
DAT
##oderma
##ogue
154
Crypt
vice
retinoic
resembling
inev
##ylene
osteotomy
resembles
Free
nationally
bioc
##uents
##acterium
anionic
forensic
compute
answered
declining
##FI
topography
PAT
SSA
choroidal
multimodal
granulocyte
thoroughly
veterans
TPA
VDR
Therapy
##abilistic
##orporeal
bear
Brown
EUS
abrogated
Pulmonary
mist
010
Isra
boost
Coh
##itoring
salient
specificities
Mer
positives
trapped
##aked
##param
matches
precondition
attribute
Bon
SST
medically
concurrently
RANKL
hit
##6A
associates
methylene
https
pipeline
amplic
muscarinic
##imumab
##seous
##ultural
ATM
DMP
##uitry
homozyg
forebr
uncovered
incis
tubule
##abular
HAART
drastically
reconstructions
pharmacodynamic
Haem
CRS
vigorous
query
SIV
HEK293
##ports
ileum
tocopherol
unsuccessful
nociceptive
nephrectomy
manipulated
frog
CIs
neurocognitive
ATR
wine
elemental
Minis
beet
CTLA
##ogs
endoph
piper
union
mm3
vitamins
sacrificed
FMD
confusion
urot
verification
utilizes
Open
roughness
mumol
ask
reactor
civ
adduct
normotensive
Classification
reconstituted
phagocytic
CPP
PGF
##ortium
County
rectum
Whole
chloroplast
vasculitis
147
##UCT
##CM
piglets
microl
cathepsin
tears
commens
μL
microstructure
BOLD
antagonistic
CD28
colloidal
refinement
##tillation
PCS
ischaemia
anore
planes
immunologic
endometrium
##300
beams
drops
modulator
gaze
nanoc
harvesting
##kal
deployment
##uris
flo
Ku
eigen
##onephritis
compressive
##oves
forebrain
adhesions
emphys
controversy
Well
VII
thalass
listen
voc
##airs
prolongation
histopathologic
##ormally
NOD
speculated
##IONS
nin
##itations
priorities
closest
Thailand
##ypti
iterative
biocompatibility
##axin
uncou
alternating
telem
replacing
warrant
supposed
##ALS
Dic
BrdU
Viet
##gut
##oglycans
exacerbated
immunoblotting
##othorax
hus
ancestry
STZ
hots
partitioning
##odermal
Found
IPF
plei
##ocus
##k2
foraging
Phen
uncertainties
##uates
carboxylic
##athic
Effects
reimburs
Linear
morbidities
MBP
PDA
merely
Systematic
B12
Wilc
GDP
mechanically
probing
FLA
palp
149
fluxes
Less
ocean
##C3
##izability
groove
Sequence
nanostructures
##NI
##ignant
grip
assimil
sensitivities
innerv
Rapid
permitted
chemotaxis
Ax
autophagic
MSI
Oper
authorities
3d
adenocarcinomas
Atlantic
holes
pA
Les
Syndrome
climatic
AIS
##ieu
Performance
neurite
disrupting
vulg
unexplained
##K4
digit
Particular
##B4
nc
inward
##actors
##uber
undergraduate
inpatients
contrasts
completing
##ispens
herbiv
Rou
tracing
spines
##apsing
informal
tow
Cop
screws
Mexican
Environmental
anaphyl
imperative
RhoA
##oxication
##hentic
ECMO
coffee
integrative
Wol
##ERS
AVP
##unctional
PTX
trypan
hypere
Step
rT
CCT
Any
sciatic
friction
centros
constituted
kernel
trainees
encapsulation
disaster
LIN
Very
Prec
epithelia
lytic
stric
cavities
mTORC1
agriculture
##tz
stenting
##ptosis
##rologic
judgment
HOMA
##oate
##arp
##ropol
defines
song
##lofen
overlo
ascribed
neurob
phylogeny
MPO
MMR
##platelet
secure
infective
CD16
embryogenesis
unfolding
fentanyl
##NN
templates
G4
##iased
##nm
diluted
Gln
adjunct
spatiotemporal
neglect
##glut
meetings
spiritual
##inetic
##157
Toll
codons
##eratin
GATA
workflow
dysregulated
Safety
residing
demanding
connect
2E
lysozyme
##2C
forests
neurosc
##ERI
##inin
VIII
##aptive
Biom
Vascular
visited
carcinogenic
devast
motivational
ERG
axes
horse
G3
LPA
glia
192
Cav
##ima
nevertheless
Mitochondr
inducer
Determ
DVT
overwhel
REC
residency
microsomal
trigeminal
Objective
##urred
Lu
standardised
sectors
suggestion
inflamed
gonadotropin
##employ
accordingly
##absorption
ceramide
silicone
zyg
##quilibrium
Systemic
DLBCL
monocytogenes
wait
##cephalus
steric
emulsion
nif
overnight
priori
thoughts
Register
##osm
adver
cholest
anchored
proposal
Without
019
nitrop
ribonucle
gentamicin
I2
##west
##oxib
shaping
HMGB1
pill
knees
incidences
performs
hemodynamics
Longitudinal
porosity
Regard
##inous
Kir
bactericidal
osteoclasts
Norway
ALA
hyperal
G6
pu
##atized
stap
Enterobacter
default
photosens
predictable
Services
dodecyl
##vern
Ant
restrictive
##arring
begun
supram
harbor
accommodate
EZ
KCl
occasions
tolu
folded
symptomatology
##ibrio
heightened
counselling
microcirc
accumulating
EHR
eu
##yed
##acute
contrasting
Trk
plantar
subf
orthopedic
Van
amines
microarrays
##atheter
##ocarcinoma
intoxication
Decreas
lasted
Middle
Chlamyd
laparoscopy
disclosed
supervised
##com
radiologists
quantitation
##holder
Tim
##iens
##TT
ups
Support
Application
##encl
Stroke
Strong
CGRP
Therapeutic
antagonism
##ova
practic
primitive
glomerul
##yer
serous
RNF
drinkers
cruz
sequentially
bacteremia
communicate
pacemaker
infectivity
diurnal
pedicle
hydrophob
park
malt
##arose
aggress
counterpart
Remarkably
glycolytic
coatings
Virus
##dm
myofibrobl
leiomy
brady
disciplines
##icate
##pf
meiosis
charts
whites
manipulations
cTn
##ialdehyde
unt
amphetamine
##itoneum
zoon
##otactic
intercal
siRNAs
##apoptotic
hydrocarbons
names
ending
tactile
Asn
utero
Wall
gaining
##imab
##pA
matern
restraint
Regardless
Gast
enhancers
mammography
KC
blunt
multifunctional
##iatal
acclim
prostatectomy
angiographic
docetaxel
Initially
Chen
secretions
societies
microsomes
AHR
remember
congestive
##arrhythm
ank
Exam
Material
##oliosis
##uliar
##eller
##cedented
cyclooxygenase
metam
buccal
circuitry
##asant
intentions
##assemb
EC50
diabetics
broil
sustainability
amenable
motions
orientations
Ug
##ochlor
##bing
decid
CD20
ovulation
DSB
Concentr
subcutaneously
Helicobacter
##atisfaction
socially
CPB
website
Ka
oc
thromboembolism
Seq
Adoles
jap
chapter
##adium
ribose
nodular
##oresistance
immunocompromised
Bm
##cens
RAP
##ashing
flower
GBS
ruled
Dietary
Diseases
sulphate
cock
Hs
inclusions
##oting
advancing
interacted
preventable
GenBank
shrinkage
judgments
Kong
alert
Tum
migrating
cancerous
discriminant
energetic
probiotic
Contrary
cholecystectomy
rash
##aki
outputs
zo
Wilcoxon
rim
GMP
metagen
endothelin
infiltrate
MPA
coronal
##omegalovirus
stringent
205
Saudi
##ypsin
##unctive
elasticity
postmortem
##DCS
probabilistic
discharges
Ile
##VR
forec
actu
##itonitis
screens
ou
Foxp3
##azolam
Vietnam
Jour
indigenous
wherein
Plant
Embase
Having
##nar
reasonably
##adjusted
Council
unmet
dwelling
unsu
recognizes
sciences
ip
##peritoneal
##olia
workforce
##through
unprecedented
catast
Indep
therapists
carbonate
possessing
broth
governing
Chemical
ears
LED
terminated
ATCC
##orphic
constantly
afforded
interl
marketing
ERP
stic
cirrhotic
QALY
transformations
270
moments
hos
encounters
proceed
##ein
goats
anthocyan
shallow
rounds
reti
##stalk
PrP
2d
THP
Infection
authentic
##HE
discs
capsaicin
electroencephal
incentives
L3
instant
rotavirus
empirically
##operoxidase
agency
##NTR
bilaterally
vegetative
##met
260
relied
safer
##FE
spastic
156
##rals
blindness
nosocomial
##pic
slides
equil
1984
attainment
calp
##observer
indispens
daughter
thousand
longest
Island
Swiss
Across
Lab
beef
manganese
Older
##acies
IgG1
japonic
rhesus
advent
flowers
exploit
motone
##ensory
repaired
##inflammation
##assays
strategic
peculiar
Pregn
tent
heritability
cet
##onent
oscillation
Sciences
##kines
##ymethyl
pointing
COS
observing
naloxone
##anous
Depending
Interest
HRT
##ipp
Arch
isometric
Immunohistochemical
Tox
predisposing
phosphodies
latencies
oscillatory
7B
Eighteen
elution
177
##otstr
inequalities
acknowledged
Thromb
suspensions
##anging
litterm
##NG
Ann
PER
societal
TAP
##2O3
triaz
Much
##unn
##MG
radiologic
##olol
RAR
aldehyde
##acetate
##VD
151
PSD
LOX
glucan
Gli
evaluates
mutually
artifact
Ae
##KA
158
ascorbic
##actone
biore
FDR
fluctuation
alternatively
initiative
cobalt
fission
leader
devoid
##imetic
m3
##PG
remodelling
4c
##erals
diversification
##orial
##CO2
emptying
cruzi
1990s
##inces
Erb
gases
Strateg
Rele
Wa
attenuates
diagram
aided
mm2
##116
reside
##ofrequency
standardization
##asted
opened
##iximab
##minth
Eps
alongside
Hypert
electromy
##opid
##agonal
hetero
##ulous
homologue
##101
empathy
##tinent
parox
195
PCC
ESR
fundus
Tem
vagal
committed
evidences
cryo
rifamp
phages
Medline
ameliorate
UTI
##200
transfusions
interdisciplinary
Tm
haemorrhage
Vol
solute
acted
Negative
comprehensively
teacher
vinyl
##las
TMP
nanoscale
##arith
groundwater
cassette
beats
unemploy
noncoding
catabolism
culturally
tips
substituents
##adesh
aneu
NASH
##apenem
UVB
rheumatic
##olymers
##ocele
money
obstacles
ba
thr
##erating
monophosphate
neovascularization
nanocr
afferents
hemolytic
caudate
heads
assemble
opposing
plug
unbiased
alarm
##gesia
budding
micropartic
##ercise
Ib
advis
exceeds
DTI
passing
S8
handed
counted
delineate
LAD
##idus
devastating
bFGF
barley
astrocyte
navig
sixth
uncomplicated
##NCE
polyd
DWI
lactose
Eb
constriction
NHE
aesthetic
##ATION
Preliminary
annealing
SUMO
outdoor
##ashes
##ellate
truly
crossed
glutamic
Alcohol
##rical
invited
request
Simultaneous
fus
##atism
superiority
internalized
prostheses
syncy
heterochrom
CBD
ClinicalTr
bronchi
Head
H3K27
FO
cortices
advertis
##uod
Pc
Neut
MPS
correc
ROM
aids
silk
##idis
supers
SGA
parap
synonymous
arterio
imagery
##orrhea
##etent
##ogrel
##ancre
duodenum
kJ
anomalous
quiescent
##aka
##astuzumab
destructive
##atom
Electron
Ethi
laun
##uclide
sit
peritonitis
psychology
permeation
antiserum
inhabit
##LL
radiology
PM2
doubt
dsRNA
defer
Prog
##raphic
exciting
Ethiopia
##ilin
endosomes
pter
##ROD
##acers
inequality
Nutrition
deliveries
subsp
Foundation
ut
##ien
midbrain
convergent
##PN
Univariate
bariatric
redistribution
Genes
arose
neuropsychiatric
Fil
##apamil
antiplatelet
Leg
papillomavirus
Illumina
##ATP
##LM
##ogle
##achlor
catalyze
scintigraphy
Danish
homod
enormous
Bro
##ronate
Rev
citiz
latit
GIST
Ct
brachy
181
KT
Tel
aneuploid
observable
immortal
Rhe
imid
RBCs
Predic
##adays
unfolded
##nem
crosstalk
##omib
##ficially
##ounder
##yseal
spong
orn
TCM
##oalveolar
leukaemia
ideation
Que
unidentified
STR
##KD
ANP
##cranial
##ulators
printed
223
##DCs
diethyl
doping
synergistically
invasiveness
Mill
ameliorated
##ropine
##I2
OSCC
##luorescent
DSBs
chambers
nasopharyngeal
endocarditis
##ticle
prison
##eteen
HEV
Pos
##ascent
##kinje
ingested
expense
preex
LAS
##albumin
radion
ambiguous
LTR
gins
silenced
opens
182
##ondon
##estrogen
explants
Phylogenetic
coral
compete
IAP
compensated
Natural
cavern
PrEP
tender
abrupt
lutein
Clostridium
dorm
committee
ram
##D88
schedules
bandwidth
Schwann
vasoconstriction
##udine
##obarbital
Task
##oned
##ostat
Pu
##gar
##ilum
bridges
DIS
transfers
sarcoidosis
chemop
Barr
##aturation
##amphetamine
DCM
coarse
harmonic
county
speciation
agarose
nest
adrenoceptor
GAL
defence
##atility
ClinicalTrials
##men
histones
##vertebral
Pretreatment
##vable
cyclosporine
750
Purkinje
##ael
basolateral
##ubiqu
TMD
dysfunctional
CCR5
##right
Prevalence
##essional
harmon
##tenosis
ordering
Burk
TAC
##UCTION
enj
##esthesia
feat
Nuclear
failing
carbam
shot
incorporates
STEMI
##inatorial
Nearly
QDs
##light
Unit
##Co
##americ
Ever
technically
INTROD
Tex
TMA
sew
157
HCMV
##titutional
crosslinking
99mTc
##mo
##gus
Lee
Gle
UDP
Hsp90
crim
got
lining
speeds
warrants
purely
exhaustion
CQ
ready
phorbol
##125
Kim
equine
##azo
IMRT
##thrombotic
Centers
legislation
notes
nonh
##atally
##adec
PDB
industries
##riers
theme
prednisone
Run
pericardial
Lap
TSA
Cohort
hemangi
uveitis
CH3
lept
molars
IRS
##opsin
##R3
17A
INTRODUCTION
transitional
PCT
purine
odont
introduces
fulfilled
Las
APS
IκB
##H3
##redict
penile
Subs
##In
B7
Smith
register
ESBL
Detailed
weigh
gauge
discriminating
filamentous
fossa
metabolized
Respiratory
breaking
Bur
merg
destin
evolutionarily
##iner
PIC
Resid
logarith
gastrectomy
situated
revolution
imatinib
Malays
broken
heterodimer
dosages
compatibility
expresses
dies
nail
kPa
infest
##pects
discern
graz
boos
Cur
placing
simplicity
syphilis
atrium
urgently
STS
##onclusive
emphysema
SPR
spending
ADR
1500
prohib
Tri
STI
TSP
contradictory
visu
encompassing
##phase
rho
1alpha
forty
##i1
##gian
##amilton
##opidogrel
##phan
##jac
seeded
nascent
heroin
penal
infarc
hampered
AMPA
Cho
##can
##opharm
185
corrosion
Region
Population
indispensable
inbred
Lac
sponge
nearest
BPH
Possible
maneu
multip
264
TIM
##best
transcriptomic
masked
##omatosis
##ingual
vena
##otom
sentence
macromolecules
Bangl
ecc
campaigns
Rac1
##olor
flora
absorp
ANC
diph
##HF
tremend
##ystals
Cardiovascular
##ocene
carc
analyte
Add
economy
S1P
adaptor
Zhang
##auma
rainfall
−2
modifiable
nanomaterials
INS
trying
iodide
SPSS
##imeric
collision
Lake
ori
MSA
Pax
transcriptionally
##arachnoid
zeta
##agl
parv
##criptive
dissected
rendered
##ticism
multidimensional
hap
applies
inspired
Hamilton
yolk
##ARS
sentinel
fluorouracil
immigrants
oroph
H3K4
##opril
das
##amides
CTA
Fer
minimized
##ursing
Hand
reoperation
1982
sibling
THA
225
NFAT
Kenya
lengthen
##oassay
##oluminescence
##optic
chemotactic
##othel
pertinent
nucleosome
letters
OK
brush
Peripher
##tific
##apatite
ARI
slopes
eosinophilic
calibrated
FITC
oesophageal
##oactive
galactosidase
rostral
microns
ferment
##aterial
Cri
implied
dissimilar
Healthcare
Physicians
multifocal
##UP
##cm
Authors
##N3
traces
##itoneally
SVM
persists
##adone
provinces
hierarchy
sickness
##ESS
morphologies
##CI
##arity
noting
irrele
hamsters
##tra
hardware
##epr
reproduced
mastectomy
title
Cases
superc
correspondence
glandular
corpor
covariate
arrested
Flu
leishman
impulsivity
ionizing
##type
SMAD
prednisolone
F4
##tii
##being
ni
Students
oligosaccharides
inconclusive
endosomal
222
Journal
##ald
bootstr
ventilatory
tDCS
estrogens
Guidelines
##lative
##attr
blank
MRS
DMD
fingers
##idomide
reconstitution
Denmark
##amilies
Cron
neurogenic
psychiatr
Ter
hydrodynamic
Adverse
referring
minerals
3E
##algia
CBCT
occasional
188
infrequent
##aming
TSS
##onergic
H2S
granulosa
##ethylated
Vir
cotrans
fove
##oplank
##etitive
CDI
erup
##ofibr
globin
##ancreatic
straw
psychiatry
noticeable
Abnormal
ureteral
##urus
174
##agger
Ontario
sad
##radi
##fect
abundances
effluent
PED
##etra
LOD
carnitine
wrong
##ineral
##prop
Muc
hydrocarbon
eleven
##una
6D
restoring
VLDL
Bacterial
Aden
metapl
Abeta
##edited
Oncology
UPR
##process
incomplet
Pg
SLN
incidental
##ositi
##09
MCL
##eping
##certained
Fu
lane
ESCC
discussing
hazardous
neurotransmission
nigra
##ustion
##ophylline
squared
##ondialdehyde
##rys
##otoxins
justified
##itories
injecting
gonadal
##ophenyl
freshly
##osomiasis
London
MATERI
Skin
doubling
Luc
##ho
debrid
furthermore
ventilator
##ambiguous
ja
melanomas
audit
dermis
oedema
occult
Cost
representatives
##rectile
dsDNA
Ministry
1960
##BE
##aban
arrangements
objectively
proliferate
##lational
scoliosis
##posed
genotoxic
synergy
tags
oncogenes
Reduced
fifty
languages
162
divertic
GAS
cili
ascertained
refuge
homeless
referrals
etiologies
drawing
hits
##transferases
engraft
##agas
smoked
Kl
deuter
##I1
witness
hyperth
lect
UM
cholera
##ip1
antiproliferative
4th
slowing
bout
##CA1
##acylglycerol
hyperthermia
VAT
##olinium
027
excreted
##dens
ARF
entries
sorted
Conventional
interior
producers
caloric
TNM
##enyl
extern
salic
proteinase
biosensor
##yb
##timulated
milieu
##Me
206
depths
spore
NFκB
##omogene
hrs
dangerous
narc
##hospital
teen
##berry
CD10
categorical
pharyngeal
receipt
##orbidity
restenosis
SVR
company
unpredict
digestib
ancestor
##oselective
Nd
sorption
irrelevant
consume
supra
Detection
classroom
Condition
##ectomies
monoph
membership
ssDNA
olive
decide
doubled
##unsaturated
counties
permeable
Wu
##bur
misclass
Correlation
##onad
drinks
stratum
MAS
Parents
combinatorial
preparing
enjoy
tables
classifications
burns
UR
desensitization
carcass
##otherapies
Flor
restrict
psychotherapy
registries
IgG4
Kit
chief
196
Turkey
##irm
Mus
##eria
pyridine
##ource
homogenous
Ze
M3
IMT
Personal
##uated
##apr
acidification
acetonitrile
PGC
Subst
anorexia
##AM
cha
Dav
FVC
Symptoms
Greater
ACR
##opter
linearity
Agency
Respons
pherom
morphometric
2R
powered
##azolium
##acia
ApoE
congruent
EMS
##istin
204
posttraumatic
bloodstream
neuropeptide
threats
zym
spermatogenesis
RAW
Surveillance
S9
unambiguous
prolapse
cava
##ropolitan
RGD
assembl
##outheast
ophthalmic
1980s
Cx43
##insically
steadily
##odomain
trastuzumab
consul
awake
af
##oproliferative
untranslated
pertaining
Peripheral
Tax
##roline
cytomegalovirus
stacking
rock
##pm
##bul
gout
ash
spons
sorafenib
thymocytes
eradic
172
nephrot
##oposide
subarachnoid
grouping
sandw
Certain
tin
doll
unal
ISO
overs
##PA1
##iginal
endo
##ulinum
##arsh
159
##sep
##roma
Ven
##562
Brief
##ifl
##He
ontology
Michael
rods
AED
tack
##ille
smears
histocompatibility
BMSCs
footpr
dynamically
T7
layered
EGCG
##amid
requested
RFLP
SOD1
1983
##athecal
epidemics
incl
##urning
nematodes
##tins
extrusion
##g1
generalization
ACP
7a
Light
washed
Dox
ileal
dissociated
SCT
OL
##c2
minus
##oplatin
##zomib
intraperitoneally
compartmental
printing
intras
PCs
176
analgesics
compelling
Traditional
164
hept
DIC
##wood
predator
ECT
##ylobacter
mortem
realize
antipsychotics
##ACs
qualified
insult
primord
overlooked
##orylated
whee
tacrolimus
Poor
Active
neurotransmitters
brad
interrupted
##BNP
mildly
vasodilation
Hox
MLC
167
USP
L5
##oplankton
Late
LNC
##ubated
topois
sutures
##itzer
KEG
##geons
PON
plasmon
##xine
dipl
inspiratory
federal
166
homogenates
hydrophobicity
IPA
conductive
dams
##eles
##b2
metabolomics
nanofib
##overn
HRQOL
intimate
SMD
succe
autocrine
bare
##ems
amplify
windows
Union
diminish
RU
163
adenylate
circumfer
hydrolys
abstracts
migrants
distraction
CTX
alcohols
nicotinic
aur
hyperinsulin
JAK2
weaken
polyphenols
##o1
initiates
CYP2C
Maximum
bidirectional
203
damages
##essel
adhere
Gα
arteriovenous
Arth
annotations
cylindrical
wheel
computationally
hardly
sequestration
##gf
clav
questioned
B16
E6
Nav
interpretations
##leb
##emoral
##ovsk
Scot
##agglutinin
CD133
civil
##uel
##level
scanned
##herry
Controlled
fusions
War
accession
TTP
identities
deployed
radiosens
serotonergic
WD
bla
##ifera
Combining
Oxid
recruiting
digested
Peak
helicase
wards
KEGG
##iley
appeal
anxious
parotid
##aint
clopidogrel
arguments
##lysis
tomographic
genotypic
cytometric
triage
NCI
euthan
liquids
beat
186
5th
decarboxyl
183
intrahepatic
macaques
##revalence
methicillin
dimeric
##irs
economically
Recomb
peroxisome
wellbeing
##angle
Please
Nursing
##overy
sulfide
Ster
6J
CLA
Fail
extensor
##rometry
globulin
hES
payment
##icl
TRPV1
Hp
yog
##cus
spiking
bite
##aC
##ADS
Portug
philos
##bens
assumes
IRF
Successful
##ivirus
##ovar
##ecu
capsules
radiofrequency
Typh
##roscopically
rigidity
flavonoid
hydrolase
orch
gastritis
ADAM
##atases
##yng
reviewing
nanor
hi
DPP
hsa
explos
ka
##ognition
PDGFR
##isure
Max
reflective
023
permissive
acetone
TLRs
numerically
V2
endonuclease
catecholamine
regressions
##parag
retaining
afl
stro
##yrib
neurones
##trum
TIL
##anch
pedig
limbic
appendic
contributors
extracorporeal
ANG
piece
BLAST
influential
ternary
capsular
DEX
202
Asians
##licit
Cohen
narrowing
Ms
piez
##normally
CBP
oxy
Respond
##PL
presently
alkaloids
predators
sustaining
synchronized
dith
monot
backward
anastomotic
Along
conference
MMSE
serocon
##tegration
rabies
adopting
pharmacology
Accum
lactamase
##aut
##roni
homologues
PDF
##ivocal
CHOP
##eletion
cardiomyocyte
succinate
kinet
Fe3
orthopaedic
##oproter
violent
Hi
duty
lumin
physics
turns
polyunsaturated
semiconductor
invent
024
equivalents
operatively
biomaterials
encl
Surface
##okinetic
pyrene
scaled
1d
Tryp
choroid
sigmoid
anthropogenic
defibrill
rendering
##G3
LIF
bees
transparency
QRS
clath
jaund
##OU
burdens
Left
pleiotropic
organelle
solids
methadone
karyotype
E7
checklist
##ett
photons
Hispan
appreciated
Cluster
FLT
concordant
neutron
accessed
Raf
##istant
Acet
##ytically
retraction
CPA
##ignment
etiological
161
MyD88
hindered
GERD
Disorders
Ki67
lambs
Gel
gar
superimp
causality
nonf
Lang
UI
unadjusted
1981
ordinary
##healthy
ignored
##iabetic
myogenic
disagre
##verages
tell
cubic
relational
221
Klebs
Carb
stigm
Urinary
##±3
labile
subdivid
##remia
confirmatory
sentences
SNAP
folic
##pose
##ounting
exocytosis
Access
repeatability
Card
214
F3
bifurcation
##ventions
acquiring
torsion
hollow
##tistic
census
ts
##inescent
##acion
arrow
##hae
##oinositi
reticul
COL
ferric
anisotropic
HUVECs
workshop
malondialdehyde
sterol
holistic
IO
MMT
##acid
evaporation
##eliness
Perhaps
descriptors
POC
wearing
reconstruct
PCBs
hepatectomy
biodegradable
##ilance
lipophilic
accumulates
##olase
##iple
microin
Asc
appraisal
jug
##fly
immersion
Gleason
thrombolysis
dichro
ensures
buffered
lexical
evening
##igenic
amyloidosis
Seventeen
confid
SCLC
169
Acad
Casp
avers
jump
##rophyl
##porter
environmentally
tailed
0005
##onates
##heastern
##oleic
virions
resections
fen
021
rhabd
unaltered
##oxazole
PEP
probiotics
spheres
##ubiquitin
##YS
chemoattr
Internal
unavail
verapamil
bod
##otocin
##profen
Observ
##thing
positional
symmetrical
incompletely
PVA
##athyroidism
pixels
nap
traps
etoposide
022
contraception
hips
swabs
trough
##enone
externalizing
expenditures
Pakistan
paw
sink
##eto
identifiable
Hispanics
doi
thread
hematocrit
emphasizing
PEI
budget
##oproterenol
effer
elucidation
unevent
oxides
Nurses
celiac
glomeruli
bottlen
beverages
attach
sickle
Markov
endoscop
SCID
interruption
##coming
cleared
##utrient
sialic
trach
##outs
##emias
##arians
popularity
THC
##aryl
worsened
vire
##Br
##ometers
heterozygosity
Expl
inhomogene
perivascular
infecting
Google
Env
manipulate
unwanted
##itreal
magneti
##oct
genders
wells
QTLs
traction
player
Regional
Peri
convinc
reimbursement
vulgaris
orches
##oxal
##rowing
fragmented
correlating
Comparisons
MZ
fun
≥1
adjunctive
ventilated
additives
Coronary
transactivation
simpler
latex
pigmentation
TCP
wedge
centred
Clinically
carotene
Descriptive
phosphatidylcholine
Cellular
NO2
illicit
lying
outward
##ozapine
logic
closing
fossil
readings
ulceration
circle
skilled
sonography
xylose
184
CFA
Bonfer
##cemia
hypn
##onf
click
helminth
concomitantly
028
hook
bead
subl
Comparative
##adine
scarring
neuroinflammation
EPI
streams
Klebsiella
Measurement
Arter
pharmacotherapy
NMDAR
ejac
##hesi
SRE
##β1
##anting
CH2
Ear
##tail
Franc
chromium
Dynamic
anxi
vacuoles
fractionated
##lusal
##arsal
Shig
pector
hyperalgesia
Doc
canals
separating
elucidating
##obium
Muller
KIR
##ravel
counteract
intrinsically
spectrometer
neurotoxic
TO
##HI
##ighter
##otypically
operators
biomolecules
rotating
ITS
conjunctival
Por
win
Healthy
portable
preexisting
##afted
216
AuNPs
exagger
liposome
SSRI
mold
sold
##uximab
##fection
firstly
##trated
breakthrough
##obility
IP3
apoE
radioimmunoassay
tuber
junctional
Computed
sarcomas
stations
##reek
##ximal
carbapenem
##drug
anaesthetic
strugg
pneumon
##tm
Board
brings
tuberc
CAG
declare
cM
212
CTCs
kinematics
##hu
Star
hypercholesterolemia
Examples
Yang
monos
luminescence
seriously
determinations
173
reflectance
tunn
engraftment
pleth
HRP
Especially
games
brachytherapy
##retin
##etom
HNF
osmol
colonized
antimicrob
infiltrates
nominal
Panel
plastid
##ptotic
sharply
##itorial
denoted
Veterans
pas
AUD
antidi
##acea
myopia
Cronbach
##ometabolic
antinocic
026
semin
sla
CPAP
##ardiac
shortage
Being
nonsm
chloroquine
vertebrae
abnormally
##inone
eventual
Prev
substantia
crystallographic
debridement
NCC
##GO
##Y1
biotic
UF
##ultured
Introduction
tumorigenic
push
##oelastic
clues
bars
##anum
Gastro
3β
lamp
Der
coexistence
macroc
Ire
chym
Hepatitis
##rick
TCGA
OVX
contacted
CTD
Design
pest
evac
mutagenic
quadratic
bioactivity
disposal
proceeds
CPS
##othe
exceptions
atropine
arabin
MDM2
weighting
acetabular
AgNPs
craniofacial
Bangladesh
Biological
criminal
gingivalis
Typ
##recogn
Improvement
##low
seemingly
Dom
##utions
approaching
ALI
returning
devoted
accumbens
##D6
##actable
mycel
durable
ruptured
overdose
Failure
exome
##orrhiz
fuc
trou
##otecan
leisure
178
accessions
MCC
##MB
John
##roch
achieves
PSC
Epstein
emitted
##ietin
hub
PPD
Lack
instit
##edipine
DSA
Ry
##emp
seeding
Severity
rater
##tizing
##tress
teg
CB1
melanin
sorb
rejected
acinar
relapsing
iner
Adip
erythema
Bonferroni
intercourse
bursts
##rof
herd
Effective
obstacle
behave
##pray
ses
theor
governed
Rhod
seroprevalence
villages
Tod
##ovol
256
COD
Regression
Tom
Aer
PC12
Don
panic
relapses
unhealthy
explanatory
bent
termini
mock
##pliance
implicate
phonological
toluene
K562
privacy
graphs
lake
landmarks
alignments
listening
Atg
mindfulness
malad
thromboembolic
171
##cel
someone
complemented
Sample
##asin
wavegu
##dehydes
moves
turning
aper
##odynam
Image
PTB
YAP
quadrant
L4
CA3
##ijing
OGT
halluc
mounted
nuclease
sort
##ilt
dephosphorylation
HOX
upward
##HRH
suspicious
retroviral
eyelid
##lishes
Novel
TDP
pale
organisation
elementary
##yzed
partnership
rhythmic
##entre
reservoirs
##ynch
sliding
TAT
diaz
##110
analysing
claimed
MMC
moreover
resolving
WW
##adow
Metabolic
aromatase
grant
goes
escalation
##lora
PNA
##S3
208
##FAs
##utyric
naphth
gambling
antimicrobials
clay
phyto
scavenger
stance
corroborated
hemostasis
advised
linkages
unmod
consecu
Complications
Commission
Qualitative
vivax
Consist
##PLA
##aea
P2X
##atoxin
allografts
##ygl
deformities
hydroxide
Poland
harbour
inefficient
Clinicians
LAB
oligodendrocytes
##atrogenic
##osylation
releases
Recomm
syring
astrocyt
paste
denaturation
styles
marriage
urothelial
Uganda
subdivided
Methyl
healed
lymphoblastic
##alues
responds
temperate
Caucasians
guarantee
pR
posed
trachea
Except
##ycycline
Sy
administering
photographs
6b
cytosine
progresses
Period
granulocytes
##Gl
estimator
pubertal
eic
relaxed
microparticles
acetylated
logical
Transcription
leaflet
endocytic
330
##anthin
FMR
orthologs
KI
Conflict
γδ
##tilled
peg
NAME
heated
mPFC
pouch
floral
misuse
spliced
strips
alleviated
predation
geometries
neuroscience
carers
bradykinin
clathrin
ISS
disequilibrium
##SF
##ifers
proteas
arthrop
antisera
##ineural
rubber
momentum
##ovalent
Daily
scap
hyperlipidemia
VSMCs
meant
verb
Switzer
educators
reliance
035
DSC
Independent
##anat
spasm
lessons
RY
VTA
Streptom
victimization
Behavioral
##vitamin
35S
##othi
##aminidase
##NK1
researcher
culturing
arthroscopic
##ivir
pumps
zoonotic
stillbirth
incidents
Area
airborne
brack
Extensive
interconnected
Switzerland
EMR
bivariate
thinning
GCs
##aturity
formaldehyde
AIM
reef
##cholinesterase
##tezomib
Abor
xenob
washout
manufacturer
##l4
alph
generalizability
depress
cardio
DAS
##ender
enthal
tremendous
intraepithelial
coum
myx
fellows
Caco
accessing
fertile
predispose
electrophys
##educ
##roat
Amb
ulnar
##ja
jet
intranasal
ton
ADL
Vide
carboplatin
##EE
relatedness
cytokeratin
overlapped
##04
extravas
Full
subacute
favoring
aptamer
quadruplex
recreational
AIC
choles
chimpan
##WR
187
hydrocephalus
undesirable
Repeated
Arm
H3K9
myo
capturing
occluded
##05
0002
oligomerization
##ateness
Continuous
Associations
##ulary
surfactants
GRP
SEC
Vacc
inqu
##imod
sinusoidal
oblique
cel
##aminophen
chicks
pupil
##Health
certainty
thiaz
550
##iet
probed
preconditioning
Ve
associative
emitting
ICS
Hsp70
PQ
sure
metat
##yclo
##oxylin
proBNP
hemolysis
tolerate
arsen
Kar
restorations
Campylobacter
jaundice
paralleled
##imid
extant
##iazepam
wildtype
macromolecular
##buprofen
Mtb
fis
##con
telomeres
therapist
Researchers
territory
##2α
apps
##MTS
##ropin
migrated
insecticide
Finland
pyrimidine
##ocytoma
metalloproteinases
blunted
hypercal
Princ
nephritis
hypop
discoveries
waveform
Magn
##body
##ighed
Earth
eluted
DRB1
VV
biochemistry
DMN
KCN
##CK
practically
haemodynamic
##aned
tricuspid
ribosomes
ascorbate
pieces
consecutively
disrupts
Johns
Mechanistic
factorial
##annel
chaperones
##aec
##ustration
eut
##isen
isoflurane
slide
autoreg
stopping
underpinning
Aim
metron
benefici
multilevel
##icine
carriage
kits
tendons
##icated
Lear
wish
3000
submucosal
##lar
distinctly
reared
ventricles
retroperitoneal
deacetylase
Td
unravel
decarboxylase
s−1
prices
mycobacterial
gangli
##ifier
heteroc
Muscle
mail
##rected
CLI
redundancy
valued
Beijing
discipline
##ioc
##Fv
ROP
stressor
Bt
##tron
NH4
luteal
Liter
Knock
radiolabeled
Particularly
customers
familiarity
Lister
ambig
Univers
imprinted
VCAM
inferences
cres
debated
stands
##ager
Native
##greg
strengthened
PIK3
rewards
##standing
Influ
##tef
PLA2
disassemb
attempting
discordant
Ghana
##operidol
##ocystis
##change
insula
qualities
isoproterenol
topoisomerase
SAD
segmented
justice
cooking
centrally
ACA
Still
preferable
elastase
##d1
dysfunctions
prur
Util
barc
tal
fork
##emy
constructing
coiled
Ireland
gluten
mannitol
shelf
mE
blo
stoichiometry
Vibrio
unac
##prof
dece
forth
ANA
RFA
pm
imported
simulating
sleeping
ketone
photoreceptors
bedside
unpredictable
##onegative
GPCRs
##L4
##orphin
anticipate
##uronal
transposition
stricture
##ioid
##ophor
deeply
Mont
taurine
Trypan
oligomeric
derivation
TACE
##heresis
headaches
fatality
fundament
##tanding
millions
asparag
193
Training
##thalm
hepatoma
stalk
##ounted
volunteer
##bit
Tanz
Ultim
dichroism
specify
appendicitis
TJ
Ak
metabolically
BMT
5000
masking
##erae
crosses
##romic
obstruc
##trict
intral
historically
aeg
##itably
029
chondrocyte
unlab
divisions
condensed
##igo
butyrate
hardness
dentists
lepro
locate
midazolam
Stimulation
##his
housed
storm
detects
impulse
PSI
flexor
contigs
##RF
##artz
##ozotocin
Press
##olide
Shh
biocomp
histi
strokes
Sert
slip
joining
occlusal
##optosis
heterosexual
##1B
Nep
##fs
##iterp
24h
relieve
Reduction
##onvuls
cytological
Israel
##0000
SJ
deer
adequacy
Derm
KA
##missions
Turk
Exercise
##inite
myrist
##antile
##henicol
##icides
prodrug
facile
##126
principally
electrocardiogram
mec
##XS
inherently
machines
##CE
##ongru
CD19
distorted
transcranial
Iso
lock
ownership
Rever
compulsive
ampicillin
Technology
FACS
##ellosis
##iomas
Later
isotropic
interrog
Dif
NAc
reflexes
##timulatory
##tening
TKI
Dental
PAM
hydroxyapatite
##oselectivity
Param
gp120
##istein
Nineteen
philosoph
motile
decompens
179
##ulph
##ko
##atisfactory
phytochemical
Rs
MAO
citizens
receives
alkali
bupivacaine
justify
Pneum
##aud
seaw
##azon
##vium
##H2O
BRCA2
Resistance
Iranian
##epilep
nanowires
herds
Disorder
framesh
manufacturers
lun
##ivial
bilayers
Mini
amphiph
trout
intractable
CMS
cones
##ums
coenzyme
Formula
UB
Radiation
Govern
intracerebral
mesang
oestr
##elic
trophoblast
asbest
##amphenicol
aversive
Ger
##opeptidase
Owing
negoti
unresolved
##odextrin
##regulation
devised
SERS
##oelectron
##othelioma
##ympathetic
tubercul
##iensis
chances
chlamyd
drawbacks
supramolecular
##3B
PRA
TAS
Tau
##wa
##orphine
Clearly
SDF
competency
##uzzy
aminoglyc
dystonia
lon
##akary
penetrate
Injury
isotopic
Immunohistochemistry
story
##anks
attraction
facts
194
pean
eclampsia
assurance
nad
genu
irritation
cheese
HSP70
##alo
needles
ferro
##antine
wasting
Alter
##180
##aggreg
Sertoli
VZ
goat
voltamm
unmodified
hydroxylation
slowed
fibro
CRH
##wes
##argin
establishes
bronchoalveolar
erectile
parag
intrathecal
CMC
permeabil
overwhelming
CMT
VPA
rearing
Ent
kines
MICs
reticular
Measures
abscesses
Ben
iPSCs
phosphatases
PCD
appreciable
Texas
PDMS
complaint
eug
snow
chemopre
Streptomyces
##T2
flour
Core
MOD
##−2
Geor
Sor
hypoglyc
##igration
trimethyl
215
##tisone
##edgeh
erythromycin
Differential
rTMS
Fund
Lat
##aque
practicing
##TG
Interventions
Lipid
homing
elicits
##agmatic
NW
metastas
##urition
publish
RNAP
tunable
APA
sg
##ivision
detectors
TLC
Collabor
Fluorescence
SAT
##a2
acne
##IND
door
unco
GGT
glen
##ospasm
##accharide
##ploys
OPN
INR
spiked
POD
##imon
TCDD
cocc
##EK
##olymph
modulatory
G0
supplies
catabolic
LAP
##104
##iplatin
##mu
##arded
Indones
littermates
Tan
##dermal
syng
exceptional
##ipramine
heparan
##osecond
calcitonin
reconstructive
Gluc
##loaded
externally
Fourth
correcting
Rot
pellets
Advanced
ABP
bee
shaft
aband
shortest
calling
##ika
osteoporotic
##Ab
unrecogn
nonun
Oxidative
formulas
settle
oligo
compressed
integrates
reinforcing
convex
H9
osteogenesis
##WD
OTUs
##oflavin
complementation
pione
tracked
##uptake
Gag
blacks
glomerulonephritis
precipitated
##eri
##riceps
Monitoring
amphib
facet
suspect
algal
orthotopic
clarity
LNCaP
Identifying
≥2
basin
1200
unrespons
Systems
intergenic
MPTP
Comprehens
Cu2
videos
resembled
mountain
Practice
Ultrasound
Multivariable
divalent
downward
Computer
bean
PMMA
Neurop
AJ
##ocations
##oreactive
LAMP
Disability
municip
Hall
##inia
doxycycline
2F
trav
debil
iatrogenic
prothrombin
PBD
STAT1
obliter
##terolateral
internalizing
##r1
##endel
whenever
blastocyst
relying
##allic
209
thematic
Glucose
calorimetry
yeasts
seawater
metropolitan
pyroph
truth
##itrate
ISR
##odynamically
bats
##oS
##itant
EZH2
C7
Willi
researches
intravitreal
draining
MST
NETs
responsibilities
Process
##board
sprou
neurophysiological
quater
terminally
##enzae
outstanding
reuptake
Liu
communications
Check
Consistently
Acid
Criter
androgens
tPA
scarc
032
enforce
##oviral
GABAA
putamen
substituent
##duced
passages
demyelination
phosphoinositi
oldest
inhabitants
##uming
caspases
pigmented
Nox
Sun
##others
##represented
##iphatic
Latino
##astig
draft
wildlife
heterochromatin
Hum
##tus
##ucine
prioritiz
curved
graduate
##t1
##plementation
Fcγ
profoundly
##aumann
Quanti
5c
scars
##uconazole
TRH
Blue
Unex
copolymers
cp
##ymic
simvastatin
ideally
##06
CNVs
##ruption
##ocyanate
##SOD
chondro
iPSC
anatom
epile
Intriguing
immunoblot
gadolinium
competencies
Avail
syncope
##took
##atide
##uded
formally
##tian
leprosy
gastrin
aperture
accomplish
##etrically
Ia
pI
##GI
RAGE
cochlea
catecholamines
potently
confinement
oxalate
Fat
novelty
stereotactic
##avirin
frac
##abain
mucinous
wrap
045
1979
pluripotency
fermented
cDNAs
37°C
Where
anhydr
##enda
habitu
METHODS
Bart
colored
ILD
magnetization
incongru
vap
##itudinally
complained
BACK
nifedipine
categorization
resonances
burning
CCL2
neuroprotection
##GP
##umps
facilitators
interferes
intersection
##ios
##n1
attrition
##olones
inoculum
Hepat
advocated
acknowledge
Beta
clozapine
uncor
CSP
QD
valvular
Taq
Rates
neurobiological
cannabinoid
Rheum
grazing
##erme
employs
fragile
descent
SiO2
thalassemia
listeners
eros
investigator
multitude
##chemic
speakers
##othermal
jejunum
O157
MSH
##ysmal
aegypti
SEP
##immune
porphyrin
##lee
server
optimally
K1
Iron
infertile
lamell
microbe
lysate
Half
MRA
##earing
BCC
##dy
##etomidine
pineal
##tica
etching
CD1
340
207
coincided
avenues
elite
Deep
immunocompetent
spend
germinal
architectures
propri
moderated
tonsill
commensal
leishmaniasis
##agers
uro
##alt
##astere
##OUND
calpain
JC
Vmax
##ellulose
perturbed
urgency
eliciting
carboxylate
licensed
SOS
TOR
perpetr
SCF
hens
electrically
##ocalization
oxygenase
##cat
191
craving
AhR
MPs
##bi
Whilst
##liptin
instantaneous
mimicked
jugular
undertook
loose
EtOH
GU
enteral
reminis
Intriguingly
RUN
prevailing
CTS
##127
375
capacitance
TRIM
Set
MCS
Myo
chloroform
##onomical
PML
Roc
pectin
wireless
Randomized
subtraction
ICR
JAK
cardiometabolic
remnant
##entanil
IAA
galectin
MIF
acetyltransferase
##Ar
##ollen
##oprotection
SAS
preca
##che
##erman
cream
epoxy
CNTs
dates
##SO
##ventricular
assesses
morphogenetic
##ronchial
extensions
ICG
anapl
inflation
034
implantable
ABI
premenopausal
Law
Sexual
##izziness
voxels
underscore
sewage
fibrom
##western
exposing
##ycop
##azepine
DXA
pancreat
fascia
electrospray
##fin
delineated
phosphodiesterase
##inately
##opent
UD
dpi
grows
obscure
kV
##KII
cancell
toxicological
XI
fishes
##ogenin
refine
031
exponentially
##iors
workup
Partial
Tob
BACKGR
Zr
systemically
bubble
hsp
##onat
hallmarks
kinetoch
evaluable
hydrolyzed
ITP
Zn2
##noea
##retion
##angiogenic
encompasses
##D3
radiograph
persistently
unexplored
kinematic
degran
msec
unexpectedly
Recombinant
dG
rumen
Hill
##okers
Intervention
ICT
##urrence
AIMS
lax
##protein
invading
rotator
##Met
epiph
barrel
exaggerated
Bol
threefold
intima
##ouses
mush
cephalospor
##othiaz
Hypertension
TIA
Genomic
##oa
##arone
fluoxetine
hypermethylation
Sar
aliphatic
##raphs
OI
singular
achievable
HAP
Nico
TZ
##VS
fluoroquin
immunoglobulins
Hemat
GTPases
##kephal
036
Sant
ibuprofen
QS
overcoming
steroidal
diamond
deliber
##otypical
anchoring
densely
##2b
##orphism
suction
bioassay
SSR
HBe
embedding
##edgehog
throat
haloperidol
alloys
west
##lable
membranous
polyg
rhamn
310
compliant
conferring
captures
Listeria
GK
modal
paramount
Limited
localizes
endos
universally
cyclohex
Calcium
##ila
communicating
classifiers
211
Hepatic
##oxyp
##uresis
emer
189
bcl
diastere
mitogenic
Ultimately
##emide
decor
OPG
p62
corrections
sandwich
BACKGROUND
Extrac
NAT
TRPC
hypoc
AGE
CBS
PZ
##BV
##oning
granulomatous
NU
Ray
##iov
##hou
influenzae
strikingly
immigrant
bark
##apore
##tense
##kinesia
exacerbate
streptozotocin
conceiv
Implications
anticonvuls
oleic
rebound
clotting
##ushed
survivin
##lich
##osurgery
acetaminophen
hepatotoxicity
H5N1
##IPA
Working
nanocomposite
nox
##osyn
##taining
predefined
Joint
mimetic
clonidine
dT
denervation
##ecoxib
η2
ICI
recruits
prokaryotic
##CNTs
readiness
village
Sirt
resonant
incentive
divide
megakary
appendix
SEL
Rhiz
calcine
POP
implicating
Hh
##gs
fluency
SSI
H2A
artificially
GAT
##obile
generator
##stry
##osterol
outlet
parasympathetic
carotenoids
telemedicine
coils
stabilizes
deterministic
IVC
denitr
pt
tetramer
tails
eIF4
pathologists
##140
borders
east
mushroom
pem
##WI
authorized
viremia
reconc
inaccurate
patellar
liposomal
anesthetics
##eprazole
deceased
forsk
aggressiveness
Rib
Sb
autoradi
iris
emerges
##dor
##peridone
##obutyric
DNase
equity
##aval
longitudinally
epicardial
ours
adoptive
calcineurin
modelled
didn
schizophrenic
infliximab
##utious
##edes
fractal
keyw
Mitochondrial
RBP
chow
loadings
lamellar
diphosphate
##osh
inotropic
##ograp
MTs
##epileptic
hypoplasia
hyperpar
Cul
WNT
##iline
##aventricular
##liers
otitis
aldehydes
ossification
parkinson
ROR
##HV
arterioles
Epidemiological
wax
undiagnosed
flash
Death
##breeding
diazepam
transposon
recommends
Singapore
Author
218
##capes
uniformity
Bre
Ds
##odeox
fumig
proliferator
mesangial
Motor
##acement
linoleic
REG
##omyosin
##bryonic
##raulic
##PK
##rection
jejuni
locked
lanes
ORFs
isoelectric
Decreased
238
ACE2
geographically
geometrical
uneventful
Ros
##utter
bioge
Psyc
##thermal
CDDP
Lt
calorie
Diss
##icketts
##illed
terminology
1F
ewes
losing
ripening
235
continuation
##145
myoblasts
Finn
TGA
elastin
functionalization
7C
confident
myotub
cognitively
electropor
accelerating
fores
ecz
cultivar
##L3
activations
020
##rett
037
jointly
Rat
##ystyrene
radiol
365
Unexpected
GPS
profit
fibril
APCs
NO3
TAG
xylan
etiologic
mant
##rospor
partnerships
methamphetamine
bortezomib
duplications
##RII
replicating
underestimate
Hen
WKY
inert
news
lipolysis
sarcopenia
Pp
nig
compromising
C3H
dinucleotide
nothing
##limb
##torh
fluoro
ADAMTS
Arr
quadriceps
Dire
cm3
Fa
innovations
##odopa
reductive
propionate
cystein
scholars
NKT
argues
outlines
nois
insecurity
Prostate
##elected
callosum
DHEA
multicentre
Respondents
##iparous
PSS
Smoking
nondiabetic
splenocytes
eluting
organisations
290
Mutation
accidental
photonic
gastroc
YFP
##chicine
reacting
specialties
Lapa
RW
##eptin
033
restricting
asymptotic
Carib
pc
##umption
##ammonium
capita
antimal
##phi
renders
yearly
Alg
##RTI
pigments
##icacy
COOH
commonest
##ystalline
conduit
asbestos
Bab
Viral
##GM
##icc
knowing
Indigenous
oxaliplatin
organizing
cautious
##azepam
LSD
Tet
cadaveric
Typically
dol
ESC
DOC
O3
##erus
snake
lymphadenopathy
##MN
prostaglandins
##esophag
##lep
10th
atresia
##odynia
##Cr
MEFs
You
##amili
##atumoral
originates
Norwe
reserved
actors
supervis
granuloma
chloramphenicol
Responses
apple
favors
Recommend
##omn
1970s
Comprehensive
Land
TOP
chord
sixty
triad
##diagnosis
metaphase
5F
robustly
Kidne
favorably
Dose
##press
##aks
Excess
Reference
affiliated
forskolin
asser
autistic
haploid
##tite
275
proteoglycan
Oh
dizziness
##oxan
blots
oxidizing
habitual
048
Fusarium
TAL
diuretic
NPV
disclose
HHV
discriminative
disabled
hematopoiesis
sev
mutans
naming
faith
maximally
SMS
##CRT
bradycardia
File
alcoholism
kyph
##RN
stellate
##kinase
##burg
##arenal
vasoactive
##ucleated
progressing
##othermic
##ultures
schistosomiasis
graphical
NEC
Auto
##omplex
recoveries
farming
insem
ADM
modestly
VWF
4d
QU
SPA
PMS
RET
ct
Aging
stains
##bra
Regis
##opeptide
##ffer
pir
myopathy
ABL
switches
Term
caesarean
castration
ridge
##±4
facets
subspecies
STUD
satisfy
cryptic
benzodiazepine
##eptives
bovis
banding
natal
039
##ithiasis
learners
##yridine
macrol
placent
LTC
Institutes
rectus
smartphone
drastic
circumferential
##onasal
photoper
metaplasia
650
symbion
##olaryng
##atids
233
telomeric
boron
weighing
dollars
##eor
airflow
Scop
chewing
hatching
##rice
immunocytochemistry
##pressed
##olization
SCH
glycosamin
Ebola
AID
VSMC
cache
##iculus
instillation
serogroup
noxious
##itidis
party
Receptor
swab
milder
byst
##2R
graduates
erythropoietin
intuitive
CCC
MAR
##iva
##endym
appointment
MATERIALS
LRP
##uretics
seldom
Dev
pulsatile
senescent
happen
replicative
##KL
anabolic
Biochemical
##anzapine
Summ
baumann
##reen
preinc
websites
outliers
magnitudes
PTP
soleus
transmitter
Concentrations
Discussion
necrotizing
Aur
retail
viscoelastic
4F
ANS
EMA
curing
##rp
maladaptive
tann
217
nonsignificant
assimilation
anaphylaxis
glucone
##IP1
CFS
pyrrol
greenhouse
withdrawn
accelerates
manipulating
XX
##ellin
##cripts
completeness
manager
QTc
happens
NZ
Agr
Theore
Weight
GSK3β
##rons
##hl
##anter
##tigens
Enterococcus
##oil
compass
osteomyelitis
balancing
Washing
scrap
CSS
miscar
Aboriginal
fuzzy
##A3
ECD
CRE
congestion
baumannii
atrophic
heritable
NSCs
physiotherapy
crystallin
##n2
weighed
CCI
##otericin
Walk
##amyl
##ipolar
##issible
Selective
##ioventricular
Deletion
Vo
defl
microch
markets
Platelet
Ess
contraceptives
XY
##stone
Immune
equivalence
##ethanolamine
disproportionately
parall
Cz
antec
Arabia
NICU
##oub
localisation
clinicopathologic
Double
1950
page
##ulence
Ky
##pots
##loxacin
Attention
S10
pharmacist
spheroids
μl
Characteristic
Lym
lub
transth
TEA
##WL
##with
intersp
##SO4
PSP
##RC
##ecrosis
047
XL
##elong
shoots
mitigation
fiss
staged
remind
Anth
crime
ban
thior
foramen
exertion
Microb
##igand
##actam
demethylation
classifying
226
perfectly
##iatricians
##JD
indol
synchrony
Asthm
appropriateness
neighborhoods
Online
Models
MOR
##achol
dissatisfaction
loosening
metronidazole
##ivol
ingredient
visiting
Om
##orectal
alpha1
038
Endoscopic
##prise
HSD
PVR
##oxicillin
eosinophilia
asking
ERCP
##uristic
hyperpolar
##remic
HAT
##idum
##itim
formats
femor
hydroper
INTER
Enhanced
##mC
1975
theophylline
conclusive
046
##isco
buds
rolling
digestibility
asynchron
##oretin
224
elaborate
Pit
MAD
ru
##production
avoids
Beyond
leukotri
exploiting
Protection
Rub
SCs
controller
Schiz
GAPDH
##agens
P2Y
3F
Rich
STUDY
colors
Shan
Corresp
Histor
cryopreservation
Anders
converts
hexagonal
##odys
SUD
##07
##β3
##trac
pneumothorax
##iferous
citations
convention
C9
Hop
VAP
Striking
MCs
##PAR
casual
##har
pragmatic
##RSV
hyaluron
extravasation
OHD
diode
simulator
mesoderm
ribavirin
##uridine
chin
polymerases
ESCs
melanocytes
Tanzania
Acin
valine
308
oncological
disparate
Scientific
polystyrene
NSC
microcirculation
Literature
##ostin
lesioned
childbirth
certified
PVP
##yrid
thicker
odd
##meas
##folded
ovariectomized
Earlier
calcified
Enc
Inflammatory
unaccept
mur
mesothelioma
##Si
stature
eliminates
binocular
##cs
##yo
police
zirc
Others
contiguous
responder
IL6
CES
duplicated
Olig
Alex
##Q1
crystallography
Jurk
occlusive
unavailable
scru
extracting
keratinocyte
Discl
virion
dorsolateral
retarded
KIT
##olis
quartiles
photocatalytic
Pel
Intensive
##aba
Programm
5E
##gers
##astatic
##bert
##balanced
##meth
##picuous
cholerae
ouabain
insecticides
##olysin
##x10
autoantibody
thyroxine
astrocytic
bootstrap
biocompatible
FBS
specially
practiced
illumin
indexed
##idinium
increments
##N4
chir
usability
paradoxical
Rd
Squ
signed
nanofibers
Norwegian
FAP
globular
##ocalcin
Interleukin
trimeth
concert
retinol
wel
15N
LPL
singleton
oestrogen
t1
segregated
##rA
laying
Accurate
PAL
assignments
endorsed
##ruit
unbound
ore
orphan
inactivity
niches
cohesion
Concerning
##nemius
maltreatment
Enterobacteriaceae
Phyt
potentiate
Intravenous
213
LOC
Force
Sp1
esterase
auxiliary
##oV
##ymm
magnification
##NTS
extraord
save
constr
tetanus
faecalis
##Ti
pollutant
poster
##nee
##quinone
IPC
##urface
larynx
birthweight
CYP3A4
V3
##romagnetic
multifac
PP2A
Lam
##H4
##187
Mamm
rises
formerly
nanocrystals
WP
bulky
lakes
hemispheres
PHC
esc
CLP
##aer
Apoptosis
Jurkat
centi
##iang
SZ
##berr
virological
issued
Optim
caregiving
phi
repos
trehal
symbiotic
Mas
##oA
##edia
mucous
AUR
Ocean
combustion
NF1
deteriorated
anticoagulants
mate
evenly
coordinating
unrecognized
tar
##arf
Roy
coactiv
pace
monoamine
LK
PBP
Sj
Gender
reminiscent
##agr
ator
cruciate
Cyclin
WNV
cens
endotracheal
EIA
##iglycer
titres
##Man
developmentally
thyroidectomy
pursuit
microp
foetal
pellet
LMP
Caribbean
duplicate
uPA
##ofemoral
##enedi
governance
quinone
incap
antenna
##uin
##ames
postulate
beta2
migrant
##orporation
benzo
##sulf
chori
##ETs
universities
astigm
operates
governments
naphthal
unint
PDZ
##factors
##parametric
scFv
##comings
oropharyngeal
sinuses
nAChR
Nucle
soma
chlorine
guanosine
##ropical
vascularization
##orhabd
beneficiaries
antioxidative
BALF
lingual
Southeast
IIb
collagenase
##ifferentiation
Learning
##efitinib
Proteins
incompatible
intrat
atrioventricular
taught
paroxysmal
atorvastatin
tert
##allen
##iry
pheromone
##inyl
disinfection
##acrimal
troch
melt
Spontaneous
Reduc
OE
gay
Isolated
MBL
intervertebral
PLS
T0
##hard
##foli
stays
##iteal
Mis
BZ
lacZ
Macroph
##oceptive
Larg
≥3
##orus
genistein
##eneic
fec
##fied
##articular
utilisation
801
Wild
##ithine
thermally
junior
Fir
##ocutaneous
Box
reabsorption
botulinum
nanocomposites
multifaceted
bromo
analyzer
lactating
##08
chemoradiotherapy
adipogenesis
GCS
cin
##aracter
rifampicin
##ey
underweight
Cerebral
##tigo
impacting
SV40
merits
authority
cetuximab
RSD
##coprotein
bleomycin
agitation
Cha
##orient
inclusive
homo
Sequencing
Gro
##abetic
COP
myocarditis
Incidence
XPS
monoxide
antagonized
immortalized
##enh
AS1
##gulatory
rhabdomy
TY
municipal
administer
Caspase
underway
##antigen
##pharose
MVPA
debilitating
##ylephrine
Die
CD56
dd
mole
accommodation
##algae
##rigel
coales
fistulas
splenectomy
Dan
wires
##R5
intimal
##opsis
##onged
brand
skewed
Tre
salience
annexin
##ogluc
lengthening
##var
phasic
insults
##oylation
unresectable
comfortable
PPIs
gastroenteritis
##oT
serology
##renorphine
readmissions
anxiolytic
peanut
midgut
049
CD31
appointments
Unexpectedly
Cycl
nNOS
seronegative
reposition
quaternary
8A
##osylated
##ourished
diuretics
RFS
motoneurons
Sir
isoflav
tumoral
PPE
PGE
pressing
##tists
thinner
##ozoites
spill
298
##ispers
Histopathological
##imethyl
Dna
chair
nonad
Imm
Sug
##medetomidine
CNN
SAL
tetrahydro
Florida
fundamentally
GJ
Fluor
Beck
electrolytes
reacts
twitch
DOPA
instructed
Malaysia
Sph
misle
hyperthyroidism
Basic
mediastin
visibility
deactivation
inducers
PDI
shortcomings
##aphase
Combination
concentric
hyperv
##ulline
fasted
eccentric
Face
LCA
##ICs
inception
##odine
hospice
IPS
MERS
N3
##plate
Reporting
##oglobulin
##acillin
paran
converge
##untary
durability
LIM
Spinal
underestimation
VZV
mite
infantile
defenses
neurovascular
trisomy
coma
taxonomy
##ometrically
blend
pine
##apillary
##RO
SMI
##arine
retrotrans
claudin
Hydro
SETT
hydraulic
imperfect
arrows
dissipation
RIA
##verted
unsatisfactory
TLR9
Hunting
proceeded
Alpha
maxill
Diabetic
gastrocnemius
Los
pharmaceuticals
##acetamol
inactivating
##ras
followup
##oconjug
lichen
##TF
232
1978
chemoattractant
Gyn
Wales
##odeoxy
nonr
reportedly
adapting
KM
##urized
pathologically
##ulative
semiqu
perovsk
stimulant
##yletic
tort
##uries
##rosarcoma
saccades
neighbourhood
provoked
MEG
modifiers
postc
upregulate
exploitation
nicotinamide
PX
##rid
##MSC
harbored
shrimp
neurosurgical
propria
scrutin
##ouns
##ophytes
Argenti
tape
carcinogen
ultrastructure
convolution
hon
underlies
hyphae
autumn
fluoroscopy
gamet
globe
lysosome
##hom
##BB
Related
enantiomers
hyperparathyroidism
##abulary
tour
##illes
##arche
pericard
palmitate
neurochem
weaknesses
glucosidase
Surgeons
pharmacologically
translocations
equilibr
Polic
##fast
merit
oxidored
cyp
discriminated
taxon
##aters
compiled
valpro
circumvent
annular
FFP
Kidney
254
coexisting
HUVEC
##q11
##pert
Euro
aerial
astrog
artef
##reth
##V2
thumb
HCT116
RPA
heal
Washington
shall
basophil
sett
##NFO
MEP
errone
1976
multicellular
##trypt
herbs
Tetr
##rP
injectable
bomb
##aca
attenuating
FABP
Digital
##ximide
maxima
043
empowerment
219
Flav
Asthma
##KI
economical
psoriatic
Theory
uncon
bringing
##opodia
diversion
tertile
Compounds
##itarian
knew
histogram
neighbors
DMA
##lock
SAA
iNK
spars
##nisolone
##aner
##omatis
##lotinib
exchanges
Initiative
Today
counsel
##coagul
##etobacter
vacuole
diagonal
Electronic
EOC
Ye
bore
vor
##mid
##gram
DNAs
##protected
tRNAs
##oons
nonsense
Home
chemilum
propyl
glutamyl
rooms
palpable
##NE
CLD
lentiviral
ORR
Columb
480
CD38
NCBI
##osyltransferase
seroconversion
FUS
thyrot
herniation
synthesizing
artem
nort
##pret
voiding
subn
locking
averages
Field
Emerging
cylinder
anaplastic
##aneurys
##oreceptors
Snail
cages
Induction
peptidase
Glas
manufactured
pathogenetic
β3
IDO
directing
acrylic
##pervised
420
hemispheric
convincing
unintended
##5a
fluorophore
phenotypically
mag
anchorage
eczema
##orf
##azosin
imprinting
Video
eQ
ocul
cofactors
Ptd
##ibli
##ferrin
log10
laterally
##analysis
##arboxylic
##test
polycystic
pursued
degranulation
##oencephal
##pecified
Whites
MCM
occupy
Cov
Cdc42
adjuv
Energy
colocalization
denotes
Bank
##oms
traced
periplasm
validating
seedling
ber
interdep
##iters
##abdominal
unified
disabling
Tib
hnR
complexed
32P
Week
toe
##ophe
##arabine
quenc
opiate
invertebrates
unim
plasmonic
TKIs
regenerated
bullying
levodopa
cardior
ric
229
PBC
Acinetobacter
##leg
##pecial
antiepileptic
4000
broiler
noisy
Mur
localised
rt
IRI
##pers
agrees
CPC
042
District
AHI
##glyc
payments
macaque
exemplified
HY
precipitate
disadvantaged
Mouse
##otin
enters
Incubation
Fts
RAC
PBL
gum
intercept
BCS
##igenes
syngeneic
Strikingly
KP
##brevi
Correlations
cyanide
234
projecting
BCVA
sevoflurane
allop
LTD
MCF7
vasodilator
bimodal
Lev
soc
LVAD
LOH
Chlamydia
##ospinal
paramagnetic
harms
lectins
buried
sT
regenerating
ubiquitously
##enzymes
lasers
DTPA
##trials
FasL
gan
polymorphonuclear
worry
Critical
##1−
##avers
bears
ROIs
carotenoid
unaw
diary
granulomas
trachomatis
TRAP
stir
breadth
superimposed
chelating
NLS
upright
genesis
STD
dosimetry
Sanger
##reach
##child
retains
modifier
##AF
##CC1
##oproteins
corroborate
C8
PND
Biol
conservatively
##lessness
inventory
mainst
245
hospitalisation
bigger
Behavior
lubric
DLP
RGS
uncharacter
Leuk
##piration
feline
intratumoral
Evans
truncation
##yglucose
YAG
defensive
pharmacies
Wiley
##arcer
Colomb
Every
##antigens
alve
cowork
Event
Regulation
INH
R0
pN
Assuming
grape
buck
crust
##etaldehyde
TAR
##onatal
muss
halogen
##ennial
Includ
MPN
stall
abut
Improved
adhered
midwives
WAT
dural
therapeutically
contaminant
##cidin
underm
purple
EDS
Inclusion
##ymb
invade
Ran
##SHV
gynecologic
hotspots
##atech
IIA
##TERT
##umping
patterned
228
Gran
sativa
##oco
respondent
neonate
Gn
##enafil
##apeptide
expands
demethyl
lifelong
alt
olanzapine
broadening
##anthine
FVIII
SETTING
certific
CAL
conceived
lymphadenectomy
PCM
nyst
myelination
buffering
##±5
MDSCs
AQP4
furn
Intracellular
1e
##opos
CD68
affordable
isopren
##ULT
##asy
NAA
coincident
##omedial
##ceived
##yryl
##elli
phylum
Corresponding
SLI
hypercap
smoker
##imentary
##gluc
entrance
biosensors
##SAR
BDI
##igan
AMH
atherogenic
unusually
Temper
##ectants
##kephalin
Ped
delt
##ochondral
phyla
DPPH
cab
##Gal
posttreatment
##eff
##resent
nanof
##Seq
misclassification
amoxicillin
ligaments
typhimurium
MBC
colchicine
Ethics
PUFAs
HCA
cleave
CCl4
efferent
MACE
##ofluorescent
2D3
bacilli
returns
Optimal
subdom
carcinogens
overlaps
phosphoinositide
decipher
##ibrom
posttranslational
libitum
pon
XP
husband
POS
##itherto
HCM
Plan
mycobacteria
Occup
propos
Statistically
##urethral
##lofenac
dt
##ospatial
cavernous
weakened
amphotericin
##atz
transients
380
sulcus
##osup
SPE
fertilizer
Pv
nucleosomes
1977
##arrhythmic
vitrectomy
acetylcholinesterase
##cristine
Myocardial
intentional
superconduc
proteasomal
abundantly
oncologic
##oporous
chorionic
Sens
mission
urtic
Consortium
##utrients
aggl
waveforms
##7A
interphase
ADT
##yly
SIGN
advocate
##INFO
exosome
mount
##onscious
nephrotoxicity
FST
##adel
persisting
##oeb
Endothelial
immunophen
##atever
proteoglycans
rs2
estimations
dwell
##planned
delaying
CXCL12
probands
interobserver
neuromod
iNKT
cuc
oesophag
phenylephrine
carbachol
Produc
abl
1G
##atter
spaced
##micutes
##enorhabd
##adex
reversibly
Pet
Odds
HBeAg
trivial
##arietal
SRC
cyclization
hypoglycemic
demyelinating
Site
##tedly
hematuria
herpesvirus
oligodendrocyte
Academy
##emma
Comm
±0
##MF
subsid
PEEP
prospects
dC
iPS
AT1
retinas
##105
sulfon
graphite
cinn
##adol
##omycetes
Aedes
PID
juxt
Alternative
omitted
rumin
manifests
restorative
street
shield
serologic
osteop
readout
TMZ
proactive
transection
FLT3
chloroplasts
sacral
riv
initio
Tl
interestingly
translocated
nations
##inae
deals
ATRA
Advances
syringe
Trypanosoma
DBA
##dd
TAM
diffusivity
##henium
chemoresistance
Hor
##ylyl
maxilla
NQ
subgen
tune
##foot
alloc
##olates
##angular
##ocortex
abdom
nonresp
##oidy
anteced
##cedural
aberration
maternity
Far
locoreg
psychotropic
contrasted
##haled
##editing
Infants
Criteria
##tronic
##ropic
CINA
photodynamic
MTH
Diet
Block
seeks
##atur
told
nong
044
ESA
APD
thoracotomy
stomatal
##oplasmosis
scramb
##lla
psychomotor
Leyd
RSA
##hell
mesenchym
preparedness
laminar
Change
pyel
##april
##acoustic
##imolar
Antibodies
grounds
rafts
PTA
370
34a
benzodiazepines
pom
commission
TMJ
chemosens
00001
HRs
exhaustive
amplicon
##Ins
##brand
blockage
radionuclide
xanthine
transaminase
##rier
GAG
allodynia
DHT
heuristic
##ixture
temporarily
041
JH
##implantation
seb
rarity
##perse
inevitable
##RR
Triton
glycation
ASP
presump
##lists
overestimated
juris
circles
Trauma
311
Line
packages
ECL
Sulf
pond
sider
fluconazole
##264
executed
Knockdown
Cmax
Krus
fight
##oo
humor
PS1
MAb
lyase
##enclature
cyclodextrin
ambul
epididymal
D4
infrequently
LFA
##onide
realization
Efforts
adrenaline
TME
fecund
ODN
unlabeled
Ast
teach
nephrotic
solubilized
CINAHL
##oreflex
dispersive
GDNF
protonated
S100A
audio
bronchodil
Firmicutes
##eme
introg
Extended
transferring
definitely
flavor
PIK3CA
chondroitin
thorax
##kins
236
thicknesses
displacements
Tak
emulsions
ligated
neuropeptides
harness
dynein
quadrup
Larger
UVA
mans
tendencies
cannula
Ide
jobs
sleepiness
Strategies
Shigella
PNP
Rv
imputation
sales
ESD
atlas
employee
tenderness
B4
BU
##opec
denture
Wallis
##serine
##123
deafness
Cob
pes
Thai
schwann
ETS
bronchitis
tran
Minim
Langer
##agliptin
advancements
retirement
##engers
EDs
mW
##opically
Annexin
infestation
Chest
Gib
Carol
ovine
semis
vibrations
aspartic
clip
HCO3
RGCs
##5Y
##afe
##aya
hemi
pressor
Johnson
Ion
##ap1
mantle
TEE
unreli
subch
##istal
micronucle
haematological
BCA
secretase
##DV
BMS
HET
depolymer
zoster
complexation
fumigatus
Rati
reluct
crowding
##opheles
questionable
awa
Recommendations
7b
##umes
Applying
beneath
##DB
##olimus
Fall
##ircular
osseous
Pancreatic
Ah
cec
##flu
anode
##ivolumab
242
bioreactor
BO
expose
##proton
##rops
Bacteroid
advocacy
lycop
SCS
hysteresis
##jiang
launched
##professional
##l1
PIP
ventricul
degenerate
vacuolar
##ANES
loneliness
##VC
removes
orthologous
##gow
Wille
Huntington
##ube
ende
appreciation
triangular
IRR
DMF
modifies
photoperiod
##romal
acidity
myeloperoxidase
dehydro
tracks
Nb
Plus
dans
##opar
##opolym
##endence
postp
dominate
osteoblastic
gastroesophageal
endeav
indeterm
perip
hyponat
disassembly
##CRP
grounded
likewise
guest
nonster
boxes
heavier
##odone
##iceal
rotations
##phosphate
sweat
intensified
##oeba
piezoelectric
tier
##ofuran
##espiratory
dm
suite
bilingual
suppressors
bacteriophage
RESULT
negativity
muscul
Rod
##160
DJ
digest
HSP90
Typhimurium
octa
Proteobacteria
fingerprint
Kup
Rece
##LDL
20th
Vit
##MY
##riad
Dual
Gastric
##etan
##otyl
##imine
osteocalcin
entrap
iT
histochemical
##acetylation
delineation
TRPM
pKa
CEP
Conn
trehalose
Leydig
methacrylate
##edoxin
EPCs
##etus
minorities
MYB
Sear
##tiometry
Anat
Serial
pumping
destroyed
deposit
saphen
##rc
Anopheles
##osteal
sterilization
reapp
chrys
phosphorylates
Members
misleading
Pil
##hc
##yron
KSHV
##owed
NOX
##oblet
echin
Testing
manure
phylogenetically
confidential
Gall
##yotrophic
##ICA
##uren
Turkish
ANCA
##oxygenation
isomerization
BLA
Tx
##oda
Pattern
plating
##actyl
Hypot
infiltrated
colorimetric
tetrahyd
##uccin
misfolded
VSV
##enital
NKG2
yrs
extrapolated
LRRK2
LINC
unemployment
disconn
threatened
youths
Manual
sonographic
Basal
syll
toxicology
internally
PVN
##ostrum
MIS
Abdominal
anatomically
6M
##m1
microorganism
##opamine
Finnish
adjuvants
bleaching
##orbid
Sepharose
6th
##mes
##oping
Report
blastocysts
bodily
circRNAs
##QI
CHB
HNE
Pregnancy
bystander
5d
gefitinib
proto
distension
worr
ICSI
##abinoids
G6PD
##usi
erb
Efficacy
Action
Eye
moll
Glasgow
CDS
##170
Mechanical
anonymous
reflections
##arcomas
##rams
cerv
strata
antithrombotic
CCD
unstimulated
cyclohe
batteries
aneuploidy
unresponsive
gard
incoming
fluctuating
tracheostomy
antidiabetic
condyl
##oubtedly
NER
##umbers
cour
uncoupling
##kinetic
##ecd
protozo
specialization
remediation
bouts
sympat
255
cyanobacteria
fim
incarcer
##oxidation
Iss
Fried
noncom
Nepal
##WA
Reports
Plat
vocabulary
slaughter
Kap
##idene
##ellites
evoke
approximated
swollen
hTERT
peptic
Recovery
IRA
meningioma
Federal
Kh
##urities
Thereafter
flame
Caenorhabd
stories
recalc
slit
PDL
nucleophilic
##robenz
twe
##etron
updating
Bif
##inqu
isotype
##aviruses
Government
##rednisolone
kB
heard
deoxyrib
OGTT
frameshift
C16
##FL
phr
Caenorhabditis
tut
monitors
PLD
##olytica
albuminuria
jurisd
refraction
intervening
cytokinesis
HPV16
saccade
earthqu
##users
##feri
barely
denote
##ethal
fragility
GSE
biodegradation
##ositivity
##itid
subreg
hypertr
VHL
nucleolar
−3
##IU
265
vincristine
TST
tall
Childhood
myofibroblasts
bronchoscopy
Xa
##ottic
344
pursue
evacuation
QA
mastic
adsorbent
Jak
butter
disruptive
TLR3
Colon
psychiatrists
##activated
merist
biodistribution
Epidemiology
##rophylaxis
Ot
##Net
##ismus
325
ppb
coworkers
TCF
pruritus
inductive
buprenorphine
##1b
Chile
formulate
resides
lobectomy
AAP
Inn
NTS
fibrillar
discriminatory
2G
omics
RXR
##oxamine
riboflavin
catalytically
##132
confounded
holo
Tukey
Indonesia
##amiliar
astigmatism
##uro
CaMKII
Circulating
##atia
241
relieved
##arius
##ubertal
Influenza
soccer
##asters
conspecific
deciding
intronic
proficiency
##apsular
recanal
paracetamol
metab
Pin
mS
520
NBD
orific
decoding
kain
rivers
##plen
mainstay
edition
##igl
##otrypsin
inflow
mesenchyme
pC
##hibition
7th
NST
251
myocyte
immunosuppress
heteros
polyaden
attract
##arging
##eke
Aβ42
##oglut
Hung
viz
cardioprotective
disruptions
THF
uneven
hyaluronic
CYP3A
Routine
##itionally
overproduction
DCIS
Species
hypogonad
bioch
occurrences
Toxoplasma
DEA
Neonatal
customized
urethra
MMA
##yline
239
PLP
Upper
Barrett
##worth
CTR
eruption
impregn
micromolar
##edullary
imidazole
##phy
GHz
CYP2D6
ambiguity
##incial
##inators
extubation
generalize
preclude
FW
Mendel
##Ga
243
hypoxemia
illustrating
##yrosine
internationally
glycosides
hitherto
ante
ZO
ovalbumin
Laparoscopic
Aw
##Rα
##erea
outreach
imping
Emotion
agenda
capping
Subgroup
Scopus
A4
LAT
Lept
PsA
##acks
damp
retinoblastoma
meniscus
DOP
abortions
binomial
Frequ
PJ
##umenting
##tring
FIND
ABO
dichotom
habituation
Hcy
prod
mang
SSC
##3T3
distilled
N2O
mansoni
KB
PC3
waveguide
Gas
periodically
ATL
227
##coholic
AGEs
absorptiometry
2n
Cad
CD36
initiator
CSE
Transient
Willebrand
##ylv
abduction
repolarization
Brass
hyperpolarization
maneuver
##etries
IVIG
2e
Mach
hunting
##Al
##omia
STN
Rank
##ysts
Heat
tethered
Gm
concerted
crosslinked
Gross
eq
##asthen
##isexual
ROCK
purchase
##iformis
Infectious
OFC
##path
Hard
##hans
TERT
##esters
11C
244
454
wearable
impressive
dissect
pooling
##arox
##bed
metabolizing
apoB
CD11c
denatured
Victor
solutes
Hybrid
##awi
transdermal
requests
MDCT
prematurity
Moderate
osmolality
SDH
chimeras
Fast
humeral
HIP
Pass
gab
##tier
shielding
funds
diaphragmatic
incisors
AIP
DEP
NID
Pyr
RLS
Tok
intraclass
thromboxane
LXR
NOR
REV
antral
unprotected
unselected
deregulation
TET
PPP
sanitation
eph
##ystal
viewpoint
Insurance
corneas
Kruskal
hyperphosph
erlotinib
md
##bearing
fault
jejunal
sd
tracers
Bruc
MTB
oncologists
annulus
spur
##oxyc
buffers
##ytoin
dystrophin
accult
hydrothermal
##amethyl
##opram
runoff
BAP
Sen
266
CST
##ref
##ipe
multipot
focuss
beverage
diverged
##oprim
NRS
foli
pf
reven
photochemical
exceptionally
happened
Sox2
##PFC
CME
rhizosphere
DOT
fox
##ador
##asmic
ERβ
GSS
bibli
antine
T1DM
##falls
##lav
immunohistochemically
248
Harr
##cys
##endothelial
nomogram
##C12
neocortex
lowers
Existing
ovip
Obst
scalable
lapse
intensively
congru
pedigree
HW
PNS
lae
##za
quintile
##rodesis
TFA
nebul
##essels
285
enantiomer
Alterations
##oposterior
uremic
adversity
Thyroid
mesoporous
sunitinib
AII
pread
##INGS
viscous
landscapes
wheezing
NCs
##lod
##zid
##oxides
gamm
##olon
##allik
epigen
H3K27me3
Mild
Simple
characterizes
walled
polluted
precedes
photosensitiz
Sha
252
phenanth
locoregional
Chagas
refused
narratives
Bac
Seph
R3
PI3
LIP
SRT
cloth
APAP
##usor
dext
dialys
##rum
mCherry
##acral
SIR
Graves
Peru
ECC
burg
streptococci
##ormone
edible
caveolin
exo
##italopram
biomechan
ASCs
SPT
vagina
Dicer
mug
populated
pCR
acros
Better
##ubstituted
αS
BMC
epidermidis
pheochrom
Nam
goblet
##burn
##uracy
antipar
Ampl
clamping
Electro
##opecia
Fetal
functionalities
##10A
MEC
GCT
QC
RGC
SCL
##rography
television
##rey
##rian
##antial
##lutide
302
0003
##ORT
adipogenic
revisions
latitude
BET
TIR
p75
##bec
##ortisone
MT1
bronchiol
##cephaly
Congenital
##pc
##rotal
virtue
hematoxylin
computations
dexmedetomidine
Dam
ZNF
myom
##avian
##icals
Eco
hemostatic
azide
conceivable
SRP
Presence
Belg
kinesin
hinge
##ytical
##jo
##elective
repeating
thrombolytic
cystatin
BoNT
seeing
androst
##uri
trin
##pocampal
##fp
canopy
SH3
dating
##NB
Thy
Amazon
antimalarial
EPC
##asma
##allikre
burgdor
leaching
Traditionally
DISC
knocked
religion
pastor
##orel
impulsive
aminobutyric
hindlimb
endocrin
bubbles
seventh
PsycINFO
##acrine
cheap
Concomit
dispensable
discourse
Schist
Soft
hypocal
Effect
Statistics
pockets
TrkB
##hesiologists
infinite
bruce
proband
oligosaccharide
Laser
humanized
intraventricular
glucopyran
compositional
crystallinity
biphenyl
Sodium
##hand
sof
246
##ceps
peptidoglycan
MUC1
##romed
Comput
##ocyanine
permitting
dysplastic
aler
undetected
resins
Highly
hydrated
##ildenafil
unpaired
territories
burgdorferi
##ablish
NS1
cardiorespiratory
crash
dysm
deregulated
antinociceptive
##109
030
LVH
houses
##ymphed
hypoglycaemia
keywords
Ok
confron
radiologist
##obiliary
overlying
##ulitis
subsam
distinguishable
wavelet
impede
tad
Adults
punishment
uncharacterized
PMT
isopropyl
Stro
Scanning
Activated
electroporation
concludes
hydrolytic
submit
dyads
PWV
neighbouring
rH
##KS
maybe
analyzes
##129
Academic
azo
fifteen
C5a
HPS
237
315
mastitis
Ing
pick
##tage
##essor
Antim
extrahepatic
Son
##unts
effusions
MAG
sedative
intramedullary
NPS
founder
tank
##NR
evasion
saphenous
Mixed
mc
oro
##mar
##romatic
heights
SGLT
Nature
T6
##obenzene
indeterminate
Roman
##190
##rexone
transcatheter
toll
##128
488
ultrafil
divor
propagated
nests
##utz
##plan
quarters
aphasia
nonhuman
##angitis
E4
WL
conversely
carpal
Fn
##win
##rosemide
adopts
captopril
IUGR
Memory
##tigmine
Mechanistically
Sud
itch
accuracies
##LIC
Modified
activin
CD15
digoxin
penetrance
NHEJ
DNP
assault
ependym
cytologic
palatal
interspecific
cystectomy
archaeal
maximizing
recalled
##igned
Guang
DX
##itrite
dilute
SY5Y
Right
##NL
atyp
##bachia
obligate
luteinizing
brucei
asperg
submission
ACD
PPARα
OAT
##otomies
##formans
##hemoglobin
thrombi
meso
undeterm
DY
Lum
vertically
##oblastomas
DLS
GPa
Atlas
Arterial
##iodarone
phthalate
eigenv
myotubes
cathode
##igenin
Scotland
##pleasant
NH3
regenerate
floating
equivocal
Progn
##isinin
meteor
ultraf
spectrometric
enthalpy
presumptive
rows
295
Subc
vasospasm
tyrosinase
AX
SNF
rotated
happy
Clear
##reatments
biotrans
calcifications
sunlight
destabilization
interrelations
##weed
molecularly
##Cl3
LNs
CD24
1974
Optical
syndromic
worsen
centrosome
##Ch
##editation
hypertonic
coincides
concussion
##calc
##uters
variances
Bul
valgus
##ounds
aptamers
1973
##iglycerid
accelerometer
lacun
##burgh
##isecond
##elly
##107
tubal
CPE
absor
##isters
cv
hypothesised
protrusion
##bian
risperidone
hexane
HES
##gA
##vus
startle
VSD
relay
ortho
ankyl
ginseng
math
##architect
methylprednisolone
glycaemic
Lou
##osulf
301
documenting
E2F
Cryptospor
decis
uridine
restores
undetermined
##oungest
tailor
Dip
Males
topographic
multilayer
##ilia
Tumors
DMR
sF
feather
emergencies
MEAS
SPS
249
edu
POMC
##4a
malate
Wolbachia
bpm
citric
unaware
stemness
strictures
immunoprecipitated
##orrhizal
nervosa
propagating
Va
enterica
ubiquity
fabricate
Sao
entrapment
VB
pts
rut
##lym
PART
gavage
##box
##triax
impurities
263
callus
Important
simplest
nanotube
thioredoxin
HCs
Pig
SSB
meningiomas
Mol
youngest
dimensionality
NPCs
Relations
dimeth
H2AX
spirometry
curricula
mismatched
yoga
##hist
##embryonic
mentally
yes
##yalgia
constituting
write
azithromycin
mismatches
##tees
hyperplastic
DCE
Martin
contours
AMR
##omyces
Employ
verm
##acking
organize
catastrophic
##oglitazone
259
dentistry
Bioinform
noradrenergic
##FM
keratitis
polycyclic
myof
critic
discontinuous
cholestasis
SMR
ants
sporulation
stainless
Prolonged
Belgium
##onins
timed
hemic
##loading
pericytes
Matrigel
DAG
Extracellular
unreliable
liber
aneurysmal
permanently
hernias
FLAG
##xime
MIR
assemblages
complicate
metazo
cords
SLA
##forming
CDH
##ulsification
spasticity
Lyme
MTHFR
rid
##reotide
utilised
represses
MEASUR
beating
LMWH
witnessed
Columbia
thiop
Frequency
heifers
SMCs
neoformans
fisher
lacrimal
avenue
##ymphedema
##acental
##ountain
##encia
ionophore
policym
ornithine
fecundity
##ympan
basilar
##avidin
90°
filler
Standards
enforcement
##ycles
##lete
mitigated
Throughout
heterodimers
entails
thickened
underscores
chips
unplanned
decel
characterisation
DDT
checking
pepsin
Habit
K2
print
##tines
quartz
0°
Spect
barium
2500
hybridized
continent
shells
##albuminuria
eGFP
##zz
rectif
CENP
communicable
laid
CTGF
Electroph
##ENTS
HIT
cryopreserved
infarcts
Tun
multiplicity
hepcidin
unconscious
analogy
dropout
##omandibular
neoin
pige
membered
disinf
fibrinolytic
syncytial
inte
inset
288
culm
##encephalic
bioinformatic
Waals
epilept
##days
##letic
unpleasant
##CNT
##auer
PaO2
homozygotes
harsh
##operfusion
PAX
GPx
##recipitation
reinst
femt
extrapolation
Bacteroides
##isia
trains
transp
VAD
fmol
amend
inactivate
Polymer
staphylococcal
##ipenem
popl
lactis
VEGFR2
Gs
thanks
matters
minimization
convey
Aud
BAS
nivolumab
cycloheximide
RBD
lanth
grained
247
vertex
##ractionated
MJ
colloid
fixing
UAS
characterise
biomaterial
vitr
##ilson
voltages
NTR
allergies
CIS
phosphorylate
##BW
##onol
producer
unsupervised
Legion
FINDINGS
dA
millisecond
heterozygotes
SREBP
##oors
##epid
ensured
NCT00
Schiff
L−1
bes
hed
isole
##arbox
phagocytes
anticipation
Principal
Tobacco
Hosp
Minn
inbreeding
granulation
narrower
chronological
precautions
##traction
pristine
Dm
##energe
optics
##ofovir
276
irin
hereafter
NOT
Ci
CIA
CTLs
Frank
##triaxone
polyamine
irrig
sulfated
contingent
nonsmokers
##iques
Mn2
antiapoptotic
carrage
##ematous
Disclosure
conspicuous
blasts
Greek
Lind
RIG
##bon
fluidity
Neural
MMF
vaccinations
BIS
##mM
##avity
myriad
IIIa
repairs
##facial
fastest
##kr
Stem
batches
Bacteria
alkaloid
gynecological
expenses
healthier
breakfast
juveniles
phantoms
PRIS
##haem
urate
colocalized
judge
SNARE
seventy
Russia
Best
##obe
unfamiliar
manufacture
masks
Psychological
stoichiometric
Notch1
##EST
intricate
CAF
##oniazid
Estimates
Sand
##welling
##etermined
GLI
overgrowth
Females
phosphates
equator
faeces
IHD
oryz
vertigo
compress
Amp
##encephalon
Argentina
uni
6E
multiplication
exchanger
diclofenac
RNFL
disagreement
##tryptamine
irinotecan
preb
virgin
swing
##agenic
breakage
dinit
companion
Targeted
MeHg
PROM
accompany
Morris
mounting
Ect
micelle
explant
API
tunneling
4H
mine
contracted
ARC
##ivudine
##oken
lipoxygenase
Adding
tough
##urch
##antel
deserves
microelectro
268
plethora
hnRNP
FLI
##tep
albino
##cently
##isations
SCR
##abl
enzymatically
NADP
anthocyanin
H19
##retinal
isoc
##ematic
spouses
humerus
thalam
Removal
##ados
quiet
avidity
##array
podocytes
centromere
##oing
STIs
Power
##itical
radiosurgery
nomenclature
anticonvulsant
Frag
##enthic
Nano
chromophore
##uoden
congeners
Annual
exercised
##erto
tailoring
Oxford
##omycosis
Hex
Proper
amphiphilic
Dend
Investigation
deproton
varices
Carolina
Ment
biochemically
neurites
##erational
##iferation
##imate
cachexia
TOC
##AH
depicts
SAC
races
derivatization
electronics
MOF
marking
vigilance
##unate
contag
BCI
tagging
epoch
flare
cooperate
dysb
generalizable
impairing
cannulation
apoA
Appar
DDR
TTX
promptly
sphingomyel
exocrine
ASM
sexuality
F0
pervasive
replacements
##lassified
shadow
scenes
concentrates
##ancerous
cadavers
Smad3
NAP
antiarrhythmic
absc
Achilles
bend
MTS
Langerhans
TCC
##apical
##artum
horizon
OFF
##estin
polygen
sprouting
Interaction
Ri
Sum
Implementation
DMT
##riol
ARE
absolutely
proceeding
##kappa
SBRT
##iser
alopecia
interim
undertake
##ghai
##olstein
dissol
PRRSV
SH2
##IGO
Phosphorylation
##children
xer
##inol
Nowadays
Sed
hur
shocks
##ynucle
histomorph
primordial
perovskite
Bilateral
dosed
hpf
##ographies
complexities
tryptic
bottle
Vac
Retin
Antibody
reversing
HAV
Formation
Office
nonsteroidal
KE
##idian
trimer
ERB
##NTES
Matrix
##PB
##ylem
Oxygen
MicroRNAs
neurochemical
##anoic
controllable
##122
##NSS
phagocyt
tic
ung
##4B
253
BSI
biotinylated
Aurora
Alu
VG
Kupffer
##iosity
loud
please
##ospermia
P0
##sey
##ogastric
##add
PFGE
nadir
##MAP
PMNs
phonon
Ket
##entilation
##riamycin
intraoperatively
varicella
cTnI
homodimer
colistin
tubul
subclasses
Funding
##Te
##irds
thermost
candidiasis
Editor
##ostosis
##OCl
##hRs
estrogenic
Intraoperative
offenders
MCD
troub
##inants
isomerase
##aluable
commiss
IMS
exped
undefined
normoxic
House
##ogon
##athiop
photod
STAT5
##600E
Mendelian
Zika
decou
##obac
discla
unedited
sensations
ICUs
elaborated
aseptic
Tool
304
discour
rewarding
##olae
trifluor
metamorph
bottleneck
##acyt
##ashi
immersed
NYHA
perpet
Adolescents
Cervical
##leeding
EFS
fenes
##aglutide
CIT
vascularized
biggest
logarithmic
zip
diol
305
recurred
##ooled
sulfonyl
PVC
OGD
unic
##iterpen
rounded
marketed
tamp
##VP
survivorship
conventionally
COMT
##allikrein
preferably
lactone
rectangular
OHDA
##openic
acetaldehyde
basically
collim
cumul
Impact
cuticle
pathophysiologic
Bost
##othane
258
isolating
Simulation
TiO
polysomn
gluconeogenesis
##uchi
ti
##ervative
##angiect
acclimation
##UA
interchange
needing
RANTES
Inflammation
Jones
NRT
##itism
raphe
contracting
DON
Merc
RCA
##102
precede
rubella
miscarriage
stimulator
Cryptosporidium
2α
diatom
HIF1
##imidazole
insured
##IIb
simplify
invariably
6c
fellow
##IIa
##hexidine
agglutination
hypotensive
HPC
outperformed
gy
##TM
##angeal
SERCA
pyrophosphate
##937
revis
Transmission
Dar
sows
##atran
##aprote
enkephalin
MPP
Arctic
heel
338
TNFalpha
##ych
##iden
recovering
TPO
subclavian
Proc
##inogen
finds
nanomolar
flagellar
Echocardi
appealing
adventi
Amino
macron
passes
protonation
nip
##Hb
misdiagnosed
Egypt
LUT
##anthus
##ghum
Cdk
Neiss
Shanghai
necessitates
pyreth
isogenic
preventative
voltammetry
Map
Source
fluorophores
anteroposterior
QL
##inked
massage
NS3
PGA
hes
##rance
una
##omening
cereus
MED
Purpose
Kre
saved
byproduc
infra
accepting
Occupational
sE
##acle
approx
calories
ferrous
vWF
antich
Neutroph
GUS
Membrane
Nef
TTR
Malaria
antenn
recapitulate
rhodopsin
g−1
hairs
conidia
optically
separations
sinusitis
Summary
Kin
unve
273
satisfying
BER
PPA
##COM
classically
Reaction
FAs
Haemophilus
Ori
Sin
##achus
flip
officers
##lemma
##ineralization
tuberculous
confluent
##rologists
fuller
streptom
seropositivity
##front
ZF
allyl
257
##anone
278
POAG
S11
##IX
biotechnology
##afting
admixture
versatility
fuels
##IE
peritoneum
embr
casting
expansions
consultant
##Ph
alf
##rochemical
cistern
staffing
SWI
proposals
arith
##obronchial
Neurological
invertebrate
##athion
ABCA1
arthroscopy
scaffolding
privile
spans
MDCK
gonorrh
coincide
##ineering
dilemma
##gry
Refer
transgender
epigene
cfDNA
definitively
legitim
Mand
##Pro
endoderm
##athioprine
Curc
TLE
##atement
##illium
humid
inserts
installed
Fo
Wood
Injection
governmental
lux
1966
Sham
chondrogenic
Percent
Number
meter
todd
myelinated
ther
experimentation
condoms
intert
CCS
zeol
AOM
lymphedema
##onance
##asure
spreads
transmural
fibrinolysis
##muir
gm
##cast
##MAR
beings
transporting
mites
p300
##ader
involuntary
DCA
gets
##zees
cocktail
Bis
FTD
Likert
Greece
8B
landing
unil
PSII
ANN
breakpoints
antisocial
biceps
Royal
endogenously
prominently
weaned
overestimation
Russian
tackle
dock
##astine
Alk
polyt
columnar
nanoshe
##oide
##oagulation
bronchiolitis
Ln
PHD
obsessive
farnes
phytoplankton
##agmus
##iaxial
Penic
citable
nonetheless
anything
spatio
detrusor
##vinyl
Youth
grasp
adrenoceptors
rCB
proves
##oquine
outlier
fractured
milest
AMPs
syno
##tened
277
S1A
embolic
nephron
aggravated
unacceptable
Bacteroidetes
cerc
##apentin
sarcopl
hypertriglycerid
Holstein
MVA
##ape
##entious
##apsules
TPP
##onents
##epit
IFNs
cholangitis
##organized
esophagitis
oestradiol
RESULTS
GPA
U2
sCD
##trexone
##iglitazone
enfor
impose
aerosols
VOCs
liability
neurolep
carbons
APL
P300
Gulf
cs
naked
##Na
prehospital
MoS2
##μg
Kal
##icus
speckle
Reported
polyploid
FAM
furosemide
hallucinations
wakefulness
##otonic
##abe
ranks
photoelectron
electrocardiographic
IPD
##uma
phenotyping
Langmuir
transthoracic
RIF
##eres
powders
2S
Cushing
nets
##rodynamic
solvation
1960s
Lm
Nov
tol
alpha2
##ympanic
eta
262
benefited
fasci
Ross
outperforms
metagenomic
##atto
##ulans
##ifolia
##odial
##506
Integrated
##arterial
##PLA2
CER
inval
creative
everolimus
penis
thiols
instrumented
Perceived
organisational
##power
RTs
Targeting
forage
TDF
Ontology
chymotrypsin
inel
##asias
##CR1
##orbed
polyposis
trimethoprim
LHRH
marm
##pEF
neuroanat
absorbing
duck
gravit
PRI
RRT
perineal
[...]
