{"version": "1.0", "truncation": null, "padding": null, "added_tokens": [{"id": 0, "content": "[PAD]", "single_word": false, "lstrip": false, "rstrip": false, "normalized": false, "special": true}, {"id": 100, "content": "[UNK]", "single_word": false, "lstrip": false, "rstrip": false, "normalized": false, "special": true}, {"id": 101, "content": "[CLS]", "single_word": false, "lstrip": false, "rstrip": false, "normalized": false, "special": true}, {"id": 102, "content": "[SEP]", "single_word": false, "lstrip": false, "rstrip": false, "normalized": false, "special": true}, {"id": 103, "content": "[MASK]", "single_word": false, "lstrip": false, "rstrip": false, "normalized": false, "special": true}], "normalizer": {"type": "BertNormalizer", "clean_text": true, "handle_chinese_chars": true, "strip_accents": null, "lowercase": false}, "pre_tokenizer": {"type": "BertPreTokenizer"}, "post_processor": {"type": "TemplateProcessing", "single": [{"SpecialToken": {"id": "[CLS]", "type_id": 0}}, {"Sequence": {"id": "A", "type_id": 0}}, {"SpecialToken": {"id": "[SEP]", "type_id": 0}}], "pair": [{"SpecialToken": {"id": "[CLS]", "type_id": 0}}, {"Sequence": {"id": "A", "type_id": 0}}, {"SpecialToken": {"id": "[SEP]", "type_id": 0}}, {"Sequence": {"id": "B", "type_id": 1}}, {"SpecialToken": {"id": "[SEP]", "type_id": 1}}], "special_tokens": {"[CLS]": {"id": "[CLS]", "ids": [101], "tokens": ["[CLS]"]}, "[SEP]": {"id": "[SEP]", "ids": [102], "tokens": ["[SEP]"]}}}, "decoder": {"type": "WordPiece", "prefix": "##", "cleanup": true}, "model": {"type": "WordPiece", "unk_token": "[UNK]", "continuing_subword_prefix": "##", "max_input_chars_per_word": 100, "vocab": {"[PAD]": 0, "[unused1]": 1, "[unused2]": 2, "[unused3]": 3, "[unused4]": 4, "[unused5]": 5, "[unused6]": 6, "[unused7]": 7, "[unused8]": 8, "[unused9]": 9, "[unused10]": 10, "[unused11]": 11, "[unused12]": 12, "[unused13]": 13, "[unused14]": 14, "[unused15]": 15, "[unused16]": 16, "[unused17]": 17, "[unused18]": 18, "[unused19]": 19, "[unused20]": 20, "[unused21]": 21, "[unused22]": 22, "[unused23]": 23, "[unused24]": 24, "[unused25]": 25, "[unused26]": 26, "[unused27]": 27, "[unused28]": 28, "[unused29]": 29, "[unused30]": 30, "[unused31]": 31, "[unused32]": 32, "[unused33]": 33, "[unused34]": 34, "[unused35]": 35, "[unused36]": 36, "[unused37]": 37, "[unused38]": 38, "[unused39]": 39, "[unused40]": 40, "[unused41]": 41, "[unused42]": 42, "[unused43]": 43, "[unused44]": 44, "[unused45]": 45, "[unused46]": 46, "[unused47]": 47, "[unused48]": 48, "[unused49]": 49, "[unused50]": 50, "[unused51]": 51, "[unused52]": 52, "[unused53]": 53, "[unused54]": 54, "[unused55]": 55, "[unused56]": 56, "[unused57]": 57, "[unused58]": 58, "[unused59]": 59, "[unused60]": 60, "[unused61]": 61, "[unused62]": 62, "[unused63]": 63, "[unused64]": 64, "[unused65]": 65, "[unused66]": 66, "[unused67]": 67, "[unused68]": 68, "[unused69]": 69, "[unused70]": 70, "[unused71]": 71, "[unused72]": 72, "[unused73]": 73, "[unused74]": 74, "[unused75]": 75, "[unused76]": 76, "[unused77]": 77, "[unused78]": 78, "[unused79]": 79, "[unused80]": 80, "[unused81]": 81, "[unused82]": 82, "[unused83]": 83, "[unused84]": 84, "[unused85]": 85, "[unused86]": 86, "[unused87]": 87, "[unused88]": 88, "[unused89]": 89, "[unused90]": 90, "[unused91]": 91, "[unused92]": 92, "[unused93]": 93, "[unused94]": 94, "[unused95]": 95, "[unused96]": 96, "[unused97]": 97, "[unused98]": 98, "[unused99]": 99, "[UNK]": 100, "[CLS]": 101, "[SEP]": 102, "[MASK]": 103, "[unused100]": 104, "[unused101]": 105, "!": 106, "\"": 107, "#": 108, "$": 109, "%": 110, "&": 111, "'": 112, "(": 113, ")": 114, "*": 115, "+": 116, ",": 117, "-": 118, ".": 119, "/": 120, "0": 121, "1": 122, "2": 123, "3": 124, "4": 125, "5": 126, "6": 127, "7": 128, "8": 129, "9": 130, ":": 131, ";": 132, "<": 133, "=": 134, ">": 135, "?": 136, "@": 137, "A": 138, "B": 139, "C": 140, "D": 141, "E": 142, "F": 143, "G": 144, "H": 145, "I": 146, "J": 147, "K": 148, "L": 149, "M": 150, "N": 151, "O": 152, "P": 153, "Q": 154, "R": 155, "S": 156, "T": 157, "U": 158, "V": 159, "W": 160, "X": 161, "Y": 162, "Z": 163, "[": 164, "\\": 165, "]": 166, "^": 167, "_": 168, "`": 169, "a": 170, "b": 171, "c": 172, "d": 173, "e": 174, "f": 175, "g": 176, "h": 177, "i": 178, "j": 179, "k": 180, "l": 181, "m": 182, "n": 183, "o": 184, "p": 185, "q": 186, "r": 187, "s": 188, "t": 189, "u": 190, "v": 191, "w": 192, "x": 193, "y": 194, "z": 195, "{": 196, "|": 197, "}": 198, "~": 199, "\u00a2": 200, "\u00a3": 201, "\u00a5": 202, "\u00a7": 203, "\u00a9": 204, "\u00ab": 205, "\u00ac": 206, "\u00ae": 207, "\u00af": 208, "\u00b0": 209, "\u00b1": 210, "\u00b2": 211, "\u00b3": 212, "\u00b4": 213, "\u00b5": 214, "\u00b6": 215, "\u00b7": 216, "\u00b9": 217, "\u00ba": 218, "\u00bb": 219, "\u00bc": 220, "\u00bd": 221, "\u00be": 222, "\u00bf": 223, "\u00c6": 224, "\u00d7": 225, "\u00d8": 226, "\u00df": 227, "\u00e6": 228, "\u00f7": 229, "\u00f8": 230, "\u0110": 231, "\u0127": 232, "\u0131": 233, "\u0138": 234, "\u0141": 235, "\u0142": 236, "\u014b": 237, "\u0153": 238, "\u0190": 239, "\u0192": 240, "\u019e": 241, "\u0251": 242, "\u025b": 243, "\u0263": 244, "\u0278": 245, "\u02b9": 246, "\u02c2": 247, "\u02c3": 248, "\u02d9": 249, "\u02da": 250, "\u02dc": 251, "\u0384": 252, "\u0391": 253, "\u0392": 254, "\u0393": 255, "\u0394": 256, "\u0398": 257, "\u0399": 258, "\u039a": 259, "\u039b": 260, "\u039c": 261, "\u039e": 262, "\u03a0": 263, "\u03a1": 264, "\u03a3": 265, "\u03a4": 266, "\u03a5": 267, "\u03a6": 268, "\u03a7": 269, "\u03a8": 270, "\u03a9": 271, "\u03b1": 272, "\u03b2": 273, "\u03b3": 274, "\u03b4": 275, "\u03b5": 276, "\u03b6": 277, "\u03b7": 278, "\u03b8": 279, "\u03b9": 280, "\u03ba": 281, "\u03bb": 282, "\u03bc": 283, "\u03bd": 284, "\u03be": 285, "\u03bf": 286, "\u03c0": 287, "\u03c1": 288, "\u03c2": 289, "\u03c3": 290, "\u03c4": 291, "\u03c5": 292, "\u03c6": 293, "\u03c7": 294, "\u03c8": 295, "\u03c9": 296, "\u03d1": 297, "\u03d2": 298, "\u03d5": 299, "\u03d6": 300, "\u03f1": 301, "\u03f5": 302, "\u0406": 303, "\u0410": 304, "\u0413": 305, "\u041a": 306, "\u041c": 307, "\u041e": 308, "\u0421": 309, "\u0422": 310, "\u0424": 311, "\u0430": 312, "\u0435": 313, "\u0438": 314, "\u043a": 315, "\u043e": 316, "\u0440": 317, "\u0441": 318, "\u0442": 319, "\u044c": 320, "\u05f3": 321, "\u115f": 322, "\u2010": 323, "\u2011": 324, "\u2012": 325, "\u2013": 326, "\u2014": 327, "\u2015": 328, "\u2016": 329, "\u2018": 330, "\u2019": 331, "\u201c": 332, "\u201d": 333, "\u201e": 334, "\u2020": 335, "\u2021": 336, "\u2022": 337, "\u2026": 338, "\u2030": 339, "\u2032": 340, "\u2033": 341, "\u2034": 342, "\u2039": 343, "\u203a": 344, "\u203e": 345, "\u2044": 346, "\u204e": 347, "\u2070": 348, "\u2074": 349, "\u2075": 350, "\u2076": 351, "\u2077": 352, "\u2078": 353, "\u2079": 354, "\u207a": 355, "\u207b": 356, "\u2080": 357, "\u2081": 358, "\u2082": 359, "\u2083": 360, "\u2084": 361, "\u2085": 362, "\u2086": 363, "\u2087": 364, "\u2088": 365, "\u2089": 366, "\u208b": 367, "\u20ac": 368, "\u2103": 369, "\u210f": 370, "\u2110": 371, "\u2112": 372, "\u2113": 373, "\u2119": 374, "\u211b": 375, "\u211c": 376, "\u211d": 377, "\u2122": 378, "\u2124": 379, "\u212c": 380, "\u2131": 381, "\u2133": 382, "\u2160": 383, "\u2161": 384, "\u2162": 385, "\u2163": 386, "\u2190": 387, "\u2191": 388, "\u2192": 389, "\u2193": 390, "\u2194": 391, "\u21a6": 392, "\u21cc": 393, "\u21d2": 394, "\u21d4": 395, "\u2200": 396, "\u2202": 397, "\u2203": 398, "\u2205": 399, "\u2206": 400, "\u2207": 401, "\u2208": 402, "\u220a": 403, "\u2211": 404, "\u2212": 405, "\u2213": 406, "\u2215": 407, "\u2217": 408, "\u2218": 409, "\u2219": 410, "\u221a": 411, "\u221d": 412, "\u221e": 413, "\u2220": 414, "\u2223": 415, "\u2225": 416, "\u2227": 417, "\u2228": 418, "\u2229": 419, "\u222a": 420, "\u222b": 421, "\u2236": 422, "\u2237": 423, "\u223c": 424, "\u2243": 425, "\u2245": 426, "\u2248": 427, "\u2254": 428, "\u2261": 429, "\u2264": 430, "\u2265": 431, "\u2266": 432, "\u2267": 433, "\u226a": 434, "\u226b": 435, "\u2272": 436, "\u2273": 437, "\u2282": 438, "\u2283": 439, "\u2286": 440, "\u2295": 441, "\u2297": 442, "\u2299": 443, "\u22a4": 444, "\u22a5": 445, "\u22c5": 446, "\u22c6": 447, "\u22ef": 448, "\u2460": 449, "\u2461": 450, "\u2462": 451, "\u2463": 452, "\u2500": 453, "\u2550": 454, "\u25a0": 455, "\u25a1": 456, "\u25aa": 457, "\u25b3": 458, "\u25b5": 459, "\u25b6": 460, "\u25b8": 461, "\u25ba": 462, "\u25cb": 463, "\u25cf": 464, "\u25e6": 465, "\u2611": 466, "\u2640": 467, "\u2642": 468, "\u2666": 469, "\u2794": 470, "\u27e8": 471, "\u27e9": 472, "\u2a7d": 473, "\u2a7e": 474, "\u2aaf": 475, "\u3001": 476, "\u3002": 477, "\u3008": 478, "\u3009": 479, "\u30fb": 480, "\u4e00": 481, "\u4e09": 482, "\u4e0a": 483, "\u4e0b": 484, "\u4e0d": 485, "\u4e0e": 486, "\u4e14": 487, "\u4e24": 488, "\u4e2a": 489, "\u4e2d": 490, "\u4e30": 491, "\u4e34": 492, "\u4e3a": 493, "\u4e3b": 494, "\u4e49": 495, "\u4e4b": 496, "\u4e5f": 497, "\u4e73": 498, "\u4e86": 499, "\u4e8c": 500, "\u4e8e": 501, "\u4e9a": 502, "\u4e9b": 503, "\u4ea1": 504, "\u4ea4": 505, "\u4ea6": 506, "\u4ea7": 507, "\u4eba": 508, "\u4ec5": 509, "\u4ecb": 510, "\u4ecd": 511, "\u4ece": 512, "\u4ed6": 513, "\u4ee3": 514, "\u4ee5": 515, "\u4eec": 516, "\u4ef6": 517, "\u4ef7": 518, "\u4f18": 519, "\u4f1a": 520, "\u4f20": 521, "\u4f24": 522, "\u4f30": 523, "\u4f3c": 524, "\u4f46": 525, "\u4f4d": 526, "\u4f4e": 527, "\u4f4f": 528, "\u4f53": 529, "\u4f5c": 530, "\u4f7f": 531, "\u4f8b": 532, "\u4f9b": 533, "\u4f9d": 534, "\u4fa7": 535, "\u4fb5": 536, "\u4fc3": 537, "\u4fdd": 538, "\u4fe1": 539, "\u503c": 540, "\u50cf": 541, "\u5148": 542, "\u5149": 543, "\u514b": 544, "\u514d": 545, "\u5165": 546, "\u5168": 547, "\u516c": 548, "\u5171": 549, "\u5173": 550, "\u5176": 551, "\u5177": 552, "\u517b": 553, "\u5185": 554, "\u518d": 555, "\u51b2": 556, "\u51b5": 557, "\u51c6": 558, "\u51cb": 559, "\u51cf": 560, "\u51dd": 561, "\u51fa": 562, "\u5206": 563, "\u5207": 564, "\u5217": 565, "\u5219": 566, "\u521d": 567, "\u5229": 568, "\u522b": 569, "\u5230": 570, "\u5236": 571, "\u523a": 572, "\u5242": 573, "\u524d": 574, "\u529b": 575, "\u529f": 576, "\u52a0": 577, "\u52a8": 578, "\u52a9": 579, "\u52bf": 580, "\u5305": 581, "\u5316": 582, "\u533a": 583, "\u533b": 584, "\u5347": 585, "\u534f": 586, "\u5355": 587, "\u5357": 588, "\u5360": 589, "\u5371": 590, "\u5373": 591, "\u5384": 592, "\u538b": 593, "\u539f": 594, "\u53c2": 595, "\u53ca": 596, "\u53cc": 597, "\u53cd": 598, "\u53d1": 599, "\u53d6": 600, "\u53d7": 601, "\u53d8": 602, "\u53e3": 603, "\u53e6": 604, "\u53ef": 605, "\u53f2": 606, "\u53f6": 607, "\u53f7": 608, "\u53f8": 609, "\u5404": 610, "\u5408": 611, "\u5409": 612, "\u540c": 613, "\u540e": 614, "\u5411": 615, "\u5426": 616, "\u542b": 617, "\u5438": 618, "\u5448": 619, "\u5458": 620, "\u5468": 621, "\u547c": 622, "\u548c": 623, "\u54b3": 624, "\u54c1": 625, "\u54cd": 626, "\u5511": 627, "\u5584": 628, "\u55fd": 629, "\u5668": 630, "\u566c": 631, "\u56db": 632, "\u56de": 633, "\u56e0": 634, "\u56f4": 635, "\u56fd": 636, "\u56fe": 637, "\u5728": 638, "\u5730": 639, "\u5747": 640, "\u578b": 641, "\u57df": 642, "\u57f9": 643, "\u57fa": 644, "\u589e": 645, "\u58c1": 646, "\u5904": 647, "\u590d": 648, "\u5916": 649, "\u591a": 650, "\u591f": 651, "\u5927": 652, "\u5929": 653, "\u5931": 654, "\u5934": 655, "\u5973": 656, "\u597d": 657, "\u5982": 658, "\u59cb": 659, "\u5b50": 660, "\u5b54": 661, "\u5b58": 662, "\u5b66": 663, "\u5b83": 664, "\u5b89": 665, "\u5b8c": 666, "\u5b9a": 667, "\u5b9e": 668, "\u5ba4": 669, "\u5bb6": 670, "\u5bb9": 671, "\u5bc6": 672, "\u5bdf": 673, "\u5bf9": 674, "\u5bfc": 675, "\u5c04": 676, "\u5c06": 677, "\u5c0f": 678, "\u5c11": 679, "\u5c1a": 680, "\u5c31": 681, "\u5c3c": 682, "\u5c3d": 683, "\u5c40": 684, "\u5c42": 685, "\u5c55": 686, "\u5c5e": 687, "\u5c81": 688, "\u5de5": 689, "\u5dee": 690, "\u5df2": 691, "\u5df4": 692, "\u5e26": 693, "\u5e38": 694, "\u5e72": 695, "\u5e73": 696, "\u5e74": 697, "\u5e76": 698, "\u5e7f": 699, "\u5e8a": 700, "\u5e8f": 701, "\u5e94": 702, "\u5ea6": 703, "\u5eb7": 704, "\u5ef6": 705, "\u5efa": 706, "\u5f00": 707, "\u5f02": 708, "\u5f0f": 709, "\u5f15": 710, "\u5f3a": 711, "\u5f53": 712, "\u5f55": 713, "\u5f62": 714, "\u5f71": 715, "\u5f80": 716, "\u5f81": 717, "\u5f84": 718, "\u5f85": 719, "\u5f88": 720, "\u5f97": 721, "\u5fae": 722, "\u5fc3": 723, "\u5fd7": 724, "\u5feb": 725, "\u6001": 726, "\u6027": 727, "\u603b": 728, "\u606f": 729, "\u6076": 730, "\u60a3": 731, "\u60c5": 732, "\u610f": 733, "\u611f": 734, "\u6210": 735, "\u6211": 736, "\u6216": 737, "\u6240": 738, "\u624b": 739, "\u6269": 740, "\u626b": 741, "\u6280": 742, "\u6291": 743, "\u6297": 744, "\u62a5": 745, "\u62e9": 746, "\u62ec": 747, "\u6301": 748, "\u6307": 749, "\u6309": 750, "\u6325": 751, "\u635f": 752, "\u636e": 753, "\u6392": 754, "\u63a2": 755, "\u63a5": 756, "\u63a7": 757, "\u63a8": 758, "\u63d0": 759, "\u64cd": 760, "\u652f": 761, "\u6536": 762, "\u6539": 763, "\u653e": 764, "\u6548": 765, "\u654f": 766, "\u6570": 767, "\u6574": 768, "\u6587": 769, "\u6599": 770, "\u65ad": 771, "\u65b0": 772, "\u65b9": 773, "\u65cf": 774, "\u65e0": 775, "\u65e2": 776, "\u65e5": 777, "\u65e9": 778, "\u65f6": 779, "\u660e": 780, "\u6613": 781, "\u662f": 782, "\u663e": 783, "\u665a": 784, "\u66f2": 785, "\u66f4": 786, "\u66ff": 787, "\u6700": 788, "\u6708": 789, "\u6709": 790, "\u670d": 791, "\u671f": 792, "\u672a": 793, "\u672c": 794, "\u672f": 795, "\u673a": 796, "\u6742": 797, "\u6749": 798, "\u6761": 799, "\u6765": 800, "\u677f": 801, "\u6781": 802, "\u6784": 803, "\u6790": 804, "\u679c": 805, "\u67b6": 806, "\u67d3": 807, "\u67e5": 808, "\u6807": 809, "\u682a": 810, "\u6837": 811, "\u6838": 812, "\u6839": 813, "\u6848": 814, "\u68c0": 815, "\u6a21": 816, "\u6b21": 817, "\u6b63": 818, "\u6b64": 819, "\u6b65": 820, "\u6b7b": 821, "\u6b96": 822, "\u6bb5": 823, "\u6bcf": 824, "\u6bd2": 825, "\u6bd4": 826, "\u6c14": 827, "\u6c27": 828, "\u6c28": 829, "\u6c34": 830, "\u6ca1": 831, "\u6cbb": 832, "\u6cd5": 833, "\u6cdb": 834, "\u6ce1": 835, "\u6ce8": 836, "\u6d17": 837, "\u6d1b": 838, "\u6d3b": 839, "\u6d41": 840, "\u6d4b": 841, "\u6d53": 842, "\u6d78": 843, "\u6da6": 844, "\u6db2": 845, "\u6dcb": 846, "\u6df1": 847, "\u6e05": 848, "\u6e38": 849, "\u6e90": 850, "\u6f0f": 851, "\u6fc0": 852, "\u7076": 853, "\u708e": 854, "\u70b9": 855, "\u70df": 856, "\u7136": 857, "\u7167": 858, "\u7247": 859, "\u7269": 860, "\u7279": 861, "\u72b6": 862, "\u72ec": 863, "\u732e": 864, "\u7387": 865, "\u73af": 866, "\u73b0": 867, "\u7406": 868, "\u751f": 869, "\u7528": 870, "\u7531": 871, "\u7532": 872, "\u7535": 873, "\u7537": 874, "\u754c": 875, "\u7597": 876, "\u75ab": 877, "\u75be": 878, "\u75c5": 879, "\u75c7": 880, "\u75db": 881, "\u7624": 882, "\u7626": 883, "\u764c": 884, "\u767d": 885, "\u7684": 886, "\u76ae": 887, "\u76ca": 888, "\u76d2": 889, "\u76ee": 890, "\u76f4": 891, "\u76f8": 892, "\u7740": 893, "\u77e5": 894, "\u77ed": 895, "\u7814": 896, "\u786e": 897, "\u78f7": 898, "\u793a": 899, "\u795e": 900, "\u79bb": 901, "\u79cd": 902, "\u79d1": 903, "\u79ef": 904, "\u79fb": 905, "\u7a0b": 906, "\u7a76": 907, "\u7a7a": 908, "\u7a7f": 909, "\u7a81": 910, "\u7acb": 911, "\u7aef": 912, "\u7b2c": 913, "\u7b49": 914, "\u7b5b": 915, "\u7b97": 916, "\u7ba1": 917, "\u7c7b": 918, "\u7c92": 919, "\u7cfb": 920, "\u7d20": 921, "\u7d22": 922, "\u7d2b": 923, "\u7ea4": 924, "\u7ea6": 925, "\u7ea7": 926, "\u7eb3": 927, "\u7eb5": 928, "\u7ebf": 929, "\u7ec4": 930, "\u7ec6": 931, "\u7ec7": 932, "\u7ec8": 933, "\u7ecf": 934, "\u7ed3": 935, "\u7ed9": 936, "\u7edf": 937, "\u7eed": 938, "\u7ef4": 939, "\u7efc": 940, "\u7f13": 941, "\u7f3a": 942, "\u7f6e": 943, "\u7f8e": 944, "\u7fa4": 945, "\u8003": 946, "\u8005": 947, "\u800c": 948, "\u8010": 949, "\u8054": 950, "\u809d": 951, "\u80a0": 952, "\u80ba": 953, "\u80bf": 954, "\u80de": 955, "\u80f8": 956, "\u80fd": 957, "\u8111": 958, "\u8154": 959, "\u8179": 960, "\u817a": 961, "\u819c": 962, "\u81ea": 963, "\u81f3": 964, "\u81f4": 965, "\u826f": 966, "\u8272": 967, "\u8282": 968, "\u8303": 969, "\u8350": 970, "\u836f": 971, "\u83b7": 972, "\u8457": 973, "\u8651": 974, "\u86cb": 975, "\u878d": 976, "\u8840": 977, "\u884c": 978, "\u8868": 979, "\u88ab": 980, "\u88ad": 981, "\u897f": 982, "\u8981": 983, "\u89c1": 984, "\u89c2": 985, "\u89c4": 986, "\u89c6": 987, "\u89e3": 988, "\u8ba1": 989, "\u8ba4": 990, "\u8ba8": 991, "\u8bae": 992, "\u8bb0": 993, "\u8bba": 994, "\u8bbe": 995, "\u8bbf": 996, "\u8bc1": 997, "\u8bc4": 998, "\u8bc6": 999, "\u8bca": 1000, "\u8bd5": 1001, "\u8be5": 1002, "\u8bf1": 1003, "\u8bf4": 1004, "\u8c03": 1005, "\u8c61": 1006, "\u8d1f": 1007, "\u8d28": 1008, "\u8d2b": 1009, "\u8d2d": 1010, "\u8d44": 1011, "\u8d77": 1012, "\u8d85": 1013, "\u8d8a": 1014, "\u8def": 1015, "\u8eab": 1016, "\u8f6c": 1017, "\u8f6f": 1018, "\u8f83": 1019, "\u8f85": 1020, "\u8fbe": 1021, "\u8fc1": 1022, "\u8fc7": 1023, "\u8fd1": 1024, "\u8fd8": 1025, "\u8fd9": 1026, "\u8fdb": 1027, "\u8fdc": 1028, "\u8fde": 1029, "\u8ff0": 1030, "\u9002": 1031, "\u9009": 1032, "\u901a": 1033, "\u901f": 1034, "\u9020": 1035, "\u9053": 1036, "\u90e8": 1037, "\u90fd": 1038, "\u9176": 1039, "\u9178": 1040, "\u9187": 1041, "\u91c7": 1042, "\u91cd": 1043, "\u91ce": 1044, "\u91cf": 1045, "\u9488": 1046, "\u94c2": 1047, "\u955c": 1048, "\u957f": 1049, "\u95ee": 1050, "\u95f4": 1051, "\u9633": 1052, "\u9634": 1053, "\u963b": 1054, "\u9644": 1055, "\u964d": 1056, "\u9650": 1057, "\u9662": 1058, "\u9664": 1059, "\u9669": 1060, "\u9686": 1061, "\u968f": 1062, "\u9694": 1063, "\u96be": 1064, "\u96c6": 1065, "\u9700": 1066, "\u9752": 1067, "\u975e": 1068, "\u9762": 1069, "\u9776": 1070, "\u9879": 1071, "\u987a": 1072, "\u987e": 1073, "\u9884": 1074, "\u9898": 1075, "\u98ce": 1076, "\u98df": 1077, "\u9996": 1078, "\u9a8c": 1079, "\u9aa8": 1080, "\u9ad8": 1081, "\u9f20": 1082, "\u9f84": 1083, "\ufb01": 1084, "\ufb02": 1085, "\ufb04": 1086, "\uff05": 1087, "\uff08": 1088, "\uff09": 1089, "\uff0c": 1090, "\uff0d": 1091, "\uff1a": 1092, "\uff1b": 1093, "\uff1c": 1094, "\uff1e": 1095, "\uff3b": 1096, "\uff3d": 1097, "\ud835\udc9c": 1098, "\ud835\udc9e": 1099, "\ud835\udc9f": 1100, "\ud835\udcab": 1101, "\ud835\udcaf": 1102, "\ud835\udcb3": 1103, "\ud835\udd3c": 1104, "##1": 1105, "##6": 1106, "##C": 1107, "##o": 1108, "##r": 1109, "##d": 1110, "##e": 1111, "##i": 1112, "##s": 1113, "##t": 1114, "##c": 1115, "##h": 1116, "##p": 1117, "##a": 1118, "##3": 1119, "##u": 1120, "##m": 1121, "##y": 1122, "##x": 1123, "##R": 1124, "##T": 1125, "##f": 1126, "##M": 1127, "##S": 1128, "##4": 1129, "##9": 1130, "##A": 1131, "##l": 1132, "##b": 1133, "##j": 1134, "##n": 1135, "##w": 1136, "##k": 1137, "##g": 1138, "##N": 1139, "##P": 1140, "##\u2212": 1141, "##0": 1142, "##F": 1143, "##I": 1144, "##5": 1145, "##z": 1146, "##v": 1147, "##E": 1148, "##G": 1149, "##2": 1150, "##\u03b2": 1151, "##O": 1152, "##D": 1153, "##Y": 1154, "##V": 1155, "##W": 1156, "##H": 1157, "##\u00b1": 1158, "##8": 1159, "##B": 1160, "##J": 1161, "##Z": 1162, "##\u00d7": 1163, "##X": 1164, "##q": 1165, "##7": 1166, "##L": 1167, "##U": 1168, "##K": 1169, "##\u00b0": 1170, "##\u223c": 1171, "##\u00ae": 1172, "##\u2264": 1173, "##\u03b7": 1174, "##Q": 1175, "##\u03a8": 1176, "##\u2192": 1177, "##\u2122": 1178, "##\u2225": 1179, "##\u2642": 1180, "##\u0142": 1181, "##\u2113": 1182, "##\u2265": 1183, "##\u2082": 1184, "##\u2083": 1185, "##\u2248": 1186, "##\u03b1": 1187, "##\u02dc": 1188, "##\u03c7": 1189, "##\u00b2": 1190, "##\u03b5": 1191, "##\u22a5": 1192, "##\u0394": 1193, "##\u2193": 1194, "##\u2213": 1195, "##\u03bc": 1196, "##\u00f8": 1197, "##\u0131": 1198, "##\u226b": 1199, "##\u2223": 1200, "##\u02b9": 1201, "##\u221d": 1202, "##\u03d5": 1203, "##\u03c4": 1204, "##\u03b3": 1205, "##\u03b4": 1206, "##\u2295": 1207, "##\u0398": 1208, "##\u00a5": 1209, "##\u2236": 1210, "##\u2087": 1211, "##\u2075": 1212, "##\u00df": 1213, "##\u2215": 1214, "##\u00b5": 1215, "##\u207b": 1216, "##\u2208": 1217, "##\u221e": 1218, "##\u20ac": 1219, "##\u00a9": 1220, "##\u00b4": 1221, "##\u2202": 1222, "##\u03b6": 1223, "##\u03c0": 1224, "##\u2283": 1225, "##\u22c5": 1226, "##\u2206": 1227, "##\u03ba": 1228, "##\u00b3": 1229, "##\u0153": 1230, "##\u03c9": 1231, "##\u22ef": 1232, "##\u2081": 1233, "##\u2229": 1234, "##\u0440": 1235, "##\u0430": 1236, "##\u0441": 1237, "##\u2080": 1238, "##\u0127": 1239, "##\u00b9": 1240, "##\u03bb": 1241, "##\u0393": 1242, "##\u2084": 1243, "##\u207a": 1244, "##\u03c3": 1245, "##\u03b9": 1246, "##\u2217": 1247, "##\u2640": 1248, "##\u03a9": 1249, "##\u21cc": 1250, "##\u2079": 1251, "##\u25cb": 1252, "##\u03a6": 1253, "##\u2074": 1254, "##\u03b8": 1255, "##\u03bd": 1256, "##\u0384": 1257, "##\u2160": 1258, "##\ufb01": 1259, "##\u00ba": 1260, "##\u2550": 1261, "##\u2a7e": 1262, "##\u21d2": 1263, "##\u00f7": 1264, "##\u2267": 1265, "##\u2133": 1266, "##\u2219": 1267, "##\u03c8": 1268, "##\u2243": 1269, "##\u03be": 1270, "##\u2078": 1271, "##\u03bf": 1272, "##\ufb02": 1273, "##\uff1e": 1274, "##\u2085": 1275, "##\u208b": 1276, "##\u03a3": 1277, "##\u043e": 1278, "##\u2089": 1279, "##\u2266": 1280, "##\u2086": 1281, "##\u2077": 1282, "##\u2194": 1283, "##\u2500": 1284, "##\u00a2": 1285, "##\u041e": 1286, "##\u0422": 1287, "##\u00d8": 1288, "##\u221a": 1289, "##\u0391": 1290, "##\u03a7": 1291, "##\u226a": 1292, "##\u025b": 1293, "##\u00a3": 1294, "##\u03a4": 1295, "##\u00af": 1296, "##\u03c6": 1297, "##\u00ac": 1298, "##\u02da": 1299, "##\u2070": 1300, "##\u0435": 1301, "##\u0442": 1302, "##\u0438": 1303, "##\u2161": 1304, "##\u2088": 1305, "##\u2191": 1306, "##\u00bd": 1307, "##\u0251": 1308, "##\u0421": 1309, "##\uff1c": 1310, "##\u2076": 1311, "##\u2163": 1312, "##\u2282": 1313, "##\u2a7d": 1314, "##\u0392": 1315, "##\u0410": 1316, "##\u041a": 1317, "##\u02d9": 1318, "##\u2227": 1319, "##\u039e": 1320, "##\u2190": 1321, "##\u210f": 1322, "##\u03f5": 1323, "##\u2261": 1324, "##\u21d4": 1325, "##\u2286": 1326, "##\u014b": 1327, "##\u2794": 1328, "##\u25b3": 1329, "##\u25aa": 1330, "##\u2460": 1331, "##\u041c": 1332, "##\u039c": 1333, "##\u03a5": 1334, "##\u03c1": 1335, "##\u03c2": 1336, "##\u2297": 1337, "##\u0138": 1338, "##\u03a0": 1339, "##\u00e6": 1340, "##\u2218": 1341, "##\u03c5": 1342, "##\u2237": 1343, "##\u25e6": 1344, "##\u25a1": 1345, "##\u2272": 1346, "##\u2245": 1347, "##\u2103": 1348, "##\u2211": 1349, "##\u00bc": 1350, "##\u2207": 1351, "##\u044c": 1352, "##\u212c": 1353, "##\u039b": 1354, "##\u115f": 1355, "##\u220a": 1356, "##\ud835\udcb3": 1357, "##\u0190": 1358, "##\ud835\udc9e": 1359, "##\u03d1": 1360, "##\u0424": 1361, "##\u2273": 1362, "##\u2203": 1363, "##\u22a4": 1364, "##\u043a": 1365, "##\u222a": 1366, "##\u2aaf": 1367, "##\u2044": 1368, "##\u25b8": 1369, "##\u25cf": 1370, "##\u0399": 1371, "##\u00be": 1372, "##\u0278": 1373, "##\u222b": 1374, "##\u0263": 1375, "##\u03f1": 1376, "##\u2299": 1377, "##\u211d": 1378, "##\u2162": 1379, "##\u0406": 1380, "##\u22c6": 1381, "##\u25b5": 1382, "##\u25a0": 1383, "##\u0413": 1384, "##\u02c3": 1385, "##\u21a6": 1386, "##\ufb04": 1387, "##\u00c6": 1388, "##\u0192": 1389, "##\ud835\udc9c": 1390, "##\u02c2": 1391, "##\u039a": 1392, "##\u211c": 1393, "##\u2119": 1394, "##\u2220": 1395, "##\u03d6": 1396, "##\u2228": 1397, "##\u03d2": 1398, "##\u2112": 1399, "##\u2200": 1400, "##\u2205": 1401, "##\u03a1": 1402, "##\u2461": 1403, "##\ud835\udc9f": 1404, "##\u2124": 1405, "##\u0141": 1406, "##\u2254": 1407, "##\ud835\udcab": 1408, "##\u2131": 1409, "##\u019e": 1410, "##\u0110": 1411, "##\ud835\udcaf": 1412, "##\u2666": 1413, "##\u211b": 1414, "##\ud835\udd3c": 1415, "##\u25b6": 1416, "##ti": 1417, "##he": 1418, "##on": 1419, "##er": 1420, "##en": 1421, "##es": 1422, "##ed": 1423, "##in": 1424, "the": 1425, "##al": 1426, "in": 1427, "##or": 1428, "##at": 1429, "an": 1430, "of": 1431, "##an": 1432, "##tion": 1433, "##ro": 1434, "and": 1435, "##it": 1436, "##ar": 1437, "##ic": 1438, "##as": 1439, "##re": 1440, "##is": 1441, "##ent": 1442, "##ec": 1443, "##el": 1444, "##ing": 1445, "to": 1446, "##ation": 1447, "##om": 1448, "th": 1449, "##ul": 1450, "##ol": 1451, "##ur": 1452, "##et": 1453, "##ac": 1454, "##os": 1455, "##ly": 1456, "##le": 1457, "##ve": 1458, "##ith": 1459, "##ig": 1460, "with": 1461, "##id": 1462, "##us": 1463, "##ati": 1464, "st": 1465, "##ter": 1466, "pro": 1467, "con": 1468, "re": 1469, "##ot": 1470, "for": 1471, "##uc": 1472, "##il": 1473, "##ow": 1474, "as": 1475, "##if": 1476, "##ess": 1477, "is": 1478, "##ce": 1479, "The": 1480, "##ts": 1481, "##ut": 1482, "##ated": 1483, "ex": 1484, "##un": 1485, "##am": 1486, "##im": 1487, "that": 1488, "##ere": 1489, "##od": 1490, "was": 1491, "##oc": 1492, "##ity": 1493, "##um": 1494, "##tr": 1495, "be": 1496, "##tic": 1497, "##em": 1498, "on": 1499, "res": 1500, "##op": 1501, "##ir": 1502, "##ab": 1503, "##ud": 1504, "were": 1505, "##ver": 1506, "com": 1507, "##ate": 1508, "al": 1509, "##ents": 1510, "##ion": 1511, "ac": 1512, "##ell": 1513, "##se": 1514, "##ys": 1515, "##ain": 1516, "##her": 1517, "##og": 1518, "##ag": 1519, "by": 1520, "##ad": 1521, "##ant": 1522, "##rom": 1523, "or": 1524, "de": 1525, "##ted": 1526, "##ical": 1527, "##ib": 1528, "##ap": 1529, "##ng": 1530, "##ment": 1531, "##vel": 1532, "su": 1533, "##th": 1534, "##pl": 1535, "ch": 1536, "##ff": 1537, "are": 1538, "pr": 1539, "im": 1540, "##ure": 1541, "##ase": 1542, "tr": 1543, "inc": 1544, "dis": 1545, "##ine": 1546, "cell": 1547, "at": 1548, "##ence": 1549, "pati": 1550, "##ay": 1551, "##pec": 1552, "stud": 1553, "##ers": 1554, "wh": 1555, "##qu": 1556, "comp": 1557, "ad": 1558, "##ies": 1559, "from": 1560, "##ign": 1561, "##iz": 1562, "##ress": 1563, "sh": 1564, "##por": 1565, "In": 1566, "##iti": 1567, "##igh": 1568, "en": 1569, "##te": 1570, "##fer": 1571, "##ific": 1572, "##ore": 1573, "##ip": 1574, "##ial": 1575, "ne": 1576, "##ations": 1577, "ind": 1578, "le": 1579, "##iv": 1580, "un": 1581, "patients": 1582, "se": 1583, "exp": 1584, "##ous": 1585, "##ans": 1586, "##enti": 1587, "##yp": 1588, "ass": 1589, "##orm": 1590, "gen": 1591, "rec": 1592, "##oun": 1593, "per": 1594, "eff": 1595, "##rou": 1596, "we": 1597, "us": 1598, "##ph": 1599, "##ition": 1600, "not": 1601, "sign": 1602, "this": 1603, "##ge": 1604, "##tor": 1605, "can": 1606, "##st": 1607, "dif": 1608, "##tiv": 1609, "inf": 1610, "##ens": 1611, "##ther": 1612, "pre": 1613, "##reas": 1614, "##ting": 1615, "ha": 1616, "##ear": 1617, "##ch": 1618, "##ia": 1619, "cl": 1620, "##ep": 1621, "di": 1622, "rel": 1623, "##ich": 1624, "par": 1625, "##ary": 1626, "##ding": 1627, "inter": 1628, "bet": 1629, "ap": 1630, "##ular": 1631, "differ": 1632, "##olog": 1633, "##able": 1634, "##ost": 1635, "##ect": 1636, "##ance": 1637, "##tive": 1638, "##enc": 1639, "met": 1640, "have": 1641, "study": 1642, "##ons": 1643, "##reat": 1644, "cont": 1645, "co": 1646, "cells": 1647, "##bs": 1648, "str": 1649, "which": 1650, "##der": 1651, "show": 1652, "reg": 1653, "ev": 1654, "trans": 1655, "##ong": 1656, "mod": 1657, "##ally": 1658, "##roup": 1659, "##ative": 1660, "##we": 1661, "Th": 1662, "##est": 1663, "signific": 1664, "ph": 1665, "pl": 1666, "spec": 1667, "##and": 1668, "##ved": 1669, "resul": 1670, "##pro": 1671, "##ween": 1672, "##duc": 1673, "##ression": 1674, "##vi": 1675, "significant": 1676, "##ym": 1677, "between": 1678, "##ose": 1679, "##erm": 1680, "group": 1681, "##age": 1682, "car": 1683, "##all": 1684, "anal": 1685, "##oci": 1686, "##ied": 1687, "##yl": 1688, "activ": 1689, "##ection": 1690, "me": 1691, "##end": 1692, "cons": 1693, "##ist": 1694, "whe": 1695, "##ue": 1696, "##ual": 1697, "sur": 1698, "##ari": 1699, "pres": 1700, "##ug": 1701, "##ath": 1702, "det": 1703, "##ction": 1704, "##ound": 1705, "##00": 1706, "all": 1707, "##tein": 1708, "ab": 1709, "##ome": 1710, "##so": 1711, "##ates": 1712, "sc": 1713, "##rol": 1714, "##ast": 1715, "int": 1716, "than": 1717, "##oll": 1718, "these": 1719, "level": 1720, "##port": 1721, "inv": 1722, "been": 1723, "has": 1724, "compar": 1725, "##ide": 1726, "fac": 1727, "associ": 1728, "also": 1729, "mic": 1730, "sub": 1731, "##NA": 1732, "cor": 1733, "##ges": 1734, "##ight": 1735, "##ak": 1736, "am": 1737, "pos": 1738, "##rap": 1739, "##uld": 1740, "##fter": 1741, "##per": 1742, "##oth": 1743, "##tin": 1744, "treat": 1745, "We": 1746, "##tim": 1747, "##ple": 1748, "may": 1749, "high": 1750, "##ros": 1751, "##ility": 1752, "##dition": 1753, "protein": 1754, "##ely": 1755, "he": 1756, "##lud": 1757, "resp": 1758, "##unction": 1759, "##yst": 1760, "##one": 1761, "##form": 1762, "increas": 1763, "##ulation": 1764, "##ects": 1765, "##ator": 1766, "This": 1767, "##ive": 1768, "##our": 1769, "##yn": 1770, "##ech": 1771, "bas": 1772, "##ating": 1773, "but": 1774, "Fig": 1775, "no": 1776, "##vely": 1777, "dat": 1778, "##ach": 1779, "med": 1780, "more": 1781, "##wo": 1782, "low": 1783, "##ected": 1784, "their": 1785, "treatment": 1786, "sp": 1787, "##ard": 1788, "##cer": 1789, "after": 1790, "##cess": 1791, "##velop": 1792, "##ever": 1793, "analys": 1794, "##ill": 1795, "##out": 1796, "anti": 1797, "dec": 1798, "ag": 1799, "##ized": 1800, "results": 1801, "ar": 1802, "##mun": 1803, "control": 1804, "##ub": 1805, "other": 1806, "red": 1807, "tim": 1808, "suc": 1809, "develop": 1810, "##aus": 1811, "##uring": 1812, "it": 1813, "##ood": 1814, "##cr": 1815, "##ree": 1816, "##hib": 1817, "bi": 1818, "function": 1819, "includ": 1820, "##alu": 1821, "used": 1822, "##ases": 1823, "##action": 1824, "##ox": 1825, "using": 1826, "two": 1827, "both": 1828, "dise": 1829, "##ri": 1830, "meth": 1831, "id": 1832, "##ures": 1833, "obs": 1834, "##ass": 1835, "##ew": 1836, "data": 1837, "vari": 1838, "##anc": 1839, "##acter": 1840, "##yt": 1841, "##ond": 1842, "##tal": 1843, "##entr": 1844, "##osis": 1845, "expression": 1846, "##iss": 1847, "##ism": 1848, "model": 1849, "##ater": 1850, "10": 1851, "bl": 1852, "studies": 1853, "sam": 1854, "year": 1855, "##ob": 1856, "associated": 1857, "##ystem": 1858, "chan": 1859, "##lu": 1860, "had": 1861, "des": 1862, "##uced": 1863, "up": 1864, "##act": 1865, "dep": 1866, "sug": 1867, "##owever": 1868, "##alth": 1869, "clin": 1870, "obser": 1871, "##ogen": 1872, "mon": 1873, "man": 1874, "li": 1875, "factor": 1876, "##ological": 1877, "out": 1878, "##ution": 1879, "##hes": 1880, "##inding": 1881, "conc": 1882, "sim": 1883, "system": 1884, "##urr": 1885, "over": 1886, "##ors": 1887, "20": 1888, "el": 1889, "form": 1890, "##ined": 1891, "##plic": 1892, "ris": 1893, "typ": 1894, "##entif": 1895, "##ile": 1896, "dr": 1897, "found": 1898, "ser": 1899, "##atic": 1900, "##ven": 1901, "##ays": 1902, "during": 1903, "acc": 1904, "gene": 1905, "##agn": 1906, "under": 1907, "time": 1908, "analysis": 1909, "##ants": 1910, "levels": 1911, "hyp": 1912, "##pt": 1913, "meas": 1914, "use": 1915, "##ite": 1916, "hig": 1917, "increased": 1918, "present": 1919, "compared": 1920, "##ail": 1921, "##uct": 1922, "produc": 1923, "##tain": 1924, "different": 1925, "##ult": 1926, "##ole": 1927, "##gen": 1928, "path": 1929, "##ential": 1930, "##br": 1931, "##ild": 1932, "##hem": 1933, "em": 1934, "health": 1935, "##itive": 1936, "one": 1937, "risk": 1938, "clinical": 1939, "sup": 1940, "identif": 1941, "non": 1942, "inhib": 1943, "significantly": 1944, "such": 1945, "##ici": 1946, "##arg": 1947, "es": 1948, "##ollow": 1949, "activity": 1950, "repor": 1951, "partic": 1952, "##ization": 1953, "disease": 1954, "ob": 1955, "##ences": 1956, "##ork": 1957, "dem": 1958, "##hen": 1959, "prov": 1960, "##gr": 1961, "ins": 1962, "perform": 1963, "pot": 1964, "indic": 1965, "##ace": 1966, "##rease": 1967, "appro": 1968, "##ber": 1969, "its": 1970, "##atory": 1971, "follow": 1972, "##tern": 1973, "exper": 1974, "showed": 1975, "method": 1976, "##ments": 1977, "end": 1978, "gl": 1979, "##res": 1980, "##ct": 1981, "there": 1982, "contr": 1983, "qu": 1984, "##ugh": 1985, "exam": 1986, "most": 1987, "only": 1988, "##cc": 1989, "effects": 1990, "##ently": 1991, "##row": 1992, "specific": 1993, "tum": 1994, "based": 1995, "##ions": 1996, "effect": 1997, "##ities": 1998, "Al": 1999, "higher": 2000, "syn": 2001, "##hed": 2002, "num": 2003, "##tively": 2004, "op": 2005, "##ability": 2006, "cancer": 2007, "def": 2008, "pol": 2009, "##tig": 2010, "##amm": 2011, "However": 2012, "well": 2013, "##ective": 2014, "rem": 2015, "observed": 2016, "hum": 2017, "##ane": 2018, "##onstr": 2019, "##ium": 2020, "##urther": 2021, "immun": 2022, "##ough": 2023, "gener": 2024, "##par": 2025, "##ould": 2026, "into": 2027, "##yc": 2028, "our": 2029, "##av": 2030, "sel": 2031, "##own": 2032, "##idence": 2033, "##als": 2034, "pred": 2035, "import": 2036, "therap": 2037, "##ency": 2038, "##tical": 2039, "##ack": 2040, "##mon": 2041, "##ible": 2042, "##ron": 2043, "sm": 2044, "kn": 2045, "##echan": 2046, "##ited": 2047, "determ": 2048, "##les": 2049, "char": 2050, "evalu": 2051, "##oid": 2052, "These": 2053, "rep": 2054, "##yd": 2055, "12": 2056, "##ination": 2057, "##gh": 2058, "##estig": 2059, "##ature": 2060, "##ark": 2061, "years": 2062, "##ilar": 2063, "when": 2064, "investig": 2065, "mechan": 2066, "ma": 2067, "corre": 2068, "process": 2069, "##ric": 2070, "occ": 2071, "##inal": 2072, "##rough": 2073, "##til": 2074, "assess": 2075, "could": 2076, "min": 2077, "age": 2078, "19": 2079, "mul": 2080, "##fore": 2081, "##irst": 2082, "loc": 2083, "##ten": 2084, "##ines": 2085, "##ology": 2086, "##onse": 2087, "reported": 2088, "impro": 2089, "struct": 2090, "respec": 2091, "##ren": 2092, "related": 2093, "##ause": 2094, "##erg": 2095, "##ok": 2096, "diagn": 2097, "##adi": 2098, "demonstr": 2099, "##ormal": 2100, "concentr": 2101, "##ord": 2102, "##ne": 2103, "##lex": 2104, "sec": 2105, "term": 2106, "##ery": 2107, "aff": 2108, "imp": 2109, "micro": 2110, "lik": 2111, "##ale": 2112, "character": 2113, "po": 2114, "addition": 2115, "##olec": 2116, "##raph": 2117, "pop": 2118, "groups": 2119, "gr": 2120, "response": 2121, "induced": 2122, "##ivid": 2123, "##ize": 2124, "human": 2125, "Figure": 2126, "through": 2127, "mem": 2128, "##vers": 2129, "##ix": 2130, "##ural": 2131, "fr": 2132, "##vious": 2133, "reduc": 2134, "first": 2135, "conf": 2136, "##ains": 2137, "mut": 2138, "those": 2139, "##ulated": 2140, "sens": 2141, "patient": 2142, "sugges": 2143, "##oph": 2144, "##its": 2145, "number": 2146, "condition": 2147, "##ute": 2148, "ep": 2149, "tiss": 2150, "acid": 2151, "To": 2152, "factors": 2153, "##tions": 2154, "br": 2155, "three": 2156, "mor": 2157, "development": 2158, "role": 2159, "et": 2160, "increase": 2161, "rate": 2162, "##ort": 2163, "intr": 2164, "##tit": 2165, "child": 2166, "important": 2167, "who": 2168, "##osed": 2169, "There": 2170, "cr": 2171, "invol": 2172, "##aining": 2173, "##over": 2174, "grow": 2175, "##ov": 2176, "##ement": 2177, "col": 2178, "##ior": 2179, "type": 2180, "val": 2181, "including": 2182, "##air": 2183, "similar": 2184, "ran": 2185, "##af": 2186, "##tid": 2187, "##ider": 2188, "predic": 2189, "fl": 2190, "cases": 2191, "post": 2192, "##ograph": 2193, "medi": 2194, "##asm": 2195, "potential": 2196, "##endent": 2197, "##usion": 2198, "##und": 2199, "##other": 2200, "requ": 2201, "tes": 2202, "##view": 2203, "molec": 2204, "##eptor": 2205, "fe": 2206, "care": 2207, "disc": 2208, "mechanism": 2209, "rat": 2210, "##ental": 2211, "##arly": 2212, "##ucle": 2213, "lower": 2214, "##iqu": 2215, "##ful": 2216, "##ational": 2217, "##rop": 2218, "respectively": 2219, "new": 2220, "within": 2221, "##ured": 2222, "##omes": 2223, "do": 2224, "prob": 2225, "##RNA": 2226, "##led": 2227, "It": 2228, "among": 2229, "main": 2230, "finding": 2231, "correl": 2232, "##omen": 2233, "prim": 2234, "lim": 2235, "As": 2236, "long": 2237, "00": 2238, "mice": 2239, "shown": 2240, "##reated": 2241, "del": 2242, "##roph": 2243, "15": 2244, "changes": 2245, "drug": 2246, "CD": 2247, "##itor": 2248, "##ived": 2249, "sequ": 2250, "ox": 2251, "##ene": 2252, "##crip": 2253, "infection": 2254, "##ues": 2255, "inj": 2256, "bec": 2257, "receptor": 2258, "cyt": 2259, "some": 2260, "##arge": 2261, "genes": 2262, "poss": 2263, "##ital": 2264, "##ividual": 2265, "prom": 2266, "##osph": 2267, "##istic": 2268, "##oma": 2269, "##up": 2270, "aut": 2271, "##echn": 2272, "##ie": 2273, "##old": 2274, "month": 2275, "##hel": 2276, "##ock": 2277, "##ages": 2278, "##xim": 2279, "phys": 2280, "each": 2281, "##ha": 2282, "vir": 2283, "surg": 2284, "##eng": 2285, "did": 2286, "##gan": 2287, "##requ": 2288, "total": 2289, "blood": 2290, "work": 2291, "##crib": 2292, "##asc": 2293, "previous": 2294, "individual": 2295, "they": 2296, "tumor": 2297, "prev": 2298, "##ise": 2299, "sol": 2300, "experim": 2301, "need": 2302, "11": 2303, "mean": 2304, "##ross": 2305, "cal": 2306, "##ade": 2307, "techn": 2308, "complex": 2309, "95": 2310, "outc": 2311, "consider": 2312, "##cop": 2313, "##otyp": 2314, "sever": 2315, "stim": 2316, "##though": 2317, "dire": 2318, "multi": 2319, "An": 2320, "frequ": 2321, "##arget": 2322, "sym": 2323, "app": 2324, "due": 2325, "identified": 2326, "##ores": 2327, "##tained": 2328, "positive": 2329, "##ek": 2330, "comb": 2331, "decreas": 2332, "peri": 2333, "mus": 2334, "##ically": 2335, "performed": 2336, "##ex": 2337, "ol": 2338, "##ily": 2339, "proteins": 2340, "DNA": 2341, "less": 2342, "ext": 2343, "target": 2344, "prog": 2345, "normal": 2346, "201": 2347, "##ody": 2348, "##osp": 2349, "neu": 2350, "while": 2351, "200": 2352, "small": 2353, "respons": 2354, "expl": 2355, "##havi": 2356, "resear": 2357, "##ind": 2358, "growth": 2359, "##ness": 2360, "##abol": 2361, "##ples": 2362, "CI": 2363, "##vention": 2364, "##ptom": 2365, "##otic": 2366, "cap": 2367, "common": 2368, "##ake": 2369, "##sy": 2370, "##ival": 2371, "pat": 2372, "differences": 2373, "14": 2374, "coll": 2375, "provid": 2376, "##eld": 2377, "##jor": 2378, "test": 2379, "##lamm": 2380, "##eter": 2381, "reve": 2382, "##are": 2383, "subj": 2384, "binding": 2385, "inform": 2386, "lead": 2387, "behavi": 2388, "extr": 2389, "##di": 2390, "rele": 2391, "curr": 2392, "interaction": 2393, "great": 2394, "prot": 2395, "##lis": 2396, "##trib": 2397, "##ink": 2398, "hyd": 2399, "av": 2400, "findings": 2401, "treated": 2402, "will": 2403, "13": 2404, "major": 2405, "##ire": 2406, "review": 2407, "pathw": 2408, "children": 2409, "adm": 2410, "therapy": 2411, "signal": 2412, "mo": 2413, "further": 2414, "without": 2415, "II": 2416, "women": 2417, "##ogn": 2418, "should": 2419, "population": 2420, "##etr": 2421, "##ressed": 2422, "caus": 2423, "particip": 2424, "describ": 2425, "neg": 2426, "##iter": 2427, "##int": 2428, "period": 2429, "about": 2430, "30": 2431, "und": 2432, "##ateg": 2433, "reduced": 2434, "##ang": 2435, "##atis": 2436, "##ield": 2437, "##fic": 2438, "species": 2439, "so": 2440, "influ": 2441, "##ning": 2442, "fib": 2443, "mat": 2444, "sing": 2445, "18": 2446, "reveal": 2447, "chem": 2448, "antib": 2449, "##vir": 2450, "tissue": 2451, "nucle": 2452, "##ately": 2453, "metabol": 2454, "##gest": 2455, "class": 2456, "tem": 2457, "##hip": 2458, "##GF": 2459, "mark": 2460, "##ves": 2461, "##plet": 2462, "vis": 2463, "initi": 2464, "##ites": 2465, "##Cs": 2466, "phosph": 2467, "set": 2468, "##inis": 2469, "##ety": 2470, "evidence": 2471, "flu": 2472, "conditions": 2473, "##ice": 2474, "abs": 2475, "inflamm": 2476, "suggest": 2477, "surf": 2478, "25": 2479, "surv": 2480, "pe": 2481, "week": 2482, "##med": 2483, "case": 2484, "For": 2485, "ret": 2486, "presence": 2487, "##ced": 2488, "##ained": 2489, "valu": 2490, "##ung": 2491, "single": 2492, "months": 2493, "research": 2494, "induc": 2495, "mal": 2496, "##ascular": 2497, "second": 2498, "symptom": 2499, "Ch": 2500, "St": 2501, "dom": 2502, "exc": 2503, "IL": 2504, "coun": 2505, "PC": 2506, "subs": 2507, "analy": 2508, "requir": 2509, "16": 2510, "line": 2511, "organ": 2512, "##ified": 2513, "resist": 2514, "cardi": 2515, "enh": 2516, "pers": 2517, "early": 2518, "prop": 2519, "improve": 2520, "##ins": 2521, "##ties": 2522, "calc": 2523, "24": 2524, "hyper": 2525, "##zym": 2526, "days": 2527, "same": 2528, "##onal": 2529, "mg": 2530, "measure": 2531, "demonstrated": 2532, "##ption": 2533, "##ty": 2534, "##acy": 2535, "##reg": 2536, "cat": 2537, "range": 2538, "pattern": 2539, "phen": 2540, "##ither": 2541, "activation": 2542, "stress": 2543, "##ocyt": 2544, "##ving": 2545, "##oles": 2546, "##ory": 2547, "##oss": 2548, "qual": 2549, "ele": 2550, "large": 2551, "transcrip": 2552, "vit": 2553, "decreased": 2554, "lif": 2555, "radi": 2556, "##eth": 2557, "fam": 2558, "estim": 2559, "information": 2560, "Table": 2561, "##ength": 2562, "primary": 2563, "brain": 2564, "##oper": 2565, "contrib": 2566, "Our": 2567, "vol": 2568, "##hesis": 2569, "cle": 2570, "##iven": 2571, "50": 2572, "my": 2573, "samples": 2574, "cult": 2575, "##erst": 2576, "##omy": 2577, "whether": 2578, "neur": 2579, "##urs": 2580, "rece": 2581, "isol": 2582, "##viron": 2583, "regul": 2584, "##plement": 2585, "dependent": 2586, "##ms": 2587, "obtained": 2588, "##aging": 2589, "05": 2590, "cyc": 2591, "##plications": 2592, "dose": 2593, "relations": 2594, "##vere": 2595, "day": 2596, "any": 2597, "100": 2598, "##omic": 2599, "##lic": 2600, "##ax": 2601, "several": 2602, "values": 2603, "der": 2604, "##etic": 2605, "Further": 2606, "local": 2607, "plasm": 2608, "known": 2609, "ref": 2610, "##och": 2611, "functional": 2612, "revealed": 2613, "##eu": 2614, "rati": 2615, "repres": 2616, "17": 2617, "prol": 2618, "hem": 2619, "sk": 2620, "included": 2621, "##osure": 2622, "prof": 2623, "membr": 2624, "##icient": 2625, "fem": 2626, "trial": 2627, "four": 2628, "would": 2629, "##ension": 2630, "underst": 2631, "lab": 2632, "##atively": 2633, "musc": 2634, "lip": 2635, "approach": 2636, "many": 2637, "anim": 2638, "adv": 2639, "##sequ": 2640, "##ian": 2641, "enzym": 2642, "est": 2643, "techniqu": 2644, "region": 2645, "following": 2646, "##ick": 2647, "##ft": 2648, "##esis": 2649, "surface": 2650, "relationship": 2651, "##cin": 2652, "survival": 2653, "provide": 2654, "hosp": 2655, "appear": 2656, "models": 2657, "again": 2658, "##erc": 2659, "direct": 2660, "because": 2661, "##amic": 2662, "proper": 2663, "##ensity": 2664, "where": 2665, "##itis": 2666, "hydro": 2667, "diagnosis": 2668, "concentration": 2669, "##oh": 2670, "measured": 2671, "aim": 2672, "##cent": 2673, "strong": 2674, "##ymph": 2675, "##MP": 2676, "negative": 2677, "##anti": 2678, "##arm": 2679, "##tric": 2680, "analyz": 2681, "rates": 2682, "developed": 2683, "##ening": 2684, "particular": 2685, "design": 2686, "HI": 2687, "##andard": 2688, "##ulations": 2689, "synt": 2690, "environ": 2691, "difference": 2692, "avail": 2693, "either": 2694, "conduc": 2695, "complet": 2696, "nec": 2697, "adminis": 2698, "##tered": 2699, "structure": 2700, "sl": 2701, "equ": 2702, "size": 2703, "vs": 2704, "methods": 2705, "genetic": 2706, "##eptid": 2707, "pub": 2708, "CO": 2709, "##sych": 2710, "param": 2711, "distrib": 2712, "possible": 2713, "life": 2714, "current": 2715, "molecular": 2716, "bacter": 2717, "involved": 2718, "effective": 2719, "part": 2720, "loss": 2721, "confir": 2722, "multiple": 2723, "characteristic": 2724, "prac": 2725, "##ification": 2726, "##plication": 2727, "##ication": 2728, "##anced": 2729, "001": 2730, "change": 2731, "mater": 2732, "##erv": 2733, "lymph": 2734, "pain": 2735, "##ules": 2736, "result": 2737, "##eration": 2738, "concentrations": 2739, "likely": 2740, "commun": 2741, "##ward": 2742, "##tration": 2743, "quality": 2744, "##uss": 2745, "##verse": 2746, "Although": 2747, "##ylation": 2748, "Ad": 2749, "greater": 2750, "##CT": 2751, "01": 2752, "##vity": 2753, "sus": 2754, "production": 2755, "##atin": 2756, "##ronic": 2757, "standard": 2758, "##ulin": 2759, "investigated": 2760, "cir": 2761, "being": 2762, "like": 2763, "subjects": 2764, "association": 2765, "##AP": 2766, "formation": 2767, "phase": 2768, "##istent": 2769, "surgery": 2770, "resid": 2771, "##ust": 2772, "symptoms": 2773, "mechanisms": 2774, "##ission": 2775, "Am": 2776, "determine": 2777, "press": 2778, "body": 2779, "compon": 2780, "##plant": 2781, "against": 2782, "differenti": 2783, "order": 2784, "##lished": 2785, "add": 2786, "experi": 2787, "if": 2788, "occurr": 2789, "diab": 2790, "##ellular": 2791, "##verage": 2792, "reaction": 2793, "various": 2794, "exposure": 2795, "lo": 2796, "gluc": 2797, "##SA": 2798, "##tory": 2799, "before": 2800, "serum": 2801, "Un": 2802, "##ography": 2803, "##uted": 2804, "strateg": 2805, "might": 2806, "les": 2807, "hel": 2808, "##roscop": 2809, "detected": 2810, "oper": 2811, "chrom": 2812, "adj": 2813, "liver": 2814, "identify": 2815, "##ults": 2816, "studied": 2817, "very": 2818, "examined": 2819, "21": 2820, "responses": 2821, "##aneous": 2822, "##ording": 2823, "tra": 2824, "general": 2825, "foc": 2826, "rats": 2827, "allow": 2828, "outcomes": 2829, "free": 2830, "virus": 2831, "value": 2832, "##atus": 2833, "indep": 2834, "injur": 2835, "##AR": 2836, "polym": 2837, "link": 2838, "##opl": 2839, "##iver": 2840, "support": 2841, "hep": 2842, "##itivity": 2843, "##pha": 2844, "gu": 2845, "bone": 2846, "contrast": 2847, "##ince": 2848, "reduction": 2849, "recom": 2850, "##ision": 2851, "evaluated": 2852, "##andom": 2853, "behavior": 2854, "proced": 2855, "##ocytes": 2856, "water": 2857, "##ler": 2858, "##tality": 2859, "##nal": 2860, "##ually": 2861, "mi": 2862, "dim": 2863, "##ocial": 2864, "##ke": 2865, "however": 2866, "ratio": 2867, "##AT": 2868, "##az": 2869, "arter": 2870, "weight": 2871, "fail": 2872, "##onic": 2873, "environment": 2874, "##ists": 2875, "whereas": 2876, "membrane": 2877, "chronic": 2878, "##tex": 2879, "statis": 2880, "his": 2881, "er": 2882, "##of": 2883, "##olution": 2884, "enc": 2885, "death": 2886, "##uration": 2887, "##cep": 2888, "40": 2889, "##ish": 2890, "muc": 2891, "performance": 2892, "pur": 2893, "##atures": 2894, "##ably": 2895, "mass": 2896, "hospital": 2897, "mortality": 2898, "hear": 2899, "##otherap": 2900, "os": 2901, "manag": 2902, "sample": 2903, "sex": 2904, "estab": 2905, "determined": 2906, "##acc": 2907, "plasma": 2908, "vitro": 2909, "circ": 2910, "increasing": 2911, "participants": 2912, "neuro": 2913, "##ostic": 2914, "##icity": 2915, "##ised": 2916, "ang": 2917, "net": 2918, "##AS": 2919, "Com": 2920, "RNA": 2921, "supp": 2922, "report": 2923, "preval": 2924, "##ynamic": 2925, "random": 2926, "##cept": 2927, "vi": 2928, "##amin": 2929, "available": 2930, "##CC": 2931, "men": 2932, "state": 2933, "##eters": 2934, "##ner": 2935, "##tegr": 2936, "progr": 2937, "##helial": 2938, "considered": 2939, "mm": 2940, "##tis": 2941, "##anding": 2942, "ro": 2943, "On": 2944, "individuals": 2945, "how": 2946, "##iving": 2947, "resistance": 2948, "bene": 2949, "mediated": 2950, "previously": 2951, "000": 2952, "##work": 2953, "##ters": 2954, "##eutic": 2955, "##round": 2956, "##ull": 2957, "larg": 2958, "prec": 2959, "distribution": 2960, "##ectr": 2961, "22": 2962, "##ae": 2963, "elect": 2964, "CT": 2965, "More": 2966, "proble": 2967, "required": 2968, "##aw": 2969, "success": 2970, "acute": 2971, "lung": 2972, "signaling": 2973, "transcription": 2974, "##RI": 2975, "##try": 2976, "discuss": 2977, "nan": 2978, "oxid": 2979, "psych": 2980, "temper": 2981, "viv": 2982, "MS": 2983, "scre": 2984, "mit": 2985, "AD": 2986, "##opt": 2987, "pathway": 2988, "site": 2989, "ach": 2990, "deg": 2991, "pressure": 2992, "vers": 2993, "##operative": 2994, "self": 2995, "properties": 2996, "At": 2997, "##ouse": 2998, "active": 2999, "highly": 3000, "HIV": 3001, "##yr": 3002, "kg": 3003, "compound": 3004, "contin": 3005, "ur": 3006, "described": 3007, "##ateral": 3008, "family": 3009, "field": 3010, "##etes": 3011, "fat": 3012, "expressed": 3013, "then": 3014, "bel": 3015, "controls": 3016, "##otype": 3017, "gly": 3018, "area": 3019, "achie": 3020, "inhibitor": 3021, "types": 3022, "vivo": 3023, "hypot": 3024, "inflammatory": 3025, "decrease": 3026, "##inant": 3027, "them": 3028, "ul": 3029, "##ount": 3030, "via": 3031, "##ule": 3032, "better": 3033, "##more": 3034, "##ergy": 3035, "novel": 3036, "even": 3037, "##pective": 3038, "##tivity": 3039, "##ances": 3040, "frequency": 3041, "weeks": 3042, "##ended": 3043, "stimul": 3044, "immune": 3045, "PD": 3046, "flow": 3047, "stage": 3048, "Thus": 3049, "##ogenesis": 3050, "##line": 3051, "muscle": 3052, "focus": 3053, "diseases": 3054, "represent": 3055, "AT": 3056, "##ands": 3057, "60": 3058, "##els": 3059, "exhib": 3060, "##reast": 3061, "##red": 3062, "assessed": 3063, "ren": 3064, "impact": 3065, "Ca": 3066, "All": 3067, "mac": 3068, "##tically": 3069, "medical": 3070, "dys": 3071, "ques": 3072, "##ially": 3073, "accur": 3074, "##iciency": 3075, "carb": 3076, "##ient": 3077, "tox": 3078, "mRNA": 3079, "pul": 3080, "##Ps": 3081, "##otherapy": 3082, "##ling": 3083, "hist": 3084, "integr": 3085, "##asis": 3086, "know": 3087, "severe": 3088, "##ets": 3089, "reac": 3090, "prolif": 3091, "systems": 3092, "presented": 3093, "##val": 3094, "23": 3095, "characteristics": 3096, "ability": 3097, "##eric": 3098, "cent": 3099, "status": 3100, "analyzed": 3101, "Furthermore": 3102, "##eline": 3103, "peptid": 3104, "##app": 3105, "down": 3106, "cause": 3107, "##osition": 3108, "rap": 3109, "sites": 3110, "electr": 3111, "Res": 3112, "##rome": 3113, "inhibition": 3114, "across": 3115, "ke": 3116, "network": 3117, "parameters": 3118, "volum": 3119, "Ex": 3120, "atten": 3121, "overall": 3122, "breast": 3123, "hom": 3124, "poor": 3125, "att": 3126, "##iat": 3127, "derived": 3128, "##PS": 3129, "super": 3130, "therapeutic": 3131, "analyses": 3132, "##ibility": 3133, "Re": 3134, "##ocy": 3135, "##entral": 3136, "often": 3137, "regions": 3138, "##ces": 3139, "sequence": 3140, "##ll": 3141, "management": 3142, "imaging": 3143, "alpha": 3144, "##10": 3145, "block": 3146, "refer": 3147, "cross": 3148, "optim": 3149, "##ides": 3150, "##CA": 3151, "lack": 3152, "tested": 3153, "##itation": 3154, "sensitivity": 3155, "relative": 3156, "recent": 3157, "##truc": 3158, "##uk": 3159, "##vant": 3160, "average": 3161, "apopt": 3162, "social": 3163, "beta": 3164, "##lusion": 3165, "##ove": 3166, "##iological": 3167, "##ators": 3168, "##roc": 3169, "indicate": 3170, "##ancy": 3171, "regulation": 3172, "Con": 3173, "dam": 3174, "##ices": 3175, "injury": 3176, "correlation": 3177, "##gn": 3178, "##oy": 3179, "prevalence": 3180, "##ask": 3181, "valid": 3182, "##amine": 3183, "##bers": 3184, "evaluate": 3185, "Here": 3186, "##emia": 3187, "##uture": 3188, "outcome": 3189, "##AC": 3190, "extrac": 3191, "Therefore": 3192, "##tinal": 3193, "pap": 3194, "##ogenic": 3195, "Wh": 3196, "##oses": 3197, "sal": 3198, "conducted": 3199, "##ison": 3200, "play": 3201, "amin": 3202, "##ables": 3203, "##ysis": 3204, "cellular": 3205, "limited": 3206, "##opath": 3207, "magn": 3208, "##pected": 3209, "##till": 3210, "physical": 3211, "length": 3212, "##AD": 3213, "thus": 3214, "Tr": 3215, "##ographic": 3216, "##li": 3217, "kin": 3218, "indicated": 3219, "energy": 3220, "##OS": 3221, "##ledge": 3222, "heter": 3223, "observ": 3224, "##lin": 3225, "intervention": 3226, "influence": 3227, "chall": 3228, "##went": 3229, "least": 3230, "inhibit": 3231, "##ode": 3232, "##ochem": 3233, "##art": 3234, "subst": 3235, "sour": 3236, "28": 3237, "detection": 3238, "##amp": 3239, "##etal": 3240, "independent": 3241, "##ising": 3242, "##ams": 3243, "##odies": 3244, "improved": 3245, "epit": 3246, "incidence": 3247, "effic": 3248, "deliver": 3249, "synd": 3250, "effec": 3251, "cri": 3252, "morph": 3253, "##astic": 3254, "metast": 3255, "short": 3256, "##inc": 3257, "impair": 3258, "##ols": 3259, "five": 3260, "rapid": 3261, "CR": 3262, "He": 3263, "containing": 3264, "##aps": 3265, "followed": 3266, "old": 3267, "material": 3268, "combination": 3269, "##de": 3270, "animals": 3271, "##tors": 3272, "dist": 3273, "##ours": 3274, "interactions": 3275, "healthy": 3276, "##iting": 3277, "eth": 3278, "##ressive": 3279, "##ower": 3280, "##ensive": 3281, "##enced": 3282, "caused": 3283, "##plied": 3284, "orig": 3285, "suggesting": 3286, "experimental": 3287, "##eding": 3288, "few": 3289, "##etry": 3290, "processes": 3291, "saf": 3292, "left": 3293, "##urn": 3294, "features": 3295, "##rogen": 3296, "position": 3297, "recogn": 3298, "carcin": 3299, "fil": 3300, "neurons": 3301, "##ologic": 3302, "OR": 3303, "investigate": 3304, "##igr": 3305, "tumors": 3306, "heart": 3307, "##tice": 3308, "given": 3309, "##ether": 3310, "##izing": 3311, "liter": 3312, "##arr": 3313, "##itud": 3314, "events": 3315, "percent": 3316, "glucose": 3317, "##abil": 3318, "##resp": 3319, "##CL": 3320, "score": 3321, "diet": 3322, "ver": 3323, "prior": 3324, "maxim": 3325, "35": 3326, "secre": 3327, "assay": 3328, "phot": 3329, "##aking": 3330, "##omp": 3331, "##rob": 3332, "ill": 3333, "surgical": 3334, "##orph": 3335, "lig": 3336, "tissues": 3337, "##read": 3338, "26": 3339, "diabetes": 3340, "##vement": 3341, "pregn": 3342, "util": 3343, "areas": 3344, "##hest": 3345, "help": 3346, "temperature": 3347, "suggested": 3348, "knowledge": 3349, "##ales": 3350, "##mit": 3351, "ER": 3352, "male": 3353, "release": 3354, "cogn": 3355, "still": 3356, "elev": 3357, "promo": 3358, "wor": 3359, "##go": 3360, "suggests": 3361, "##NF": 3362, "biological": 3363, "##terior": 3364, "consistent": 3365, "efficacy": 3366, "##cence": 3367, "prepar": 3368, "PE": 3369, "##lor": 3370, "received": 3371, "Moreover": 3372, "key": 3373, "seen": 3374, "content": 3375, "drugs": 3376, "##emic": 3377, "although": 3378, "initial": 3379, "domain": 3380, "does": 3381, "approxim": 3382, "ST": 3383, "visual": 3384, "##CR": 3385, "##lying": 3386, "##oung": 3387, "199": 3388, "step": 3389, "separ": 3390, "coh": 3391, "biom": 3392, "additional": 3393, "##ecting": 3394, "##etric": 3395, "##ased": 3396, "benef": 3397, "light": 3398, "27": 3399, "pathways": 3400, "correlated": 3401, "##olic": 3402, "confirmed": 3403, "Pro": 3404, "##inary": 3405, "solution": 3406, "##tle": 3407, "enzyme": 3408, "volume": 3409, "##itu": 3410, "isolated": 3411, "##12": 3412, "baseline": 3413, "trials": 3414, "phosphor": 3415, "ir": 3416, "After": 3417, "surve": 3418, "proposed": 3419, "##enting": 3420, "diffic": 3421, "intra": 3422, "times": 3423, "increases": 3424, "lesions": 3425, "obj": 3426, "index": 3427, "tub": 3428, "##medi": 3429, "experiments": 3430, "record": 3431, "##pr": 3432, "applied": 3433, "mutations": 3434, "produced": 3435, "##pecially": 3436, "minim": 3437, "##ral": 3438, "##olar": 3439, "displ": 3440, "density": 3441, "patterns": 3442, "No": 3443, "##orders": 3444, "characterized": 3445, "##ones": 3446, "food": 3447, "##ygen": 3448, "affected": 3449, "corresp": 3450, "##emb": 3451, "##pite": 3452, "ess": 3453, "insulin": 3454, "therefore": 3455, "monitor": 3456, "suppor": 3457, "understanding": 3458, "sch": 3459, "lipid": 3460, "BM": 3461, "made": 3462, "continu": 3463, "example": 3464, "six": 3465, "technique": 3466, "ec": 3467, "##ople": 3468, "good": 3469, "##eness": 3470, "dynamic": 3471, "section": 3472, "administration": 3473, "receptors": 3474, "hand": 3475, "measures": 3476, "moder": 3477, "proliferation": 3478, "pharm": 3479, "refl": 3480, "##ochond": 3481, "29": 3482, "spectr": 3483, "literature": 3484, "point": 3485, "scores": 3486, "activities": 3487, "unc": 3488, "32": 3489, "her": 3490, "assessment": 3491, "demonstrate": 3492, "artic": 3493, "syndrome": 3494, "especially": 3495, "carr": 3496, "fold": 3497, "renal": 3498, "##antit": 3499, "45": 3500, "##fusion": 3501, "vacc": 3502, "include": 3503, "populations": 3504, "##orb": 3505, "##ird": 3506, "##uble": 3507, "Rec": 3508, "cere": 3509, "IC": 3510, "defined": 3511, "##order": 3512, "One": 3513, "cur": 3514, "clus": 3515, "young": 3516, "80": 3517, "shows": 3518, "##icular": 3519, "##fficient": 3520, "##ored": 3521, "90": 3522, "mouse": 3523, "CS": 3524, "affect": 3525, "##atal": 3526, "useful": 3527, "functions": 3528, "##ying": 3529, "36": 3530, "public": 3531, "enhanced": 3532, "amino": 3533, "##ulf": 3534, "##inally": 3535, "##iotic": 3536, "cardiac": 3537, "adult": 3538, "##onding": 3539, "smok": 3540, "##aff": 3541, "arr": 3542, "repe": 3543, "educ": 3544, "PA": 3545, "Im": 3546, "subsequ": 3547, "propor": 3548, "mix": 3549, "skin": 3550, "critical": 3551, "necess": 3552, "accum": 3553, "auth": 3554, "toward": 3555, "##normal": 3556, "te": 3557, "##aken": 3558, "serv": 3559, "recover": 3560, "##ochondr": 3561, "##ged": 3562, "ax": 3563, "clear": 3564, "hypert": 3565, "disorders": 3566, "invas": 3567, "emerg": 3568, "strains": 3569, "off": 3570, "complications": 3571, "recomm": 3572, "training": 3573, "##hyd": 3574, "compounds": 3575, "adults": 3576, "resulted": 3577, "structures": 3578, "oste": 3579, "Pati": 3580, "Ig": 3581, "##encing": 3582, "##entially": 3583, "agg": 3584, "question": 3585, "##arch": 3586, "versus": 3587, "sum": 3588, "##ru": 3589, "48": 3590, "alter": 3591, "33": 3592, "access": 3593, "##ploy": 3594, "nat": 3595, "transfer": 3596, "future": 3597, "##PA": 3598, "##ogene": 3599, "##grad": 3600, "resulting": 3601, "##ious": 3602, "task": 3603, "right": 3604, "central": 3605, "nit": 3606, "recurr": 3607, "apoptosis": 3608, "median": 3609, "progn": 3610, "##ave": 3611, "female": 3612, "adap": 3613, "failure": 3614, "##otor": 3615, "lear": 3616, "facil": 3617, "transl": 3618, "consum": 3619, "comparison": 3620, "miR": 3621, "criter": 3622, "prost": 3623, "##omal": 3624, "##ints": 3625, "back": 3626, "PT": 3627, "substr": 3628, "damage": 3629, "##tine": 3630, "depend": 3631, "lines": 3632, "endot": 3633, "##ocard": 3634, "##utes": 3635, "Sc": 3636, "evaluation": 3637, "lay": 3638, "peak": 3639, "##ST": 3640, "##ID": 3641, "##hetic": 3642, "dev": 3643, "regression": 3644, "distin": 3645, "provided": 3646, "parti": 3647, "31": 3648, "people": 3649, "guid": 3650, "##tib": 3651, "diagnostic": 3652, "molecules": 3653, "combined": 3654, "##enz": 3655, "abnormal": 3656, "##versity": 3657, "reduce": 3658, "synthesis": 3659, "fraction": 3660, "When": 3661, "vascular": 3662, "diss": 3663, "gas": 3664, "stimulation": 3665, "established": 3666, "components": 3667, "mitochondr": 3668, "provides": 3669, "##ense": 3670, "successful": 3671, "progression": 3672, "intrac": 3673, "Pre": 3674, "infected": 3675, "##ulate": 3676, "culture": 3677, "migr": 3678, "real": 3679, "altern": 3680, "remains": 3681, "70": 3682, "##ining": 3683, "cer": 3684, "differentiation": 3685, "injection": 3686, "glyc": 3687, "##romb": 3688, "cytok": 3689, "tests": 3690, "sw": 3691, "promot": 3692, "##coh": 3693, "quantit": 3694, "##RT": 3695, "chann": 3696, "##arc": 3697, "##monary": 3698, "according": 3699, "##arding": 3700, "above": 3701, "37": 3702, "strain": 3703, "Ar": 3704, "##roscopy": 3705, "place": 3706, "approximately": 3707, "pH": 3708, "require": 3709, "##50": 3710, "top": 3711, "##ocyte": 3712, "##MS": 3713, "##hold": 3714, "particularly": 3715, "cost": 3716, "mid": 3717, "absence": 3718, "epid": 3719, "essential": 3720, "##BP": 3721, "obes": 3722, "cognitive": 3723, "##roduc": 3724, "collected": 3725, "lat": 3726, "neut": 3727, "##pri": 3728, "##ustr": 3729, "##ld": 3730, "history": 3731, "##ytic": 3732, "screening": 3733, "##isting": 3734, "capac": 3735, "##odes": 3736, "selected": 3737, "practice": 3738, "SD": 3739, "scale": 3740, "duration": 3741, "much": 3742, "colon": 3743, "techniques": 3744, "complete": 3745, "needed": 3746, "activated": 3747, "kinase": 3748, "ve": 3749, "MD": 3750, "seg": 3751, "##LA": 3752, "sensitive": 3753, "able": 3754, "metabolic": 3755, "since": 3756, "##ovascular": 3757, "side": 3758, "ey": 3759, "##iatric": 3760, "paper": 3761, "procedure": 3762, "contex": 3763, "host": 3764, "yield": 3765, "Ph": 3766, "strategies": 3767, "##set": 3768, "cohort": 3769, "34": 3770, "##11": 3771, "PCR": 3772, "occurred": 3773, "##thm": 3774, "transplant": 3775, "relatively": 3776, "##put": 3777, "ml": 3778, "oral": 3779, "alone": 3780, "With": 3781, "inflammation": 3782, "community": 3783, "##ES": 3784, "setting": 3785, "Inter": 3786, "##ason": 3787, "genome": 3788, "testing": 3789, "Med": 3790, "go": 3791, "air": 3792, "oxygen": 3793, "##urse": 3794, "Me": 3795, "##oint": 3796, "proportion": 3797, "medic": 3798, "fluores": 3799, "02": 3800, "poly": 3801, "##oplasm": 3802, "AP": 3803, "concer": 3804, "antibody": 3805, "##ressing": 3806, "da": 3807, "structural": 3808, "angi": 3809, "prevent": 3810, "acet": 3811, "prote": 3812, "power": 3813, "wild": 3814, "challen": 3815, "glob": 3816, "##active": 3817, "##yro": 3818, "secondary": 3819, "##ata": 3820, "load": 3821, "directly": 3822, "indicating": 3823, "catal": 3824, "action": 3825, "##ipher": 3826, "##orption": 3827, "controlled": 3828, "sequences": 3829, "##otox": 3830, "Addition": 3831, "plat": 3832, "##ging": 3833, "HR": 3834, "##II": 3835, "exerc": 3836, "##mission": 3837, "aden": 3838, "##aches": 3839, "conn": 3840, "chemical": 3841, "highest": 3842, "Us": 3843, "##artic": 3844, "see": 3845, "##iratory": 3846, "##ibr": 3847, "##rosis": 3848, "alcoh": 3849, "cm": 3850, "ultr": 3851, "cop": 3852, "importance": 3853, "75": 3854, "Of": 3855, "pair": 3856, "bar": 3857, "doc": 3858, "eng": 3859, "though": 3860, "seem": 3861, "terms": 3862, "markers": 3863, "While": 3864, "cycle": 3865, "##esting": 3866, "Sup": 3867, "plac": 3868, "underwent": 3869, "measurements": 3870, "CA": 3871, "criteria": 3872, "application": 3873, "hal": 3874, "labor": 3875, "agents": 3876, "pharmac": 3877, "##lus": 3878, "stem": 3879, "larger": 3880, "HC": 3881, "detect": 3882, "PP": 3883, "plant": 3884, "variables": 3885, "metabolism": 3886, "##erve": 3887, "Patients": 3888, "##omas": 3889, "##bry": 3890, "difficult": 3891, "microb": 3892, "employ": 3893, "##formation": 3894, "limit": 3895, "sil": 3896, "leading": 3897, "malign": 3898, "older": 3899, "##ont": 3900, "##otypes": 3901, "introduc": 3902, "infections": 3903, "improvement": 3904, "expected": 3905, "##rem": 3906, "##ayed": 3907, "prefer": 3908, "##tries": 3909, "antibodies": 3910, "antigen": 3911, "##ER": 3912, "##oding": 3913, "bro": 3914, "disorder": 3915, "CH": 3916, "respond": 3917, "wid": 3918, "##ochemical": 3919, "42": 3920, "summ": 3921, "##ument": 3922, "act": 3923, "experience": 3924, "ampl": 3925, "mutant": 3926, "relevant": 3927, "purp": 3928, "##estinal": 3929, "viral": 3930, "##function": 3931, "along": 3932, "estimated": 3933, "chromos": 3934, "recently": 3935, "elevated": 3936, "Sim": 3937, "III": 3938, "##rees": 3939, "IF": 3940, "repro": 3941, "##yg": 3942, "##opro": 3943, "upon": 3944, "distinct": 3945, "mel": 3946, "38": 3947, "contribute": 3948, "don": 3949, "lit": 3950, "regulated": 3951, "home": 3952, "depression": 3953, "##agen": 3954, "Se": 3955, "statistically": 3956, "bacterial": 3957, "##idne": 3958, "IV": 3959, "peripher": 3960, "head": 3961, "mutation": 3962, "onset": 3963, "peptide": 3964, "degrad": 3965, "interven": 3966, "tog": 3967, "##priate": 3968, "iss": 3969, "situ": 3970, "EC": 3971, "SN": 3972, "hours": 3973, "alg": 3974, "chain": 3975, "variation": 3976, "degree": 3977, "together": 3978, "best": 3979, "capacity": 3980, "embry": 3981, "##ogenous": 3982, "##lish": 3983, "##ret": 3984, "Co": 3985, "bound": 3986, "inhibited": 3987, "##ame": 3988, "plan": 3989, "Using": 3990, "ear": 3991, "##oxid": 3992, "context": 3993, "quanti": 3994, "read": 3995, "hip": 3996, "delivery": 3997, "natural": 3998, "PR": 3999, "thromb": 4000, "##omer": 4001, "coron": 4002, "authors": 4003, "linked": 4004, "approaches": 4005, "polymer": 4006, "cou": 4007, "horm": 4008, "Ac": 4009, "reli": 4010, "##otid": 4011, "##titution": 4012, "here": 4013, "PI": 4014, "rather": 4015, "##ef": 4016, "induction": 4017, "err": 4018, "AS": 4019, "detail": 4020, "enhance": 4021, "##ture": 4022, "regarding": 4023, "consequ": 4024, "implement": 4025, "basis": 4026, "kidne": 4027, "##not": 4028, "##hood": 4029, "products": 4030, "predicted": 4031, "##ectomy": 4032, "occur": 4033, "macroph": 4034, "amount": 4035, "inhibitors": 4036, "undergo": 4037, "component": 4038, "pros": 4039, "##irth": 4040, "##arb": 4041, "##tics": 4042, "##ession": 4043, "CD4": 4044, "##oscop": 4045, "wide": 4046, "ov": 4047, "having": 4048, "AC": 4049, "pulmonary": 4050, "##OR": 4051, "##ficial": 4052, "acids": 4053, "##isted": 4054, "##ulating": 4055, "spect": 4056, "fluid": 4057, "HP": 4058, "##isms": 4059, "##rm": 4060, "##onomic": 4061, "necessary": 4062, "##ots": 4063, "##eling": 4064, "series": 4065, "##itional": 4066, "##ifically": 4067, "aged": 4068, "##20": 4069, "problems": 4070, "nut": 4071, "##ics": 4072, "open": 4073, "ca": 4074, "underlying": 4075, "##rix": 4076, "##terol": 4077, "memory": 4078, "methyl": 4079, "spati": 4080, "environmental": 4081, "interventions": 4082, "animal": 4083, "Two": 4084, "stable": 4085, "##oz": 4086, "exercise": 4087, "##oids": 4088, "##icians": 4089, "##ier": 4090, "log": 4091, "daily": 4092, "fer": 4093, "##ele": 4094, "facilit": 4095, "achieved": 4096, "whole": 4097, "problem": 4098, "nuclear": 4099, "perce": 4100, "carcinoma": 4101, "HS": 4102, "cre": 4103, "exposed": 4104, "nm": 4105, "por": 4106, "examine": 4107, "En": 4108, "calculated": 4109, "mL": 4110, "##pling": 4111, "##MA": 4112, "mainly": 4113, "acqu": 4114, "selection": 4115, "##DL": 4116, "##ique": 4117, "categ": 4118, "discussed": 4119, "interp": 4120, "generated": 4121, "toler": 4122, "evolution": 4123, "##ps": 4124, "linear": 4125, "##dom": 4126, "##ophil": 4127, "Br": 4128, "artery": 4129, "##ered": 4130, "corresponding": 4131, "strategy": 4132, "frag": 4133, "##izes": 4134, "43": 4135, "##truct": 4136, "mes": 4137, "##chem": 4138, "regard": 4139, "##kn": 4140, "learning": 4141, "##tif": 4142, "##leep": 4143, "adverse": 4144, "##na": 4145, "course": 4146, "mamm": 4147, "reproduc": 4148, "tempor": 4149, "AL": 4150, "bu": 4151, "TR": 4152, "##idity": 4153, "electro": 4154, "conclud": 4155, "substanti": 4156, "shif": 4157, "03": 4158, "source": 4159, "##ogr": 4160, "alcohol": 4161, "##aft": 4162, "SC": 4163, "Both": 4164, "ME": 4165, "countries": 4166, "##ights": 4167, "reports": 4168, "trig": 4169, "hypothesis": 4170, "protoc": 4171, "diagnosed": 4172, "39": 4173, "##roke": 4174, "Health": 4175, "resistant": 4176, "restric": 4177, "##ergic": 4178, "##53": 4179, "##acts": 4180, "Among": 4181, "##occ": 4182, "##bral": 4183, "she": 4184, "cryst": 4185, "processing": 4186, "CP": 4187, "causes": 4188, "NO": 4189, "mar": 4190, "##anes": 4191, "bacteria": 4192, "bre": 4193, "##take": 4194, "way": 4195, "examination": 4196, "##inated": 4197, "##pression": 4198, "spe": 4199, "panc": 4200, "##ceptib": 4201, "attention": 4202, "##asts": 4203, "accuracy": 4204, "##ool": 4205, "majority": 4206, "hydrox": 4207, "65": 4208, "intensity": 4209, "pregnancy": 4210, "##lo": 4211, "##encies": 4212, "specificity": 4213, "strength": 4214, "subsequent": 4215, "##ina": 4216, "safety": 4217, "##ventional": 4218, "terminal": 4219, "##orpor": 4220, "peripheral": 4221, "Des": 4222, "shap": 4223, "another": 4224, "##ending": 4225, "cardiovascular": 4226, "exhibited": 4227, "SP": 4228, "bio": 4229, "##arily": 4230, "hy": 4231, "interest": 4232, "internal": 4233, "experiment": 4234, "##agon": 4235, "##NS": 4236, "dysfunction": 4237, "transport": 4238, "bil": 4239, "leuk": 4240, "developing": 4241, "44": 4242, "comple": 4243, "motor": 4244, "full": 4245, "interval": 4246, "##RNAs": 4247, "glut": 4248, "TNF": 4249, "repair": 4250, "severity": 4251, "must": 4252, "##ector": 4253, "treatments": 4254, "call": 4255, "view": 4256, "##inity": 4257, "##rh": 4258, "##lob": 4259, "##ream": 4260, "##yroid": 4261, "respiratory": 4262, "ant": 4263, "Over": 4264, "world": 4265, "matrix": 4266, "ventr": 4267, "marked": 4268, "describe": 4269, "adoles": 4270, "longer": 4271, "susceptib": 4272, "##13": 4273, "##itude": 4274, "##NT": 4275, "maximum": 4276, "perm": 4277, "famil": 4278, "alternative": 4279, "##AL": 4280, "##orn": 4281, "MI": 4282, "rad": 4283, "phosphorylation": 4284, "appropriate": 4285, "recru": 4286, "medium": 4287, "third": 4288, "physiological": 4289, "##iety": 4290, "uptake": 4291, "##outh": 4292, "var": 4293, "MC": 4294, "ed": 4295, "##16": 4296, "later": 4297, "ion": 4298, "Stud": 4299, "identification": 4300, "##ik": 4301, "##bo": 4302, "postoperative": 4303, "moderate": 4304, "images": 4305, "calcium": 4306, "induce": 4307, "sleep": 4308, "therm": 4309, "##ethyl": 4310, "chemotherapy": 4311, "birth": 4312, "##EM": 4313, "##pir": 4314, "fract": 4315, "composition": 4316, "simple": 4317, "##brid": 4318, "##irus": 4319, "##uter": 4320, "recovery": 4321, "MR": 4322, "endothelial": 4323, "##plicated": 4324, "##oster": 4325, "##imens": 4326, "transition": 4327, "##erved": 4328, "rare": 4329, "little": 4330, "education": 4331, "##MT": 4332, "published": 4333, "ever": 4334, "##mediate": 4335, "fix": 4336, "nerve": 4337, "electron": 4338, "By": 4339, "extent": 4340, "potentially": 4341, "implant": 4342, "strongly": 4343, "highl": 4344, "biop": 4345, "procedures": 4346, "55": 4347, "Finally": 4348, "mental": 4349, "ischem": 4350, "##rolog": 4351, "generation": 4352, "rh": 4353, "frequently": 4354, "thick": 4355, "Americ": 4356, "aspec": 4357, "mitochondrial": 4358, "##den": 4359, "carbon": 4360, "ATP": 4361, "program": 4362, "adjus": 4363, "stroke": 4364, "certain": 4365, "accumulation": 4366, "epithelial": 4367, "unique": 4368, "TB": 4369, "points": 4370, "const": 4371, "##ched": 4372, "46": 4373, "##obl": 4374, "retros": 4375, "led": 4376, "survey": 4377, "##inf": 4378, "stability": 4379, "kidney": 4380, "They": 4381, "forms": 4382, "doses": 4383, "late": 4384, "##orith": 4385, "efficiency": 4386, "designed": 4387, "04": 4388, "##MD": 4389, "##hesized": 4390, "appears": 4391, "special": 4392, "##plementary": 4393, "females": 4394, "coronary": 4395, "##anol": 4396, "##cher": 4397, "AR": 4398, "half": 4399, "phenotype": 4400, "##olesterol": 4401, "intracellular": 4402, "wall": 4403, "##osts": 4404, "bur": 4405, "plants": 4406, "72": 4407, "conventional": 4408, "RA": 4409, "ge": 4410, "students": 4411, "males": 4412, "##ann": 4413, "##tiveness": 4414, "##tivation": 4415, "##ively": 4416, "fact": 4417, "resour": 4418, "nor": 4419, "##fac": 4420, "##O2": 4421, "carried": 4422, "compare": 4423, "profil": 4424, "degrees": 4425, "cho": 4426, "##urb": 4427, "##14": 4428, "trend": 4429, "Similar": 4430, "##equ": 4431, "algorith": 4432, "tool": 4433, "##MR": 4434, "resolution": 4435, "means": 4436, "datab": 4437, "eas": 4438, "regulatory": 4439, "47": 4440, "##osa": 4441, "broad": 4442, "pig": 4443, "around": 4444, "antibiotic": 4445, "attrib": 4446, "##atives": 4447, "monitoring": 4448, "las": 4449, "yet": 4450, "##elet": 4451, "commonly": 4452, "NF": 4453, "confirm": 4454, "AB": 4455, "od": 4456, "Ind": 4457, "dig": 4458, "##ariate": 4459, "systemic": 4460, "chlor": 4461, "abund": 4462, "##rine": 4463, "RT": 4464, "##verex": 4465, "Cl": 4466, "Since": 4467, "##lation": 4468, "appar": 4469, "sci": 4470, "responsible": 4471, "PS": 4472, "recomb": 4473, "Sp": 4474, "oxidative": 4475, "occurs": 4476, "enzymes": 4477, "purpose": 4478, "MT": 4479, "event": 4480, "modified": 4481, "##reatment": 4482, "variety": 4483, "members": 4484, "administered": 4485, "transmission": 4486, "recorded": 4487, "quantitative": 4488, "star": 4489, "##ortic": 4490, "assum": 4491, "##known": 4492, "inst": 4493, "52": 4494, "residues": 4495, "##ching": 4496, "##uts": 4497, "incorpor": 4498, "subun": 4499, "myocard": 4500, "hypertension": 4501, "unknown": 4502, "##istry": 4503, "services": 4504, "produce": 4505, "measurement": 4506, "intake": 4507, "global": 4508, "humans": 4509, "fit": 4510, "##ify": 4511, "stages": 4512, "##aph": 4513, "article": 4514, "leads": 4515, "radiation": 4516, "generally": 4517, "percentage": 4518, "dimension": 4519, "##ering": 4520, "targets": 4521, "grade": 4522, "IR": 4523, "##rup": 4524, "##rin": 4525, "##linical": 4526, "##ds": 4527, "reference": 4528, "##neum": 4529, "##eral": 4530, "##eal": 4531, "advant": 4532, "MRI": 4533, "##less": 4534, "##land": 4535, "become": 4536, "polymorph": 4537, "IFN": 4538, "substrate": 4539, "##umin": 4540, "neural": 4541, "##uch": 4542, "Na": 4543, "##isc": 4544, "##most": 4545, "randomized": 4546, "aw": 4547, "degradation": 4548, "double": 4549, "##otion": 4550, "assemb": 4551, "anx": 4552, "spatial": 4553, "67": 4554, "##que": 4555, "41": 4556, "ES": 4557, "remained": 4558, "repl": 4559, "##LR": 4560, "cluster": 4561, "NS": 4562, "Ap": 4563, "laboratory": 4564, "##ident": 4565, "aimed": 4566, "99": 4567, "toxicity": 4568, "located": 4569, "nurs": 4570, "smoking": 4571, "56": 4572, "prevention": 4573, "color": 4574, "##IP": 4575, "##isp": 4576, "confidence": 4577, "origin": 4578, "##cers": 4579, "construc": 4580, "subc": 4581, "bind": 4582, "54": 4583, "nature": 4584, "irr": 4585, "maintain": 4586, "profile": 4587, "##aged": 4588, "adhes": 4589, "##ings": 4590, "tend": 4591, "##reshold": 4592, "slight": 4593, "49": 4594, "now": 4595, "secretion": 4596, "During": 4597, "selective": 4598, "concern": 4599, "weak": 4600, "sulf": 4601, "53": 4602, "64": 4603, "barri": 4604, "Results": 4605, "cortex": 4606, "obesity": 4607, "Compar": 4608, "image": 4609, "systematic": 4610, "##utive": 4611, "effectiveness": 4612, "##utaneous": 4613, "Sur": 4614, "benefit": 4615, "##ert": 4616, "##ophag": 4617, "Bec": 4618, "continuous": 4619, "involvement": 4620, "antagon": 4621, "traum": 4622, "rob": 4623, "remov": 4624, "last": 4625, "domains": 4626, "layer": 4627, "agre": 4628, "##atitis": 4629, "infer": 4630, "##icle": 4631, "associations": 4632, "migration": 4633, "Af": 4634, "fav": 4635, "clos": 4636, "widely": 4637, "##estern": 4638, "##DNA": 4639, "US": 4640, "##eti": 4641, "proj": 4642, "##PD": 4643, "##rog": 4644, "signals": 4645, "remain": 4646, "applications": 4647, "##orts": 4648, "hybrid": 4649, "establish": 4650, "turn": 4651, "advanced": 4652, "eight": 4653, "adip": 4654, "promoter": 4655, "##ared": 4656, "predict": 4657, "soci": 4658, "paras": 4659, "ster": 4660, "##ils": 4661, "noted": 4662, "fas": 4663, "##ocal": 4664, "##use": 4665, "seven": 4666, "marker": 4667, "account": 4668, "Eu": 4669, "optimal": 4670, "Pl": 4671, "pass": 4672, "sem": 4673, "AN": 4674, "Le": 4675, "make": 4676, "constit": 4677, "reviewed": 4678, "roles": 4679, "overex": 4680, "##ternal": 4681, "extrem": 4682, "##odium": 4683, "imm": 4684, "Acc": 4685, "avoid": 4686, "##AB": 4687, "discover": 4688, "making": 4689, "reducing": 4690, "assays": 4691, "S1": 4692, "ful": 4693, "CC": 4694, "Most": 4695, "##LC": 4696, "##ycin": 4697, "what": 4698, "##ired": 4699, "statistical": 4700, "soft": 4701, "gender": 4702, "##stream": 4703, "heterogene": 4704, "variable": 4705, "biomark": 4706, "dynamics": 4707, "cholesterol": 4708, "manner": 4709, "##FP": 4710, "consumption": 4711, "anterior": 4712, "##oring": 4713, "complexes": 4714, "diam": 4715, "threshold": 4716, "exist": 4717, "core": 4718, "##akes": 4719, "objective": 4720, "Pr": 4721, "##ET": 4722, "find": 4723, "Ca2": 4724, "inhibitory": 4725, "isolates": 4726, "##ometry": 4727, "belie": 4728, "Despite": 4729, "contact": 4730, "##lear": 4731, "magnetic": 4732, "##ope": 4733, "##ococc": 4734, "interfer": 4735, "specifically": 4736, "scan": 4737, "cand": 4738, "198": 4739, "##alk": 4740, "aggreg": 4741, "predom": 4742, "requires": 4743, "product": 4744, "usually": 4745, "hepat": 4746, "direction": 4747, "58": 4748, "##iology": 4749, "##18": 4750, "##any": 4751, "contribution": 4752, "neuronal": 4753, "##aling": 4754, "57": 4755, "far": 4756, "temporal": 4757, "bo": 4758, "grad": 4759, "##17": 4760, "SS": 4761, "##erative": 4762, "states": 4763, "vary": 4764, "##ank": 4765, "85": 4766, "##15": 4767, "##idate": 4768, "ped": 4769, "Group": 4770, "##ids": 4771, "investigation": 4772, "##US": 4773, "Fe": 4774, "trad": 4775, "others": 4776, "##amma": 4777, "indicates": 4778, "staining": 4779, "lesion": 4780, "morb": 4781, "##roscopic": 4782, "##itin": 4783, "defin": 4784, "mechanical": 4785, "##by": 4786, "##obacter": 4787, "numbers": 4788, "coe": 4789, "taken": 4790, "##LI": 4791, "maternal": 4792, "satis": 4793, "feed": 4794, "lateral": 4795, "understand": 4796, "##vent": 4797, "##ultaneous": 4798, "##gin": 4799, "##itable": 4800, "##ou": 4801, "materials": 4802, "ow": 4803, "##elling": 4804, "diff": 4805, "HT": 4806, "formed": 4807, "conj": 4808, "near": 4809, "63": 4810, "##ta": 4811, "CB": 4812, "comm": 4813, "currently": 4814, "##otide": 4815, "extracellular": 4816, "pneum": 4817, "efficient": 4818, "vess": 4819, "recommend": 4820, "infants": 4821, "##OC": 4822, "##hens": 4823, "plays": 4824, "diabetic": 4825, "significance": 4826, "##ologies": 4827, "revers": 4828, "##SH": 4829, "fram": 4830, "##EC": 4831, "relationships": 4832, "molecule": 4833, "needs": 4834, "reason": 4835, "##onia": 4836, "mob": 4837, "fluorescence": 4838, "invasive": 4839, "62": 4840, "Afric": 4841, "gran": 4842, "targeted": 4843, "##phal": 4844, "macrophages": 4845, "cannot": 4846, "Supplementary": 4847, "anxiety": 4848, "space": 4849, "Because": 4850, "coli": 4851, "princ": 4852, "SI": 4853, "##trans": 4854, "##ometric": 4855, "##OD": 4856, "conclusion": 4857, "melan": 4858, "slow": 4859, "59": 4860, "##tile": 4861, "reconstr": 4862, "decision": 4863, "placebo": 4864, "66": 4865, "ter": 4866, "clinically": 4867, "stimulated": 4868, "##elines": 4869, "##ED": 4870, "suff": 4871, "pancre": 4872, "elements": 4873, "bond": 4874, "final": 4875, "variants": 4876, "myel": 4877, "attenu": 4878, "Data": 4879, "below": 4880, "reactions": 4881, "almost": 4882, "antic": 4883, "HB": 4884, "altered": 4885, "##au": 4886, "##ats": 4887, "ED": 4888, "##argeting": 4889, "mother": 4890, "comparable": 4891, "mild": 4892, "label": 4893, "##io": 4894, "##pled": 4895, "affinity": 4896, "recurrence": 4897, "Ins": 4898, "agent": 4899, "Based": 4900, "numer": 4901, "96": 4902, "past": 4903, "##idine": 4904, "68": 4905, "lact": 4906, "##cted": 4907, "##oral": 4908, "categor": 4909, "##ee": 4910, "Inc": 4911, "prostate": 4912, "profession": 4913, "supplement": 4914, "gast": 4915, "Additionally": 4916, "reson": 4917, "##ectivity": 4918, "sexual": 4919, "##GFR": 4920, "microscopy": 4921, "##osing": 4922, "Cons": 4923, "enti": 4924, "##aptic": 4925, "knock": 4926, "ventricular": 4927, "##ars": 4928, "##elf": 4929, "towards": 4930, "CM": 4931, "##ella": 4932, "iron": 4933, "##illary": 4934, "constant": 4935, "mil": 4936, "olig": 4937, "Sever": 4938, "throughout": 4939, "vaccine": 4940, "##ra": 4941, "hepatic": 4942, "##ON": 4943, "##ention": 4944, "observations": 4945, "smaller": 4946, "##version": 4947, "##aring": 4948, "##naire": 4949, "fully": 4950, "distance": 4951, "##rope": 4952, "BMI": 4953, "gastric": 4954, "white": 4955, "receiving": 4956, "##ytes": 4957, "allows": 4958, "base": 4959, "cytokines": 4960, "##ange": 4961, "involving": 4962, "genomic": 4963, "despite": 4964, "search": 4965, "##HC": 4966, "CF": 4967, "segment": 4968, "##estingly": 4969, "subt": 4970, "cancers": 4971, "channel": 4972, "emotion": 4973, "73": 4974, "attem": 4975, "arth": 4976, "##PC": 4977, "sequencing": 4978, "possibility": 4979, "norm": 4980, "##osite": 4981, "tw": 4982, "replac": 4983, "simultaneous": 4984, "obtain": 4985, "prognosis": 4986, "living": 4987, "inn": 4988, "promote": 4989, "metal": 4990, "disp": 4991, "##ynt": 4992, "deriv": 4993, "Ag": 4994, "##apping": 4995, "variability": 4996, "analog": 4997, "ste": 4998, "lum": 4999, "##19": 5000, "upper": 5001, "lys": 5002, "##oprotein": 5003, "behavioral": 5004, "auto": 5005, "squ": 5006, "concept": 5007, "##ula": 5008, "targeting": 5009, "respect": 5010, "external": 5011, "showing": 5012, "fatty": 5013, "##oglob": 5014, "document": 5015, "ultras": 5016, "tom": 5017, "##rehens": 5018, "##ground": 5019, "transf": 5020, "##ality": 5021, "liqu": 5022, "address": 5023, "ligand": 5024, "trigg": 5025, "impaired": 5026, "##robl": 5027, "Europe": 5028, "dop": 5029, "bal": 5030, "nanop": 5031, "##ylated": 5032, "posterior": 5033, "##inus": 5034, "##BS": 5035, "unit": 5036, "##opathy": 5037, "reconstruc": 5038, "3D": 5039, "Gen": 5040, "personal": 5041, "cys": 5042, "prospective": 5043, "complement": 5044, "predictive": 5045, "particles": 5046, "CV": 5047, "incub": 5048, "VE": 5049, "spinal": 5050, "##iversity": 5051, "myocardial": 5052, "alb": 5053, "basal": 5054, "differential": 5055, "polic": 5056, "close": 5057, "PM": 5058, "asym": 5059, "##poc": 5060, "adjusted": 5061, "ens": 5062, "transplantation": 5063, "focused": 5064, "##crim": 5065, "ven": 5066, "##aine": 5067, "providing": 5068, "cerebral": 5069, "challenge": 5070, "collagen": 5071, "##amide": 5072, "resection": 5073, "PG": 5074, "partial": 5075, "##ened": 5076, "flex": 5077, "estimate": 5078, "profiles": 5079, "AM": 5080, "##itr": 5081, "##ounts": 5082, "upreg": 5083, "##lier": 5084, "##alian": 5085, "Reg": 5086, "SA": 5087, "##tility": 5088, "##arian": 5089, "iso": 5090, "##obic": 5091, "pan": 5092, "rot": 5093, "78": 5094, "explore": 5095, "##SS": 5096, "##to": 5097, "##pocamp": 5098, "##aves": 5099, "Gr": 5100, "recognition": 5101, "cultures": 5102, "observation": 5103, "HA": 5104, "aspects": 5105, "Not": 5106, "intestinal": 5107, "##inations": 5108, "hormone": 5109, "##inate": 5110, "Ser": 5111, "Interestingly": 5112, "rou": 5113, "location": 5114, "ves": 5115, "divid": 5116, "rib": 5117, "frequent": 5118, "metastasis": 5119, "relation": 5120, "HD": 5121, "peptides": 5122, "##dle": 5123, "spectrum": 5124, "##itively": 5125, "che": 5126, "##ectin": 5127, "asthm": 5128, "Sh": 5129, "cytotox": 5130, "arterial": 5131, "sources": 5132, "Ne": 5133, "##itiz": 5134, "mixed": 5135, "##VA": 5136, "hemat": 5137, "##eletal": 5138, "expressing": 5139, "##IN": 5140, "pathogenesis": 5141, "protocol": 5142, "quantif": 5143, "agreement": 5144, "ble": 5145, "MP": 5146, "##ecutive": 5147, "76": 5148, "##ontaneous": 5149, "malignant": 5150, "item": 5151, "cortical": 5152, "classification": 5153, "##TP": 5154, "##group": 5155, "PK": 5156, "Several": 5157, "experienced": 5158, "##ancer": 5159, "##ii": 5160, "enter": 5161, "every": 5162, "##pect": 5163, "0001": 5164, "69": 5165, "alterations": 5166, "74": 5167, "force": 5168, "##aces": 5169, "behaviors": 5170, "exclud": 5171, "cas": 5172, "sufficient": 5173, "compr": 5174, "completed": 5175, "costs": 5176, "prognostic": 5177, "stimuli": 5178, "gamma": 5179, "kine": 5180, "proxim": 5181, "If": 5182, "##care": 5183, "impairment": 5184, "##ives": 5185, "removal": 5186, "promising": 5187, "guidelines": 5188, "##ench": 5189, "alk": 5190, "reactive": 5191, "offer": 5192, "programs": 5193, "discrim": 5194, "ng": 5195, "##HD": 5196, "83": 5197, "prolong": 5198, "put": 5199, "shor": 5200, "##ervical": 5201, "##ico": 5202, "##olved": 5203, "polar": 5204, "elim": 5205, "specimens": 5206, "dele": 5207, "cruc": 5208, "enrol": 5209, "##ocl": 5210, "fung": 5211, "toxic": 5212, "prepared": 5213, "school": 5214, "Overall": 5215, "cytoplasm": 5216, "51": 5217, "eye": 5218, "pen": 5219, "77": 5220, "comprehens": 5221, "mutants": 5222, "existing": 5223, "98": 5224, "##ibly": 5225, "HF": 5226, "DM": 5227, "families": 5228, "joint": 5229, "sperm": 5230, "successfully": 5231, "multiv": 5232, "assign": 5233, "##dominal": 5234, "manif": 5235, "disch": 5236, "hippocamp": 5237, "consist": 5238, "bias": 5239, "antioxid": 5240, "morbidity": 5241, "orth": 5242, "chromosome": 5243, "##osomes": 5244, "tract": 5245, "##acch": 5246, "gel": 5247, "transcriptional": 5248, "Sub": 5249, "benefits": 5250, "leg": 5251, "92": 5252, "rapidly": 5253, "coord": 5254, "deficiency": 5255, "Ab": 5256, "##herence": 5257, "##PR": 5258, "PL": 5259, "protective": 5260, "conver": 5261, "PF": 5262, "predominant": 5263, "84": 5264, "replication": 5265, "solid": 5266, "bios": 5267, "##ogenetic": 5268, "##apl": 5269, "86": 5270, "deep": 5271, "clearly": 5272, "recommended": 5273, "diversity": 5274, "##otrop": 5275, "##isation": 5276, "##ades": 5277, "completely": 5278, "##here": 5279, "##bal": 5280, "hypox": 5281, "##seud": 5282, "WT": 5283, "LC": 5284, "nanopartic": 5285, "##xt": 5286, "H2": 5287, "odds": 5288, "sodium": 5289, "##ritis": 5290, "seems": 5291, "employed": 5292, "spontaneous": 5293, "limitations": 5294, "thickness": 5295, "accurate": 5296, "exce": 5297, "mill": 5298, "From": 5299, "Some": 5300, "matched": 5301, "dimensional": 5302, "##onucle": 5303, "88": 5304, "##asia": 5305, "dietary": 5306, "##uls": 5307, "inser": 5308, "##olip": 5309, "fusion": 5310, "##yth": 5311, "interview": 5312, "unclear": 5313, "Mul": 5314, "82": 5315, "endogenous": 5316, "estimates": 5317, "TGF": 5318, "agon": 5319, "##orrh": 5320, "IgG": 5321, "networks": 5322, "entire": 5323, "Di": 5324, "##osomal": 5325, "stabil": 5326, "explain": 5327, "illness": 5328, "traditional": 5329, "center": 5330, "According": 5331, "##way": 5332, "Bl": 5333, "dog": 5334, "OS": 5335, "transform": 5336, "cultured": 5337, "anat": 5338, "orient": 5339, "##ivers": 5340, "97": 5341, "BP": 5342, "neurolog": 5343, "root": 5344, "##fl": 5345, "excess": 5346, "primarily": 5347, "##ework": 5348, "until": 5349, "retrospective": 5350, "##osin": 5351, "AA": 5352, "diameter": 5353, "undergoing": 5354, "pyr": 5355, "soil": 5356, "gre": 5357, "87": 5358, "93": 5359, "liquid": 5360, "prediction": 5361, "actin": 5362, "NH": 5363, "mode": 5364, "##rec": 5365, "neon": 5366, "79": 5367, "behaviour": 5368, "robust": 5369, "instr": 5370, "polyp": 5371, "recip": 5372, "phenomen": 5373, "emph": 5374, "microg": 5375, "##ili": 5376, "earlier": 5377, "##venous": 5378, "##oxide": 5379, "##irect": 5380, "T2": 5381, "contain": 5382, "issues": 5383, "nutr": 5384, "##EG": 5385, "therapies": 5386, "Ass": 5387, "slightly": 5388, "##RA": 5389, "supported": 5390, "adequ": 5391, "Sec": 5392, "Three": 5393, "##tices": 5394, "probably": 5395, "algorithm": 5396, "MA": 5397, "conserved": 5398, "vitamin": 5399, "media": 5400, "occurrence": 5401, "disrup": 5402, "minor": 5403, "appeared": 5404, "94": 5405, "defects": 5406, "rich": 5407, "superior": 5408, "movement": 5409, "##sis": 5410, "resonance": 5411, "##NP": 5412, "theory": 5413, "abnormalities": 5414, "technology": 5415, "##cents": 5416, "##icles": 5417, "nucleus": 5418, "##ype": 5419, "gain": 5420, "aer": 5421, "achieve": 5422, "independ": 5423, "89": 5424, "##IC": 5425, "##back": 5426, "dil": 5427, "neutral": 5428, "adapt": 5429, "##angu": 5430, "gastro": 5431, "repeated": 5432, "som": 5433, "irradi": 5434, "wound": 5435, "du": 5436, "adren": 5437, "cervical": 5438, "neurop": 5439, "morphology": 5440, "chromat": 5441, "##ocation": 5442, "fed": 5443, "exhibit": 5444, "divided": 5445, "ra": 5446, "nam": 5447, "##abor": 5448, "suppress": 5449, "device": 5450, "correct": 5451, "onc": 5452, "##aching": 5453, "regulate": 5454, "pancreatic": 5455, "biopsy": 5456, "tools": 5457, "##onin": 5458, "seed": 5459, "p53": 5460, "error": 5461, "adhesion": 5462, "urinary": 5463, "Previous": 5464, "##imer": 5465, "cut": 5466, "basic": 5467, "SR": 5468, "##aria": 5469, "##heless": 5470, "largely": 5471, "channels": 5472, "DC": 5473, "transcript": 5474, "wave": 5475, "represents": 5476, "subject": 5477, "medicine": 5478, "framework": 5479, "defic": 5480, "emb": 5481, "tumour": 5482, "Cr": 5483, "protection": 5484, "heat": 5485, "##arin": 5486, "pathological": 5487, "thyroid": 5488, "developmental": 5489, "localization": 5490, "##for": 5491, "retin": 5492, "##olytic": 5493, "##MC": 5494, "GC": 5495, "fund": 5496, "##allel": 5497, "communication": 5498, "FA": 5499, "##portun": 5500, "date": 5501, "Four": 5502, "crucial": 5503, "medication": 5504, "rs": 5505, "meta": 5506, "fetal": 5507, "##immun": 5508, "##FA": 5509, "61": 5510, "##helium": 5511, "cytos": 5512, "##apse": 5513, "##itary": 5514, "fo": 5515, "##K1": 5516, "##ervation": 5517, "feas": 5518, "whose": 5519, "summar": 5520, "working": 5521, "progress": 5522, "epis": 5523, "person": 5524, "##inking": 5525, "TC": 5526, "Spec": 5527, "Anal": 5528, "units": 5529, "ratios": 5530, "BC": 5531, "##ises": 5532, "##OL": 5533, "compl": 5534, "org": 5535, "LV": 5536, "AF": 5537, "occup": 5538, "asthma": 5539, "diverse": 5540, "##ohist": 5541, "abdominal": 5542, "added": 5543, "contains": 5544, "laser": 5545, "invasion": 5546, "loop": 5547, "shift": 5548, "choice": 5549, "healthcare": 5550, "DR": 5551, "exch": 5552, "wa": 5553, "fibrobl": 5554, "deficient": 5555, "Per": 5556, "##uary": 5557, "opportun": 5558, "##derly": 5559, "fluor": 5560, "##ologous": 5561, "NA": 5562, "skill": 5563, "##rac": 5564, "satisf": 5565, "operation": 5566, "shape": 5567, "sed": 5568, "middle": 5569, "##OP": 5570, "fragment": 5571, "##iform": 5572, "##ema": 5573, "typical": 5574, "methylation": 5575, "##tenance": 5576, "radical": 5577, "transgen": 5578, "American": 5579, "comparing": 5580, "nine": 5581, "susceptibility": 5582, "##ude": 5583, "background": 5584, "DS": 5585, "questionnaire": 5586, "band": 5587, "ROS": 5588, "CL": 5589, "database": 5590, "carri": 5591, "intermediate": 5592, "CD8": 5593, "First": 5594, "##ways": 5595, "reflect": 5596, "poll": 5597, "adolescents": 5598, "substantial": 5599, "##ck": 5600, "LPS": 5601, "organic": 5602, "safe": 5603, "own": 5604, "##A1": 5605, "illustr": 5606, "genotype": 5607, "##ections": 5608, "anest": 5609, "motion": 5610, "##IS": 5611, "resources": 5612, "absorption": 5613, "##eli": 5614, "plus": 5615, "PB": 5616, "##igen": 5617, "United": 5618, "Es": 5619, "##adder": 5620, "curve": 5621, "arch": 5622, "minutes": 5623, "IP": 5624, "datas": 5625, "##ember": 5626, "parents": 5627, "apparent": 5628, "subgroup": 5629, "programm": 5630, "rev": 5631, "##pati": 5632, "##ophys": 5633, "##rophy": 5634, "##27": 5635, "positively": 5636, "called": 5637, "spread": 5638, "71": 5639, "##OX": 5640, "explained": 5641, "##ients": 5642, "NP": 5643, "accomp": 5644, "##mia": 5645, "MMP": 5646, "implementation": 5647, "contained": 5648, "tetr": 5649, "##tingu": 5650, "overl": 5651, "##ished": 5652, "signs": 5653, "growing": 5654, "burden": 5655, "##ogens": 5656, "initiation": 5657, "De": 5658, "##cular": 5659, "descrip": 5660, "uns": 5661, "OH": 5662, "accept": 5663, "metastatic": 5664, "classified": 5665, "##ancies": 5666, "interf": 5667, "except": 5668, "Be": 5669, "eg": 5670, "##eta": 5671, "ann": 5672, "##fication": 5673, "fron": 5674, "fibrosis": 5675, "##ighted": 5676, "institution": 5677, "maintenance": 5678, "eluc": 5679, "perceived": 5680, "chol": 5681, "accel": 5682, "potent": 5683, "donor": 5684, "probability": 5685, "next": 5686, "##let": 5687, "GP": 5688, "##man": 5689, "thought": 5690, "elderly": 5691, "regen": 5692, "counter": 5693, "CSF": 5694, "thor": 5695, "##ran": 5696, "displayed": 5697, "##itone": 5698, "presentation": 5699, "tolerance": 5700, "infar": 5701, "micros": 5702, "Other": 5703, "##EP": 5704, "sectional": 5705, "distingu": 5706, "decreases": 5707, "hydrogen": 5708, "questions": 5709, "##asons": 5710, "##ronch": 5711, "inac": 5712, "##lerosis": 5713, "##rel": 5714, "##iffer": 5715, "interpret": 5716, "##wenty": 5717, "##imen": 5718, "gest": 5719, "##cal": 5720, "allele": 5721, "optical": 5722, "##odynamic": 5723, "Nor": 5724, "extract": 5725, "##NC": 5726, "##IR": 5727, "SL": 5728, "closely": 5729, "cytokine": 5730, "SH": 5731, "motif": 5732, "latter": 5733, "remaining": 5734, "##ectively": 5735, "done": 5736, "ray": 5737, "##antly": 5738, "Trans": 5739, "typically": 5740, "##itals": 5741, "beneficial": 5742, "service": 5743, "depth": 5744, "challenges": 5745, "trauma": 5746, "spl": 5747, "Clinical": 5748, "##ulatory": 5749, "implications": 5750, "vector": 5751, "fast": 5752, "##asal": 5753, "haem": 5754, "recognized": 5755, "suitable": 5756, "infil": 5757, "atr": 5758, "vel": 5759, "extensive": 5760, "varied": 5761, "conclude": 5762, "##certain": 5763, "eyes": 5764, "encoding": 5765, "ovarian": 5766, "psychological": 5767, "##unding": 5768, "element": 5769, "##ician": 5770, "##25": 5771, "speed": 5772, "graft": 5773, "feature": 5774, "mM": 5775, "##ready": 5776, "##iral": 5777, "phyl": 5778, "thereby": 5779, "oxidation": 5780, "cathe": 5781, "membranes": 5782, "settings": 5783, "##uit": 5784, "##ozyg": 5785, "transpor": 5786, "hab": 5787, "##organ": 5788, "goal": 5789, "parallel": 5790, "##used": 5791, "physicians": 5792, "aud": 5793, "cord": 5794, "face": 5795, "blot": 5796, "fin": 5797, "marrow": 5798, "run": 5799, "cover": 5800, "accompan": 5801, "##tious": 5802, "biochemical": 5803, "platelet": 5804, "neutroph": 5805, "antim": 5806, "Sm": 5807, "##okine": 5808, "already": 5809, "##ton": 5810, "precurs": 5811, "restor": 5812, "##rocytes": 5813, "FD": 5814, "opp": 5815, "influenced": 5816, "sampling": 5817, "NK": 5818, "cycl": 5819, "prem": 5820, "feeding": 5821, "detailed": 5822, "subunit": 5823, "tail": 5824, "dominant": 5825, "##oked": 5826, "cereb": 5827, "tomography": 5828, "magnitude": 5829, "economic": 5830, "##ifications": 5831, "MAP": 5832, "##ivalent": 5833, "HCC": 5834, "noise": 5835, "##lim": 5836, "decline": 5837, "##tead": 5838, "users": 5839, "##70": 5840, "phosphate": 5841, "independently": 5842, "recombinant": 5843, "marg": 5844, "matter": 5845, "DA": 5846, "Recent": 5847, "##down": 5848, "##olysis": 5849, "miss": 5850, "includes": 5851, "tri": 5852, "partially": 5853, "##osal": 5854, "CY": 5855, "extended": 5856, "nucleotide": 5857, "cis": 5858, "##ocar": 5859, "distal": 5860, "##ext": 5861, "clinic": 5862, "500": 5863, "ID": 5864, "viruses": 5865, "##aries": 5866, "Or": 5867, "##avage": 5868, "langu": 5869, "vas": 5870, "New": 5871, "nerv": 5872, "aortic": 5873, "##icrob": 5874, "##ythm": 5875, "serious": 5876, "##ori": 5877, "facilitate": 5878, "extraction": 5879, "node": 5880, "81": 5881, "TA": 5882, "##SD": 5883, "##rosc": 5884, "understood": 5885, "##pectively": 5886, "##21": 5887, "Mean": 5888, "demographic": 5889, "nanoparticles": 5890, "suppression": 5891, "failed": 5892, "Dec": 5893, "fall": 5894, "National": 5895, "##BC": 5896, "ethn": 5897, "##truction": 5898, "China": 5899, "##tering": 5900, "##acchar": 5901, "##yle": 5902, "##wide": 5903, "recurrent": 5904, "devi": 5905, "##30": 5906, "regular": 5907, "rab": 5908, "urine": 5909, "fracture": 5910, "minimal": 5911, "correlations": 5912, "princip": 5913, "Western": 5914, "ten": 5915, "##opic": 5916, "affects": 5917, "reliable": 5918, "veloc": 5919, "Bi": 5920, "break": 5921, "##chers": 5922, "epidem": 5923, "Gl": 5924, "06": 5925, "perme": 5926, "challeng": 5927, "indirect": 5928, "##Es": 5929, "##TR": 5930, "stimulus": 5931, "##treated": 5932, "RR": 5933, "prolonged": 5934, "purified": 5935, "den": 5936, "##ellent": 5937, "possibly": 5938, "adjust": 5939, "take": 5940, "hydroph": 5941, "national": 5942, "##mitted": 5943, "Cu": 5944, "oxide": 5945, "rest": 5946, "balance": 5947, "ads": 5948, "bleeding": 5949, "##mic": 5950, "##HA": 5951, "HCV": 5952, "validated": 5953, "##38": 5954, "##EL": 5955, "variations": 5956, "##DM": 5957, "##inese": 5958, "UV": 5959, "Such": 5960, "explored": 5961, "organization": 5962, "pediatric": 5963, "acetyl": 5964, "##biqu": 5965, "Is": 5966, "comprehensive": 5967, "##Cl": 5968, "SM": 5969, "effectively": 5970, "pal": 5971, "intravenous": 5972, "Chinese": 5973, "##isions": 5974, "##itudinal": 5975, "##P1": 5976, "delayed": 5977, "Cd": 5978, "haz": 5979, "biomarkers": 5980, "Sch": 5981, "lymphocytes": 5982, "##hing": 5983, "TLR": 5984, "generate": 5985, "##B1": 5986, "##GA": 5987, "##enza": 5988, "expect": 5989, "workers": 5990, "devices": 5991, "localized": 5992, "regis": 5993, "Only": 5994, "occurring": 5995, "##uting": 5996, "##UC": 5997, "improving": 5998, "risks": 5999, "allowed": 6000, "autom": 6001, "##40": 6002, "overexpression": 6003, "induces": 6004, "cav": 6005, "fish": 6006, "Compared": 6007, "antioxidant": 6008, "Similarly": 6009, "express": 6010, "driven": 6011, "sensory": 6012, "##forms": 6013, "ech": 6014, "swit": 6015, "histological": 6016, "periods": 6017, "practices": 6018, "amounts": 6019, "athe": 6020, "maintained": 6021, "Partic": 6022, "ultrasound": 6023, "theore": 6024, "modification": 6025, "##ache": 6026, "metabolites": 6027, "consecutive": 6028, "emotional": 6029, "pool": 6030, "original": 6031, "##part": 6032, "preparation": 6033, "##EA": 6034, "introduced": 6035, "propose": 6036, "computed": 6037, "Second": 6038, "##oxy": 6039, "axis": 6040, "analysed": 6041, "ranged": 6042, "amb": 6043, "expans": 6044, "elic": 6045, "##idal": 6046, "parameter": 6047, "coding": 6048, "ye": 6049, "electroph": 6050, "pathology": 6051, "neck": 6052, "##ectal": 6053, "##enchym": 6054, "efforts": 6055, "coupled": 6056, "recruit": 6057, "##yros": 6058, "##ament": 6059, "iden": 6060, "ranging": 6061, "acquired": 6062, "morphological": 6063, "##umab": 6064, "##aro": 6065, "labeled": 6066, "##ban": 6067, "States": 6068, "consequences": 6069, "##BD": 6070, "injuries": 6071, "ubiqu": 6072, "enrolled": 6073, "gradi": 6074, "ET": 6075, "germ": 6076, "##lyc": 6077, "infusion": 6078, "##ches": 6079, "fixed": 6080, "91": 6081, "##sp": 6082, "##otr": 6083, "word": 6084, "attr": 6085, "##versely": 6086, "Many": 6087, "diffusion": 6088, "nervous": 6089, "autophag": 6090, "Jap": 6091, "##ostasis": 6092, "polymerase": 6093, "IGF": 6094, "hospitals": 6095, "advantage": 6096, "deletion": 6097, "##ica": 6098, "retinal": 6099, "competi": 6100, "##ners": 6101, "har": 6102, "ure": 6103, "commerc": 6104, "conjug": 6105, "native": 6106, "adop": 6107, "##Is": 6108, "##amb": 6109, "operative": 6110, "intact": 6111, "##IT": 6112, "fig": 6113, "height": 6114, "hazard": 6115, "eryth": 6116, "Dep": 6117, "##rophic": 6118, "assembly": 6119, "##ials": 6120, "excellent": 6121, "##ospital": 6122, "dors": 6123, "transduc": 6124, "angle": 6125, "circum": 6126, "wr": 6127, "variant": 6128, "sat": 6129, "synthetic": 6130, "arm": 6131, "attributed": 6132, "tel": 6133, "sets": 6134, "##umn": 6135, "align": 6136, "bronch": 6137, "spor": 6138, "intern": 6139, "lowest": 6140, "clusters": 6141, "ischemic": 6142, "rise": 6143, "vac": 6144, "proximal": 6145, "manifest": 6146, "smo": 6147, "##enter": 6148, "identical": 6149, "2010": 6150, "Also": 6151, "fiber": 6152, "##urine": 6153, "##ping": 6154, "move": 6155, "##eting": 6156, "##ested": 6157, "analyze": 6158, "##EN": 6159, "documented": 6160, "substrates": 6161, "##VID": 6162, "randomly": 6163, "##iciently": 6164, "Zn": 6165, "possess": 6166, "VEGF": 6167, "##ercul": 6168, "##iph": 6169, "necrosis": 6170, "##gue": 6171, "##Fs": 6172, "degen": 6173, "synthesized": 6174, "affecting": 6175, "##atib": 6176, "younger": 6177, "serve": 6178, "soluble": 6179, "El": 6180, "##yz": 6181, "##cribed": 6182, "##23": 6183, "favor": 6184, "benz": 6185, "PV": 6186, "oil": 6187, "##unc": 6188, "routine": 6189, "pneumonia": 6190, "Fr": 6191, "stor": 6192, "##acer": 6193, "miRNAs": 6194, "determination": 6195, "##ict": 6196, "BD": 6197, "Par": 6198, "Pol": 6199, "ions": 6200, "conform": 6201, "##ectious": 6202, "##azole": 6203, "correspond": 6204, "display": 6205, "transient": 6206, "##otypic": 6207, "regulating": 6208, "engine": 6209, "distr": 6210, "NC": 6211, "exchange": 6212, "vul": 6213, "implicated": 6214, "delay": 6215, "##itus": 6216, "numerous": 6217, "spectra": 6218, "reporting": 6219, "##acted": 6220, "producing": 6221, "availability": 6222, "##urrent": 6223, "mostly": 6224, "##ilep": 6225, "language": 6226, "progressive": 6227, "##oscopy": 6228, "equal": 6229, "seiz": 6230, "pairs": 6231, "##3K": 6232, "Jan": 6233, "volun": 6234, "issue": 6235, "sensor": 6236, "immunos": 6237, "aging": 6238, "fal": 6239, "kD": 6240, "##hal": 6241, "bul": 6242, "comput": 6243, "belong": 6244, "barrier": 6245, "##artment": 6246, "immunohist": 6247, "##wise": 6248, "microbial": 6249, "inclusion": 6250, "CK": 6251, "dogs": 6252, "extracted": 6253, "ker": 6254, "##osine": 6255, "capable": 6256, "nod": 6257, "injected": 6258, "nodes": 6259, "deaths": 6260, "##insic": 6261, "probe": 6262, "Met": 6263, "tax": 6264, "##teen": 6265, "##osome": 6266, "variance": 6267, "neph": 6268, "plastic": 6269, "coefficient": 6270, "milk": 6271, "taking": 6272, "Given": 6273, "chromatography": 6274, "interv": 6275, "##ware": 6276, "##urg": 6277, "HLA": 6278, "pathogen": 6279, "nons": 6280, "mammalian": 6281, "HPV": 6282, "##jection": 6283, "fibers": 6284, "accep": 6285, "downstream": 6286, "thermal": 6287, "markedly": 6288, "ischemia": 6289, "organisms": 6290, "childhood": 6291, "abundance": 6292, "##oscopic": 6293, "##Ms": 6294, "true": 6295, "TP": 6296, "emergency": 6297, "return": 6298, "synaptic": 6299, "reconstruction": 6300, "S2": 6301, "##ialysis": 6302, "##gens": 6303, "tre": 6304, "si": 6305, "regional": 6306, "negatively": 6307, "##aryng": 6308, "tasks": 6309, "dental": 6310, "controlling": 6311, "##hesia": 6312, "##ontin": 6313, "##undred": 6314, "reasons": 6315, "check": 6316, "amyl": 6317, "house": 6318, "##ione": 6319, "opi": 6320, "obese": 6321, "ethanol": 6322, "lap": 6323, "schiz": 6324, "compart": 6325, "LD": 6326, "##bre": 6327, "depending": 6328, "Six": 6329, "\u00b0C": 6330, "predictors": 6331, "\u03bcg": 6332, "ring": 6333, "parent": 6334, "verte": 6335, "smooth": 6336, "300": 6337, "##yond": 6338, "acceler": 6339, "researchers": 6340, "##ermal": 6341, "caps": 6342, "adherence": 6343, "##atically": 6344, "##ped": 6345, "influenza": 6346, "separate": 6347, "##izations": 6348, "errors": 6349, "##ynthesis": 6350, "AMP": 6351, "concluded": 6352, "venti": 6353, "hundred": 6354, "shock": 6355, "atom": 6356, "##ows": 6357, "##activity": 6358, "ana": 6359, "decl": 6360, "restricted": 6361, "integrated": 6362, "07": 6363, "dend": 6364, "receive": 6365, "##enic": 6366, "dependence": 6367, "candidate": 6368, "08": 6369, "##tives": 6370, "traits": 6371, "##ION": 6372, "skeletal": 6373, "residual": 6374, "staff": 6375, "##itative": 6376, "apoptotic": 6377, "organs": 6378, "admission": 6379, "collection": 6380, "eti": 6381, "ast": 6382, "involves": 6383, "ide": 6384, "steps": 6385, "rabb": 6386, "##theless": 6387, "preoperative": 6388, "pack": 6389, "AK": 6390, "##TA": 6391, "2015": 6392, "discharge": 6393, "##ensus": 6394, "##DS": 6395, "##itory": 6396, "2012": 6397, "solutions": 6398, "mis": 6399, "##arged": 6400, "EP": 6401, "gover": 6402, "longitudinal": 6403, "##Vs": 6404, "feedback": 6405, "mothers": 6406, "reached": 6407, "count": 6408, "tyros": 6409, "attemp": 6410, "COVID": 6411, "bladder": 6412, "downreg": 6413, "yeast": 6414, "##anded": 6415, "reverse": 6416, "expansion": 6417, "##enes": 6418, "always": 6419, "##ensions": 6420, "University": 6421, "policy": 6422, "heterogeneity": 6423, "Em": 6424, "poorly": 6425, "assigned": 6426, "##err": 6427, "##ochemistry": 6428, "glutam": 6429, "multivariate": 6430, "bilateral": 6431, "##mental": 6432, "##ements": 6433, "knee": 6434, "##get": 6435, "##HR": 6436, "##ned": 6437, "definition": 6438, "crystall": 6439, "healing": 6440, "##urally": 6441, "Resear": 6442, "identifying": 6443, "relax": 6444, "cad": 6445, "directed": 6446, "##iment": 6447, "logistic": 6448, "IS": 6449, "##ophage": 6450, "##ocrine": 6451, "##dr": 6452, "##ophren": 6453, "##thal": 6454, "High": 6455, "threat": 6456, "##ods": 6457, "Ev": 6458, "impl": 6459, "allel": 6460, "##ancing": 6461, "electronic": 6462, "##ime": 6463, "vaccination": 6464, "intervals": 6465, "identi": 6466, "output": 6467, "##ma": 6468, "hypothesized": 6469, "##acent": 6470, "casp": 6471, "2014": 6472, "EM": 6473, "input": 6474, "pseud": 6475, "discre": 6476, "antigens": 6477, "2D": 6478, "adequate": 6479, "European": 6480, "##rium": 6481, "simulation": 6482, "income": 6483, "hydroly": 6484, "referred": 6485, "hepatitis": 6486, "viability": 6487, "frequencies": 6488, "##ls": 6489, "junction": 6490, "urban": 6491, "##train": 6492, "##28": 6493, "vag": 6494, "##illance": 6495, "outs": 6496, "##ignific": 6497, "##osterone": 6498, "##IF": 6499, "##ued": 6500, "vessels": 6501, "accoun": 6502, "amplitude": 6503, "disturb": 6504, "##ovirus": 6505, "just": 6506, "functioning": 6507, "##intestinal": 6508, "##ectric": 6509, "2013": 6510, "##RS": 6511, "Treatment": 6512, "presents": 6513, "comorb": 6514, "spectrom": 6515, "blind": 6516, "EB": 6517, "MB": 6518, "kill": 6519, "suppressed": 6520, "##lycer": 6521, "communities": 6522, "lob": 6523, "inher": 6524, "subsequently": 6525, "##ipl": 6526, "##cl": 6527, "persons": 6528, "easily": 6529, "Meth": 6530, "shorter": 6531, "phenotypes": 6532, "progen": 6533, "records": 6534, "##26": 6535, "infarction": 6536, "##icrobial": 6537, "##ococcus": 6538, "distributed": 6539, "PET": 6540, "SF": 6541, "Rh": 6542, "fill": 6543, "Inde": 6544, "##\u22121": 6545, "caro": 6546, "storage": 6547, "measuring": 6548, "nutri": 6549, "depends": 6550, "Indeed": 6551, "pathogens": 6552, "Recently": 6553, "green": 6554, "##cap": 6555, "##GE": 6556, "experiences": 6557, "dispers": 6558, "modulation": 6559, "African": 6560, "particle": 6561, "dehyd": 6562, "GS": 6563, "nearly": 6564, "once": 6565, "mim": 6566, "replacement": 6567, "skills": 6568, "mature": 6569, "##rate": 6570, "separation": 6571, "circulating": 6572, "Dr": 6573, "enhancement": 6574, "newly": 6575, "spectroscopy": 6576, "##ocarcin": 6577, "##actic": 6578, "tun": 6579, "track": 6580, "##olding": 6581, "coverage": 6582, "Col": 6583, "velocity": 6584, "limb": 6585, "demonstrates": 6586, "##entia": 6587, "##LP": 6588, "Twenty": 6589, "draw": 6590, "##oxyl": 6591, "categories": 6592, "infectious": 6593, "surge": 6594, "##24": 6595, "presenting": 6596, "##osity": 6597, "persistent": 6598, "SE": 6599, "##entific": 6600, "##oglobin": 6601, "sustained": 6602, "accompanied": 6603, "antibiotics": 6604, "##uff": 6605, "intensive": 6606, "reduces": 6607, "Another": 6608, "##ept": 6609, "T1": 6610, "Hospital": 6611, "initially": 6612, "##ologists": 6613, "##ked": 6614, "immunity": 6615, "##isons": 6616, "considerable": 6617, "surfaces": 6618, "uter": 6619, "pregnant": 6620, "##itoneal": 6621, "##Ds": 6622, "##oin": 6623, "##uvant": 6624, "neurological": 6625, "volt": 6626, "conversion": 6627, "complication": 6628, "##RP": 6629, "##patient": 6630, "January": 6631, "varying": 6632, "recommendations": 6633, "nursing": 6634, "melanoma": 6635, "coupling": 6636, "simulations": 6637, "changed": 6638, "pla": 6639, "##enetic": 6640, "Mod": 6641, "hydroxy": 6642, "##athy": 6643, "##kin": 6644, "##oblast": 6645, "schizophren": 6646, "susp": 6647, "manip": 6648, "characterization": 6649, "ligands": 6650, "column": 6651, "determining": 6652, "uncertain": 6653, "conflic": 6654, "\u03bcm": 6655, "equivalent": 6656, "##erculosis": 6657, "clar": 6658, "2016": 6659, "##be": 6660, "causing": 6661, "PH": 6662, "items": 6663, "Exper": 6664, "##asty": 6665, "2000": 6666, "minimum": 6667, "explan": 6668, "none": 6669, "##time": 6670, "##60": 6671, "beyond": 6672, "simultaneously": 6673, "Particip": 6674, "TS": 6675, "##anine": 6676, "translation": 6677, "LT": 6678, "thym": 6679, "kDa": 6680, "crystal": 6681, "2009": 6682, "characterize": 6683, "autoimmun": 6684, "computer": 6685, "dram": 6686, "##aline": 6687, "extracts": 6688, "interact": 6689, "##oved": 6690, "##olecular": 6691, "Immun": 6692, "Additional": 6693, "##treatment": 6694, "bp": 6695, "2011": 6696, "modeling": 6697, "LA": 6698, "diver": 6699, "contrac": 6700, "recruitment": 6701, "airway": 6702, "##oded": 6703, "##iaz": 6704, "##29": 6705, "CN": 6706, "RP": 6707, "foll": 6708, "##ociation": 6709, "##GS": 6710, "itself": 6711, "ben": 6712, "##amination": 6713, "endom": 6714, "Studies": 6715, "##mediately": 6716, "nurses": 6717, "##anth": 6718, "metastases": 6719, "venous": 6720, "defect": 6721, "SNPs": 6722, "##abilities": 6723, "##riched": 6724, "released": 6725, "gastrointestinal": 6726, "Study": 6727, "seek": 6728, "##34": 6729, "##ighb": 6730, "hypoxia": 6731, "fractures": 6732, "##ypt": 6733, "nitrogen": 6734, "##lusions": 6735, "promoting": 6736, "perception": 6737, "##OM": 6738, "maximal": 6739, "##fort": 6740, "microbi": 6741, "pharmacological": 6742, "mach": 6743, "Follow": 6744, "graf": 6745, "tit": 6746, "sizes": 6747, "GAB": 6748, "reproductive": 6749, "planning": 6750, "hair": 6751, "##ah": 6752, "catalytic": 6753, "##opo": 6754, "hemorrh": 6755, "million": 6756, "validity": 6757, "adjacent": 6758, "##omers": 6759, "investigations": 6760, "placed": 6761, "irradiation": 6762, "attit": 6763, "phenomenon": 6764, "neonatal": 6765, "##oline": 6766, "removed": 6767, "died": 6768, "transformation": 6769, "epilep": 6770, "charge": 6771, "interface": 6772, "##itted": 6773, "give": 6774, "dual": 6775, "##ifying": 6776, "begin": 6777, "NT": 6778, "composed": 6779, "putative": 6780, "socio": 6781, "##ilities": 6782, "validation": 6783, "Comp": 6784, "##factory": 6785, "enriched": 6786, "##point": 6787, "integration": 6788, "09": 6789, "CX": 6790, "colorectal": 6791, "##ophageal": 6792, "muscles": 6793, "version": 6794, "mitochondria": 6795, "actions": 6796, "150": 6797, "salt": 6798, "SU": 6799, "##ai": 6800, "##otal": 6801, "##ofil": 6802, "##Ns": 6803, "transcripts": 6804, "hour": 6805, "gli": 6806, "##Rs": 6807, "atherosc": 6808, "RS": 6809, "sections": 6810, "120": 6811, "absol": 6812, "fewer": 6813, "mol": 6814, "walk": 6815, "##57": 6816, "worldwide": 6817, "##ellar": 6818, "represented": 6819, "reliability": 6820, "egg": 6821, "Cor": 6822, "##rief": 6823, "##enari": 6824, "##igible": 6825, "##isition": 6826, "theoretical": 6827, "rural": 6828, "miRNA": 6829, "##ota": 6830, "panel": 6831, "LDL": 6832, "##achment": 6833, "remod": 6834, "Cont": 6835, "psychiatric": 6836, "assessing": 6837, "summary": 6838, "neighb": 6839, "repeat": 6840, "homeostasis": 6841, "TH": 6842, "gut": 6843, "excluded": 6844, "hard": 6845, "emission": 6846, "stay": 6847, "reper": 6848, "##iveness": 6849, "Inf": 6850, "cortic": 6851, "utilized": 6852, "Differ": 6853, "lar": 6854, "benign": 6855, "EGFR": 6856, "drop": 6857, "cleavage": 6858, "mention": 6859, "##nel": 6860, "incubation": 6861, "##aper": 6862, "retention": 6863, "splic": 6864, "dementia": 6865, "embryos": 6866, "Research": 6867, "Dis": 6868, "##resh": 6869, "buil": 6870, "tyrosine": 6871, "fibroblasts": 6872, "ple": 6873, "transgenic": 6874, "appearance": 6875, "Never": 6876, "predominantly": 6877, "satisfaction": 6878, "loci": 6879, "##ocytosis": 6880, "live": 6881, "antagonist": 6882, "clim": 6883, "scaff": 6884, "substance": 6885, "define": 6886, "cul": 6887, "locus": 6888, "GFP": 6889, "reach": 6890, "##ulum": 6891, "recruited": 6892, "ground": 6893, "depressive": 6894, "Austr": 6895, "lacking": 6896, "identity": 6897, "congen": 6898, "adaptive": 6899, "articles": 6900, "improvements": 6901, "Nevertheless": 6902, "\u03baB": 6903, "rod": 6904, "subset": 6905, "##omit": 6906, "##ardi": 6907, "TM": 6908, "plate": 6909, "##ilateral": 6910, "inters": 6911, "sn": 6912, "corne": 6913, "ms": 6914, "##leuk": 6915, "clearance": 6916, "DP": 6917, "Analysis": 6918, "thin": 6919, "##eptide": 6920, "##90": 6921, "susceptible": 6922, "##unct": 6923, "immediately": 6924, "##avy": 6925, "suic": 6926, "similarity": 6927, "decreasing": 6928, "glycos": 6929, "Eng": 6930, "whom": 6931, "##IL": 6932, "caspase": 6933, "spin": 6934, "##habil": 6935, "inhibits": 6936, "##elihood": 6937, "##kt": 6938, "overc": 6939, "400": 6940, "deficits": 6941, "BR": 6942, "acquisition": 6943, "murine": 6944, "##mark": 6945, "Str": 6946, "substit": 6947, "classes": 6948, "leaf": 6949, "myc": 6950, "malaria": 6951, "drinking": 6952, "##urys": 6953, "##ump": 6954, "evident": 6955, "dos": 6956, "compet": 6957, "software": 6958, "temperatures": 6959, "Non": 6960, "ELI": 6961, "supporting": 6962, "kinetics": 6963, "note": 6964, "CNS": 6965, "catheter": 6966, "vein": 6967, "##anged": 6968, "gland": 6969, "##ohyd": 6970, "##P2": 6971, "veh": 6972, "centr": 6973, "surviv": 6974, "gap": 6975, "derivatives": 6976, "attenuated": 6977, "##odon": 6978, "##oe": 6979, "shared": 6980, "##icin": 6981, "parad": 6982, "predictor": 6983, "compens": 6984, "##ady": 6985, "##acco": 6986, "contributes": 6987, "mixture": 6988, "##avirus": 6989, "##oints": 6990, "distinguish": 6991, "##F1": 6992, "rout": 6993, "fields": 6994, "scenari": 6995, "SV": 6996, "deple": 6997, "South": 6998, "recording": 6999, "##ring": 7000, "forming": 7001, "NMR": 7002, "positions": 7003, "##weight": 7004, "schem": 7005, "surveillance": 7006, "##atase": 7007, "contraction": 7008, "clon": 7009, "Intr": 7010, "biology": 7011, "scientific": 7012, "colle": 7013, "##rous": 7014, "##lia": 7015, "dy": 7016, "treating": 7017, "likelihood": 7018, "##oman": 7019, "pulse": 7020, "allowing": 7021, "environments": 7022, "adaptation": 7023, "##acr": 7024, "became": 7025, "online": 7026, "differentiated": 7027, "fluorescent": 7028, "##wh": 7029, "barriers": 7030, "##axis": 7031, "deposition": 7032, "##acting": 7033, "advantages": 7034, "##ests": 7035, "Cell": 7036, "##NK": 7037, "substitution": 7038, "kind": 7039, "Intern": 7040, "##ero": 7041, "intrinsic": 7042, "cycles": 7043, "buff": 7044, "Li": 7045, "autophagy": 7046, "##ocomp": 7047, "strati": 7048, "start": 7049, "Ep": 7050, "exact": 7051, "residue": 7052, "##ience": 7053, "\u03bcM": 7054, "list": 7055, "modul": 7056, "##IA": 7057, "##rounding": 7058, "fibr": 7059, "increasingly": 7060, "phases": 7061, "2008": 7062, "makes": 7063, "##issions": 7064, "gradient": 7065, "providers": 7066, "GABA": 7067, "insight": 7068, "viol": 7069, "aspir": 7070, "curves": 7071, "influences": 7072, "##inger": 7073, "isolation": 7074, "##\u00b0C": 7075, "chromatin": 7076, "applic": 7077, "antimicrobial": 7078, "disability": 7079, "Hb": 7080, "##tivated": 7081, "extremely": 7082, "unli": 7083, "correction": 7084, "respondents": 7085, "layers": 7086, "Participants": 7087, "Mic": 7088, "absolute": 7089, "##IM": 7090, "detectable": 7091, "HM": 7092, "never": 7093, "radiotherapy": 7094, "hypoth": 7095, "##vis": 7096, "##enia": 7097, "room": 7098, "##areness": 7099, "chick": 7100, "member": 7101, "challenging": 7102, "leukemia": 7103, "##urance": 7104, "sinus": 7105, "discovery": 7106, "mineral": 7107, "microM": 7108, "schizophrenia": 7109, "tuberculosis": 7110, "evaluating": 7111, "reactivity": 7112, "extension": 7113, "NAD": 7114, "unf": 7115, "##irty": 7116, "flav": 7117, "lymphoma": 7118, "cytoplasmic": 7119, "instead": 7120, "insights": 7121, "##GT": 7122, "supports": 7123, "genotypes": 7124, "dopamine": 7125, "continued": 7126, "complexity": 7127, "pathogenic": 7128, "substantially": 7129, "utilization": 7130, "##operatively": 7131, "medications": 7132, "surrounding": 7133, "DD": 7134, "interpretation": 7135, "concerns": 7136, "implemented": 7137, "gal": 7138, "entry": 7139, "polymorphism": 7140, "centers": 7141, "emphas": 7142, "##iness": 7143, "cartil": 7144, "##aster": 7145, "modifications": 7146, "scaffold": 7147, "fragments": 7148, "##cill": 7149, "epithelium": 7150, "interesting": 7151, "gold": 7152, "neurode": 7153, "representative": 7154, "E2": 7155, "##ided": 7156, "saline": 7157, "##habilitation": 7158, "##ias": 7159, "maturation": 7160, "untreated": 7161, "embryonic": 7162, "ensure": 7163, "FT": 7164, "qualitative": 7165, "scat": 7166, "aims": 7167, "##load": 7168, "##me": 7169, "##ifer": 7170, "zone": 7171, "subjected": 7172, "loading": 7173, "##bar": 7174, "IT": 7175, "250": 7176, "##ry": 7177, "retro": 7178, "outside": 7179, "constructed": 7180, "anth": 7181, "My": 7182, "##ystolic": 7183, "composite": 7184, "div": 7185, "##udes": 7186, "ELISA": 7187, "##iance": 7188, "consisted": 7189, "Cal": 7190, "##otropic": 7191, "dorsal": 7192, "##tition": 7193, "regulates": 7194, "##atid": 7195, "##ury": 7196, "thi": 7197, "##oming": 7198, "sten": 7199, "utility": 7200, "black": 7201, "greatly": 7202, "perfusion": 7203, "pure": 7204, "largest": 7205, "Scale": 7206, "##rotein": 7207, "##EF": 7208, "##aemia": 7209, "careg": 7210, "##dehyd": 7211, "Each": 7212, "considering": 7213, "agonist": 7214, "##R1": 7215, "##vance": 7216, "##enchymal": 7217, "heavy": 7218, "inoc": 7219, "array": 7220, "gir": 7221, "##teine": 7222, "valuable": 7223, "aggregation": 7224, "mand": 7225, "##ritic": 7226, "##chron": 7227, "##ocytic": 7228, "##oxin": 7229, "##uous": 7230, "insertion": 7231, "##aving": 7232, "##alling": 7233, "perc": 7234, "##atch": 7235, "Increas": 7236, "##alities": 7237, "1000": 7238, "describes": 7239, "ML": 7240, "Hence": 7241, "inducing": 7242, "##oclonal": 7243, "##rie": 7244, "pathophys": 7245, "team": 7246, "mapping": 7247, "GH": 7248, "Figures": 7249, "##queous": 7250, "exclus": 7251, "depletion": 7252, "##ette": 7253, "##uman": 7254, "comparisons": 7255, "obvious": 7256, "Child": 7257, "proph": 7258, "parts": 7259, "##ks": 7260, "encoun": 7261, "chest": 7262, "Sal": 7263, "##omical": 7264, "OA": 7265, "estrogen": 7266, "##term": 7267, "##uf": 7268, "STAT": 7269, "consensus": 7270, "##oside": 7271, "medial": 7272, "##rich": 7273, "aug": 7274, "cytotoxic": 7275, "lost": 7276, "##owel": 7277, "fresh": 7278, "Can": 7279, "##leukin": 7280, "partners": 7281, "##luores": 7282, "##uria": 7283, "excit": 7284, "follows": 7285, "Hyp": 7286, "Neu": 7287, "##eds": 7288, "practical": 7289, "limits": 7290, "orientation": 7291, "##ensis": 7292, "counts": 7293, "Sw": 7294, "ways": 7295, "thorac": 7296, "sti": 7297, "electrical": 7298, "segments": 7299, "enab": 7300, "diminis": 7301, "tube": 7302, "##ignificant": 7303, "pel": 7304, "participation": 7305, "meaning": 7306, "subunits": 7307, "RF": 7308, "##ypes": 7309, "##amental": 7310, "##ectors": 7311, "Medical": 7312, "penetr": 7313, "emerging": 7314, "consequence": 7315, "##ozygous": 7316, "hearing": 7317, "strom": 7318, "##anted": 7319, "remark": 7320, "pert": 7321, "##ather": 7322, "##CD": 7323, "heterogeneous": 7324, "ane": 7325, "scanning": 7326, "physician": 7327, "arthritis": 7328, "standardized": 7329, "spectrometry": 7330, "##lux": 7331, "##80": 7332, "##EV": 7333, "fractions": 7334, "##bl": 7335, "assist": 7336, "##itect": 7337, "##ptomatic": 7338, "implantation": 7339, "##22": 7340, "vulner": 7341, "Ang": 7342, "bov": 7343, "estimation": 7344, "##cephal": 7345, "ages": 7346, "binds": 7347, "oscill": 7348, "polymorphisms": 7349, "voltage": 7350, "dip": 7351, "options": 7352, "activate": 7353, "##tial": 7354, "TF": 7355, "##ought": 7356, "GA": 7357, "infant": 7358, "abundant": 7359, "uniform": 7360, "smokers": 7361, "BA": 7362, "##atigue": 7363, "consisting": 7364, "arg": 7365, "##illin": 7366, "actual": 7367, "##nt": 7368, "##BL": 7369, "##mentation": 7370, "2017": 7371, "immediate": 7372, "situation": 7373, "persist": 7374, "##umul": 7375, "extra": 7376, "ket": 7377, "valve": 7378, "conduct": 7379, "atrial": 7380, "TT": 7381, "wind": 7382, "distress": 7383, "professional": 7384, "too": 7385, "differentially": 7386, "precise": 7387, "consistently": 7388, "excre": 7389, "autoimmune": 7390, "govern": 7391, "foot": 7392, "highlight": 7393, "##uments": 7394, "ones": 7395, "tob": 7396, "prevented": 7397, "##ana": 7398, "asymm": 7399, "##illus": 7400, "fever": 7401, "##LS": 7402, "habit": 7403, "commercial": 7404, "##agement": 7405, "##edic": 7406, "dry": 7407, "aqueous": 7408, "radio": 7409, "regeneration": 7410, "##ontal": 7411, "##ensin": 7412, "##ilib": 7413, "System": 7414, "adenocarcin": 7415, "##oidal": 7416, "clinicians": 7417, "##vic": 7418, "##ott": 7419, "197": 7420, "##auc": 7421, "pron": 7422, "parental": 7423, "mT": 7424, "lapa": 7425, "veget": 7426, "prevalent": 7427, "libr": 7428, "##olin": 7429, "upregulated": 7430, "locations": 7431, "config": 7432, "promotes": 7433, "stronger": 7434, "rar": 7435, "derm": 7436, "glutamate": 7437, "aneurys": 7438, "Import": 7439, "##amus": 7440, "arteries": 7441, "admitted": 7442, "awareness": 7443, "trends": 7444, "##prising": 7445, "systolic": 7446, "GR": 7447, "resource": 7448, "##ilibrium": 7449, "##tt": 7450, "gang": 7451, "albumin": 7452, "granul": 7453, "predicting": 7454, "##lets": 7455, "household": 7456, "tobacco": 7457, "inhibiting": 7458, "##umor": 7459, "requirements": 7460, "##break": 7461, "##OH": 7462, "##ote": 7463, "##adily": 7464, "precursor": 7465, "diges": 7466, "2007": 7467, "##going": 7468, "pac": 7469, "az": 7470, "residents": 7471, "au": 7472, "construct": 7473, "2A": 7474, "rhe": 7475, "##rot": 7476, "promin": 7477, "fixation": 7478, "microgr": 7479, "##yte": 7480, "Hg": 7481, "indicators": 7482, "aggressive": 7483, "introduction": 7484, "regardless": 7485, "WH": 7486, "regimen": 7487, "##ogram": 7488, "limiting": 7489, "CRC": 7490, "requiring": 7491, "concerning": 7492, "symptomatic": 7493, "biosynthesis": 7494, "adjustment": 7495, "protocols": 7496, "##enal": 7497, "##ensities": 7498, "virul": 7499, "option": 7500, "demonstrating": 7501, "monitored": 7502, "alleles": 7503, "country": 7504, "##lyce": 7505, "existence": 7506, "starting": 7507, "volunte": 7508, "##ached": 7509, "##plasia": 7510, "uses": 7511, "CG": 7512, "MM": 7513, "Mg": 7514, "##cript": 7515, "suspected": 7516, "##apped": 7517, "chains": 7518, "glycop": 7519, "##igm": 7520, "separated": 7521, "Ma": 7522, "##ends": 7523, "transm": 7524, "visits": 7525, "sarc": 7526, "differed": 7527, "Qu": 7528, "##otomy": 7529, "cartilage": 7530, "sought": 7531, "##omycin": 7532, "absent": 7533, "coc": 7534, "acting": 7535, "##adic": 7536, "nuclei": 7537, "correlate": 7538, "hippocampus": 7539, "created": 7540, "##oon": 7541, "hr": 7542, "yielded": 7543, "false": 7544, "evolutionary": 7545, "hapl": 7546, "125": 7547, "##oli": 7548, "##LD": 7549, "perspective": 7550, "concomit": 7551, "mentioned": 7552, "relevance": 7553, "COPD": 7554, "professionals": 7555, "biofil": 7556, "proved": 7557, "electroc": 7558, "jud": 7559, "lipoprotein": 7560, "vessel": 7561, "##65": 7562, "empir": 7563, "hex": 7564, "##CLC": 7565, "##ads": 7566, "supplementation": 7567, "cDNA": 7568, "preventing": 7569, "blue": 7570, "epig": 7571, "classical": 7572, "DT": 7573, "2005": 7574, "monoclonal": 7575, "##acin": 7576, "##ze": 7577, "instrument": 7578, "delivered": 7579, "zinc": 7580, "rehabilitation": 7581, "##lip": 7582, "decades": 7583, "consists": 7584, "asc": 7585, "blocked": 7586, "advances": 7587, "involve": 7588, "1A": 7589, "##ecal": 7590, "amyloid": 7591, "subtypes": 7592, "grown": 7593, "abuse": 7594, "ultim": 7595, "Taken": 7596, "outbreak": 7597, "Hz": 7598, "##ayer": 7599, "##ocardi": 7600, "fundamental": 7601, "Post": 7602, "ethyl": 7603, "##Hg": 7604, "max": 7605, "educational": 7606, "knockdown": 7607, "displac": 7608, "CON": 7609, "unex": 7610, "##ordance": 7611, "HDL": 7612, "nasal": 7613, "##ferase": 7614, "namely": 7615, "extens": 7616, "2006": 7617, "Akt": 7618, "databases": 7619, "##rect": 7620, "addressed": 7621, "arrest": 7622, "cold": 7623, "##arrow": 7624, "TG": 7625, "##ley": 7626, "maintaining": 7627, "##appa": 7628, "##oic": 7629, "neither": 7630, "scales": 7631, "ps": 7632, "analges": 7633, "glomer": 7634, "##ogether": 7635, "DH": 7636, "initiated": 7637, "##plex": 7638, "histone": 7639, "##sin": 7640, "##plicit": 7641, "author": 7642, "inner": 7643, "pil": 7644, "perf": 7645, "##essions": 7646, "##entive": 7647, "End": 7648, "Medic": 7649, "decisions": 7650, "SAR": 7651, "sho": 7652, "exists": 7653, "##born": 7654, "methodology": 7655, "macrophage": 7656, "##AMP": 7657, "##ophosph": 7658, "##henyl": 7659, "Pub": 7660, "movements": 7661, "leaves": 7662, "ongoing": 7663, "hypothes": 7664, "trim": 7665, "combinations": 7666, "reinf": 7667, "##phosph": 7668, "##opathological": 7669, "donors": 7670, "why": 7671, "replic": 7672, "twice": 7673, "decomp": 7674, "retrie": 7675, "##off": 7676, "##oor": 7677, "Si": 7678, "prophyl": 7679, "Hep": 7680, "##mal": 7681, "##acet": 7682, "sple": 7683, "episodes": 7684, "Jun": 7685, "elevation": 7686, "candid": 7687, "##abric": 7688, "Following": 7689, "##inating": 7690, "##ceptions": 7691, "PO": 7692, "##plete": 7693, "aberr": 7694, "##pass": 7695, "aure": 7696, "contributed": 7697, "Gu": 7698, "S3": 7699, "bowel": 7700, "faster": 7701, "timing": 7702, "fatigue": 7703, "rig": 7704, "breat": 7705, "cavity": 7706, "guide": 7707, "##ash": 7708, "AV": 7709, "NR": 7710, "frontal": 7711, "##liminary": 7712, "phenyl": 7713, "relapse": 7714, "limitation": 7715, "bearing": 7716, "signalling": 7717, "ICU": 7718, "##N1": 7719, "multic": 7720, "##yan": 7721, "UK": 7722, "synth": 7723, "Whe": 7724, "##draw": 7725, "infr": 7726, "offs": 7727, "mobility": 7728, "DF": 7729, "##IV": 7730, "mell": 7731, "category": 7732, "operating": 7733, "##ears": 7734, "puls": 7735, "project": 7736, "Due": 7737, "recovered": 7738, "cytotoxicity": 7739, "immunosup": 7740, "UC": 7741, "stop": 7742, "phylogenetic": 7743, "##rose": 7744, "shel": 7745, "brief": 7746, "deb": 7747, "Conc": 7748, "encour": 7749, "restriction": 7750, "enrich": 7751, "pp": 7752, "##igar": 7753, "peaks": 7754, "sensitiz": 7755, "adjuvant": 7756, "enable": 7757, "effort": 7758, "technologies": 7759, "##ulties": 7760, "##vascular": 7761, "saliv": 7762, "lipids": 7763, "tree": 7764, "##aid": 7765, "map": 7766, "interleukin": 7767, "rating": 7768, "OP": 7769, "December": 7770, "Africa": 7771, "##ademic": 7772, "nonc": 7773, "recipients": 7774, "GM": 7775, "congenital": 7776, "deviation": 7777, "metall": 7778, "interpre": 7779, "##ait": 7780, "aureus": 7781, "multid": 7782, "platform": 7783, "cla": 7784, "##aphyl": 7785, "dimensions": 7786, "mess": 7787, "adsorption": 7788, "nico": 7789, "##ysacchar": 7790, "stere": 7791, "determin": 7792, "transfected": 7793, "PAR": 7794, "outer": 7795, "##49": 7796, "##itol": 7797, "##sw": 7798, "cond": 7799, "cardiomy": 7800, "contamin": 7801, "architect": 7802, "##amer": 7803, "plasmid": 7804, "permeability": 7805, "traff": 7806, "##urity": 7807, "focal": 7808, "regulator": 7809, "indices": 7810, "immunore": 7811, "##ounced": 7812, "##water": 7813, "bodies": 7814, "##ND": 7815, "remodeling": 7816, "##pat": 7817, "mer": 7818, "##alpha": 7819, "##arth": 7820, "distributions": 7821, "##psis": 7822, "parasite": 7823, "##idin": 7824, "##embr": 7825, "##angi": 7826, "arti": 7827, "Under": 7828, "hippocampal": 7829, "discovered": 7830, "##rown": 7831, "nM": 7832, "ent": 7833, "bran": 7834, "##pread": 7835, "##dehyde": 7836, "interc": 7837, "spectral": 7838, "SB": 7839, "opioid": 7840, "##usc": 7841, "PU": 7842, "integrity": 7843, "##ato": 7844, "null": 7845, "changing": 7846, "##osen": 7847, "withdraw": 7848, "simulated": 7849, "tag": 7850, "trop": 7851, "computational": 7852, "genomes": 7853, "explor": 7854, "CE": 7855, "##Gs": 7856, "amplification": 7857, "##hydro": 7858, "formal": 7859, "comorbid": 7860, "##ochrome": 7861, "##agulation": 7862, "translocation": 7863, "priv": 7864, "##enin": 7865, "lamin": 7866, "dataset": 7867, "##idespread": 7868, "##ibration": 7869, "femoral": 7870, "##acial": 7871, "collabor": 7872, "SW": 7873, "##iologic": 7874, "##P3": 7875, "asymptomatic": 7876, "Control": 7877, "vesicles": 7878, "cyst": 7879, "emerged": 7880, "warr": 7881, "accom": 7882, "modulate": 7883, "Mon": 7884, "evoked": 7885, "manus": 7886, "3H": 7887, "##upt": 7888, "##rovers": 7889, "ii": 7890, "phospholip": 7891, "tumours": 7892, "overexp": 7893, "##LT": 7894, "rank": 7895, "reviews": 7896, "sepsis": 7897, "worse": 7898, "ubiquitin": 7899, "vehicle": 7900, "EA": 7901, "histor": 7902, "inferior": 7903, "exogenous": 7904, "##ichia": 7905, "instance": 7906, "A\u03b2": 7907, "hydrophobic": 7908, "Human": 7909, "phenotypic": 7910, "##times": 7911, "hor": 7912, "gon": 7913, "virt": 7914, "acts": 7915, "film": 7916, "##anic": 7917, "pigs": 7918, "diast": 7919, "AUC": 7920, "##gent": 7921, "##Bs": 7922, "HBV": 7923, "quad": 7924, "anesthesia": 7925, "beam": 7926, "auditory": 7927, "##umulative": 7928, "##DP": 7929, "fungal": 7930, "ulcer": 7931, "angiogenesis": 7932, "stenosis": 7933, "connectivity": 7934, "Multi": 7935, "cov": 7936, "sustain": 7937, "##uz": 7938, "proven": 7939, "nutritional": 7940, "Cancer": 7941, "ect": 7942, "representing": 7943, "enzymatic": 7944, "stre": 7945, "fibrin": 7946, "capture": 7947, "text": 7948, "##mod": 7949, "encoded": 7950, "Germ": 7951, "vide": 7952, "##enop": 7953, "##cription": 7954, "##ffici": 7955, "annual": 7956, "aver": 7957, "vaccines": 7958, "bovine": 7959, "proton": 7960, "##avi": 7961, "siRNA": 7962, "Out": 7963, "consideration": 7964, "confer": 7965, "mellitus": 7966, "adipose": 7967, "graph": 7968, "you": 7969, "spine": 7970, "accurately": 7971, "Plasm": 7972, "##adian": 7973, "innate": 7974, "enough": 7975, "constitu": 7976, "exception": 7977, "biomarker": 7978, "Up": 7979, "widespread": 7980, "##eed": 7981, "##uctu": 7982, "screen": 7983, "comparative": 7984, "##ders": 7985, "IM": 7986, "narrow": 7987, "portion": 7988, "unch": 7989, "survivors": 7990, "efficiently": 7991, "##opor": 7992, "assisted": 7993, "difficulties": 7994, "performing": 7995, "##inflamm": 7996, "fabric": 7997, "land": 7998, "##xin": 7999, "participate": 8000, "##osens": 8001, "##OT": 8002, "L1": 8003, "cigar": 8004, "Arab": 8005, "symm": 8006, "becomes": 8007, "contributing": 8008, "share": 8009, "carotid": 8010, "##ospor": 8011, "peroxid": 8012, "##opoie": 8013, "supply": 8014, "TE": 8015, "create": 8016, "##aryngeal": 8017, "disruption": 8018, "##iae": 8019, "waste": 8020, "chond": 8021, "equation": 8022, "file": 8023, "interviews": 8024, "fir": 8025, "Importantly": 8026, "SNP": 8027, "bile": 8028, "##aceu": 8029, "carbohyd": 8030, "microm": 8031, "controvers": 8032, "responsive": 8033, "Phys": 8034, "synthase": 8035, "technical": 8036, "##usions": 8037, "##otes": 8038, "sense": 8039, "##fficients": 8040, "synerg": 8041, "##H2": 8042, "facial": 8043, "stiff": 8044, "secreted": 8045, "##omon": 8046, "##elves": 8047, "##35": 8048, "##37": 8049, "##otides": 8050, "pronounced": 8051, "catalyz": 8052, "##obil": 8053, "feasibility": 8054, "approved": 8055, "gave": 8056, "solvent": 8057, "Ti": 8058, "weighted": 8059, "feasible": 8060, "international": 8061, "algorithms": 8062, "spleen": 8063, "favorable": 8064, "quite": 8065, "offers": 8066, "hybridization": 8067, "cran": 8068, "electrode": 8069, "##UT": 8070, "Car": 8071, "##IDS": 8072, "flux": 8073, "preferred": 8074, "fluctu": 8075, "##oxic": 8076, "na": 8077, "activating": 8078, "##beta": 8079, "ju": 8080, "glycoprotein": 8081, "tight": 8082, "precip": 8083, "LS": 8084, "quantified": 8085, "observe": 8086, "onto": 8087, "sep": 8088, "##tes": 8089, "steady": 8090, "elucid": 8091, "leth": 8092, "retrospectively": 8093, "carriers": 8094, "##veolar": 8095, "attack": 8096, "##esides": 8097, "phag": 8098, "##otrans": 8099, "woman": 8100, "preference": 8101, "overcome": 8102, "002": 8103, "trip": 8104, "race": 8105, "exer": 8106, "MG": 8107, "careful": 8108, "youth": 8109, "##icking": 8110, "fear": 8111, "words": 8112, "##uth": 8113, "comprom": 8114, "fa": 8115, "Five": 8116, "respective": 8117, "coefficients": 8118, "visit": 8119, "born": 8120, "girls": 8121, "QT": 8122, "recombination": 8123, "beginning": 8124, "reinfor": 8125, "##pecific": 8126, "incorporation": 8127, "##tub": 8128, "sched": 8129, "relaxation": 8130, "clones": 8131, "potentials": 8132, "harm": 8133, "mucosa": 8134, "2004": 8135, "discrimination": 8136, "vital": 8137, "nov": 8138, "infiltration": 8139, "##heimer": 8140, "mediate": 8141, "C3": 8142, "arom": 8143, "prominent": 8144, "lens": 8145, "detecting": 8146, "lineage": 8147, "##sies": 8148, "reading": 8149, "Del": 8150, "Their": 8151, "accepted": 8152, "Even": 8153, "indicator": 8154, "ventilation": 8155, "hence": 8156, "inactivation": 8157, "##ply": 8158, "##olate": 8159, "conformation": 8160, "##BM": 8161, "Alz": 8162, "1\u03b2": 8163, "eosin": 8164, "mmol": 8165, "ART": 8166, "trained": 8167, "circulation": 8168, "figure": 8169, "analytical": 8170, "steroid": 8171, "epilepsy": 8172, "Thirty": 8173, "manuscript": 8174, "##acerb": 8175, "Os": 8176, "screened": 8177, "##athione": 8178, "pall": 8179, "MHC": 8180, "sessions": 8181, "readily": 8182, "contents": 8183, "##iction": 8184, "labeling": 8185, "constrain": 8186, "##tructive": 8187, "striat": 8188, "Op": 8189, "AG": 8190, "dex": 8191, "chosen": 8192, "mucosal": 8193, "brid": 8194, "rarely": 8195, "leak": 8196, "started": 8197, "correlates": 8198, "##36": 8199, "Ni": 8200, "injections": 8201, "His": 8202, "cyclic": 8203, "##oplastic": 8204, "searc": 8205, "vertebr": 8206, "GI": 8207, "Mn": 8208, "opposite": 8209, "Rep": 8210, "Au": 8211, "pharmacokine": 8212, "sound": 8213, "neurot": 8214, "interference": 8215, "effector": 8216, "inside": 8217, "dehydrogen": 8218, "##atics": 8219, "undert": 8220, "HER": 8221, "##amous": 8222, "Mo": 8223, "bor": 8224, "##oglyc": 8225, "RV": 8226, "bypass": 8227, "##urated": 8228, "degeneration": 8229, "exacerb": 8230, "thal": 8231, "visible": 8232, "hospitalization": 8233, "Alzheimer": 8234, "copy": 8235, "fet": 8236, "##anese": 8237, "So": 8238, "Coll": 8239, "speech": 8240, "thems": 8241, "elong": 8242, "attachment": 8243, "themselves": 8244, "##inson": 8245, "##uity": 8246, "echocardi": 8247, "concomitant": 8248, "bip": 8249, "##opes": 8250, "anomal": 8251, "academic": 8252, "object": 8253, "depos": 8254, "##elled": 8255, "diarr": 8256, "preced": 8257, "occlusion": 8258, "##FC": 8259, "discontin": 8260, "negl": 8261, "AI": 8262, "complicated": 8263, "details": 8264, "EGF": 8265, "Ob": 8266, "microarr": 8267, "mA": 8268, "presum": 8269, "NE": 8270, "ablation": 8271, "guided": 8272, "Park": 8273, "mmHg": 8274, "##uits": 8275, "nutrition": 8276, "industr": 8277, "adenocarcinoma": 8278, "raised": 8279, "annot": 8280, "Wnt": 8281, "plane": 8282, "toxin": 8283, "impacts": 8284, "subjective": 8285, "xen": 8286, "continue": 8287, "compliance": 8288, "endoscopic": 8289, "ethnic": 8290, "py": 8291, "attitudes": 8292, "mTOR": 8293, "get": 8294, "neutrophils": 8295, "Type": 8296, "bis": 8297, "MAPK": 8298, "Escher": 8299, "Mal": 8300, "mening": 8301, "casc": 8302, "Specifically": 8303, "width": 8304, "##zyme": 8305, "subcutaneous": 8306, "quantify": 8307, "##embrane": 8308, "##ger": 8309, "Fl": 8310, "answ": 8311, "sulfate": 8312, "protect": 8313, "aid": 8314, "diastolic": 8315, "##K2": 8316, "protease": 8317, "closed": 8318, "CO2": 8319, "neurodegen": 8320, "greatest": 8321, "IQ": 8322, "examples": 8323, "1B": 8324, "##ukary": 8325, "traj": 8326, "##ebr": 8327, "unp": 8328, "retic": 8329, "Escherichia": 8330, "wavel": 8331, "CRP": 8332, "isoforms": 8333, "##ophila": 8334, "##raction": 8335, "assessments": 8336, "3A": 8337, "##cape": 8338, "##omics": 8339, "dendritic": 8340, "newborn": 8341, "explanation": 8342, "ECM": 8343, "##empor": 8344, "##CAM": 8345, "zero": 8346, "cAMP": 8347, "etiology": 8348, "##pler": 8349, "promoted": 8350, "asked": 8351, "HE": 8352, "##mented": 8353, "enhancing": 8354, "##ida": 8355, "exon": 8356, "easy": 8357, "difficulty": 8358, "volunteers": 8359, "MV": 8360, "teeth": 8361, "former": 8362, "Vari": 8363, "##tisol": 8364, "Er": 8365, "DE": 8366, "##haps": 8367, "discussion": 8368, "bulk": 8369, "resc": 8370, "PEG": 8371, "cumulative": 8372, "reporter": 8373, "##ancial": 8374, "epidemiological": 8375, "tip": 8376, "attempt": 8377, "##luorescence": 8378, "Methods": 8379, "##estim": 8380, "cham": 8381, "Future": 8382, "capt": 8383, "anatomical": 8384, "somatic": 8385, "cohorts": 8386, "##hythm": 8387, "substances": 8388, "2B": 8389, "lifest": 8390, "hypothal": 8391, "dimer": 8392, "##itting": 8393, "neuron": 8394, "EEG": 8395, "placement": 8396, "##nia": 8397, "##ded": 8398, "WHO": 8399, "precision": 8400, "enrichment": 8401, "observational": 8402, "finger": 8403, "NMD": 8404, "lymphocyte": 8405, "equilibrium": 8406, "reversed": 8407, "CVD": 8408, "##ascul": 8409, "forces": 8410, "##rotic": 8411, "quin": 8412, "reductions": 8413, "homolog": 8414, "kappa": 8415, "ideal": 8416, "nutrient": 8417, "##ituitary": 8418, "manifestations": 8419, "corneal": 8420, "situations": 8421, "obstruction": 8422, "##des": 8423, "##ivariate": 8424, "malignancy": 8425, "yields": 8426, "western": 8427, "##pring": 8428, "rheum": 8429, "##elets": 8430, "eating": 8431, "mom": 8432, "elucidate": 8433, "relie": 8434, "##Ls": 8435, "couns": 8436, "##erves": 8437, "cirrh": 8438, "equip": 8439, "m2": 8440, "005": 8441, "pretreatment": 8442, "##gal": 8443, "DN": 8444, "calculations": 8445, "##iking": 8446, "examining": 8447, "resolved": 8448, "remission": 8449, "volumes": 8450, "war": 8451, "stom": 8452, "la": 8453, "##ufficient": 8454, "acceptable": 8455, "unable": 8456, "resting": 8457, "LH": 8458, "selectivity": 8459, "similarly": 8460, "##omeric": 8461, "consult": 8462, "##opoietic": 8463, "Dise": 8464, "quant": 8465, "facilities": 8466, "upregulation": 8467, "sor": 8468, "assumed": 8469, "USA": 8470, "pic": 8471, "##onate": 8472, "acetate": 8473, "look": 8474, "incorporated": 8475, "vic": 8476, "genus": 8477, "chromosomes": 8478, "quantification": 8479, "cann": 8480, "reflected": 8481, "##IG": 8482, "EF": 8483, "phosphatase": 8484, "probes": 8485, "delta": 8486, "dark": 8487, "##aires": 8488, "department": 8489, "instability": 8490, "orb": 8491, "subtype": 8492, "improves": 8493, "##ypical": 8494, "believed": 8495, "##amycin": 8496, "accounted": 8497, "GO": 8498, "glutathione": 8499, "reperfusion": 8500, "propag": 8501, "North": 8502, "predictions": 8503, "PI3K": 8504, "plasticity": 8505, "incom": 8506, "##ausal": 8507, "belief": 8508, "seizures": 8509, "##ife": 8510, "HO": 8511, "transduction": 8512, "ocular": 8513, "##otensin": 8514, "##atinine": 8515, "##engt": 8516, "artificial": 8517, "regimens": 8518, "Arg": 8519, "intes": 8520, "##eptive": 8521, "missing": 8522, "Man": 8523, "powerful": 8524, "NSCLC": 8525, "structured": 8526, "##ada": 8527, "modes": 8528, "kinases": 8529, "opportunity": 8530, "eukary": 8531, "practition": 8532, "subgroups": 8533, "laparoscopic": 8534, "adolescent": 8535, "##osystem": 8536, "htt": 8537, "kinetic": 8538, "driving": 8539, "glass": 8540, "cultural": 8541, "candidates": 8542, "Myc": 8543, "##ilic": 8544, "##oresis": 8545, "preliminary": 8546, "quick": 8547, "##rocyte": 8548, "##CLUS": 8549, "excessive": 8550, "naive": 8551, "mesenchymal": 8552, "hydrolysis": 8553, "##max": 8554, "##E2": 8555, "ASD": 8556, "##asion": 8557, "hemorrhage": 8558, "##ories": 8559, "##urrently": 8560, "rotation": 8561, "harb": 8562, "connected": 8563, "plaque": 8564, "Hist": 8565, "datasets": 8566, "##GC": 8567, "diffuse": 8568, "antis": 8569, "evid": 8570, "Kore": 8571, "CONCLUS": 8572, "perturb": 8573, "strand": 8574, "resemb": 8575, "LP": 8576, "Fif": 8577, "##ufact": 8578, "blocks": 8579, "##platin": 8580, "##fold": 8581, "reveals": 8582, "antiv": 8583, "determinants": 8584, "##hea": 8585, "2003": 8586, "walking": 8587, "atherosclerosis": 8588, "##tructure": 8589, "differentiate": 8590, "##ycl": 8591, "##inn": 8592, "epigenetic": 8593, "Then": 8594, "quar": 8595, "##ylate": 8596, "##G2": 8597, "produces": 8598, "synchron": 8599, "ester": 8600, "##aden": 8601, "##oL": 8602, "trait": 8603, "user": 8604, "biopsies": 8605, "bird": 8606, "virulence": 8607, "MSCs": 8608, "##ito": 8609, "homogene": 8610, "disapp": 8611, "mono": 8612, "##uly": 8613, "iod": 8614, "pyl": 8615, "demand": 8616, "##NOS": 8617, "microbiota": 8618, "burn": 8619, "carrying": 8620, "sensing": 8621, "lactate": 8622, "NPs": 8623, "selectively": 8624, "fine": 8625, "route": 8626, "cytochrome": 8627, "templ": 8628, "shaped": 8629, "##O3": 8630, "optimized": 8631, "allergic": 8632, "overlap": 8633, "univers": 8634, "elimination": 8635, "rice": 8636, "argin": 8637, "##thern": 8638, "vision": 8639, "pituitary": 8640, "shar": 8641, "##imental": 8642, "considerably": 8643, "expressions": 8644, "bands": 8645, "Instit": 8646, "upd": 8647, "diagnoses": 8648, "##zed": 8649, "creatinine": 8650, "denti": 8651, "##assium": 8652, "normally": 8653, "undertaken": 8654, "hydroxyl": 8655, "##sh": 8656, "##agnetic": 8657, "cry": 8658, "grap": 8659, "excretion": 8660, "##rane": 8661, "##uses": 8662, "participated": 8663, "dehydrogenase": 8664, "##inter": 8665, "climate": 8666, "infiltr": 8667, "##het": 8668, "##naires": 8669, "dialysis": 8670, "absorb": 8671, "BS": 8672, "##III": 8673, "Fort": 8674, "Braz": 8675, "description": 8676, "2018": 8677, "interferon": 8678, "Bet": 8679, "bonds": 8680, "coated": 8681, "complementary": 8682, "abol": 8683, "reward": 8684, "phyt": 8685, "##lands": 8686, "##related": 8687, "\u22120": 8688, "overweight": 8689, "BB": 8690, "stimulate": 8691, "RNAs": 8692, "partner": 8693, "##pin": 8694, "cytometry": 8695, "cues": 8696, "standards": 8697, "RCT": 8698, "financial": 8699, "##amily": 8700, "##OVA": 8701, "semi": 8702, "believe": 8703, "phosphorylated": 8704, "##hene": 8705, "ine": 8706, "fasting": 8707, "##C1": 8708, "##ester": 8709, "comprised": 8710, "P2": 8711, "adrenal": 8712, "experimentally": 8713, "larv": 8714, "motility": 8715, "scans": 8716, "stret": 8717, "##rought": 8718, "squamous": 8719, "nitric": 8720, "traumatic": 8721, "LR": 8722, "digital": 8723, "##opathic": 8724, "##As": 8725, "compression": 8726, "##atible": 8727, "##ophilic": 8728, "##56": 8729, "crop": 8730, "aspect": 8731, "Rel": 8732, "stent": 8733, "##oel": 8734, "round": 8735, "##terone": 8736, "PPAR": 8737, "box": 8738, "immobil": 8739, "implants": 8740, "studying": 8741, "edema": 8742, "hemoglobin": 8743, "principal": 8744, "linkage": 8745, "None": 8746, "She": 8747, "##onsequ": 8748, "##prot": 8749, "##ograft": 8750, "##ynaptic": 8751, "requirement": 8752, "Serum": 8753, "AIDS": 8754, "##ustry": 8755, "extensively": 8756, "O2": 8757, "manufact": 8758, "##nc": 8759, "copper": 8760, "ecological": 8761, "pi": 8762, "vectors": 8763, "Bcl": 8764, "depr": 8765, "##dep": 8766, "##hern": 8767, "rupt": 8768, "##ozo": 8769, "##adiol": 8770, "Treg": 8771, "embed": 8772, "upstream": 8773, "##luor": 8774, "forward": 8775, "clustering": 8776, "let": 8777, "epidemic": 8778, "esophageal": 8779, "organism": 8780, "quantum": 8781, "claim": 8782, "##osures": 8783, "incubated": 8784, "##vas": 8785, "Brazil": 8786, "ce": 8787, "Red": 8788, "monocytes": 8789, "homologous": 8790, "##idop": 8791, "CAD": 8792, "KO": 8793, "##E1": 8794, "thrombosis": 8795, "Cox": 8796, "dri": 8797, "MDA": 8798, "carcinomas": 8799, "films": 8800, "Eight": 8801, "micrograms": 8802, "##ocortic": 8803, "fruit": 8804, "lungs": 8805, "Cp": 8806, "doub": 8807, "preparations": 8808, "terti": 8809, "insufficient": 8810, "sometimes": 8811, "GF": 8812, "##idase": 8813, "##42": 8814, "offspring": 8815, "apply": 8816, "Consequ": 8817, "inhal": 8818, "empirical": 8819, "serot": 8820, "explo": 8821, "TD": 8822, "gestational": 8823, "catenin": 8824, "CKD": 8825, "Within": 8826, "microtub": 8827, "tib": 8828, "##economic": 8829, "blocking": 8830, "##43": 8831, "innov": 8832, "engineering": 8833, "##tral": 8834, "foods": 8835, "Eff": 8836, "##pathetic": 8837, "square": 8838, "stained": 8839, "Japanese": 8840, "colony": 8841, "psychos": 8842, "May": 8843, "deter": 8844, "refrac": 8845, "##PH": 8846, "mobile": 8847, "2002": 8848, "statistics": 8849, "But": 8850, "##ques": 8851, "highlights": 8852, "advance": 8853, "ventral": 8854, "conformational": 8855, "##iation": 8856, "estr": 8857, "cortisol": 8858, "potassium": 8859, "embryo": 8860, "sera": 8861, "ATPase": 8862, "modern": 8863, "unchanged": 8864, "Pe": 8865, "vaginal": 8866, "##omb": 8867, "etc": 8868, "lumbar": 8869, "fitness": 8870, "diminished": 8871, "COX": 8872, "##iasis": 8873, "##uv": 8874, "viable": 8875, "investigating": 8876, "contamination": 8877, "serine": 8878, "incident": 8879, "##gl": 8880, "knockout": 8881, "lifestyle": 8882, "##iples": 8883, "law": 8884, "opportunities": 8885, "Long": 8886, "hormones": 8887, "translational": 8888, "##atidyl": 8889, "Dros": 8890, "BL": 8891, "science": 8892, "exhibits": 8893, "pay": 8894, "exclusively": 8895, "platelets": 8896, "optimization": 8897, "##ools": 8898, "postn": 8899, "spi": 8900, "contributions": 8901, "##opol": 8902, "##engthen": 8903, "genetically": 8904, "enables": 8905, "stimulating": 8906, "##hers": 8907, "decade": 8908, "dissem": 8909, "agonists": 8910, "##ush": 8911, "perman": 8912, "elicited": 8913, "India": 8914, "dispar": 8915, "biomass": 8916, "lep": 8917, "nanos": 8918, "##ala": 8919, "##ulose": 8920, "International": 8921, "tau": 8922, "uncom": 8923, "edge": 8924, "spp": 8925, "##ECT": 8926, "unus": 8927, "##67": 8928, "##ocys": 8929, "gradually": 8930, "suicide": 8931, "##unt": 8932, "corrected": 8933, "potenti": 8934, "redox": 8935, "##ounding": 8936, "##\u00b10": 8937, "cation": 8938, "bott": 8939, "Significant": 8940, "metabolite": 8941, "Organ": 8942, "mediators": 8943, "adapted": 8944, "mast": 8945, "pelvic": 8946, "##omat": 8947, "architecture": 8948, "##ofl": 8949, "guidance": 8950, "examinations": 8951, "##mol": 8952, "seeking": 8953, "Japan": 8954, "pup": 8955, "bed": 8956, "alignment": 8957, "cisplatin": 8958, "##aceae": 8959, "Surve": 8960, "Early": 8961, "mov": 8962, "VS": 8963, "angiography": 8964, "focusing": 8965, "##omonas": 8966, "Surg": 8967, "Consequently": 8968, "wavelength": 8969, "##environ": 8970, "proportional": 8971, "##gence": 8972, "angiotensin": 8973, "##2A": 8974, "paired": 8975, "Consider": 8976, "carrier": 8977, "##47": 8978, "proliferative": 8979, "##ians": 8980, "dosage": 8981, "Oct": 8982, "pren": 8983, "ultimately": 8984, "##ister": 8985, "##ulmonary": 8986, "hemodynamic": 8987, "##inflammatory": 8988, "stiffness": 8989, "prescribed": 8990, "dramatically": 8991, "tension": 8992, "LM": 8993, "causal": 8994, "premature": 8995, "pand": 8996, "Fac": 8997, "triglycer": 8998, "ath": 8999, "##ighting": 9000, "Wor": 9001, "preterm": 9002, "aort": 9003, "Consistent": 9004, "jour": 9005, "mos": 9006, "Soci": 9007, "dL": 9008, "Patient": 9009, "industry": 9010, "compartment": 9011, "keep": 9012, "##outhern": 9013, "##acterial": 9014, "##erge": 9015, "closure": 9016, "stratif": 9017, "gestation": 9018, "principles": 9019, "##39": 9020, "##lycemia": 9021, "thoracic": 9022, "Asian": 9023, "##CS": 9024, "EV": 9025, "CONCLUSION": 9026, "SOD": 9027, "formulation": 9028, "rabbit": 9029, "combining": 9030, "publication": 9031, "representation": 9032, "triggered": 9033, "##agul": 9034, "uterine": 9035, "deterior": 9036, "retained": 9037, "##irc": 9038, "frame": 9039, "##adequ": 9040, "##angement": 9041, "expanded": 9042, "plot": 9043, "SARS": 9044, "vertical": 9045, "diets": 9046, "silencing": 9047, "microenviron": 9048, "##oplasty": 9049, "boys": 9050, "##iplinary": 9051, "trigger": 9052, "##etrial": 9053, "session": 9054, "transporter": 9055, "adjusting": 9056, "adenosine": 9057, "chromosomal": 9058, "##orous": 9059, "intestine": 9060, "cutaneous": 9061, "questionnaires": 9062, "tendency": 9063, "pg": 9064, "neutrophil": 9065, "goals": 9066, "horiz": 9067, "suppressor": 9068, "outpatient": 9069, "##uing": 9070, "stromal": 9071, "idea": 9072, "MH": 9073, "##itic": 9074, "cysteine": 9075, "Information": 9076, "coordination": 9077, "tooth": 9078, "solub": 9079, "atoms": 9080, "obst": 9081, "interacting": 9082, "tended": 9083, "##puts": 9084, "ND": 9085, "helix": 9086, "FR": 9087, "roots": 9088, "P4": 9089, "hold": 9090, "transformed": 9091, "drain": 9092, "S4": 9093, "modulated": 9094, "##phrine": 9095, "##ubation": 9096, "Drosophila": 9097, "BMP": 9098, "Gal": 9099, "apical": 9100, "processed": 9101, "##antic": 9102, "Resp": 9103, "003": 9104, "synergistic": 9105, "modalities": 9106, "TCR": 9107, "chloride": 9108, "##1A": 9109, "loaded": 9110, "Gy": 9111, "##yster": 9112, "participant": 9113, "##titis": 9114, "building": 9115, "separately": 9116, "regulators": 9117, "dyn": 9118, "defense": 9119, "duct": 9120, "##ranial": 9121, "Pt": 9122, "testosterone": 9123, "immunohistochemistry": 9124, "season": 9125, "PKC": 9126, "##lass": 9127, "##hemical": 9128, "colleag": 9129, "antagonists": 9130, "Children": 9131, "sugar": 9132, "reflects": 9133, "atrophy": 9134, "covari": 9135, "GTP": 9136, "March": 9137, "activator": 9138, "##anger": 9139, "monke": 9140, "termin": 9141, "passive": 9142, "ADHD": 9143, "withdrawal": 9144, "took": 9145, "larvae": 9146, "modest": 9147, "2001": 9148, "rearr": 9149, "surveys": 9150, "malignancies": 9151, "incre": 9152, "biofilm": 9153, "OT": 9154, "occupational": 9155, "deform": 9156, "refractory": 9157, "rejection": 9158, "##ierarch": 9159, "PTSD": 9160, "pandemic": 9161, "rule": 9162, "mood": 9163, "##uctase": 9164, "isolate": 9165, "rhythm": 9166, "ball": 9167, "sul": 9168, "##ariable": 9169, "eligible": 9170, "blockade": 9171, "mRNAs": 9172, "RB": 9173, "##viral": 9174, "##asome": 9175, "equally": 9176, "NI": 9177, "##iar": 9178, "GD": 9179, "##aum": 9180, "##rowth": 9181, "##uron": 9182, "conclusions": 9183, "##acillus": 9184, "perceptions": 9185, "TN": 9186, "##oyl": 9187, "pilot": 9188, "sensors": 9189, "June": 9190, "discrep": 9191, "TK": 9192, "##atum": 9193, "gall": 9194, "linking": 9195, "wet": 9196, "HIF": 9197, "ammon": 9198, "##pan": 9199, "Its": 9200, "##48": 9201, "adopted": 9202, "dur": 9203, "immunoglob": 9204, "DL": 9205, "##45": 9206, "IA": 9207, "##onom": 9208, "elastic": 9209, "pent": 9210, "trache": 9211, "##NPs": 9212, "##atile": 9213, "highlighted": 9214, "antit": 9215, "Prim": 9216, "conserv": 9217, "pore": 9218, "socioeconomic": 9219, "throughput": 9220, "shifts": 9221, "metric": 9222, "##flow": 9223, "pooled": 9224, "applying": 9225, "antiviral": 9226, "DCs": 9227, "GL": 9228, "teaching": 9229, "flexible": 9230, "A1": 9231, "##ram": 9232, "hepatocytes": 9233, "tertiary": 9234, "vacu": 9235, "##keletal": 9236, "Glu": 9237, "lifetime": 9238, "critically": 9239, "meet": 9240, "peer": 9241, "##asic": 9242, "property": 9243, "opening": 9244, "SEM": 9245, "colleagues": 9246, "##ameth": 9247, "Care": 9248, "suffering": 9249, "generalized": 9250, "capillary": 9251, "mask": 9252, "cocaine": 9253, "perhaps": 9254, "pylori": 9255, "Mater": 9256, "recall": 9257, "##emat": 9258, "arginine": 9259, "VT": 9260, "##ionic": 9261, "systematically": 9262, "inadequ": 9263, "mammals": 9264, "engagement": 9265, "4A": 9266, "astrocytes": 9267, "##zing": 9268, "bud": 9269, "splicing": 9270, "IU": 9271, "pump": 9272, "fri": 9273, "excitation": 9274, "paradigm": 9275, "##isk": 9276, "scar": 9277, "border": 9278, "##herin": 9279, "Subsequ": 9280, "helpful": 9281, "pip": 9282, "Austral": 9283, "wt": 9284, "prolifer": 9285, "enhances": 9286, "BT": 9287, "##itors": 9288, "##HS": 9289, "postnatal": 9290, "Bay": 9291, "generating": 9292, "vascul": 9293, "##entricular": 9294, "##ference": 9295, "intell": 9296, "English": 9297, "partly": 9298, "Det": 9299, "monol": 9300, "kb": 9301, "World": 9302, "library": 9303, "lobe": 9304, "farm": 9305, "epidermal": 9306, "extend": 9307, "endocrine": 9308, "communic": 9309, "needle": 9310, "PN": 9311, "IN": 9312, "tolerated": 9313, "division": 9314, "Together": 9315, "microorgan": 9316, "alveolar": 9317, "strict": 9318, "And": 9319, "##ocellular": 9320, "Mut": 9321, "ranges": 9322, "##kle": 9323, "functionally": 9324, "##BA": 9325, "clarify": 9326, "enl": 9327, "peritoneal": 9328, "switch": 9329, "conservation": 9330, "ances": 9331, "duc": 9332, "indications": 9333, "##uation": 9334, "excision": 9335, "##ofluorescence": 9336, "BAL": 9337, "drive": 9338, "##kely": 9339, "transferred": 9340, "##apses": 9341, "##HL": 9342, "Gene": 9343, "buffer": 9344, "anch": 9345, "110": 9346, "##choline": 9347, "latency": 9348, "##ocon": 9349, "electrophoresis": 9350, "predisp": 9351, "inverse": 9352, "HL": 9353, "optic": 9354, "##ynthetic": 9355, "summarized": 9356, "spermat": 9357, "unlikely": 9358, "span": 9359, "inducible": 9360, "shear": 9361, "turnover": 9362, "osteopor": 9363, "anemia": 9364, "usage": 9365, "##gesterone": 9366, "Fc": 9367, "scal": 9368, "operated": 9369, "caregivers": 9370, "Dop": 9371, "Forty": 9372, "##eleton": 9373, "exposures": 9374, "embol": 9375, "motifs": 9376, "sequential": 9377, "heparin": 9378, "scheme": 9379, "constructs": 9380, "##min": 9381, "filter": 9382, "##ming": 9383, "sham": 9384, "shorten": 9385, "bat": 9386, "Notably": 9387, "##olid": 9388, "visc": 9389, "##ulus": 9390, "##ensitivity": 9391, "##fe": 9392, "Int": 9393, "ERK": 9394, "shed": 9395, "bic": 9396, "microarray": 9397, "informed": 9398, "anticip": 9399, "uncertainty": 9400, "##apt": 9401, "incons": 9402, "atypical": 9403, "CoV": 9404, "##UR": 9405, "maps": 9406, "##cepts": 9407, "##transferase": 9408, "2019": 9409, "##avail": 9410, "Hisp": 9411, "night": 9412, "alteration": 9413, "brom": 9414, "meeting": 9415, "HPLC": 9416, "nicotine": 9417, "Pa": 9418, "tele": 9419, "attempts": 9420, "##OF": 9421, "branc": 9422, "perfor": 9423, "##CP": 9424, "apo": 9425, "BMD": 9426, "Multiple": 9427, "dye": 9428, "explicit": 9429, "##sA": 9430, "##omotor": 9431, "tumorigen": 9432, "covered": 9433, "##63": 9434, "180": 9435, "leuc": 9436, "reversible": 9437, "emergence": 9438, "scattering": 9439, "select": 9440, "##RD": 9441, "silic": 9442, "Assess": 9443, "policies": 9444, "##ocular": 9445, "##odal": 9446, "dissection": 9447, "immunop": 9448, "leptin": 9449, "PSA": 9450, "##inder": 9451, "Ital": 9452, "psychosocial": 9453, "##astom": 9454, "FS": 9455, "validate": 9456, "terminus": 9457, "managed": 9458, "myeloid": 9459, "discl": 9460, "responded": 9461, "carboxyl": 9462, "neoplasm": 9463, "protected": 9464, "market": 9465, "SLE": 9466, "flap": 9467, "amel": 9468, "tryp": 9469, "transmembrane": 9470, "coating": 9471, "##uncture": 9472, "galact": 9473, "dissociation": 9474, "##ometer": 9475, "keratin": 9476, "##orec": 9477, "##onuclear": 9478, "##heres": 9479, "Conversely": 9480, "aqu": 9481, "surgeons": 9482, "rough": 9483, "##cious": 9484, "progenitor": 9485, "obl": 9486, "preventive": 9487, "private": 9488, "homology": 9489, "indication": 9490, "acidic": 9491, "##otyping": 9492, "table": 9493, "irre": 9494, "hous": 9495, "Low": 9496, "##anges": 9497, "sent": 9498, "##azol": 9499, "verified": 9500, "MF": 9501, "Index": 9502, "##obacteria": 9503, "MY": 9504, "infl": 9505, "displacement": 9506, "##ns": 9507, "distant": 9508, "##utr": 9509, "##ysaccharide": 9510, "##ees": 9511, "##elt": 9512, "fertil": 9513, "hypertensive": 9514, "weights": 9515, "prospectively": 9516, "automated": 9517, "##titial": 9518, "hydr": 9519, "principle": 9520, "interpreted": 9521, "posts": 9522, "##asing": 9523, "IgE": 9524, "##lit": 9525, "rabbits": 9526, "competitive": 9527, "pref": 9528, "1990": 9529, "##yll": 9530, "industrial": 9531, "RD": 9532, "Class": 9533, "##ibular": 9534, "postm": 9535, "dyst": 9536, "hematopoietic": 9537, "Blood": 9538, "##xy": 9539, "##B2": 9540, "indeed": 9541, "severely": 9542, "disappear": 9543, "corticoster": 9544, "programme": 9545, "##iable": 9546, "gives": 9547, "##odil": 9548, "##izumab": 9549, "ACT": 9550, "deficit": 9551, "configuration": 9552, "potency": 9553, "##nea": 9554, "fore": 9555, "tab": 9556, "MET": 9557, "FI": 9558, "##aste": 9559, "##68": 9560, "luc": 9561, "gp": 9562, "OD": 9563, "1a": 9564, "##ora": 9565, "grafts": 9566, "carbohydrate": 9567, "otherwise": 9568, "##vasive": 9569, "##ellow": 9570, "transfusion": 9571, "unaff": 9572, "objects": 9573, "##aceutical": 9574, "sclerosis": 9575, "pathophysiology": 9576, "arrhythm": 9577, "isot": 9578, "arise": 9579, "TI": 9580, "Besides": 9581, "encephal": 9582, "canal": 9583, "offered": 9584, "Protein": 9585, "Gram": 9586, "reaching": 9587, "CD3": 9588, "contacts": 9589, "violence": 9590, "noc": 9591, "matching": 9592, "electric": 9593, "##azine": 9594, "cos": 9595, "##ME": 9596, "hydrog": 9597, "##H1": 9598, "cirrhosis": 9599, "ANOVA": 9600, "fif": 9601, "oxidase": 9602, "GSH": 9603, "##iber": 9604, "##MRI": 9605, "600": 9606, "lnc": 9607, "hemisp": 9608, "surprising": 9609, "R2": 9610, "##isciplinary": 9611, "varies": 9612, "##aments": 9613, "##rospective": 9614, "dich": 9615, "##ochrom": 9616, "fist": 9617, "purposes": 9618, "antico": 9619, "fibrill": 9620, "inactive": 9621, "concurrent": 9622, "parasites": 9623, "idi": 9624, "##oustic": 9625, "popular": 9626, "immunosupp": 9627, "fourth": 9628, "##oderm": 9629, "rectal": 9630, "manual": 9631, "1\u03b1": 9632, "FGF": 9633, "Meas": 9634, "##lings": 9635, "##ocated": 9636, "##oxygen": 9637, "##ectives": 9638, "hierarch": 9639, "Ret": 9640, "##rontal": 9641, "G1": 9642, "controversial": 9643, "##eded": 9644, "unaffected": 9645, "molar": 9646, "unilateral": 9647, "microscopic": 9648, "ADP": 9649, "Id": 9650, "##atibility": 9651, "Expression": 9652, "fungi": 9653, "metals": 9654, "attached": 9655, "##minis": 9656, "##nat": 9657, "##apor": 9658, "rRNA": 9659, "seizure": 9660, "Bo": 9661, "##osan": 9662, "lam": 9663, "recognize": 9664, "rheumat": 9665, "integrin": 9666, "retina": 9667, "C2": 9668, "minute": 9669, "portal": 9670, "##essation": 9671, "##omestic": 9672, "immunological": 9673, "Val": 9674, "Institute": 9675, "alle": 9676, "mechanistic": 9677, "##ococcal": 9678, "##iod": 9679, "Disease": 9680, "syndrom": 9681, "takes": 9682, "Parkinson": 9683, "actually": 9684, "video": 9685, "FP": 9686, "conven": 9687, "adul": 9688, "competition": 9689, "expon": 9690, "Apr": 9691, "mutagen": 9692, "##MV": 9693, "##quin": 9694, "patch": 9695, "3B": 9696, "incomplete": 9697, "H2O2": 9698, "##actant": 9699, "operations": 9700, "inges": 9701, "Exp": 9702, "chamber": 9703, "Su": 9704, "window": 9705, "bab": 9706, "vaccin": 9707, "Function": 9708, "reflex": 9709, "unusual": 9710, "##aved": 9711, "reag": 9712, "sediment": 9713, "oct": 9714, "##ino": 9715, "microenvironment": 9716, "fatal": 9717, "mt": 9718, "overview": 9719, "evol": 9720, "ecosystem": 9721, "##linear": 9722, "glauc": 9723, "fre": 9724, "OCT": 9725, "peric": 9726, "A2": 9727, "cadherin": 9728, "applicable": 9729, "##lies": 9730, "schools": 9731, "##openia": 9732, "##GR": 9733, "##T1": 9734, "##amil": 9735, "hypers": 9736, "unrelated": 9737, "Mor": 9738, "consent": 9739, "dro": 9740, "moment": 9741, "AML": 9742, "Statis": 9743, "naturally": 9744, "##idopsis": 9745, "##ectable": 9746, "##cine": 9747, "##yph": 9748, "normalized": 9749, "##omorph": 9750, "wheat": 9751, "Initi": 9752, "superoxide": 9753, "cessation": 9754, "T3": 9755, "simpl": 9756, "extreme": 9757, "Ul": 9758, "##BI": 9759, "decay": 9760, "##quito": 9761, "breeding": 9762, "Ten": 9763, "Clin": 9764, "##ulder": 9765, "permanent": 9766, "mammary": 9767, "Pb": 9768, "##odef": 9769, "carry": 9770, "hypertrophy": 9771, "registered": 9772, "##agm": 9773, "prone": 9774, "Min": 9775, "lethal": 9776, "##ese": 9777, "##itig": 9778, "##inosa": 9779, "senes": 9780, "segreg": 9781, "locally": 9782, "conv": 9783, "aromatic": 9784, "cattle": 9785, "beh": 9786, "aggregates": 9787, "##estic": 9788, "##idae": 9789, "##rene": 9790, "charged": 9791, "mind": 9792, "##recip": 9793, "thresholds": 9794, "Arabidopsis": 9795, "illustrated": 9796, "NM": 9797, "D2": 9798, "mediating": 9799, "capability": 9800, "DO": 9801, "tracking": 9802, "##abolic": 9803, "evolved": 9804, "##co": 9805, "Ki": 9806, "##55": 9807, "instruments": 9808, "declined": 9809, "pancreas": 9810, "##nR": 9811, "Cys": 9812, "gyr": 9813, "microscop": 9814, "Kn": 9815, "##opathology": 9816, "##ographical": 9817, "embedded": 9818, "novo": 9819, "D1": 9820, "commit": 9821, "FC": 9822, "##88": 9823, "exclusion": 9824, "nitr": 9825, "##GD": 9826, "numerical": 9827, "activates": 9828, "Increased": 9829, "accelerated": 9830, "encountered": 9831, "restored": 9832, "analyzing": 9833, "Total": 9834, "polymers": 9835, "cystic": 9836, "Australia": 9837, "intraoperative": 9838, "##asonal": 9839, "comorbidities": 9840, "comprising": 9841, "microf": 9842, "hosts": 9843, "glycer": 9844, "personality": 9845, "referral": 9846, "axial": 9847, "birds": 9848, "FL": 9849, "Cas": 9850, "##cale": 9851, "##roz": 9852, "Radi": 9853, "derivative": 9854, "cognition": 9855, "prescription": 9856, "Syn": 9857, "modality": 9858, "rated": 9859, "IgM": 9860, "searched": 9861, "C57": 9862, "cyan": 9863, "weekly": 9864, "wors": 9865, "static": 9866, "##oblasts": 9867, "usual": 9868, "##osyl": 9869, "currents": 9870, "##ricult": 9871, "##ographs": 9872, "tens": 9873, "##like": 9874, "jus": 9875, "##gi": 9876, "##99": 9877, "Ele": 9878, "April": 9879, "remarkable": 9880, "\u03b21": 9881, "practitioners": 9882, "##gu": 9883, "Women": 9884, "mathem": 9885, "glands": 9886, "1999": 9887, "concepts": 9888, "completion": 9889, "agricult": 9890, "##utable": 9891, "immunization": 9892, "downregulated": 9893, "Appro": 9894, "##N2": 9895, "Ox": 9896, "responsiveness": 9897, "conflict": 9898, "pow": 9899, "PAH": 9900, "##arcoma": 9901, "hall": 9902, "phosphatidyl": 9903, "pressures": 9904, "simply": 9905, "subsets": 9906, "scoring": 9907, "##eptides": 9908, "neurotrans": 9909, "fu": 9910, "##akers": 9911, "##urses": 9912, "microc": 9913, "Pseud": 9914, "EMT": 9915, "reasonable": 9916, "H1": 9917, "Indi": 9918, "achieving": 9919, "##elles": 9920, "attractive": 9921, "clean": 9922, "IC50": 9923, "preserved": 9924, "percutaneous": 9925, "apparently": 9926, "serotonin": 9927, "assumption": 9928, "mosquito": 9929, "##K3": 9930, "dosing": 9931, "##ycline": 9932, "endometrial": 9933, "precursors": 9934, "##hion": 9935, "dimethyl": 9936, "trunc": 9937, "stored": 9938, "cascade": 9939, "nonlinear": 9940, "zebr": 9941, "Drug": 9942, "anastom": 9943, "distances": 9944, "scenario": 9945, "ionic": 9946, "utilizing": 9947, "##ivation": 9948, "##iol": 9949, "antidep": 9950, "consistency": 9951, "##phthal": 9952, "p38": 9953, "Ram": 9954, "CAR": 9955, "HSP": 9956, "Society": 9957, "boundary": 9958, "electrodes": 9959, "##onical": 9960, "##ception": 9961, "shell": 9962, "##grade": 9963, "##axel": 9964, "##75": 9965, "Lys": 9966, "##PCR": 9967, "bund": 9968, "##ediatric": 9969, "radial": 9970, "##iments": 9971, "Salmon": 9972, "mutated": 9973, "##duction": 9974, "prenatal": 9975, "exert": 9976, "profound": 9977, "##66": 9978, "persistence": 9979, "ppm": 9980, "domestic": 9981, "IBD": 9982, "away": 9983, "mir": 9984, "##ropl": 9985, "encodes": 9986, "insurance": 9987, "##ocr": 9988, "marine": 9989, "flat": 9990, "endothelium": 9991, "##uate": 9992, "http": 9993, "IgA": 9994, "##avir": 9995, "2a": 9996, "chemistry": 9997, "##otoxicity": 9998, "vulnerable": 9999, "sympathetic": 10000, "abilities": 10001, "##rogenic": 10002, "intense": 10003, "emphasis": 10004, "clinics": 10005, "##herent": 10006, "reductase": 10007, "July": 10008, "sheep": 10009, "##agg": 10010, "abolished": 10011, "code": 10012, "##ograms": 10013, "anaest": 10014, "VI": 10015, "transfection": 10016, "tendon": 10017, "gonad": 10018, "branch": 10019, "yr": 10020, "##ober": 10021, "aware": 10022, "##unately": 10023, "promoters": 10024, "feeling": 10025, "implanted": 10026, "##ostatic": 10027, "##aven": 10028, "Primary": 10029, "Qual": 10030, "calculation": 10031, "Current": 10032, "2C": 10033, "equations": 10034, "stratified": 10035, "dense": 10036, "influencing": 10037, "machine": 10038, "##agic": 10039, "caud": 10040, "Ques": 10041, "endomet": 10042, "cust": 10043, "##menting": 10044, "##mitt": 10045, "gait": 10046, "coinc": 10047, "JA": 10048, "nurse": 10049, "contral": 10050, "filtration": 10051, "stomach": 10052, "physiology": 10053, "##points": 10054, "waves": 10055, "preclinical": 10056, "##M1": 10057, "VL": 10058, "subp": 10059, "antidepress": 10060, "##Os": 10061, "injured": 10062, "constraints": 10063, "Eth": 10064, "alkaline": 10065, "##iant": 10066, "latent": 10067, "construction": 10068, "CCR": 10069, "job": 10070, "##okines": 10071, "004": 10072, "neurom": 10073, "proportions": 10074, "flexibility": 10075, "Center": 10076, "M1": 10077, "depressed": 10078, "criterion": 10079, "immunodef": 10080, "oocytes": 10081, "axons": 10082, "saturation": 10083, "Her": 10084, "##thood": 10085, "##oplasmic": 10086, "routin": 10087, "detr": 10088, "nonin": 10089, "##timal": 10090, "##inea": 10091, "fashion": 10092, "promotion": 10093, "provision": 10094, "##ulates": 10095, "slope": 10096, "progesterone": 10097, "anticancer": 10098, "camp": 10099, "Next": 10100, "specimen": 10101, "##RIS": 10102, "nano": 10103, "5p": 10104, "##afish": 10105, "ROC": 10106, "coil": 10107, "##obacterium": 10108, "sequenced": 10109, "adulthood": 10110, "##anal": 10111, "institutions": 10112, "inadequate": 10113, "##95": 10114, "morphine": 10115, "manipulation": 10116, "intracranial": 10117, "eventually": 10118, "microorganisms": 10119, "coex": 10120, "transmitted": 10121, "FF": 10122, "sun": 10123, "##ulos": 10124, "GST": 10125, "##tructural": 10126, "overlapping": 10127, "returned": 10128, "hypog": 10129, "becoming": 10130, "accumulated": 10131, "chor": 10132, "##A2": 10133, "Figs": 10134, "encaps": 10135, "additive": 10136, "swe": 10137, "microglia": 10138, "termed": 10139, "unexpected": 10140, "AH": 10141, "VA": 10142, "lineages": 10143, "##01": 10144, "modulating": 10145, "Department": 10146, "enabled": 10147, "##igation": 10148, "desired": 10149, "polarization": 10150, "slower": 10151, "Stre": 10152, "stabilization": 10153, "Notch": 10154, "##inephrine": 10155, "##afts": 10156, "Doppler": 10157, "Currently": 10158, "eosinophil": 10159, "##oreceptor": 10160, "interstitial": 10161, "##ologist": 10162, "pathologic": 10163, "minimize": 10164, "##asone": 10165, "##ygd": 10166, "dysreg": 10167, "randomised": 10168, "Sing": 10169, "cytosolic": 10170, "correctly": 10171, "##O4": 10172, "##arum": 10173, "##atical": 10174, "lowering": 10175, "##inase": 10176, "estradiol": 10177, "##era": 10178, "calculate": 10179, "##ocor": 10180, "##abs": 10181, "immunohistochemical": 10182, "acuity": 10183, "HU": 10184, "Rho": 10185, "attend": 10186, "neurodegenerative": 10187, "##andem": 10188, "Salmonella": 10189, "cloned": 10190, "##ards": 10191, "drainage": 10192, "Cyt": 10193, "prophylaxis": 10194, "elucidated": 10195, "FM": 10196, "glucocortic": 10197, "contralateral": 10198, "##ationally": 10199, "140": 10200, "pregnancies": 10201, "build": 10202, "reflecting": 10203, "aerug": 10204, "Anti": 10205, "eggs": 10206, "##33": 10207, "connection": 10208, "obstructive": 10209, "##ploid": 10210, "mitig": 10211, "illustrate": 10212, "interacts": 10213, "cyclin": 10214, "secretory": 10215, "seasonal": 10216, "travel": 10217, "tet": 10218, "van": 10219, "adding": 10220, "amplified": 10221, "neo": 10222, "TBI": 10223, "government": 10224, "TRA": 10225, "attributable": 10226, "Accordingly": 10227, "##umb": 10228, "aeruginosa": 10229, "##aminergic": 10230, "profiling": 10231, "dl": 10232, "offic": 10233, "##encephal": 10234, "scenarios": 10235, "immunoglobulin": 10236, "##chlor": 10237, "MCF": 10238, "afford": 10239, "swelling": 10240, "##gone": 10241, "H3": 10242, "downregulation": 10243, "warm": 10244, "Comb": 10245, "##gia": 10246, "meaningful": 10247, "homogeneous": 10248, "cats": 10249, "mobil": 10250, "iii": 10251, "##L1": 10252, "BRCA": 10253, "##nis": 10254, "belonging": 10255, "##rupt": 10256, "##tism": 10257, "amelior": 10258, "giving": 10259, "##itability": 10260, "verbal": 10261, "isoform": 10262, "front": 10263, "##ura": 10264, "##44": 10265, "amygd": 10266, "macro": 10267, "##onomy": 10268, "allevi": 10269, "immuno": 10270, "##ysiological": 10271, "ACh": 10272, "statin": 10273, "##oblastoma": 10274, "ratings": 10275, "resol": 10276, "##itten": 10277, "links": 10278, "##iary": 10279, "abor": 10280, "preferences": 10281, "##pos": 10282, "opin": 10283, "##udden": 10284, "##icillin": 10285, "##ional": 10286, "copies": 10287, "hypotheses": 10288, "geometry": 10289, "conceptual": 10290, "America": 10291, "##iel": 10292, "##iosis": 10293, "aneurysm": 10294, "happ": 10295, "mimic": 10296, "rupture": 10297, "photos": 10298, "topical": 10299, "coval": 10300, "nic": 10301, "favour": 10302, "ethnicity": 10303, "##olym": 10304, "Aug": 10305, "##G1": 10306, "emp": 10307, "##inates": 10308, "accordance": 10309, "aerobic": 10310, "C1": 10311, "pollution": 10312, "infrared": 10313, "Ge": 10314, "atm": 10315, "lysine": 10316, "shoulder": 10317, "hot": 10318, "glomerular": 10319, "poorer": 10320, "intention": 10321, "symb": 10322, "##OA": 10323, "hyperg": 10324, "aorta": 10325, "photo": 10326, "defective": 10327, "Sept": 10328, "stat": 10329, "##sia": 10330, "coping": 10331, "dox": 10332, "Subj": 10333, "1H": 10334, "anaer": 10335, "##otherapeutic": 10336, "##iers": 10337, "GW": 10338, "son": 10339, "blast": 10340, "dihydro": 10341, "complain": 10342, "##what": 10343, "##enopausal": 10344, "##F2": 10345, "sampled": 10346, "quantity": 10347, "connections": 10348, "1998": 10349, "circadian": 10350, "nerves": 10351, "130": 10352, "bipolar": 10353, "envelop": 10354, "gained": 10355, "strengthen": 10356, "specialized": 10357, "Mc": 10358, "hospitalized": 10359, "undergone": 10360, "##ticular": 10361, "cooper": 10362, "digestion": 10363, "conservative": 10364, "forest": 10365, "##yces": 10366, "administr": 10367, "cigarette": 10368, "ile": 10369, "H3K": 10370, "SG": 10371, "olfactory": 10372, "lith": 10373, "##yclic": 10374, "##abin": 10375, "AND": 10376, "5A": 10377, "constitute": 10378, "##tures": 10379, "Through": 10380, "nodules": 10381, "Ha": 10382, "Aut": 10383, "Chronic": 10384, "##olone": 10385, "Nr": 10386, "diarrhea": 10387, "##enta": 10388, "Association": 10389, "histology": 10390, "##ositol": 10391, "Test": 10392, "##BG": 10393, "hind": 10394, "headache": 10395, "establishment": 10396, "unst": 10397, "##ministration": 10398, "template": 10399, "##advant": 10400, "##iciencies": 10401, "glioma": 10402, "accessible": 10403, "Considering": 10404, "##parts": 10405, "Staphyl": 10406, "##irable": 10407, "Assessment": 10408, "zebrafish": 10409, "sph": 10410, "harves": 10411, "replaced": 10412, "endemic": 10413, "directions": 10414, "\u00b5g": 10415, "prevents": 10416, "coagulation": 10417, "##ardia": 10418, "describing": 10419, "antitumor": 10420, "warranted": 10421, "disturbances": 10422, "fair": 10423, "Develop": 10424, "spr": 10425, "drink": 10426, "SDS": 10427, "geographic": 10428, "##actin": 10429, "##lusive": 10430, "clamp": 10431, "tRNA": 10432, "##rile": 10433, "picture": 10434, "OC": 10435, "formulations": 10436, "##ocking": 10437, "##atories": 10438, "apprec": 10439, "Tw": 10440, "lac": 10441, "oriented": 10442, "Cre": 10443, "densities": 10444, "circular": 10445, "recordings": 10446, "nucleotides": 10447, "named": 10448, "Between": 10449, "postoperatively": 10450, "radiological": 10451, "fasc": 10452, "centre": 10453, "supplemented": 10454, "adsorb": 10455, "papers": 10456, "converted": 10457, "anthrop": 10458, "##unk": 10459, "mitotic": 10460, "osteoporosis": 10461, "Sr": 10462, "##f2": 10463, "synthes": 10464, "urea": 10465, "beliefs": 10466, "sucrose": 10467, "4B": 10468, "Plasma": 10469, "nmol": 10470, "##assay": 10471, "discrete": 10472, "##factor": 10473, "deprivation": 10474, "##Med": 10475, "##umer": 10476, "spent": 10477, "somewhat": 10478, "abstr": 10479, "lasting": 10480, "RO": 10481, "##endit": 10482, "##ersonal": 10483, "interfac": 10484, "xyl": 10485, "##acing": 10486, "##pes": 10487, "manage": 10488, "##ositive": 10489, "append": 10490, "##ropathy": 10491, "Sam": 10492, "Fas": 10493, "disadvant": 10494, "moving": 10495, "conscious": 10496, "##while": 10497, "soy": 10498, "bonding": 10499, "resident": 10500, "attempted": 10501, "repeti": 10502, "##agland": 10503, "Evidence": 10504, "um": 10505, "##rosp": 10506, "##utrition": 10507, "insuff": 10508, "##ellite": 10509, "105": 10510, "CHD": 10511, "tandem": 10512, "folding": 10513, "##iative": 10514, "moderately": 10515, "continuously": 10516, "attenuation": 10517, "glaucoma": 10518, "##R2": 10519, "##hex": 10520, "pari": 10521, "horizontal": 10522, "ACE": 10523, "sick": 10524, "colitis": 10525, "chron": 10526, "##bor": 10527, "diffraction": 10528, "##edical": 10529, "CMV": 10530, "preferentially": 10531, "cool": 10532, "GT": 10533, "lands": 10534, "HER2": 10535, "multim": 10536, "motivation": 10537, "marginal": 10538, "equipment": 10539, "##emographic": 10540, "ars": 10541, "##ogenes": 10542, "occasion": 10543, "droplet": 10544, "##rod": 10545, "Altern": 10546, "subpop": 10547, "lesser": 10548, "transitions": 10549, "similarities": 10550, "mism": 10551, "intrav": 10552, "calibration": 10553, "##69": 10554, "##illi": 10555, "September": 10556, "##onym": 10557, "graphene": 10558, "blotting": 10559, "meal": 10560, "MO": 10561, "Coch": 10562, "scler": 10563, "PW": 10564, "focuses": 10565, "CoA": 10566, "consequently": 10567, "##ony": 10568, "##oxacin": 10569, "demands": 10570, "radiographic": 10571, "F1": 10572, "psori": 10573, "Sn": 10574, "accounting": 10575, "spind": 10576, "cure": 10577, "scaven": 10578, "fibroblast": 10579, "proinflammatory": 10580, "canonical": 10581, "damaged": 10582, "##aemic": 10583, "satisfactory": 10584, "reads": 10585, "Median": 10586, "chemicals": 10587, "responding": 10588, "cyclo": 10589, "osteocl": 10590, "Age": 10591, "Pres": 10592, "Hig": 10593, "HSV": 10594, "ECG": 10595, "losses": 10596, "##astatin": 10597, "regarded": 10598, "Question": 10599, "neuropath": 10600, "##letes": 10601, "##heric": 10602, "sudden": 10603, "##ECs": 10604, "##iger": 10605, "introduce": 10606, "##oarth": 10607, "come": 10608, "topic": 10609, "deplet": 10610, "colonization": 10611, "##elve": 10612, "Mac": 10613, "androgen": 10614, "dramatic": 10615, "publications": 10616, "histologic": 10617, "HDAC": 10618, "evidenced": 10619, "surgeon": 10620, "aberrant": 10621, "threatening": 10622, "Sa": 10623, "facility": 10624, "vast": 10625, "modify": 10626, "tach": 10627, "##sts": 10628, "##ocin": 10629, "atomic": 10630, "esophag": 10631, "prove": 10632, "ultrason": 10633, "pock": 10634, "amph": 10635, "##imb": 10636, "superficial": 10637, "drawn": 10638, "trafficking": 10639, "victim": 10640, "##inance": 10641, "syndromes": 10642, "atmosp": 10643, "doctors": 10644, "##ostr": 10645, "confirming": 10646, "Progr": 10647, "perin": 10648, "NMDA": 10649, "facilitated": 10650, "anten": 10651, "AKT": 10652, "sib": 10653, "proce": 10654, "student": 10655, "sea": 10656, "Multiv": 10657, "inputs": 10658, "histopathological": 10659, "para": 10660, "constants": 10661, "accounts": 10662, "tubular": 10663, "##opia": 10664, "duod": 10665, "repeats": 10666, "necessarily": 10667, "objectives": 10668, "compatible": 10669, "Diagn": 10670, "medull": 10671, "exploration": 10672, "##oprot": 10673, "osm": 10674, "bottom": 10675, "plans": 10676, "expendit": 10677, "consumed": 10678, "striking": 10679, "##olarization": 10680, "served": 10681, "quickly": 10682, "##32": 10683, "formula": 10684, "OB": 10685, "stig": 10686, "S6": 10687, "imped": 10688, "Te": 10689, "lymphoid": 10690, "trace": 10691, "Canada": 10692, "##partum": 10693, "##iliary": 10694, "cement": 10695, "trees": 10696, "presumably": 10697, "##aight": 10698, "##UN": 10699, "RE": 10700, "circumst": 10701, "glial": 10702, "Coun": 10703, "conditioning": 10704, "notion": 10705, "somat": 10706, "biliary": 10707, "neuropsych": 10708, "adduc": 10709, "SCC": 10710, "triple": 10711, "held": 10712, "##idium": 10713, "acyl": 10714, "ABC": 10715, "##ulsion": 10716, "##osphate": 10717, "scaffolds": 10718, "neighbor": 10719, "##iferase": 10720, "echocardiography": 10721, "##ergies": 10722, "##athyroid": 10723, "homozygous": 10724, "106": 10725, "##ww": 10726, "##PV": 10727, "##ewise": 10728, "October": 10729, "hepatocellular": 10730, "leukocyte": 10731, "Hispanic": 10732, "##ga": 10733, "##ift": 10734, "elongation": 10735, "Fifty": 10736, "evaluations": 10737, "1C": 10738, "Lik": 10739, "definitive": 10740, "finally": 10741, "sharing": 10742, "##onn": 10743, "counterparts": 10744, "salivary": 10745, "citr": 10746, "staging": 10747, "lag": 10748, "##uclear": 10749, "muscular": 10750, "HbA1": 10751, "Cardi": 10752, "##fortunately": 10753, "##phone": 10754, "running": 10755, "universal": 10756, "Medicine": 10757, "Micro": 10758, "Ras": 10759, "breathing": 10760, "codon": 10761, "phenomena": 10762, "Individual": 10763, "Form": 10764, "##UD": 10765, "intended": 10766, "##inted": 10767, "fluctuations": 10768, "Staphylococcus": 10769, "legal": 10770, "familial": 10771, "arising": 10772, "##ocyan": 10773, "##oir": 10774, "ethical": 10775, "##amethasone": 10776, "Central": 10777, "T2DM": 10778, "screw": 10779, "##ola": 10780, "3p": 10781, "participating": 10782, "recipient": 10783, "##antib": 10784, "switching": 10785, "repress": 10786, "respir": 10787, "straight": 10788, "contaminated": 10789, "seeds": 10790, "signature": 10791, "intermedi": 10792, "placental": 10793, "restoration": 10794, "IQR": 10795, "confounding": 10796, "preservation": 10797, "mixtures": 10798, "episode": 10799, "subm": 10800, "purification": 10801, "institutional": 10802, "hypoxic": 10803, "raw": 10804, "##adj": 10805, "web": 10806, "distric": 10807, "Herein": 10808, "methodological": 10809, "FV": 10810, "G2": 10811, "eukaryotic": 10812, "conjugated": 10813, "underestim": 10814, "pharmaceutical": 10815, "wat": 10816, "MIC": 10817, "##trained": 10818, "mediates": 10819, "Ol": 10820, "prefrontal": 10821, "##MCs": 10822, "Survey": 10823, "avoidance": 10824, "catech": 10825, "ventil": 10826, "##lutin": 10827, "##tidine": 10828, "kidneys": 10829, "meat": 10830, "circuit": 10831, "##ibilities": 10832, "##rectomy": 10833, "weakness": 10834, "dest": 10835, "##iding": 10836, "##ophore": 10837, "##after": 10838, "accompl": 10839, "##PT": 10840, "station": 10841, "acoustic": 10842, "contexts": 10843, "remove": 10844, "##oides": 10845, "firing": 10846, "Fox": 10847, "big": 10848, "anis": 10849, "##vian": 10850, "##regular": 10851, "BDNF": 10852, "Bas": 10853, "autologous": 10854, "antibacterial": 10855, "mV": 10856, "##ophen": 10857, "inver": 10858, "pneumoniae": 10859, "margin": 10860, "M2": 10861, "immunofluorescence": 10862, "immature": 10863, "S5": 10864, "fertility": 10865, "substituted": 10866, "transporters": 10867, "DI": 10868, "EBV": 10869, "##angements": 10870, "supernat": 10871, "##omized": 10872, "compartments": 10873, "Mex": 10874, "##oxif": 10875, "serves": 10876, "fate": 10877, "heme": 10878, "lengths": 10879, "##T3": 10880, "##62": 10881, "immunodeficiency": 10882, "Asia": 10883, "##sk": 10884, "1997": 10885, "UTR": 10886, "behavioural": 10887, "##ivity": 10888, "rheumatoid": 10889, "routinely": 10890, "provider": 10891, "uncommon": 10892, "##arse": 10893, "depleted": 10894, "##osus": 10895, "mann": 10896, "##bil": 10897, "solv": 10898, "inherent": 10899, "amp": 10900, "STAT3": 10901, "##inge": 10902, "essentially": 10903, "fMRI": 10904, "destruction": 10905, "conduction": 10906, "irradiated": 10907, "##olus": 10908, "##ucas": 10909, "Pharm": 10910, "neonates": 10911, "##ented": 10912, "university": 10913, "cros": 10914, "implies": 10915, "serial": 10916, "match": 10917, "bioavail": 10918, "heterozygous": 10919, "##rex": 10920, "##ubicin": 10921, "##omerase": 10922, "silica": 10923, "leaders": 10924, "##ips": 10925, "phage": 10926, "##activation": 10927, "##eted": 10928, "rect": 10929, "##lipid": 10930, "owing": 10931, "##yel": 10932, "Swed": 10933, "Acute": 10934, "inversely": 10935, "##atonin": 10936, "##static": 10937, "Americans": 10938, "conditioned": 10939, "##family": 10940, "antip": 10941, "engineered": 10942, "mouth": 10943, "prescrib": 10944, "Unlike": 10945, "RCTs": 10946, "amygdala": 10947, "parietal": 10948, "tick": 10949, "poli": 10950, "PubMed": 10951, "nom": 10952, "port": 10953, "Gol": 10954, "nutrients": 10955, "##ettes": 10956, "##atosis": 10957, "CAP": 10958, "CCL": 10959, "La": 10960, "gaps": 10961, "anatomy": 10962, "##anish": 10963, "##59": 10964, "inserted": 10965, "hyperplasia": 10966, "##ellum": 10967, "##allow": 10968, "confound": 10969, "##haus": 10970, "Model": 10971, "Hsp": 10972, "crystals": 10973, "penetration": 10974, "stranded": 10975, "##ires": 10976, "grain": 10977, "teac": 10978, "recons": 10979, "corresponds": 10980, "built": 10981, "idiopathic": 10982, "visualization": 10983, "Different": 10984, "athletes": 10985, "herb": 10986, "hormonal": 10987, "1b": 10988, "MK": 10989, "SK": 10990, "thorough": 10991, "insect": 10992, "behind": 10993, "##ofib": 10994, "800": 10995, "Changes": 10996, "##abine": 10997, "alkal": 10998, "actively": 10999, "papill": 11000, "dispersion": 11001, "##aker": 11002, "##roid": 11003, "##lerotic": 11004, "facilitates": 11005, "taxa": 11006, "continues": 11007, "ds": 11008, "ALS": 11009, "##uled": 11010, "irregular": 11011, "cysts": 11012, "palliative": 11013, "##SC": 11014, "modif": 11015, "incid": 11016, "averaged": 11017, "worth": 11018, "proof": 11019, "lumen": 11020, "Germany": 11021, "standing": 11022, "##echanical": 11023, "viscer": 11024, "##DR": 11025, "retard": 11026, "##porting": 11027, "Sym": 11028, "differs": 11029, "entit": 11030, "descriptive": 11031, "tetra": 11032, "distor": 11033, "That": 11034, "ging": 11035, "C57BL": 11036, "relief": 11037, "fell": 11038, "chi": 11039, "ventricle": 11040, "tap": 11041, "perioperative": 11042, "Mar": 11043, "Tg": 11044, "mapped": 11045, "pestic": 11046, "chicken": 11047, "establishing": 11048, "fibrillation": 11049, "played": 11050, "insec": 11051, "art": 11052, "RN": 11053, "lute": 11054, "minority": 11055, "Und": 11056, "T4": 11057, "designated": 11058, "Supplement": 11059, "fragmentation": 11060, "efflux": 11061, "conjunction": 11062, "expert": 11063, "veter": 11064, "##EB": 11065, "neuroprot": 11066, "stresses": 11067, "quantitatively": 11068, "3a": 11069, "spot": 11070, "epitopes": 11071, "##O1": 11072, "www": 11073, "clone": 11074, "gyrus": 11075, "##ej": 11076, "Sevent": 11077, "optimize": 11078, "minimally": 11079, "N2": 11080, "verify": 11081, "NCT": 11082, "Administration": 11083, "cerebellar": 11084, "electroly": 11085, "Seven": 11086, "optimum": 11087, "oxidized": 11088, "antif": 11089, "DES": 11090, "revision": 11091, "##inting": 11092, "cutoff": 11093, "intraper": 11094, "chim": 11095, "What": 11096, "arms": 11097, "NaCl": 11098, "colonic": 11099, "condens": 11100, "immunoreactivity": 11101, "laboratories": 11102, "dilution": 11103, "MW": 11104, "unstable": 11105, "prostagland": 11106, "LG": 11107, "WM": 11108, "rely": 11109, "senescence": 11110, "radicals": 11111, "Psych": 11112, "flank": 11113, "Path": 11114, "##vision": 11115, "expectations": 11116, "##genic": 11117, "usefulness": 11118, "indirectly": 11119, "porcine": 11120, "oligonucle": 11121, "periodontal": 11122, "designs": 11123, "reserv": 11124, "displays": 11125, "indicative": 11126, "FDG": 11127, "organized": 11128, "##otub": 11129, "yellow": 11130, "colonies": 11131, "felt": 11132, "##ometr": 11133, "intram": 11134, "planned": 11135, "##uck": 11136, "individ": 11137, "VAS": 11138, "##inform": 11139, "asymmetric": 11140, "##tee": 11141, "Third": 11142, "##ogenicity": 11143, "Caucas": 11144, "qPCR": 11145, "responders": 11146, "axonal": 11147, "nitro": 11148, "investigators": 11149, "OSA": 11150, "immunotherapy": 11151, "wk": 11152, "sufficiently": 11153, "sac": 11154, "MRSA": 11155, "##C2": 11156, "CpG": 11157, "Conf": 11158, "intermitt": 11159, "lup": 11160, "##itated": 11161, "Hu": 11162, "filled": 11163, "strongest": 11164, "judg": 11165, "##urable": 11166, "axon": 11167, "##ognitive": 11168, "assembled": 11169, "CXCR": 11170, "HbA1c": 11171, "experts": 11172, "affer": 11173, "ros": 11174, "Hear": 11175, "reproduction": 11176, "Cochrane": 11177, "##imus": 11178, "##appro": 11179, "1D": 11180, "gro": 11181, "##ported": 11182, "##otoxic": 11183, "seemed": 11184, "chance": 11185, "tone": 11186, "underl": 11187, "##oking": 11188, "160": 11189, "works": 11190, "reticulum": 11191, "juven": 11192, "render": 11193, "##31": 11194, "##osarcoma": 11195, "##rozen": 11196, "mathematical": 11197, "stated": 11198, "views": 11199, "chel": 11200, "inpatient": 11201, "broader": 11202, "joints": 11203, "##BT": 11204, "UN": 11205, "contrary": 11206, "hyster": 11207, "##77": 11208, "junctions": 11209, "luciferase": 11210, "Bayes": 11211, "ago": 11212, "hearts": 11213, "reproducibility": 11214, "mitral": 11215, "##opr": 11216, "CYP": 11217, "paral": 11218, "renew": 11219, "deterioration": 11220, "##AA": 11221, "Leu": 11222, "strept": 11223, "AKI": 11224, "machin": 11225, "hydroc": 11226, "addressing": 11227, "gangl": 11228, "epiderm": 11229, "spontaneously": 11230, "aspirin": 11231, "##ading": 11232, "LF": 11233, "summarize": 11234, "perox": 11235, "##obs": 11236, "Those": 11237, "3C": 11238, "slic": 11239, "plaques": 11240, "##uge": 11241, "RAS": 11242, "Inhib": 11243, "Disc": 11244, "ankle": 11245, "2020": 11246, "AMPK": 11247, "centered": 11248, "creating": 11249, "supplementary": 11250, "listed": 11251, "Mat": 11252, "synapses": 11253, "##odialysis": 11254, "Whereas": 11255, "fulf": 11256, "suffer": 11257, "univariate": 11258, "CXCL": 11259, "deline": 11260, "disturbance": 11261, "alanine": 11262, "OF": 11263, "cows": 11264, "slowly": 11265, "bif": 11266, "August": 11267, "photon": 11268, "historical": 11269, "microscope": 11270, "foreign": 11271, "##pi": 11272, "sector": 11273, "1995": 11274, "##hydr": 11275, "smoke": 11276, "leakage": 11277, "determinant": 11278, "##electric": 11279, "organizations": 11280, "Pan": 11281, "striatum": 11282, "Rem": 11283, "enabling": 11284, "crude": 11285, "lives": 11286, "scope": 11287, "Outc": 11288, "misc": 11289, "##esium": 11290, "Yet": 11291, "undet": 11292, "familiar": 11293, "ligament": 11294, "P450": 11295, "##pend": 11296, "##imetry": 11297, "##respective": 11298, "Tc": 11299, "##zation": 11300, "2b": 11301, "kinds": 11302, "impairments": 11303, "overexpressed": 11304, "lived": 11305, "propagation": 11306, "plots": 11307, "anaerobic": 11308, "steroids": 11309, "captured": 11310, "##M2": 11311, "vertebral": 11312, "HRQ": 11313, "inh": 11314, "1996": 11315, "epitope": 11316, "Vis": 11317, "pharmacokinetic": 11318, "coch": 11319, "##SCs": 11320, "##oric": 11321, "initiate": 11322, "gross": 11323, "excitatory": 11324, "began": 11325, "pit": 11326, "dendr": 11327, "disulf": 11328, "fecal": 11329, "counseling": 11330, "proximity": 11331, "obtaining": 11332, "##p1": 11333, "shr": 11334, "written": 11335, "##51": 11336, "##ails": 11337, "##ilst": 11338, "Cand": 11339, "polymerization": 11340, "Enter": 11341, "##La": 11342, "##ctive": 11343, "abscess": 11344, "eliminated": 11345, "nond": 11346, "catar": 11347, "rational": 11348, "Equ": 11349, "promise": 11350, "ends": 11351, "sand": 11352, "Risk": 11353, "##ptions": 11354, "Level": 11355, "pseudo": 11356, "remote": 11357, "ips": 11358, "transplanted": 11359, "resin": 11360, "quadr": 11361, "16S": 11362, "reservoir": 11363, "##erstanding": 11364, "hams": 11365, "##lamp": 11366, "##osites": 11367, "anomalies": 11368, "hors": 11369, "flavon": 11370, "##urk": 11371, "categorized": 11372, "neoplastic": 11373, "unm": 11374, "circumstances": 11375, "##etheless": 11376, "grav": 11377, "nucleic": 11378, "##roplasty": 11379, "importantly": 11380, "##where": 11381, "affective": 11382, "immunosuppressive": 11383, "exec": 11384, "postpartum": 11385, "immunoprecip": 11386, "unders": 11387, "##usive": 11388, "city": 11389, "percept": 11390, "suffered": 11391, "think": 11392, "foci": 11393, "##ythem": 11394, "wear": 11395, "mononuclear": 11396, "lic": 11397, "##essive": 11398, "##aran": 11399, "Ed": 11400, "trem": 11401, "massive": 11402, "multivariable": 11403, "RC": 11404, "##inergic": 11405, "cultiv": 11406, "SO": 11407, "##ously": 11408, "engage": 11409, "beg": 11410, "society": 11411, "##omial": 11412, "acceptance": 11413, "CAS": 11414, "Th1": 11415, "predicts": 11416, "analogue": 11417, "ophthal": 11418, "##46": 11419, "##ometh": 11420, "titers": 11421, "##thromb": 11422, "Diab": 11423, "Organization": 11424, "analogues": 11425, "adrenergic": 11426, "##athe": 11427, "spike": 11428, "consuming": 11429, "artif": 11430, "##ubb": 11431, "chloro": 11432, "dopaminergic": 11433, "relatives": 11434, "incision": 11435, "myosin": 11436, "brach": 11437, "orally": 11438, "neuropathy": 11439, "Go": 11440, "unlike": 11441, "Ta": 11442, "##ano": 11443, "individually": 11444, "Questionnaire": 11445, "employing": 11446, "follicular": 11447, "##keleton": 11448, "##ycardia": 11449, "##tium": 11450, "PCA": 11451, "biomedical": 11452, "##antom": 11453, "scored": 11454, "epidemiology": 11455, "##78": 11456, "Evalu": 11457, "Cent": 11458, "faces": 11459, "JNK": 11460, "stream": 11461, "conductance": 11462, "racial": 11463, "genetics": 11464, "virtual": 11465, "expand": 11466, "inequ": 11467, "Gly": 11468, "estimating": 11469, "Golgi": 11470, "catalyzed": 11471, "##hyp": 11472, "FU": 11473, "##eces": 11474, "Finding": 11475, "##itudes": 11476, "inoculated": 11477, "dead": 11478, "##ejun": 11479, "distinguished": 11480, "moiety": 11481, "aspart": 11482, "depic": 11483, "carcinogenesis": 11484, "defining": 11485, "##D1": 11486, "Higher": 11487, "filament": 11488, "##olum": 11489, "nitrate": 11490, "##uscular": 11491, "##opyr": 11492, "isch": 11493, "polypeptide": 11494, "Raman": 11495, "##aturated": 11496, "101": 11497, "hyg": 11498, "##ulty": 11499, "motiv": 11500, "##ionine": 11501, "##affe": 11502, "binary": 11503, "experiencing": 11504, "rescue": 11505, "talk": 11506, "cerevis": 11507, "irrevers": 11508, "split": 11509, "Pd": 11510, "lign": 11511, "##berg": 11512, "##urons": 11513, "Cx": 11514, "rhin": 11515, "inconsistent": 11516, "courses": 11517, "imbal": 11518, "Time": 11519, "##rogate": 11520, "intens": 11521, "productivity": 11522, "##eries": 11523, "##ielding": 11524, "die": 11525, "##ius": 11526, "General": 11527, "##formin": 11528, "cellulose": 11529, "articular": 11530, "tumorigenesis": 11531, "extin": 11532, "carefully": 11533, "solubility": 11534, "Various": 11535, "mtDNA": 11536, "ald": 11537, "Standard": 11538, "##bean": 11539, "tex": 11540, "segmentation": 11541, "primers": 11542, "nav": 11543, "relig": 11544, "precipitation": 11545, "monkeys": 11546, "shifted": 11547, "FOX": 11548, "frozen": 11549, "cerevisiae": 11550, "##enol": 11551, "##esare": 11552, "synov": 11553, "ALL": 11554, "anion": 11555, "Sl": 11556, "104": 11557, "piv": 11558, "challenged": 11559, "##pectives": 11560, "fluids": 11561, "tric": 11562, "Regarding": 11563, "fitting": 11564, "divergence": 11565, "##feeding": 11566, "Sel": 11567, "##plementing": 11568, "##ossible": 11569, "deletions": 11570, "attending": 11571, "retrieval": 11572, "biologically": 11573, "submitted": 11574, "Do": 11575, "assume": 11576, "behaviours": 11577, "Review": 11578, "Ste": 11579, "electrom": 11580, "integral": 11581, "VP": 11582, "Ir": 11583, "##oarthritis": 11584, "BF": 11585, "ligation": 11586, "Unfortunately": 11587, "##tified": 11588, "Black": 11589, "Pseudomonas": 11590, "##ectories": 11591, "granules": 11592, "cycling": 11593, "Pur": 11594, "CDK": 11595, "machinery": 11596, "serop": 11597, "ectopic": 11598, "##urgical": 11599, "ureth": 11600, "##tribution": 11601, "habitat": 11602, "Bio": 11603, "rules": 11604, "cough": 11605, "clock": 11606, "tac": 11607, "kept": 11608, "vasodil": 11609, "fermentation": 11610, "suspension": 11611, "proteasome": 11612, "commercially": 11613, "registration": 11614, "imag": 11615, "##iton": 11616, "111": 11617, "##ompass": 11618, "Lip": 11619, "##orth": 11620, "10\u2212": 11621, "relate": 11622, "OM": 11623, "killing": 11624, "ADA": 11625, "leukocytes": 11626, "gam": 11627, "angles": 11628, "pa": 11629, "##son": 11630, "Identif": 11631, "forced": 11632, "LN": 11633, "endpoint": 11634, "spher": 11635, "Wil": 11636, "##hep": 11637, "transcriptome": 11638, "C4": 11639, "East": 11640, "##MO": 11641, "arb": 11642, "ambient": 11643, "positivity": 11644, "plas": 11645, "dent": 11646, "##eled": 11647, "encompass": 11648, "##ete": 11649, "##oney": 11650, "module": 11651, "monocyte": 11652, "helical": 11653, "##Us": 11654, "arrays": 11655, "##day": 11656, "capsule": 11657, "Subjects": 11658, "tur": 11659, "White": 11660, "vo": 11661, "guinea": 11662, "MSC": 11663, "dermat": 11664, "Sequ": 11665, "PFS": 11666, "GnR": 11667, "##omatous": 11668, "merc": 11669, "eliminate": 11670, "amn": 11671, "Upon": 11672, "##va": 11673, "covariates": 11674, "Phase": 11675, "trajectories": 11676, "##tending": 11677, "TLR4": 11678, "spindle": 11679, "falls": 11680, "006": 11681, "State": 11682, "108": 11683, "powder": 11684, "neurotransmit": 11685, "century": 11686, "##diagn": 11687, "##eties": 11688, "Glob": 11689, "visceral": 11690, "##oradi": 11691, "##ayers": 11692, "autonomic": 11693, "How": 11694, "polyc": 11695, "electrochemical": 11696, "classic": 11697, "##esarean": 11698, "##ithelial": 11699, "##58": 11700, "Char": 11701, "NLR": 11702, "mu": 11703, "respiration": 11704, "Sixty": 11705, "##ART": 11706, "HeLa": 11707, "considerations": 11708, "perspectives": 11709, "pancreatitis": 11710, "##imal": 11711, "wider": 11712, "reproducible": 11713, "Whether": 11714, "intron": 11715, "dexamethasone": 11716, "Inv": 11717, "nanom": 11718, "trypt": 11719, "stimulates": 11720, "##1a": 11721, "mediator": 11722, "partition": 11723, "appropri": 11724, "repetitive": 11725, "pigment": 11726, "brown": 11727, "rodents": 11728, "HH": 11729, "zones": 11730, "repression": 11731, "FDA": 11732, "programmes": 11733, "adolescence": 11734, "coordinated": 11735, "anesthetic": 11736, "Iran": 11737, "sized": 11738, "##plastic": 11739, "enanti": 11740, "matric": 11741, "sole": 11742, "instruc": 11743, "MN": 11744, "autoantib": 11745, "alkyl": 11746, "ded": 11747, "admissions": 11748, "clonal": 11749, "Experiment": 11750, "pin": 11751, "probable": 11752, "##rep": 11753, "arteri": 11754, "releasing": 11755, "KD": 11756, "thrombin": 11757, "##king": 11758, "##ethylene": 11759, "solely": 11760, "##engue": 11761, "##entin": 11762, "103": 11763, "originally": 11764, "atherosclerotic": 11765, "##uvate": 11766, "sap": 11767, "eleg": 11768, "bioactive": 11769, "melatonin": 11770, "##41": 11771, "reflux": 11772, "inoculation": 11773, "Therap": 11774, "slices": 11775, "themes": 11776, "silver": 11777, "masses": 11778, "##LV": 11779, "##omod": 11780, "incorporating": 11781, "bioavailability": 11782, "phon": 11783, "Febr": 11784, "##organic": 11785, "PTH": 11786, "##ensitive": 11787, "Latin": 11788, "##onge": 11789, "catalyst": 11790, "Understanding": 11791, "hol": 11792, "entirely": 11793, "peroxidase": 11794, "sensitization": 11795, "heating": 11796, "Ps": 11797, "##orubicin": 11798, "Po": 11799, "February": 11800, "deal": 11801, "executive": 11802, "refr": 11803, "##yrin": 11804, "branches": 11805, "DG": 11806, "interfere": 11807, "swim": 11808, "employment": 11809, "chaper": 11810, "APC": 11811, "##sychotic": 11812, "permit": 11813, "##73": 11814, "##apine": 11815, "septic": 11816, "intermittent": 11817, "lupus": 11818, "supportive": 11819, "accommod": 11820, "propensity": 11821, "sulph": 11822, "EN": 11823, "##ulsive": 11824, "FSH": 11825, "plates": 11826, "gray": 11827, "specified": 11828, "Serv": 11829, "migraine": 11830, "differently": 11831, "ICD": 11832, "##oxygenase": 11833, "Net": 11834, "##cy": 11835, "##regn": 11836, "##patients": 11837, "strengths": 11838, "breath": 11839, "neurologic": 11840, "pleural": 11841, "Indian": 11842, "ganglion": 11843, "Tyr": 11844, "ejection": 11845, "haplotype": 11846, "##ague": 11847, "MAL": 11848, "aspiration": 11849, "##ux": 11850, "vom": 11851, "##ij": 11852, "noninvasive": 11853, "pocket": 11854, "P1": 11855, "##esophageal": 11856, "Intra": 11857, "##idic": 11858, "Section": 11859, "Ke": 11860, "##ACE": 11861, "terr": 11862, "cG": 11863, "learn": 11864, "##ontrol": 11865, "##da": 11866, "chemokine": 11867, "histamine": 11868, "RSV": 11869, "Impro": 11870, "##oler": 11871, "##mann": 11872, "inappro": 11873, "deformation": 11874, "##opulmonary": 11875, "##inescence": 11876, "Subsequently": 11877, "emo": 11878, "balloon": 11879, "assayed": 11880, "bring": 11881, "##ticed": 11882, "RNAi": 11883, "1980": 11884, "IOP": 11885, "vin": 11886, "##omet": 11887, "labelled": 11888, "oscillations": 11889, "Th2": 11890, "phantom": 11891, "##urnal": 11892, "resusc": 11893, "##opa": 11894, "flexion": 11895, "Differences": 11896, "microtubule": 11897, "ON": 11898, "exhibiting": 11899, "hs": 11900, "exhaus": 11901, "##odic": 11902, "insufficiency": 11903, "##mber": 11904, "km": 11905, "##anium": 11906, "desc": 11907, "##enn": 11908, "irrespective": 11909, "suggestive": 11910, "structurally": 11911, "Food": 11912, "\u00b5M": 11913, "##ostatin": 11914, "007": 11915, "learned": 11916, "tibial": 11917, "din": 11918, "Comparison": 11919, "CYP2": 11920, "Fis": 11921, "functionality": 11922, "analgesia": 11923, "outbreaks": 11924, "analgesic": 11925, "##emporal": 11926, "##omyc": 11927, "##oemb": 11928, "pulses": 11929, "DV": 11930, "6A": 11931, "TEM": 11932, "concentrated": 11933, "SCI": 11934, "fused": 11935, "##ronectin": 11936, "fistula": 11937, "phenolic": 11938, "##ishman": 11939, "heavi": 11940, "priority": 11941, "##enstr": 11942, "anatomic": 11943, "empt": 11944, "gyn": 11945, "tor": 11946, "elicit": 11947, "funding": 11948, "collaboration": 11949, "mandibular": 11950, "Nove": 11951, "peroxide": 11952, "##000": 11953, "facilitating": 11954, "West": 11955, "ineff": 11956, "intensities": 11957, "##RACT": 11958, "##plicate": 11959, "thous": 11960, "GV": 11961, "##romycin": 11962, "##ogeneic": 11963, "pollut": 11964, "hypothalamic": 11965, "Nin": 11966, "##rug": 11967, "##PP": 11968, "##airy": 11969, "discharged": 11970, "November": 11971, "personnel": 11972, "players": 11973, "5B": 11974, "modifying": 11975, "Findings": 11976, "Genetic": 11977, "GnRH": 11978, "##oea": 11979, "UT": 11980, "##izer": 11981, "102": 11982, "multis": 11983, "coherence": 11984, "genital": 11985, "##lam": 11986, "dysplasia": 11987, "follicles": 11988, "##ya": 11989, "genera": 11990, "##antitative": 11991, "Functional": 11992, "seq": 11993, "lev": 11994, "constitutive": 11995, "##omere": 11996, "assumptions": 11997, "iter": 11998, "008": 11999, "reinforce": 12000, "##alc": 12001, "##know": 12002, "NAF": 12003, "A5": 12004, "automatic": 12005, "elective": 12006, "bases": 12007, "radius": 12008, "ole": 12009, "stabilized": 12010, "intim": 12011, "PCI": 12012, "rain": 12013, "metrics": 12014, "##otrophic": 12015, "Dat": 12016, "envelope": 12017, "soils": 12018, "perinatal": 12019, "TSH": 12020, "energies": 12021, "109": 12022, "agreed": 12023, "disrupted": 12024, "degraded": 12025, "##bumin": 12026, "cue": 12027, "##uli": 12028, "developments": 12029, "ta": 12030, "coronavirus": 12031, "##mg": 12032, "rings": 12033, "triggers": 12034, "winter": 12035, "##IK": 12036, "acup": 12037, "backb": 12038, "transmit": 12039, "modules": 12040, "mAb": 12041, "##ectory": 12042, "Instead": 12043, "perceptual": 12044, "inherited": 12045, "sarcoma": 12046, "helps": 12047, "vulnerability": 12048, "##unting": 12049, "canine": 12050, "methanol": 12051, "abnormality": 12052, "brains": 12053, "volunt": 12054, "cranial": 12055, "outl": 12056, "##DH": 12057, "supr": 12058, "contribut": 12059, "##itamin": 12060, "dominated": 12061, "semantic": 12062, "myocardium": 12063, "neoplasms": 12064, "autosomal": 12065, "##ifferenti": 12066, "ribosomal": 12067, "DSM": 12068, "dynam": 12069, "multidisciplinary": 12070, "dw": 12071, "Approxim": 12072, "##isis": 12073, "dism": 12074, "compromised": 12075, "exclude": 12076, "confined": 12077, "Hel": 12078, "bridge": 12079, "ureter": 12080, "geographical": 12081, "##atinib": 12082, "##amines": 12083, "WOR": 12084, "##LE": 12085, "Once": 12086, "ubiquit": 12087, "QoL": 12088, "Quality": 12089, "Statistical": 12090, "peroxidation": 12091, "##uccess": 12092, "causative": 12093, "BH": 12094, "walls": 12095, "ont": 12096, "agricultural": 12097, "plaus": 12098, "closer": 12099, "##iazep": 12100, "##virus": 12101, "vesicle": 12102, "##gic": 12103, "psoriasis": 12104, "Sci": 12105, "menop": 12106, "inability": 12107, "vomiting": 12108, "influx": 12109, "##itosan": 12110, "summer": 12111, "matrices": 12112, "intermediates": 12113, "bin": 12114, "ovary": 12115, "willing": 12116, "Ba": 12117, "augmented": 12118, "extrap": 12119, "progressively": 12120, "##tized": 12121, "mating": 12122, "modelling": 12123, "ABST": 12124, "KR": 12125, "##onduc": 12126, "corn": 12127, "stake": 12128, "##anyl": 12129, "primer": 12130, "ganglia": 12131, "encode": 12132, "MCP": 12133, "accumulate": 12134, "##isely": 12135, "ment": 12136, "##hn": 12137, "projection": 12138, "##rosion": 12139, "##rogens": 12140, "ABSTRACT": 12141, "##oplasia": 12142, "drought": 12143, "Commun": 12144, "##ney": 12145, "saliva": 12146, "Molecular": 12147, "symmetry": 12148, "confirms": 12149, "trajectory": 12150, "##retro": 12151, "starch": 12152, "vestib": 12153, "PTEN": 12154, "##ipot": 12155, "##oxicity": 12156, "micron": 12157, "postmenopausal": 12158, "selen": 12159, "alcoholic": 12160, "remarkably": 12161, "transverse": 12162, "##ografts": 12163, "disl": 12164, "catechol": 12165, "orbital": 12166, "PBS": 12167, "adequately": 12168,
[...]
